{
  "version": "1.0",
  "truncation": null,
  "padding": null,
  "added_tokens": [
    {
      "id": 0,
      "content": "<unk>",
      "single_word": false,
      "lstrip": false,
      "rstrip": false,
      "normalized": false,
      "special": true
    }
  ],
  "normalizer": null,
  "pre_tokenizer": {
    "type": "ByteLevel",
    "add_prefix_space": false,
    "trim_offsets": true,
    "use_regex": true
  },
  "post_processor": {
    "type": "ByteLevel",
    "add_prefix_space": true,
    "trim_offsets": false,
    "use_regex": true
  },
  "decoder": {
    "type": "ByteLevel",
    "add_prefix_space": true,
    "trim_offsets": true,
    "use_regex": true
  },
  "model": {
    "type": "BPE",
    "dropout": null,
    "unk_token": null,
    "continuing_subword_prefix": null,
    "end_of_word_suffix": null,
    "fuse_unk": false,
    "byte_fallback": false,
    "ignore_merges": false,
    "vocab": {
      "<unk>": 0,
      "!": 1,
      "\"": 2,
      "#": 3,
      "$": 4,
      "%": 5,
      "&": 6,
      "'": 7,
      "(": 8,
      ")": 9,
      "*": 10,
      "+": 11,
      ",": 12,
      "-": 13,
      ".": 14,
      "/": 15,
      "0": 16,
      "1": 17,
      "2": 18,
      "3": 19,
      "4": 20,
      "5": 21,
      "6": 22,
      "7": 23,
      "8": 24,
      "9": 25,
      ":": 26,
      ";": 27,
      "<": 28,
      "=": 29,
      ">": 30,
      "?": 31,
      "@": 32,
      "A": 33,
      "B": 34,
      "C": 35,
      "D": 36,
      "E": 37,
      "F": 38,
      "G": 39,
      "H": 40,
      "I": 41,
      "J": 42,
      "K": 43,
      "L": 44,
      "M": 45,
      "N": 46,
      "O": 47,
      "P": 48,
      "Q": 49,
      "R": 50,
      "S": 51,
      "T": 52,
      "U": 53,
      "V": 54,
      "W": 55,
      "X": 56,
      "Y": 57,
      "Z": 58,
      "[": 59,
      "\\": 60,
      "]": 61,
      "^": 62,
      "_": 63,
      "`": 64,
      "a": 65,
      "b": 66,
      "c": 67,
      "d": 68,
      "e": 69,
      "f": 70,
      "g": 71,
      "h": 72,
      "i": 73,
      "j": 74,
      "k": 75,
      "l": 76,
      "m": 77,
      "n": 78,
      "o": 79,
      "p": 80,
      "q": 81,
      "r": 82,
      "s": 83,
      "t": 84,
      "u": 85,
      "v": 86,
      "w": 87,
      "x": 88,
      "y": 89,
      "z": 90,
      "{": 91,
      "|": 92,
      "}": 93,
      "~": 94,
      "¡": 95,
      "¢": 96,
      "£": 97,
      "¤": 98,
      "¥": 99,
      "¦": 100,
      "§": 101,
      "¨": 102,
      "©": 103,
      "ª": 104,
      "«": 105,
      "¬": 106,
      "®": 107,
      "¯": 108,
      "°": 109,
      "±": 110,
      "²": 111,
      "³": 112,
      "´": 113,
      "µ": 114,
      "¶": 115,
      "·": 116,
      "¸": 117,
      "¹": 118,
      "º": 119,
      "»": 120,
      "¼": 121,
      "½": 122,
      "¾": 123,
      "¿": 124,
      "À": 125,
      "Á": 126,
      "Â": 127,
      "Ã": 128,
      "Ä": 129,
      "Å": 130,
      "Æ": 131,
      "Ç": 132,
      "È": 133,
      "É": 134,
      "Ê": 135,
      "Ë": 136,
      "Ì": 137,
      "Í": 138,
      "Î": 139,
      "Ï": 140,
      "Ð": 141,
      "Ñ": 142,
      "Ò": 143,
      "Ó": 144,
      "Ô": 145,
      "Õ": 146,
      "Ö": 147,
      "×": 148,
      "Ø": 149,
      "Ù": 150,
      "Ú": 151,
      "Û": 152,
      "Ü": 153,
      "Ý": 154,
      "Þ": 155,
      "ß": 156,
      "à": 157,
      "á": 158,
      "â": 159,
      "ã": 160,
      "ä": 161,
      "å": 162,
      "æ": 163,
      "ç": 164,
      "è": 165,
      "é": 166,
      "ê": 167,
      "ë": 168,
      "ì": 169,
      "í": 170,
      "î": 171,
      "ï": 172,
      "ð": 173,
      "ñ": 174,
      "ò": 175,
      "ó": 176,
      "ô": 177,
      "õ": 178,
      "ö": 179,
      "÷": 180,
      "ø": 181,
      "ù": 182,
      "ú": 183,
      "û": 184,
      "ü": 185,
      "ý": 186,
      "þ": 187,
      "ÿ": 188,
      "Ā": 189,
      "ā": 190,
      "Ă": 191,
      "ă": 192,
      "Ą": 193,
      "ą": 194,
      "Ć": 195,
      "ć": 196,
      "Ĉ": 197,
      "ĉ": 198,
      "Ċ": 199,
      "ċ": 200,
      "Č": 201,
      "č": 202,
      "Ď": 203,
      "ď": 204,
      "Đ": 205,
      "đ": 206,
      "Ē": 207,
      "ē": 208,
      "Ĕ": 209,
      "ĕ": 210,
      "Ė": 211,
      "ė": 212,
      "Ę": 213,
      "ę": 214,
      "Ě": 215,
      "ě": 216,
      "Ĝ": 217,
      "ĝ": 218,
      "Ğ": 219,
      "ğ": 220,
      "Ġ": 221,
      "ġ": 222,
      "Ģ": 223,
      "ģ": 224,
      "Ĥ": 225,
      "ĥ": 226,
      "Ħ": 227,
      "ħ": 228,
      "Ĩ": 229,
      "ĩ": 230,
      "Ī": 231,
      "ī": 232,
      "Ĭ": 233,
      "ĭ": 234,
      "Į": 235,
      "į": 236,
      "İ": 237,
      "ı": 238,
      "Ĳ": 239,
      "ĳ": 240,
      "Ĵ": 241,
      "ĵ": 242,
      "Ķ": 243,
      "ķ": 244,
      "ĸ": 245,
      "Ĺ": 246,
      "ĺ": 247,
      "Ļ": 248,
      "ļ": 249,
      "Ľ": 250,
      "ľ": 251,
      "Ŀ": 252,
      "ŀ": 253,
      "Ł": 254,
      "ł": 255,
      "Ń": 256,
      "ĠÐ": 257,
      "Ð¾": 258,
      "Ðµ": 259,
      "Ð°": 260,
      "ÑĤ": 261,
      "Ð¸": 262,
      "Ñģ": 263,
      "Ð½": 264,
      "Ð»": 265,
      "ÑĢ": 266,
      "Ð¾Ð": 267,
      "Ñĥ": 268,
      "Ð°Ð": 269,
      "Ñı": 270,
      "ÐµÐ": 271,
      "ÑĮ": 272,
      "Ñĭ": 273,
      "ĠÑģ": 274,
      "ĠÐ¿": 275,
      "ĠÐ²": 276,
      "ĠÐ½": 277,
      "Ðº": 278,
      "Ð²": 279,
      "Ñĩ": 280,
      "Ð´": 281,
      "ĠÐ¾": 282,
      "ĠÐ¸": 283,
      "ÑģÑĤ": 284,
      "Ð¼": 285,
      "ÑĤÐ¾": 286,
      "ĠĠ": 287,
      "ĠÐº": 288,
      "ÐµÐ½": 289,
      "Ð°Ð»": 290,
      "ÑĪ": 291,
      "Ñħ": 292,
      "Ð¾Ð²": 293,
      "³Ð¾": 294,
      "ÐµÑĢ": 295,
      "ĠÐ±": 296,
      "ĠÐ´": 297,
      "ĠÐ¼": 298,
      "ÐµÐ»": 299,
      "Ñİ": 300,
      "Ð¾Ð¼": 301,
      "ÑĤÑĮ": 302,
      "Ð¾Ð»": 303,
      "ĠÐ¿ÑĢ": 304,
      "Ð¿": 305,
      "ĠÑĩ": 306,
      "ĠÑĤ": 307,
      "Ġ-": 308,
      "Ð¸Ð»": 309,
      "Ð½Ð¾": 310,
      "Ð±": 311,
      "Ð°Ðº": 312,
      "ÐµÑĤ": 313,
      "Ð½Ð°": 314,
      "Ð·": 315,
      "ĠÐµ": 316,
      "Ð¾Ð¹": 317,
      "Ð¾Ð´": 318,
      "ĠÐ½Ðµ": 319,
      "ĠÑĥ": 320,
      "Ð¾ÑĢ": 321,
      "Ð½Ð¸": 322,
      "ĠÐ·": 323,
      "Ð¶": 324,
      "ÐµÐ¼": 325,
      "ÑĢÐ°": 326,
      "Ð°Ð·": 327,
      "ÑģÑı": 328,
      "Ð¹": 329,
      "Ð½Ñĭ": 330,
      "ĠÐ½Ð°": 331,
      "ÑģÑĮ": 332,
      "ĠÑ": 333,
      "Ð³": 334,
      "Ð°Ð¼": 335,
      "Ð»Ð¸": 336,
      "ĠÐ±Ñĭ": 337,
      "Ð°Ð²": 338,
      "Ġ--": 339,
      "ÐµÐ´": 340,
      "Ñī": 341,
      "ÑĨ": 342,
      "ĠÑĢ": 343,
      "ĠÐ¿Ð¾": 344,
      "ÑģÐº": 345,
      "Ð¸ÑĤ": 346,
      "Ð¾Ð³": 347,
      "Ð¾Ð±": 348,
      "ĠÑĩÑĤÐ¾": 349,
      "ĠÐ»": 350,
      "ĠÐ³": 351,
      "ÐµÐ¹": 352,
      "ĠÑį": 353,
      "Ð¾Ð³Ð¾": 354,
      "Ð´Ð°": 355,
      "ÐµÐ½Ð¸": 356,
      "Ð¸Ð½": 357,
      "Ð»Ð°": 358,
      "ĠÐ¾ÑĤ": 359,
      "ÑģÑĤÐ²": 360,
      "Ð°Ð´": 361,
      "Ð¾Ð½": 362,
      "Ð°ÑĢ": 363,
      "Ð¸Ð²": 364,
      "Ð¸Ð¼": 365,
      "Ð°Ð»Ð°": 366,
      "Ð¾ÑĤ": 367,
      "ĠÐ¶": 368,
      "ĠĠĠĠ": 369,
      "Ð°ÑĤÑĮ": 370,
      "Ð³Ð¾": 371,
      "Ð°Ð½": 372,
      "ĠÑģÐ²": 373,
      "Ð¾Ð¶": 374,
      "ĠÐºÐ°Ðº": 375,
      "Ð¾Ðº": 376,
      "ĠÐ¾Ð½": 377,
      "Ð»Ð¾": 378,
      "ÑĢÑĥ": 379,
      "ĠÑı": 380,
      "ĠÐ²Ñĭ": 381,
      "ĠÐ²Ñģ": 382,
      "Ð°Ñı": 383,
      "ÐµÐ²": 384,
      "ĠÐĿ": 385,
      "Ð½Ñĥ": 386,
      "ĠÐ¿ÑĢÐ¸": 387,
      "Ð°ÑĤ": 388,
      "ÑĤÐ¾ÑĢ": 389,
      "ĠÐļ": 390,
      "Ð¾ÑģÑĤ": 391,
      "ĠÐ¾Ð±": 392,
      "ÐµÐ±": 393,
      "Ð»Ñı": 394,
      "ĠÐŀ": 395,
      "ĠÐµÐ³Ð¾": 396,
      "Ð¾Ñģ": 397,
      "ĠÑģÑĤ": 398,
      "ĠÑĤÐ¾": 399,
      "ÐµÑģÑĤ": 400,
      "ÐµÐ³Ð¾": 401,
      "ÐµÐ·": 402,
      "ĠÐĴ": 403,
      "Ð¾Ð·": 404,
      "Ð¸ÑĤÑĮ": 405,
      "ĠÐŁ": 406,
      "ÐµÐ»ÑĮ": 407,
      "ĠÐºÐ¾": 408,
      "ÐµÐº": 409,
      "Ð½Ðµ": 410,
      "Ð¸Ñħ": 411,
      "Ð¾Ð»ÑĮ": 412,
      "ĠÐĶ": 413,
      "ĠÑģÐº": 414,
      "Ð°Ð¶": 415,
      "ĠÑĤÐ°Ðº": 416,
      "Ð¸Ð»Ð°": 417,
      "ÑĥÐ´": 418,
      "ÐºÐ¾": 419,
      "ĠÑħ": 420,
      "Ð¸Ð´": 421,
      "ĠÐ°": 422,
      "ĠÑģÐ»": 423,
      "ĠÑįÑĤ": 424,
      "Ð¸Ðº": 425,
      "ĠÐ¿Ð¾Ð´": 426,
      "ĠÐ¸Ð·": 427,
      "ĠÑģÐ²Ð¾": 428,
      "Ð°Ñģ": 429,
      "ĠÐ³Ð¾": 430,
      "ĠÐ¾Ð½Ð°": 431,
      "Ð¸Ñģ": 432,
      "ÐµÑĩ": 433,
      "ĠÐĲ": 434,
      "ÐµÑģ": 435,
      "Ð°Ð»Ð¸": 436,
      "Ð½Ñı": 437,
      "ÐºÐ°": 438,
      "ĠÐ·Ð°": 439,
      "ÐºÐ¸": 440,
      "ĠÑįÑĤÐ¾": 441,
      "ÐµÐ¿": 442,
      "ĠÐµÐµ": 443,
      "Ð»ÑĮ": 444,
      "Ð¾Ñĩ": 445,
      "ĠÐ²ÑģÐµ": 446,
      "Ð½Ð¾Ð¹": 447,
      "ĠÐºÐ¾ÑĤÐ¾ÑĢ": 448,
      "ÑĥÑĤ": 449,
      "Ð¾Ð³Ð´Ð°": 450,
      "ĠÐ¡": 451,
      "ÑĢÐ°Ñģ": 452,
      "ĠÑĢÐ°Ð·": 453,
      "ÑĦ": 454,
      "ĠÐľ": 455,
      "ÑĪÐ¸": 456,
      "Ð°Ð¼Ð¸": 457,
      "Ð¼Ð¸": 458,
      "Ð°Ð¹": 459,
      "Ð¸Ð»Ð¸": 460,
      "Ð½ÑĭÐ¹": 461,
      "Ð¾Ð²Ð¾ÑĢ": 462,
      "ÐµÐ¶": 463,
      "ÐµÐ½ÑĮ": 464,
      "âĢ": 465,
      "ÑĭÐ²": 466,
      "Ð¿ÑĢ": 467,
      "ÐµÑĪ": 468,
      "Ð°Ð¿": 469,
      "ĠÐĳ": 470,
      "ÑīÐµ": 471,
      "ÑĥÐ¼": 472,
      "ÑĭÐ¹": 473,
      "Ð¾Ð¿": 474,
      "Ñį": 475,
      "ÑģÑĤÑĮ": 476,
      "ĠÐ¿ÐµÑĢ": 477,
      "ÑĥÑĩ": 478,
      "Ġt": 479,
      "Ð¸Ñĩ": 480,
      "ÑĥÐ¶": 481,
      "ÑĢÑĥÐ³": 482,
      "he": 483,
      "Ð¾Ð¼Ñĥ": 484,
      "ĠÐ¢": 485,
      "ÑıÑĤ": 486,
      "ĠÐ½Ð¾": 487,
      "Ð½Ð¾Ð³Ð¾": 488,
      "ÑģÐ»": 489,
      "ÐºÑĥ": 490,
      "ĠÐĺ": 491,
      "..": 492,
      "Ð¾Ðµ": 493,
      "Ð¾ÑĪ": 494,
      "ĠÑģÐºÐ°Ð·": 495,
      "ĠÐ»Ð¸": 496,
      "ĠÐ¶Ðµ": 497,
      "ĠÐ±ÑĭÐ»Ð¾": 498,
      "Ġa": 499,
      "ĠÐ¾Ð´": 500,
      "ÑĥÑİ": 501,
      "ÑĪÐµ": 502,
      "ĠÐ¿Ð¾Ð»": 503,
      "ĠÐ¯": 504,
      "ÐµÐ½Ð¸Ðµ": 505,
      "Ð¸Ð·": 506,
      "Ð°Ð½Ð¸": 507,
      "ÐµÐ½Ð½Ð¾": 508,
      "ÐµÐ½Ñı": 509,
      "Ð°Ð±": 510,
      "ÐµÐ³": 511,
      "Ð¸Ðµ": 512,
      "ÐµÐ½Ð¸Ñı": 513,
      "Ġ\"": 514,
      "Ð°Ð³": 515,
      "Ð¼Ñĥ": 516,
      "Ð°Ñİ": 517,
      "Ð½ÑĭÐµ": 518,
      "Ð½ÑĭÐ¼": 519,
      "Ð°Ð»Ð¾": 520,
      "ĠÐł": 521,
      "ÑĥÑĪ": 522,
      "Ð°ÐµÑĤ": 523,
      "ĠÐŃ": 524,
      "ÑħÐ¾Ð´": 525,
      "ĠÑĪ": 526,
      "ĠÐ»Ñİ": 527,
      "ÑĢÐ¸": 528,
      "ĠÑģÐ°Ð¼": 529,
      "Ð´Ðµ": 530,
      "ÑĭÐµ": 531,
      "âĢĵ": 532,
      "ĠÐ´Ð²": 533,
      "ĠĠĠĠĠ": 534,
      "ĠÐ¼ÐµÐ½Ñı": 535,
      "ĠÐ±ÑĭÐ»": 536,
      "ĠÑģÐµÐ±": 537,
      "Ð½Ð°Ñı": 538,
      "Ð¾Ð±Ñĭ": 539,
      "ĠÐ¼Ð½Ðµ": 540,
      "Ð°Ð»ÑĮ": 541,
      "Ð½ÑĭÑħ": 542,
      "ÑģÐ¿": 543,
      "ÑĤÐ¸": 544,
      "ĠÐ±ÑĥÐ´": 545,
      "in": 546,
      "Ð¸ÑĤÐµÐ»ÑĮ": 547,
      "ÑĢÐµÐ¼": 548,
      "ĠÐ³Ð»": 549,
      "ÑģÑĤÐ¸": 550,
      "ĠÐ²Ð¸Ð´": 551,
      "ĠÐ³Ð¾Ð²Ð¾ÑĢ": 552,
      "ĠÑĥÐ¶": 553,
      "Ð¸Ð¹": 554,
      "Ð»ÑĮÐºÐ¾": 555,
      "ÑĭÑħ": 556,
      "ÐµÐ»Ð°": 557,
      "ĠÑģÐ¿": 558,
      "ĠÐºÑĢ": 559,
      "ĠÐ¸Ð¼": 560,
      "ĠÐ¿ÑĢÐµÐ´": 561,
      "ĠÐºÐ¾Ð³Ð´Ð°": 562,
      "ĠÐĶÐ¶": 563,
      "ĠÐµÐ¼Ñĥ": 564,
      "ĠÑĢÐ°Ñģ": 565,
      "ĠÐ¿Ð¾Ðº": 566,
      "ÐµÐ»Ð¸": 567,
      "ĠÑĩÑĤ": 568,
      "ĠÐ´ÑĢÑĥÐ³": 569,
      "Ð¸ÑģÑĤ": 570,
      "ĠÑĦ": 571,
      "ĠÐ²Ð·": 572,
      "ĠÑģÐ¼": 573,
      "ÑĥÐ¿": 574,
      "Ð½Ð¾Ðµ": 575,
      "ĠÑģÑĤÐ¾": 576,
      "ĠÐ²Ð¾": 577,
      "ĠÐ½Ð¸": 578,
      "Ð¾Ñı": 579,
      "ĠÐĵ": 580,
      "ĠÐŀÐ½": 581,
      "ÑģÑĥ": 582,
      "ĠÑĤÐ¾Ð»ÑĮÐºÐ¾": 583,
      "ÑĢÐ¾": 584,
      "ĠÐ¼Ð¾Ð³": 585,
      "ÐµÑħ": 586,
      "ÑģÑĤÐ°Ð²": 587,
      "ĠÑĢÑĥ": 588,
      "ÐµÐ¼Ñĥ": 589,
      "Ð½Ð¸Ð¼": 590,
      "ÑĥÐ²": 591,
      "ĠÐ±ÑĭÐ»Ð°": 592,
      "ÐµÑĢÑĮ": 593,
      "ĠÐ½Ð°Ð´": 594,
      "ÑĤÐµ": 595,
      "Ð°Ñħ": 596,
      "ÑĭÐ¼": 597,
      "ĠÐ»ÑİÐ±": 598,
      "Ð°ÑĪ": 599,
      "Ð°Ð»ÑģÑı": 600,
      "ĠÐ´Ð»Ñı": 601,
      "ÑģÐ»Ð¸": 602,
      "ĠÑĩÑĤÐ¾Ð±Ñĭ": 603,
      "Ð¸Ð»ÑģÑı": 604,
      "ĠÐ¿ÑĢÐ¾": 605,
      "ÑĢÐ°Ð½": 606,
      "ĠÑĤÑĭ": 607,
      "ĠÐµÑīÐµ": 608,
      "ÑĥÑĢ": 609,
      "ĠÐ±Ð¾Ð»ÑĮ": 610,
      "Ġs": 611,
      "Ð¸ÑģÑģ": 612,
      "ĠÐ¾ÑĤÐ²": 613,
      "ÑĢÐ°Ð·": 614,
      "Ġw": 615,
      "ĠÐ²Ð¾Ð·": 616,
      "ÑĨÐ°": 617,
      "ÐµÐ»Ð¾Ð²": 618,
      "ĠÐ·Ð½Ð°": 619,
      "ĠÐĿÐ¾": 620,
      "ĠÑĨ": 621,
      "ĠÐ¼Ñĭ": 622,
      "Ð½Ð¸Ðº": 623,
      "ĠÑģÐ¾": 624,
      "ĠÐĲÐ½": 625,
      "Ð½Ð¾Ð²": 626,
      "ÐµÐµ": 627,
      "Ð¸Ð¼Ð¸": 628,
      "Ð¾Ð»Ð¶": 629,
      "ĠÐ¾Ñĩ": 630,
      "ĠÐ¼Ð¾": 631,
      "ĠÐ¸Ñħ": 632,
      "ĠÑģÐºÐ°Ð·Ð°Ð»": 633,
      "ĠÐ²ÑĢÐµÐ¼": 634,
      "ÑĢÑı": 635,
      "Ð¸ÑĤÐµ": 636,
      "ÑģÑĤÐ²Ð¾": 637,
      "ÑĩÐ°": 638,
      "re": 639,
      "ĠÐµÐ¹": 640,
      "ÑĥÐ»Ð¸": 641,
      "ÑĢÐµ": 642,
      "ÐºÐ¾Ð¹": 643,
      "ĠÐļÐ¾Ð½": 644,
      "ÐµÑĢÑĤ": 645,
      "Ð»Ð¾Ð²": 646,
      "Ġthe": 647,
      "ĠÐ¼Ð¾Ð¶": 648,
      "Ġo": 649,
      "ÑĭÑĪ": 650,
      "Ð¸Ñı": 651,
      "ĠÐ¿Ð¾ÑģÐ»": 652,
      "ĠÑĥÐ²": 653,
      "...": 654,
      "Ð°Ð»Ð°ÑģÑĮ": 655,
      "ĠÐ²ÐµÑĢ": 656,
      "ĠÐ´Ð¾": 657,
      "ĠÑģÐ»Ð¾Ð²": 658,
      "Ð½ÑĥÑİ": 659,
      "ÐµÑģÐº": 660,
      "ĠÐ´ÐµÐ»": 661,
      "Ð½Ð¾Ð¼": 662,
      "Ð»Ð¸Ð²": 663,
      "Ð»Ñİ": 664,
      "ĠÐ¼Ð¾Ð»": 665,
      "ÑĥÐ±": 666,
      "ÑĢÐ°Ð²": 667,
      "Ð½ÑĥÐ»": 668,
      "ĠÑģÐ¾Ð±": 669,
      "ĠÐ¾Ð½Ð¸": 670,
      "ÑĢÐ°ÑĤ": 671,
      "ĠÐķ": 672,
      "ĠÐ¼Ð¸ÑģÑģ": 673,
      "Ð¸Ð½Ð°": 674,
      "ĠÐ±ÐµÐ·": 675,
      "ÐµÑĨ": 676,
      "Ð¸Ð»Ð¾": 677,
      "ÑĢÐ¾Ð´": 678,
      "Ð»ÐµÐ½": 679,
      "ÑĥÑħ": 680,
      "ĠÐ¾Ð¿": 681,
      "ĠÐ¿Ð¾ÑĤ": 682,
      "nd": 683,
      "Ð½Ð¾ÑģÑĤÑĮ": 684,
      "ĠÐ½Ð¸Ðº": 685,
      "ĠÐ¾Ñģ": 686,
      "ĠÐ¿Ð¾ÑĢ": 687,
      "ĠÐ±Ð»": 688,
      "ÑĮÑı": 689,
      "Ð¸Ð»Ð°ÑģÑĮ": 690,
      "ÐµÑĢÐ°": 691,
      "ĠÐŀÐ½Ð°": 692,
      "ĠÐ§": 693,
      "ĠÐ·Ð°Ð¼": 694,
      "Ð´ÐµÐ»": 695,
      "ÑĢÑĭ": 696,
      "ĠÑģÑĤÐ°ÑĢ": 697,
      "ÐºÐµ": 698,
      "Ð°ÑĤÑĮÑģÑı": 699,
      "ĠÑĥÐ¶Ðµ": 700,
      "ÑģÑĥÑį": 701,
      "ĠÑģÐµÐ±Ñı": 702,
      "ÑģÑĥÑįÐ»Ð¾": 703,
      "ÑĥÐ²ÑģÑĤÐ²": 704,
      "ÐµÑĤÐµ": 705,
      "ĠÐļÐ¾Ð½ÑģÑĥÑįÐ»Ð¾": 706,
      "ĠÐ¸Ð»Ð¸": 707,
      "ĠÑĩÐµÐ¼": 708,
      "ĠÐ¶ÐµÐ½": 709,
      "ÐµÑĢÐ´": 710,
      "ĠÐºÐ½Ñı": 711,
      "ĠÐ½ÐµÐ³Ð¾": 712,
      "ĠÑħÐ¾ÑĤ": 713,
      "ÑĥÐ·": 714,
      "ĠÐ£": 715,
      "ĠÐ¾Ðº": 716,
      "ed": 717,
      "ÑıÑĤÑĮ": 718,
      "ÑĢÐ°Ð¶": 719,
      "ÐµÑĢÐ¶": 720,
      "ĠÑĥÐ´": 721,
      "ÑĢÐ°ÑĦ": 722,
      "Ð¾Ð»ÑĮÐºÐ¾": 723,
      "ĠÐ¿Ð¾Ð²": 724,
      "ÑĨÐµ": 725,
      "Ð°Ð»Ð¾ÑģÑĮ": 726,
      "ĠÑĩÐµÐ»Ð¾Ð²": 727,
      "Ð´Ñĥ": 728,
      "ÑģÑĤÑĢ": 729,
      "ÐµÑĤÑģÑı": 730,
      "ĠÑģÐ¾Ð²": 731,
      "Ð³Ð»Ñı": 732,
      "ĠÐ²Ð°Ñģ": 733,
      "ÑĮÑİ": 734,
      "ĠÐ±ÑĭÐ»Ð¸": 735,
      "ou": 736,
      "ĠÐ±ÑĭÑĤÑĮ": 737,
      "er": 738,
      "Ð¸Ð¸": 739,
      "ha": 740,
      "ĠÐºÐ¾Ð¼": 741,
      "ĠÑĤÐµÐ±": 742,
      "ÑģÑĤÐ²ÐµÐ½": 743,
      "ĠÐĽ": 744,
      "Ð¸ÑĢ": 745,
      "ĠÐ³Ð»Ð°Ð·": 746,
      "Ð½Ð¾ÑģÑĤÐ¸": 747,
      "ÐµÐ¿ÐµÑĢÑĮ": 748,
      "ÑĥÑģÑĤ": 749,
      "ĠÐĲÐ½Ð´": 750,
      "ĠÐºÐ¾Ð½": 751,
      "ĠÐ´Ð¾Ð¼": 752,
      "Ġ(": 753,
      "ÑĢÐ¾Ð¼": 754,
      "ĠÐ¾ÑĩÐµÐ½ÑĮ": 755,
      "ÐºÐ¾Ð¼": 756,
      "ĠâĢĵ": 757,
      "ĠÐ²ÑĢÐµÐ¼Ñı": 758,
      "ĠÑģÐµÐ±Ðµ": 759,
      "ÑĬ": 760,
      "ĠÐ¿Ð¾Ñĩ": 761,
      "Ð°Ð»Ð¸ÑģÑĮ": 762,
      "Ð¸ÑĤÑĮÑģÑı": 763,
      "ĠÐ¿Ð¾Ð¼": 764,
      "ÑģÑĤÐ²Ð°": 765,
      "ÐµÑĪÑĮ": 766,
      "ÑģÐ¼": 767,
      "ĠÐ½Ð°Ð¿": 768,
      "ĠÑįÑĤÐ¾Ð³Ð¾": 769,
      "Ð»Ñĭ": 770,
      "ĠÑĩÐµÐ»Ð¾Ð²ÐµÐº": 771,
      "ĠÑĤÑĢ": 772,
      "ĠÐĹ": 773,
      "ĠÐ±Ð¾Ð»": 774,
      "ĠÐµÑģÐ»Ð¸": 775,
      "Ð½ÑĭÐ¼Ð¸": 776,
      "ÑĢÐ¾Ñģ": 777,
      "ĠÐŃÑĤÐ¾": 778,
      "ĠÑĤÐµÐ¼": 779,
      "Ġm": 780,
      "Ð¸ÑĨ": 781,
      "Ð½ÑĥÐ»Ð°": 782,
      "ĠÐ·Ð½": 783,
      "ĠÐ²Ð°Ð¼": 784,
      "ÑĥÐ´ÑĮ": 785,
      "ĠÑĥÐ¼": 786,
      "ĠÐ¿ÐµÑĢÐµÐ´": 787,
      "it": 788,
      "ĠÑĤÐ¾Ð³Ð¾": 789,
      "ÑĪÐ¸Ð¹": 790,
      "ĠÐ¾ÑģÑĤ": 791,
      "ĠÐ´Ð¾Ð±": 792,
      "ÑģÐµ": 793,
      "ĠÐ³ÑĢÐ°ÑĦ": 794,
      "Ð¾ÑĢÐ¾ÑĪ": 795,
      "ÐºÐ¾Ð²": 796,
      "ĠÐ½ÐµÐµ": 797,
      "ĠÐ´ÑĥÐ¼": 798,
      "ĠÐ¶Ð¸Ð·": 799,
      "ÐµÐ½ÑĤ": 800,
      "ÐµÑĤÑĮ": 801,
      "Ð°ÑĤÐµÐ»ÑĮ": 802,
      "ÐµÐ´Ð¸": 803,
      "ĠÐ½ÐµÐ¹": 804,
      "Ġb": 805,
      "Ð°Ð½Ð¸Ñı": 806,
      "ĠÑĩÑĥÐ²ÑģÑĤÐ²": 807,
      "Ð°Ð¶Ðµ": 808,
      "ĠÑģÐ²Ð¾ÐµÐ¹": 809,
      "ÑĢÐ°Ñı": 810,
      "Ð°Ð·ÑĭÐ²": 811,
      "is": 812,
      "Ð¸Ð¶": 813,
      "ĠÐ¼Ð¸ÑģÑĤ": 814,
      "ĠÐ½Ð¸Ñĩ": 815,
      "ĠÐ²ÐµÐ»": 816,
      "ĠÐļÐ°Ðº": 817,
      "en": 818,
      "Ġc": 819,
      "ÑĪÑĮ": 820,
      "ÑĢÐ¾Ð²": 821,
      "ÑĥÐ´Ð°": 822,
      "ĠÑĤÐµÐ¿ÐµÑĢÑĮ": 823,
      "ÑĤÐ°": 824,
      "ĠÐºÐ½ÑıÐ·": 825,
      "ĠÐºÐ¾ÑĤÐ¾": 826,
      "on": 827,
      "ĠÐ¿ÑĢÐ¸Ð²": 828,
      "ÐµÐ»Ð¾": 829,
      "ÑĩÐ¸ÑĤ": 830,
      "Ð¾ÑģÑĤÐ¸": 831,
      "ĠÑģÐ¿ÑĢ": 832,
      "ÑĤÐ¾Ð²": 833,
      "ĠÑĩÐµÑĢ": 834,
      "ÐµÑī": 835,
      "Ð¿Ð¾Ð»": 836,
      "Ð°ÑıÑģÑĮ": 837,
      "ÐµÑĢÐ¸": 838,
      "ĠÐ½ÐµÐ¼": 839,
      "ing": 840,
      "ĠÐ½ÐµÐ¿": 841,
      "ĠÐºÐ¾ÑĤÐ¾ÑĢÑĭÐ¹": 842,
      "Ġf": 843,
      "Ð¸Ð½Ñĥ": 844,
      "ĠÐºÐ¾ÑĢ": 845,
      "ĠÑģÑĤÑĢÐ°": 846,
      "ĠÐ¼Ð¾Ð¶ÐµÑĤ": 847,
      "Ð°Ð²ÑĪ": 848,
      "Ð°ÑİÑĤ": 849,
      "ĠÐºÐ¾Ð»": 850,
      "ÐµÐ½Ð¸ÐµÐ¼": 851,
      "ĠÐ¿Ð¾Ð·": 852,
      "ĠÐĶÐ°": 853,
      "ĠÐ·Ð°Ð±": 854,
      "ĠÑģÐ´ÐµÐ»": 855,
      "ĠÐ³Ð´Ðµ": 856,
      "ÑĥÐ³": 857,
      "ÑıÑī": 858,
      "Ð¸Ð»ÑĮ": 859,
      "ÑĤÑĮÑģÑı": 860,
      "ĠÐĿÐµ": 861,
      "ĠÐ´ÐµÐ²": 862,
      "ÐµÐ½Ð¸Ð¸": 863,
      "Ð°Ð½Ð¸Ðµ": 864,
      "Ð»Ðµ": 865,
      "ĠÐ±ÑĥÐ´ÐµÑĤ": 866,
      "Ð»Ð°Ð´": 867,
      "ĠÐ¿ÑĢÐ°Ð²": 868,
      "ĠÐ·Ð°Ðº": 869,
      "ÑģÑĤÑĥÐ¿": 870,
      "ĠÐ½Ð°Ñĩ": 871,
      "ÐµÐ½Ð°": 872,
      "ĠÐ´Ð¾Ð»Ð¶": 873,
      "ĠÐ³Ð¾Ð»Ð¾Ð²": 874,
      "ĠÑįÑĤÐ¾ÑĤ": 875,
      "Ð»ÑĭÐ±": 876,
      "ĠÐ¤": 877,
      "ĠÐºÑĢÐ°Ñģ": 878,
      "ĠÐ»Ð¸ÑĨ": 879,
      "ÑĪÐ¸ÑģÑĮ": 880,
      "ĠÐ¸ÑģÐ¿": 881,
      "ĠÐ±ÐµÑģ": 882,
      "ĠÐĴÑĭ": 883,
      "or": 884,
      "Ð¸Ð½ÑĥÑĤ": 885,
      "ÑĢÑĥÐ¶": 886,
      "Ð½ÐµÐ¹": 887,
      "ĠÑĤÐ¾Ð¼": 888,
      "ĠÑģÐºÐ°Ð·Ð°Ð»Ð°": 889,
      "Ð°Ð¶Ð´": 890,
      "Ð¸Ð»Ð¸ÑģÑĮ": 891,
      "ÑıÐ·": 892,
      "ĠÐ½Ð°ÑĪ": 893,
      "ĠÐ½ÐµÐ²": 894,
      "ĠÐ´Ð°Ð¶Ðµ": 895,
      "ĠÐ¾ÑĤÐº": 896,
      "ĠÐ¾ÑĤÐ²ÐµÑĤ": 897,
      "âĢĶ": 898,
      "ĠÐ¿ÑĢÐ¸Ð½": 899,
      "ĠÑħÐ¾ÑĢÐ¾ÑĪ": 900,
      "Ġand": 901,
      "Ġd": 902,
      "ĠÑĥÐ»ÑĭÐ±": 903,
      "Ð¿ÐµÑĢ": 904,
      "ĠÐ½Ð¸Ð¼": 905,
      "ĠÐºÐ¾ÑĤÐ¾ÑĢÑĭÐµ": 906,
      "Ð¸ÑĤÐµÐ»ÑĮÐ½Ð¾": 907,
      "ĠÐ½ÐµÑĤ": 908,
      "ĠÐ¿ÑĢÐ¾Ð´": 909,
      "Ð¾ÑĤÑĢ": 910,
      "ĠÑįÑĤÐ¾Ð¼": 911,
      "Ð¾Ð¶Ðµ": 912,
      "Ġto": 913,
      "ĠÐ²Ð°ÑĪ": 914,
      "as": 915,
      "ÑģÐºÐ¸Ð¹": 916,
      "Ð½Ð¸ÑĨ": 917,
      "Ð¾ÑģÑĤÑĮ": 918,
      "ĠÑĢÐµÑĪ": 919,
      "Ð¾Ñħ": 920,
      "ĠÐ´ÐµÐ½ÑĮ": 921,
      "ĠÑĥÑĤ": 922,
      "ÑĮÐµÑĢ": 923,
      "ĠÐ¼Ð¾Ð»Ð¾Ð´": 924,
      "ĠI": 925,
      "ĠÐ»ÑİÐ´": 926,
      "ĠÑĢÐ°Ð´": 927,
      "ÑĭÑĤ": 928,
      "ÑıÐ»": 929,
      "ĠÐ¼Ð°Ð»": 930,
      "Ð»Ð¾Ñģ": 931,
      "ĠÐ½ÐµÐ´": 932,
      "Ð¾ÑĢÐ´": 933,
      "ĠÑģÐµÑĢÐ´": 934,
      "Ð²Ð¾": 935,
      "Ð°Ð½Ð¾Ð²": 936,
      "ÑİÑĤ": 937,
      "ĠÐ±Ð¾Ð»ÐµÐµ": 938,
      "ĠÐ¼Ð¸Ð½ÑĥÑĤ": 939,
      "ĠÐ±Ð¾Ð»ÑĮÑĪÐµ": 940,
      "ĠÐ¼ÑĥÐ¶": 941,
      "Ð½ÐµÐµ": 942,
      "ÑĤÑĭ": 943,
      "ÑĥÑģ": 944,
      "ĠÐŃÐ¼": 945,
      "ĠÐ²Ð·Ð³Ð»Ñı": 946,
      "ĠÑĥÐ±": 947,
      "ĠÐ²Ð¾Ð»": 948,
      "ĠÐ½Ð¸ÑĩÐµÐ³Ð¾": 949,
      "ĠÐºÐ¾Ð¼Ð½Ð°": 950,
      "Ð¿Ð¾ÑĢ": 951,
      "ĠÐ²Ð¾Ñģ": 952,
      "ÐµÐ³Ð´Ð°": 953,
      "om": 954,
      "Ġin": 955,
      "Ð¼Ð°": 956,
      "ĠÐ·Ð°Ð¿": 957,
      "ĠÐ¼ÐµÑģÑĤ": 958,
      "ÑĪÐ¸Ðµ": 959,
      "Ð½Ð¸Ð±": 960,
      "ĠÑģÐ²Ð¾Ñİ": 961,
      "le": 962,
      "Ð½Ð¸Ð±ÑĥÐ´ÑĮ": 963,
      "ÑĩÐ°ÑģÑĤ": 964,
      "ĠÐ¶ÐµÐ»": 965,
      "an": 966,
      "ÑĢÐ°Ð½ÑĨ": 967,
      "ĠÐ§ÑĤÐ¾": 968,
      "ar": 969,
      "Ð½Ð¸Ðµ": 970,
      "ĠÐ±Ð¾Ð»ÑĮÑĪ": 971,
      "Âł": 972,
      "ĠÐ´Ð¾ÑĢ": 973,
      "ĠÐ¼Ð¸Ð»": 974,
      "ÑĢÐ°Ñī": 975,
      "Ð¸Ð³": 976,
      "ĠÐ³Ð¾Ð»Ð¾Ñģ": 977,
      "Ð°ÑİÑī": 978,
      "ĠÐ¿Ð¾Ð¿": 979,
      "ÑĩÐ°Ñģ": 980,
      "Ġhe": 981,
      "ÑıÐ²": 982,
      "ÑģÐºÐ¾Ð»ÑĮÐºÐ¾": 983,
      "ÑģÐºÐ¾Ð¹": 984,
      "ĠÐ·Ð°Ð²": 985,
      "Ð¸Ð»Ð¾ÑģÑĮ": 986,
      "at": 987,
      "ÑģÐºÐ¾Ð³Ð¾": 988,
      "\".": 989,
      "Ð¾Ð½Ð°": 990,
      "Ð¸ÑĤÑģÑı": 991,
      "ĠÐ¿Ð»Ð°": 992,
      "ĠÐĶÐ¶ÑĥÐ»Ð¸": 993,
      "ĠÐ²ÑģÐµÑħ": 994,
      "Ð²Ð¾ÑĢ": 995,
      "ÑĢÐµÐ½": 996,
      "ĠÐ³Ð¾ÑĢ": 997,
      "Ð¾Ð²Ð¾Ð»ÑĮ": 998,
      "ĠÑģÐ²Ð¾ÐµÐ³Ð¾": 999,
      "ĠÐ¶ÐµÐ½Ñī": 1000,
      "ĠÑįÑĤÐ¾Ð¹": 1001,
      "Ð½Ð°Ðº": 1002,
      "ÑıÐ´": 1003,
      "ĠÑģÐ¿ÑĢÐ¾Ñģ": 1004,
      "ÑĩÐµ": 1005,
      "Ð¶Ðµ": 1006,
      "ĠÐŁÑĮÐµÑĢ": 1007,
      "ĠÐ¿ÐµÑĢÐ²": 1008,
      "ĠÐ¿ÑĢÐ¾ÑģÑĤ": 1009,
      "ÑĩÐ½Ð¾": 1010,
      "ĠÐ´Ð¾ÑģÑĤ": 1011,
      "Ð°ÐµÑĤÑģÑı": 1012,
      "ÑĤÑĥ": 1013,
      "Ġof": 1014,
      "ĠÐ¿Ð»": 1015,
      "Ð°ÑģÑĤ": 1016,
      "Ð¿Ð¾Ð¼": 1017,
      "Ġh": 1018,
      "ÑĤÐµÑĢ": 1019,
      "ÐµÑģÑĤÐ¸": 1020,
      "ĠÐºÐ°ÑĢ": 1021,
      "ĠÐ¾Ð´Ð¸Ð½": 1022,
      "Ð²ÐµÑĢ": 1023,
      "ĠÐ²ÐµÑĩ": 1024,
      "Ð°Ð³Ð¾": 1025,
      "ĠÐ¥": 1026,
      "ĠÐºÐ°Ð·": 1027,
      "ĠÐ»ÑĥÑĩ": 1028,
      "ĠÐ²Ð´": 1029,
      "ÑĢÑĥÐ´": 1030,
      "ĠÐ¡ÑĤ": 1031,
      "ĠÐĿÑĥ": 1032,
      "ÐµÑĢÑĪ": 1033,
      "ll": 1034,
      "Ð¾ÐºÐ¾Ð¹": 1035,
      "ĠÐ²ÑģÐµÐ³Ð´Ð°": 1036,
      "ĠÐ¿Ð¾ÑģÐ»Ðµ": 1037,
      "ĠÐ¼Ð¸ÑģÑĤÐµÑĢ": 1038,
      "ĠÐ½Ð¸ÐºÐ¾Ð³Ð´Ð°": 1039,
      "ĠÐ²ÑģÑı": 1040,
      "ÐĶ": 1041,
      "Ð¾Ð²Ð°Ð»": 1042,
      "ĠÐ¿ÑĢÐ¾Ð´Ð¾Ð»Ð¶": 1043,
      "ÑĢÐ¾ÑĥÐ»Ð¸": 1044,
      "Ð»Ð°ÑģÑĮ": 1045,
      "ĠÐ¿ÑĢÐ¾ÑĤ": 1046,
      "ÑıÐ¼": 1047,
      "ÑĭÐ¼Ð¸": 1048,
      "ĠÐ¾ÑģÐ¾Ð±": 1049,
      "ĠÑĤÐµÐ±Ñı": 1050,
      "ÐµÐ¶Ð´Ñĥ": 1051,
      "ĠÐ½Ð°Ñģ": 1052,
      "ĠÐ½Ð°Ð¼": 1053,
      "Ð¾Ð»Ðµ": 1054,
      "ÐµÐ½Ð½ÑĭÐ¹": 1055,
      "es": 1056,
      "ĠÐ²ÑģÐµÐ¼": 1057,
      "ĠÐ½Ð¸Ñħ": 1058,
      "Ð²Ð°": 1059,
      "ĠÐ¼Ð¸ÑģÑģÐ¸Ñģ": 1060,
      "ĠÑĤÐ¾ÑĤ": 1061,
      "ĠÐ°ÑĢ": 1062,
      "ĠÑĢÐ°": 1063,
      "Ð½ÑĮ": 1064,
      "Ð¸Ð´Ð°": 1065,
      "Ð½Ð¾Ð¼Ñĥ": 1066,
      "ĠÐ½ÐµÑģ": 1067,
      "ÐµÐ´ÑĮ": 1068,
      "Ð¿ÑĢÐ°Ð²": 1069,
      "ĠÐ²Ð¾ÑĤ": 1070,
      "Ġl": 1071,
      "ĠÑģÐ¾ÑģÑĤ": 1072,
      "ÑģÑĤÑĢÐ¾": 1073,
      "ĠÐ¸ÑģÐº": 1074,
      "ĠÑģÐ»ÑĥÑĩ": 1075,
      "ÑĢÐµÐ¹": 1076,
      "ÑĥÐ½": 1077,
      "ĠÐ²ÑĭÑģ": 1078,
      "Ð±Ñĭ": 1079,
      "Ð³Ð¾Ð²Ð¾ÑĢ": 1080,
      "ĠÐ½Ð¾Ð²": 1081,
      "ĠÐ³Ð¾Ð²Ð¾ÑĢÐ¸Ð»": 1082,
      "ÑĢÐµÐ´": 1083,
      "ĠÑĩÐ°Ñģ": 1084,
      "Ð¼ÐµÑģÑĤ": 1085,
      "ĠÐµÑģÑĤÑĮ": 1086,
      "ĠÐ´Ð¾ÑĢÐ¾Ð³": 1087,
      "Ð¸Ð½Ðµ": 1088,
      "ĠÐ¸Ð·Ð²": 1089,
      "ĠÑįÑĤÐ¸": 1090,
      "Ġp": 1091,
      "ĠÐ¸Ð½": 1092,
      "ÑĤÑĢ": 1093,
      "ĠÑĥÐ²Ð¸Ð´": 1094,
      "Ð²Ñĭ": 1095,
      "Ð¸ÑĩÐµÑģÐº": 1096,
      "Ð½Ð¸ÐºÐ°": 1097,
      "ĠÐļÑĢÐ¾ÑĥÐ»Ð¸": 1098,
      "ÑĪÐµÐ»": 1099,
      "ĠÑĤÐµÐ±Ðµ": 1100,
      "ĠÐ¿Ð¾Ð¶": 1101,
      "ÐµÐ¹ÑģÑĤÐ²": 1102,
      "ĠÐĿÐ¸Ðº": 1103,
      "Ð´ÐµÑģÑĮ": 1104,
      "ĠÐ¼Ð¾Ð¹": 1105,
      "Ð¾Ð´Ð°": 1106,
      "ĠÐ´Ð¾Ð»": 1107,
      "Ð±Ð¾ÑĢ": 1108,
      "ĠÐ¿Ð¾Ñģ": 1109,
      "ÐµÐºÑĢÐ°Ñģ": 1110,
      "Ð¾Ð²Ð°ÑĤÑĮ": 1111,
      "ÑĢÐ°Ð´": 1112,
      "ĠÑĥÐ·": 1113,
      "ĠÐ¿Ð¾Ð³": 1114,
      "Ð¼Ð¾Ð¶": 1115,
      "ÑĢÑĭÐ²": 1116,
      "ÑĥÐ»": 1117,
      "ÑĥÑī": 1118,
      "ĠÐ½ÑĥÐ¶": 1119,
      "ĠÐ¿ÑĢÐ¾Ð¸Ð·": 1120,
      "Ð¸Ñī": 1121,
      "ÑĩÐ¸Ð²": 1122,
      "Ð»ÑĮÐ±": 1123,
      "ĠâĢĶ": 1124,
      "ĠÐ¿Ð¾ÑģÐ»ÐµÐ´": 1125,
      "Ð±Ð¾": 1126,
      "ÐºÐ°Ð¼Ð¸": 1127,
      "ÐºÐ¸Ð¹": 1128,
      "ĠÐ±Ð¾Ð³": 1129,
      "ĠÐ´Ð°": 1130,
      "Ð½Ð¾Ñģ": 1131,
      "Ð¾ÑĢÐ´Ð¶": 1132,
      "ĠÑĥÑģÐ¿": 1133,
      "ĠÐ¿Ð¾Ð±": 1134,
      "Ð½Ð¸Ñı": 1135,
      "ĠÑĤÐ°Ð¼": 1136,
      "Ð¸ÑģÑĮ": 1137,
      "Ġg": 1138,
      "ÑĤÐ°Ðº": 1139,
      "ÐµÐ½Ñĭ": 1140,
      "ÐµÐ½Ð¸Ñİ": 1141,
      "Ð°Ð¹ÑĤÐµ": 1142,
      "ĠÐ¿Ð¾ÑģÑĤ": 1143,
      "ĠÐ·Ð²": 1144,
      "Ð¸Ð½Ñĭ": 1145,
      "ĠÐºÑĤÐ¾": 1146,
      "ĠÑģÑĭ": 1147,
      "ĠÐ²ÐµÑģ": 1148,
      "ÐµÑģÑı": 1149,
      "ĠÑģÐ»ÐµÐ´": 1150,
      "ĠÐ½Ð°Ðº": 1151,
      "Ð¸Ð²ÑĪ": 1152,
      "ĠÐºÐ½ÑıÐ·ÑĮ": 1153,
      "Ð¸Ð¼Ð¾": 1154,
      "Ð½ÑĥÐ²": 1155,
      "ĠÐĲÐ»ÑĮÐ±": 1156,
      "ĠÐŁÑĢ": 1157,
      "ÐµÑģÑĮ": 1158,
      "ĠÐ±ÐµÐ´": 1159,
      "\",": 1160,
      "ĠÐ·Ð°ÑĤ": 1161,
      "ĠÑģÐ»ÑĭÑĪ": 1162,
      "Ð°Ð½Ð°": 1163,
      "ĠÑħÐ¾ÑĤÑı": 1164,
      "ĠÐ½ÐµÑģÐºÐ¾Ð»ÑĮÐºÐ¾": 1165,
      "ĠÑįÑĤÑĥ": 1166,
      "ĠÐĿÐ°": 1167,
      "ĠÐºÐ¾ÑĤÐ¾ÑĢÐ¾Ð¹": 1168,
      "ĠÐºÐ°Ð¿": 1169,
      "Ð¾Ñİ": 1170,
      "ĠÑģÐ¸Ð´": 1171,
      "ĠÐ½Ð°Ð·": 1172,
      "ĠÐ½Ð¾Ñĩ": 1173,
      "ĠÐ·Ð°Ð´": 1174,
      "ĠÑĢÑĥÐºÑĥ": 1175,
      "ÐµÑı": 1176,
      "ĠÑĥÐ³": 1177,
      "ĠÑģÐ¾Ð»": 1178,
      "ĠÐĲÐ»ÑĮÐ±ÐµÑĢÑĤ": 1179,
      "ĠÐ¾ÑģÑĤÐ°Ð²": 1180,
      "ĠÐ¢Ñĭ": 1181,
      "Ð½Ñİ": 1182,
      "ĠÑĤÐ°ÐºÐ¾Ð¹": 1183,
      "ĠÐ¶Ð¸Ð·Ð½Ð¸": 1184,
      "ĠÐ»Ð¸ÑĨÐ¾": 1185,
      "ÐµÑĤÑĭ": 1186,
      "Ð°Ð½Ð¾": 1187,
      "ĠÐ¼Ð°Ð»ÐµÐ½ÑĮ": 1188,
      "ĠÐµÐ´": 1189,
      "ĠÑģÐ²Ð¾Ð¸Ñħ": 1190,
      "ĠÐ¢Ð°Ðº": 1191,
      "Ð»ÐµÐº": 1192,
      "ĠÐĶÐ¶Ð¾ÑĢÐ´Ð¶": 1193,
      "ĠÐ³Ð»Ð°Ð·Ð°": 1194,
      "ĠÑģÑĤÐ¾ÑĢ": 1195,
      "ĠÑĢÐ°ÑģÑģÐº": 1196,
      "Ð°Ð½Ð´": 1197,
      "Ð²Ð¾Ð»": 1198,
      "ÑĢÑĥÑİ": 1199,
      "ĠÐ±ÑĥÐ´ÑĤÐ¾": 1200,
      "ĠÑģÐ¾Ð²ÐµÑĢÑĪ": 1201,
      "Ð³Ð¸": 1202,
      "ĠÐĶÐ¶ÑĥÐ»Ð¸Ñı": 1203,
      "ĠÑĥÐº": 1204,
      "ĠÑģÐ²Ð¾Ðµ": 1205,
      "ĠÐ½Ð°Ð´Ð¾": 1206,
      "ĠÐļÐ¾Ð³Ð´Ð°": 1207,
      "ÐµÑģÑĤÑĮ": 1208,
      "ĠÑĤÐµ": 1209,
      "ĠÐ²ÑģÑĤÑĢ": 1210,
      "ÑĩÐ¸Ðº": 1211,
      "Ġha": 1212,
      "ĠÐ½Ð°Ð²": 1213,
      "ĠÑģÐ²Ð¾Ð¸Ð¼": 1214,
      "ÐµÑĤÐ°": 1215,
      "ĠÐĸ": 1216,
      "ĠÐľÐ°ÑĢ": 1217,
      "ĠÑĥÑģ": 1218,
      "ĠÐ²ÐµÐ»Ð¸Ðº": 1219,
      "ĠÐ¿Ð¾ÑĤÐ¾Ð¼Ñĥ": 1220,
      "Ð¾ÑĢÐ°": 1221,
      "ĠÐ¿Ð¾Ð½Ñı": 1222,
      "ĠÐ¿ÑĢÐ¾Ð²": 1223,
      "ÐµÐºÐ¾": 1224,
      "ĠÑģÐ²Ð¾Ð¸": 1225,
      "ĠÐ±Ð»Ð°Ð³": 1226,
      "ĠÐºÐ¾ÑĤÐ¾ÑĢÐ°Ñı": 1227,
      "ÑĢÐ°Ð½ÑĨÑĥÐ·": 1228,
      "ĠÐ²Ð¾ÑģÐº": 1229,
      "ĠÐ·Ð°Ð¼ÐµÑĤ": 1230,
      "ĠĠĊ": 1231,
      "ĠÐŀÐ´": 1232,
      "Ð½Ð³": 1233,
      "Ð»Ð¾Ð½": 1234,
      "ÑĢÐ°ÑĪ": 1235,
      "ĠÑĥÐ¶Ð°Ñģ": 1236,
      "Ð»Ð°Ð²": 1237,
      "ĠÑģÐºÐ°Ð·Ð°ÑĤÑĮ": 1238,
      "ĠÐ¿ÑĢÐµÐ´ÑģÑĤÐ°Ð²": 1239,
      "Ð½ÑĥÐ»ÑģÑı": 1240,
      "ÑįÑĢ": 1241,
      "ĠÐĲÐ½Ð´ÑĢÐµÐ¹": 1242,
      "ĠÐ¼ÐµÐ¶Ð´Ñĥ": 1243,
      "Ð¿Ð¾Ð´": 1244,
      "ÑĥÑģÐº": 1245,
      "ĠÐ¿Ð°ÑĢ": 1246,
      "Ð²Ðµ": 1247,
      "ĠÐ·Ð´ÐµÑģÑĮ": 1248,
      "ĠÐ²Ð¼ÐµÑģÑĤ": 1249,
      "ĠÐĿÐµÑĤ": 1250,
      "ĠÐºÐ¾ÑĤÐ¾ÑĢÐ¾Ð³Ð¾": 1251,
      "ÑģÐµÐ¼": 1252,
      "ÑĥÑīÐµ": 1253,
      "ĠÐ»ÐµÑĤ": 1254,
      "Ð¾Ð²Ð°Ð»Ð°": 1255,
      "hat": 1256,
      "Ð¾Ð²Ð°": 1257,
      "ĠÑħÐ¾Ñĩ": 1258,
      "ÐŁ": 1259,
      "ÐµÐ»Ñı": 1260,
      "ĠÐºÐ°Ð¶Ð´": 1261,
      "Ð²Ð¸": 1262,
      "ĠÑĥÑĩ": 1263,
      "ĠÐ¿ÑĢÐ¾ÑĪ": 1264,
      "Ð»Ð¸Ðº": 1265,
      "ÐµÐ½Ð¸Ð¹": 1266,
      "ĠÐ¿ÑĢÐ¸Ðº": 1267,
      "ĠÐ¿Ð¾Ð»Ð¾Ð¶": 1268,
      "Ðļ": 1269,
      "ĠÐŃÐ¼Ð¸Ð»Ð¸": 1270,
      "Ð»Ð°Ñģ": 1271,
      "ÐµÐ½Ð½Ð¾Ð¹": 1272,
      "ĠÐĴÑģÐµ": 1273,
      "ĠÑģÐºÐ¾ÑĢ": 1274,
      "Ð¸Ñİ": 1275,
      "Ð½ÐµÐ²": 1276,
      "ĠÐ¾Ð¶": 1277,
      "ĠÐ·Ð½Ð°Ñİ": 1278,
      "ÑıÐ¶": 1279,
      "Ð²Ð°ÑĤ": 1280,
      "ĠÑĤÐ¾Ð»": 1281,
      "ÐĴ": 1282,
      "ĠÑģÐµÐ¼": 1283,
      "ĠÐ¿ÑĢÐµÐºÑĢÐ°Ñģ": 1284,
      "ĠÐ¶Ð¸Ð²": 1285,
      "ÐºÐ°Ñħ": 1286,
      "ow": 1287,
      "ĠÐ½Ð¾Ð³": 1288,
      "ĠÐ¿ÑĢÐ¾Ñģ": 1289,
      "ÑģÑĤÐ²ÐµÐ½Ð½Ð¾": 1290,
      "ĠÐ¾Ð³": 1291,
      "ÑĭÐº": 1292,
      "ĠÐ¼Ð¾Ð³Ð»Ð°": 1293,
      "ĠÑĢÐ¾Ð´": 1294,
      "ĠÐ¿Ð¾Ð½Ð¸Ð¼": 1295,
      "ĠÐ½Ð°ÑģÑĤ": 1296,
      "Ð¡": 1297,
      "ÑĥÐº": 1298,
      "ĠÐ¸Ð³": 1299,
      "ÑıÐ½": 1300,
      "Ð°Ð½ÑĤ": 1301,
      "Ð¾ÐºÐ¾": 1302,
      "ÑİÑī": 1303,
      "ĠÐ²ÑģÐµÐ³Ð¾": 1304,
      "ÐµÐ¹ÑĩÐ°Ñģ": 1305,
      "Ð½ÑĥÑĤÑĮ": 1306,
      "ĠÐ¿ÑĢÐ¸Ð·": 1307,
      "Ð½Ð¾ÑģÑĤÑĮÑİ": 1308,
      "Ð»Ð¸ÑĪ": 1309,
      "Ð»Ð¸ÑģÑĮ": 1310,
      "ĠÐĿÐ°ÑĤ": 1311,
      "ÑĥÐ¶Ð´": 1312,
      "ÑĦÐ¸ÑĨ": 1313,
      "Ð¾Ð²ÑĮ": 1314,
      "ĠÐ²ÐµÑĩÐµÑĢ": 1315,
      "Ġwas": 1316,
      "ĠÐ¿Ð¾Ð»ÑĥÑĩ": 1317,
      "ut": 1318,
      "ĠÐºÐ°ÐºÐ¾Ð¹": 1319,
      "Ð°ÐµÐ¼": 1320,
      "ĠÐ½ÐµÐ±": 1321,
      "Ð½Ð°ÐºÐ¾": 1322,
      "ĠÐºÐ¾ÑĤÐ¾ÑĢÐ¾Ðµ": 1323,
      "ĠÐ¸ÑģÑĤ": 1324,
      "ĠÐ¿ÑĢÐ¾Ð³": 1325,
      "Ð¸ÑĢÐ°": 1326,
      "ÑģÑĤÐ²Ðµ": 1327,
      "ĠÐ¨": 1328,
      "ly": 1329,
      "ĠÐ´Ð°Ð²": 1330,
      "ĠÐ³ÑĢ": 1331,
      "ĠÐ½Ð°ÑħÐ¾Ð´": 1332,
      "Ð°Ð´ÑĨ": 1333,
      "ĠÑģÐ²ÐµÑĤ": 1334,
      "ĠÑĥÑģÐ»": 1335,
      "Ð½Ð¸Ñĩ": 1336,
      "Ð»Ð¸Ñĩ": 1337,
      "ĠÐºÐ¾ÑĤÐ¾ÑĢÑĥÑİ": 1338,
      "Ġn": 1339,
      "ĠÐ±Ð°ÑĢ": 1340,
      "ĠÑĤÑĥÑĤ": 1341,
      "ĠÐĴÐ¾ÑĤ": 1342,
      "ĠÐłÐ¾Ð´": 1343,
      "ĠÐ¿ÑĢÐ¾ÑĤÐ¸Ð²": 1344,
      "ĠÐ¼Ð¾Ñı": 1345,
      "Ð·Ð°": 1346,
      "ĠÑĥÑģÑĤ": 1347,
      "Ð¾ÑĪÐ°Ð´": 1348,
      "ĠÐ·Ð°Ð³": 1349,
      "ĠÐ¾ÑĤÐ²ÐµÑĩ": 1350,
      "ĠÐ¾Ð±ÑĢÐ°Ð·": 1351,
      "ĠÐŀÑģ": 1352,
      "ĠÑģÐ»Ð¾Ð²Ð°": 1353,
      "ĠÑĤÐ¾Ð¼Ñĥ": 1354,
      "Ð¾ÑıÑĤ": 1355,
      "ĠÐ´ÐµÑĢ": 1356,
      "ĠÐ»ÐµÐ³": 1357,
      "ĠÑĩÐµÑĢÐµÐ·": 1358,
      "ĠÑħÐ¾ÑĢÐ¾ÑĪÐ¾": 1359,
      "ĠÑģÐ¸Ð»": 1360,
      "Ð¾Ð½ÐµÑĨ": 1361,
      "Ð»Ð¸ÑĪÐºÐ¾Ð¼": 1362,
      "ĠÐ¾Ð±ÑĬ": 1363,
      "Ð¼ÐµÐ½": 1364,
      "id": 1365,
      "Ðŀ": 1366,
      "ĠÐ¿ÑĢÐ¸Ð±": 1367,
      "ĠÐ²ÐµÑģÑĮ": 1368,
      "ÑıÑģ": 1369,
      "ÐĿ": 1370,
      "ĠÐ´ÑĢ": 1371,
      "ĠÐ´ÐµÐ»Ð¾": 1372,
      "ĠÐ±ÑĭÐ²": 1373,
      "Ð»ÐµÐ½Ð¸Ñı": 1374,
      "ĠÐ´ÐµÐ¹ÑģÑĤÐ²": 1375,
      "ĠÐºÐ°Ð¼": 1376,
      "Ð¾Ð¶Ð´": 1377,
      "ĠÐ²Ð¾Ð¿": 1378,
      "ĠÐ¿Ð¾Ð´ÑĥÐ¼": 1379,
      "ĠÐ¼Ð¾Ð¶Ð½Ð¾": 1380,
      "st": 1381,
      "ĠÐ²Ð¾Ð¹": 1382,
      "ĠÐ´Ñĥ": 1383,
      "Ð¾Ð»Ð¾Ð´": 1384,
      "ĠÐ¿ÑĢÐ¸Ð´": 1385,
      "ĠÑİ": 1386,
      "ĠÑģÐ»Ð¸ÑĪÐºÐ¾Ð¼": 1387,
      "ÑģÐºÐ¸Ñħ": 1388,
      "Ð»Ð¾Ð¶": 1389,
      "ic": 1390,
      "ÑĪÐµÐ¹": 1391,
      "ĠÐłÐ¾ÑģÑĤ": 1392,
      "ĠÐ²Ð·Ð³Ð»ÑıÐ´": 1393,
      "ÑĨÑĭ": 1394,
      "ĠÐ¾Ð¿ÑıÑĤÑĮ": 1395,
      "ĠÐ»Ð¾ÑĪÐ°Ð´": 1396,
      "ĠÑģÐ²Ð¾Ð¹": 1397,
      "Ð»ÐµÐ½Ð¸Ðµ": 1398,
      "ĠÐ¾Ð±ÐµÐ´": 1399,
      "ĠÐ´ÑĥÑĪ": 1400,
      "Ð¸Ð½Ñı": 1401,
      "Ð¼Ð¾": 1402,
      "ĠÑĤÐµÑħ": 1403,
      "ĠÐ¿Ð¸ÑģÑĮ": 1404,
      "Ð´Ð°ÑĢ": 1405,
      "Ġe": 1406,
      "Ðĵ": 1407,
      "ĠÑģÑĩÐ¸ÑĤ": 1408,
      "ĠÐŁÐ¾ÑĢ": 1409,
      "ĠÐĶÐ¾Ð±": 1410,
      "ÑĩÐ°ÑģÑĤÑĮ": 1411,
      "ÑĭÑĩ": 1412,
      "Ð½Ð¸Ð¹": 1413,
      "ĠÐ¾Ð±ÑĢÐ°ÑĤ": 1414,
      "ĠÐ´Ð²Ð°": 1415,
      "ĠÐ´ÐµÐ²ÑĥÑĪ": 1416,
      "ĠÐ¼Ð¸Ð½ÑĥÑĤÑĥ": 1417,
      "ĠÐĿÐ¸ÐºÐ¾Ð»": 1418,
      "ÑĥÐµÑĤ": 1419,
      "ĠÑĤÐ¾Ð¶Ðµ": 1420,
      "ĠÑįÑĤÐ¸Ñħ": 1421,
      "ÑĥÑİÑī": 1422,
      "Ð¾Ð´Ñĥ": 1423,
      "ĠÐ¼Ð½": 1424,
      "ÐµÑģÑģ": 1425,
      "Ð½Ð°Ñĩ": 1426,
      "ĠÐ³Ð¾ÑģÑĤ": 1427,
      "ĠÐ»ÑĥÑĩÑĪÐµ": 1428,
      "ĠÐ·Ð°Ð½": 1429,
      "ĠĠĠĠĠĠĠĠ": 1430,
      "gh": 1431,
      "ĠÐ¼Ð½Ð¾Ð³Ð¾": 1432,
      "ĠÐ¿ÑĢÐµÐ¶": 1433,
      "ÑģÐºÐ¾ÑĢ": 1434,
      ".\"": 1435,
      "im": 1436,
      "Ð¸Ð²Ð°Ñı": 1437,
      "Ð¸ÑĪÑĮ": 1438,
      "Ð»ÐµÐ´": 1439,
      "ĠÑģÐ¿Ð¾ÐºÐ¾Ð¹": 1440,
      "ĠÐ³Ð¾Ð»Ð¾Ð²Ñĥ": 1441,
      "ÑĩÐ°ÑģÑĤÐ»Ð¸Ð²": 1442,
      "Ð²ÐµÑĤ": 1443,
      "ĠÑįÑĤÐ¸Ð¼": 1444,
      "Ð½Ð¾Ð²Ð°": 1445,
      "ĠÐķÑģÐ»Ð¸": 1446,
      "ĠÐ³Ð¾ÑģÐ¿": 1447,
      "Ð»ÑıÐ´": 1448,
      "ĠÑįÑĤÐ°": 1449,
      "ĠÐ´ÑĢÑĥÐ³Ð¾Ð¹": 1450,
      "ĠÐŀÑģÐ±Ð¾ÑĢ": 1451,
      "ĠÐ»Ð¸ÑĪÑĮ": 1452,
      "ĠÑģÐµÐ¹ÑĩÐ°Ñģ": 1453,
      "ĠÐ¿Ð¾ÐºÐ°": 1454,
      "ÐºÐ¾Ð½": 1455,
      "ÐµÐ½Ð½ÑĭÐµ": 1456,
      "ÑĭÐ»": 1457,
      "ÑģÑĤÐ²Ð¸Ðµ": 1458,
      "ĠÑģÑįÑĢ": 1459,
      "ĠÐ±ÑĢ": 1460,
      "ĠÐ´ÐµÑĤ": 1461,
      "ĠÐ·Ð°Ñģ": 1462,
      "ĠÐ¼Ð¾Ð³Ñĥ": 1463,
      "Ð½Ð¾ÑĪ": 1464,
      "Ð¾Ð´Ð°ÑĢ": 1465,
      "Ð½Ð¸Ð¸": 1466,
      "Ð°ÐµÑĤÐµ": 1467,
      "Ð¸ÑģÐº": 1468,
      "ÑıÑģÑĮ": 1469,
      "ÐºÐ°Ñı": 1470,
      "ĠÐ²Ð¾ÑģÐºÐ»Ð¸Ðº": 1471,
      "ĠÑģÐ¾Ð²ÑģÐµÐ¼": 1472,
      "ĠÐ²Ð¼ÐµÑģÑĤÐµ": 1473,
      "ĠÐ³Ð»Ð°Ð²": 1474,
      "ĠÑĦÑĢÐ°Ð½ÑĨÑĥÐ·": 1475,
      "ÐµÑĩÐ½Ð¾": 1476,
      "Ð¾Ñī": 1477,
      "ÐµÐ±ÐµÐº": 1478,
      "ĠÐ²Ð½Ð¸Ð¼": 1479,
      "ĠÐ´Ð¾Ñĩ": 1480,
      "ĠÑģÑĤÐ¾Ð»": 1481,
      "ĠÐ³ÑĢÑĥ": 1482,
      "ĠÐļÐ½Ñı": 1483,
      "ĠÐ¶Ð¸Ð·Ð½ÑĮ": 1484,
      "ÑģÑĤÐ²Ð¾Ð¼": 1485,
      "ĠÐ±Ð»Ð°Ð³Ð¾": 1486,
      "ĠÐ²Ð¿ÐµÑĢ": 1487,
      "ÐµÐ³Ð¾Ð´": 1488,
      "ĠÐ¿Ð¾Ñħ": 1489,
      "Ð¸Ð²Ð°Ð»": 1490,
      "ÑĥÐ¹": 1491,
      "ĠÑĤÐ°": 1492,
      "ĠÐ²Ð´ÑĢÑĥÐ³": 1493,
      "ĠÐ±ÑĢÐ°ÑĤ": 1494,
      "ĠÐ±Ð»Ð¸": 1495,
      "ĠÐ³Ð»ÑĥÐ±": 1496,
      "ĠÐ´Ð¾Ð±ÑĢ": 1497,
      "Ð¸Ð½Ð¾Ð¹": 1498,
      "ÐµÐ½Ð¾": 1499,
      "ĠÐ´Ð¾Ðº": 1500,
      "ĠÐºÐ¾ÑĤÐ¾ÑĢÑĭÑħ": 1501,
      "ÑĢÐ°Ñĩ": 1502,
      "ĠÐŀÑĤ": 1503,
      "Ð´Ð¾ÑĢ": 1504,
      "Ð½ÐµÑģ": 1505,
      "ĠÑĥÐ²ÐµÑĢ": 1506,
      "ĠÐ¿Ð¾Ð´Ð½Ñı": 1507,
      "ĠÑģÑĤÑĢ": 1508,
      "ĠÑĢÐ°Ð·Ð³Ð¾Ð²Ð¾ÑĢ": 1509,
      "Ð¾ÑĪÐµÐ»": 1510,
      "ĠÐ¼Ð°ÑĤ": 1511,
      "ĠÐ¿ÑĢÐ¸ÑıÑĤ": 1512,
      "Ð¾ÑģÑĤÑĮÑİ": 1513,
      "ĠÑģÐ¿ÑĢÐ¾ÑģÐ¸Ð»": 1514,
      "ĠÐ¸Ð·Ð²ÐµÑģÑĤ": 1515,
      "ĠÑģÐ¾ÑģÑĤÐ¾Ñı": 1516,
      "Ð¾Ð²Ð°ÑĢ": 1517,
      "ĠÑģÐ¼Ð¾ÑĤÑĢ": 1518,
      "--": 1519,
      "ĠÐ¿ÑĢÐ¸Ñģ": 1520,
      "Ð»ÑİÑĩ": 1521,
      "ĠÑģÐµÑĢÐ´ÑĨÐµ": 1522,
      "ĠÐºÐ°Ð·Ð°Ð»Ð¾ÑģÑĮ": 1523,
      "Ð¸Ð²Ð°ÑĤÑĮ": 1524,
      "ĠÑģÑĤÐ°Ð»": 1525,
      "ĠÐľÐ½Ðµ": 1526,
      "ĠÑģÐ¾Ð·": 1527,
      "ĠÐ²ÑĭÑĢÐ°Ð¶": 1528,
      "ĠÐ´Ð²Ð¾ÑĢ": 1529,
      "ĠÑĤÐ°ÐºÐ¸Ð¼": 1530,
      "ÑĥÑĤÑĮ": 1531,
      "ÑĪÐµÐ³Ð¾": 1532,
      "ÐµÐ·Ð¶": 1533,
      "ĠÐ¾ÑĤÐ´": 1534,
      "ĠÐŁÐ¾ÑĢÐ¿Ð¾ÑĢ": 1535,
      "ĠÐ¾ÑĦÐ¸ÑĨ": 1536,
      "ĠÑĩÐµÐ»Ð¾Ð²ÐµÐºÐ°": 1537,
      "ĠÑģÐ½Ð¾Ð²Ð°": 1538,
      "ĠÐ½ÐµÐ¶": 1539,
      "ĠÑĥÐ´Ð¸Ð²": 1540,
      "ĠÐ·Ð½Ð°Ðº": 1541,
      "ĠÐ¿ÑĢÐ¸Ñĩ": 1542,
      "ÐºÐ¸Ñħ": 1543,
      "ve": 1544,
      "Ġy": 1545,
      "Ð³Ñĥ": 1546,
      "ĠÐ¿Ð¾ÐºÐ°Ð·": 1547,
      ".)": 1548,
      "Ð½ÑĥÐ»Ð°ÑģÑĮ": 1549,
      "Ġbe": 1550,
      "Ð¸ÑĦ": 1551,
      "Ð¾Ð»ÑĮÐ·": 1552,
      "Ð°ÑĪÐ°": 1553,
      "Ð´ÐµÑĢÐ¶": 1554,
      "ÐĲ": 1555,
      "ÑĢÐ¾Ð½": 1556,
      "Ð¸ÑĤÐ°Ð½": 1557,
      "ĠÐ¾ÑĤÑĩ": 1558,
      "Ð´Ð°ÑĤÑĮ": 1559,
      "ĠÑģÐ»Ð¾Ð²Ð½Ð¾": 1560,
      "Ð´ÐµÑĤ": 1561,
      "ÐµÐ½Ð½ÑĭÐ¼": 1562,
      "Ð¾Ð·Ñı": 1563,
      "ÐµÐ½Ð½Ð°Ñı": 1564,
      "ĠÐ±ÑĢÐ¾Ñģ": 1565,
      "ÑĭÐ³": 1566,
      "ĠÐ½ÐµÐ¼Ñĥ": 1567,
      "ent": 1568,
      "ÑĪÐ»Ð°": 1569,
      "ĠÑī": 1570,
      "ĠÐļÐ¾ÑĢ": 1571,
      "ĠÐ¼Ð½Ð¾Ð¹": 1572,
      "ĠÑģÑĤÑĢÐ°Ð½": 1573,
      "ĠÐĶÐ¾Ð»": 1574,
      "ĠÐ³Ð¾Ð²Ð¾ÑĢÐ¸ÑĤÑĮ": 1575,
      "ĠÑĢÑĥÐºÐ¸": 1576,
      "ÑħÐ¾ÑĤ": 1577,
      "ĠÑĤÐ¾Ð³Ð´Ð°": 1578,
      "Ð½Ð¸ÑĤÑĮ": 1579,
      "ĠÐ¾Ð±ÑīÐµ": 1580,
      "Ð½ÐµÐ¼": 1581,
      "Ð²Ð°ÑĢ": 1582,
      "ÐµÑĢÐº": 1583,
      "ĠÐ´Ð¾Ð¼Ð°": 1584,
      "ĠÑģÑĤÑĢÐ°ÑĪ": 1585,
      "ĠÐ¶Ð°Ð»": 1586,
      "ĠÑģÐ¾Ð±Ð¾Ð¹": 1587,
      "ĠÐ´Ð°Ð¼": 1588,
      "ĠÐ²Ð¾Ð·Ð²": 1589,
      "),": 1590,
      "ĠÐŁÐ¾": 1591,
      "ĠÐ¼ÑĥÐ·": 1592,
      "ĠÑĤÐ¾ÑĢ": 1593,
      "ĠÑģÐ»ÑĥÑĪ": 1594,
      "âĢ¦": 1595,
      "Ð»ÐµÑĤ": 1596,
      "ÑıÐ»Ð°": 1597,
      "ĠÐºÐ°Ð¶": 1598,
      "Ð±Ð°": 1599,
      "Ġon": 1600,
      "ĠÐ¿Ð¾ÑĤÐ¾Ð¼": 1601,
      "ÑĮÐµ": 1602,
      "ĠÑĤÐ²": 1603,
      "ĠÑĨÐµÐ»": 1604,
      "ĠÐĶÐ¾Ð±Ð±": 1605,
      "ÐµÑħÐ°Ð»": 1606,
      "ĠÐłÐµÐ±ÐµÐº": 1607,
      "Ð¾ÑģÐ¾Ð±": 1608,
      "Ð»ÑģÑı": 1609,
      "ÐµÐ½Ð½ÑĭÑħ": 1610,
      "ĠÐ²ÐµÐ´ÑĮ": 1611,
      "ĠÐ´ÐµÑĢÐ¶": 1612,
      "Ð»ÑİÐ±": 1613,
      "ĠÐĲÐ½Ð´ÑĢÐµ": 1614,
      "Ðľ": 1615,
      "ĠÐ´Ð°Ð»": 1616,
      "Ġu": 1617,
      "Ð»Ð°Ð³": 1618,
      "ÑĪÐ¸Ñħ": 1619,
      "ĠÐ¿Ð¾Ð´Ð¾Ð±": 1620,
      "ÑĤÐµÑĢÐµÑģ": 1621,
      "ĠÑģÐ»ÑĥÐ¶": 1622,
      "se": 1623,
      "ĠÐ´ÑĥÑħ": 1624,
      "ĠÑĥÐ¿": 1625,
      "ĠÐ¿Ð¾ÑģÐ¼": 1626,
      "ĠÐĶÐ¶Ð¾Ð·": 1627,
      "ĠÐ¾ÑģÐ¾Ð±ÐµÐ½Ð½Ð¾": 1628,
      "ver": 1629,
      "ÑĨÑĥ": 1630,
      "ĠT": 1631,
      "ÑıÐ³": 1632,
      "Ð¾Ð±ÑĢÐ°Ð¶": 1633,
      "ĠÑıÐ²": 1634,
      "ĠÐ½Ð¸ÐºÐ°Ðº": 1635,
      "ÐºÐ¾Ð³Ð¾": 1636,
      "ĠÑĩÐ¸ÑĤ": 1637,
      "ĠÑģÑĤÐ¾Ð»ÑĮ": 1638,
      "Ð°Ñĩ": 1639,
      "ĠÐ¿ÑĢÐ¾Ð±": 1640,
      "ĠÐ³Ð¾ÑĤÐ¾Ð²": 1641,
      "ÑģÐºÐ¸Ðµ": 1642,
      "ĠÐ¾Ð±ÑĢÐ°Ñī": 1643,
      "ĠÐŀÐ½Ð¸": 1644,
      "ĠÐ³Ð¾ÑģÑĥ": 1645,
      "Ð¢": 1646,
      "ÑĩÑĤÐ¾": 1647,
      "ĠÐłÐ¾ÑģÑĤÐ¾Ð²": 1648,
      "ÐµÑİ": 1649,
      "ĠÑģÑĩÐ°ÑģÑĤÐ»Ð¸Ð²": 1650,
      "ĠÐ»ÑİÐ´ÐµÐ¹": 1651,
      "ĠÑģÑĥÑīÐµ": 1652,
      "ÑĢÐ°ÑĤÑĮ": 1653,
      "ĠÑĢÐ°ÑģÑģ": 1654,
      "ĠÐ²Ð¾Ð¿ÑĢÐ¾Ñģ": 1655,
      "ĠÐ·Ð°ÑģÑĤÐ°Ð²": 1656,
      "ÑĢÐµÑĤÑĮ": 1657,
      "ĠÐ±ÐµÐ»": 1658,
      "ĠÐ²ÑĭÐ·": 1659,
      "ÐºÐ¸Ð¼": 1660,
      "ĠÑģÐ¸Ð»ÑĮ": 1661,
      "Ð·Ð¾Ð»Ðµ": 1662,
      "ÑģÐ°": 1663,
      "ĠÐ¼Ð¾ÐµÐ¹": 1664,
      "ĠÐ¾ÑĤÐ²ÐµÑĤÐ¸Ð»": 1665,
      "ot": 1666,
      "Ð½ÑĥÑĤ": 1667,
      "ÐµÐ¶Ð´": 1668,
      "Ġthat": 1669,
      "Ð·Ð¾Ð»ÐµÑĤÐ¾": 1670,
      "ÐµÐ·Ð´": 1671,
      "ĠÐĲÐ½Ð´Ð·Ð¾Ð»ÐµÑĤÐ¾": 1672,
      "ÑĢÐ¾Ðº": 1673,
      "ĠÐ¿Ð»Ð¾": 1674,
      "ĠÑĤÑĥ": 1675,
      "ĠÑģÐ»ÐµÐ·": 1676,
      "ĠÐ´ÐµÑĢÐµÐ²": 1677,
      "ÑĢÐµÐ´Ð¸": 1678,
      "ÑįÑĤ": 1679,
      "ĠÐ½ÐµÐ·": 1680,
      "et": 1681,
      "ĠÐ²Ð°": 1682,
      "ĠÐ²ÑģÑİ": 1683,
      "ĠÐ¾ÑģÑĤÐ°Ð½Ð¾Ð²": 1684,
      "Ð¸ÐµÐ¼": 1685,
      "ÐµÐºÐºÐ¸": 1686,
      "ĠÐłÐ°Ð·": 1687,
      "Ð¾ÑģÐº": 1688,
      "Ð°Ð²ÑĪÐ¸Ð¹": 1689,
      "ĠÐ»ÐµÐ´Ð¸": 1690,
      "ĠÑģÐµÑģÑĤ": 1691,
      "ÑģÐºÐ¸": 1692,
      "ĠÐ¼ÑĭÑģ": 1693,
      "Ð»Ð°Ð½": 1694,
      "ĠÑĤÐ°ÐºÐ¾Ðµ": 1695,
      "Ð¸Ð±": 1696,
      "ÐµÐ½Ð½Ð¾Ðµ": 1697,
      "ĠÐ´Ð²ÐµÑĢÑĮ": 1698,
      "Ð²Ð°Ð»": 1699,
      "ÐµÐ½Ð½Ð¾Ð³Ð¾": 1700,
      "ac": 1701,
      "ay": 1702,
      "ÐµÑĢÐµ": 1703,
      "!\"": 1704,
      "ĠÐ´ÑĢÑĥ": 1705,
      "Ð¾Ð±ÑĢÐ°Ð·": 1706,
      "ĠÐľÐ°Ð¹": 1707,
      "ĠÐ¿Ð¾ÑĩÑĤÐ¸": 1708,
      "Ð¾Ð½Ñĭ": 1709,
      "ĠÑħÐ¾Ð·Ñı": 1710,
      "Ð¾Ð¼Ðµ": 1711,
      "ĠÑĢÐ°Ð·Ð´": 1712,
      "Ð¾Ð²Ð¾ÑĢÐ¸Ð»": 1713,
      "ĠÐ½ÑĥÐ¶Ð½Ð¾": 1714,
      "ÑİÐ±": 1715,
      "ĠÑĩÐµÐ³Ð¾": 1716,
      "ĠÑģÐ¾Ð²ÐµÑĢÑĪÐµÐ½Ð½Ð¾": 1717,
      "ÑıÐ·Ð°Ð½": 1718,
      "Ð°ÑĤÐ¾": 1719,
      "Ð¸Ð²ÑĪÐ¸ÑģÑĮ": 1720,
      "Ġth": 1721,
      "ĠÐ¼Ð¸ÑģÑĤÐµÑĢÐ°": 1722,
      "ĠÐ°Ðº": 1723,
      "ÑıÐ¼Ð¸": 1724,
      "ÑĪÐ°Ñı": 1725,
      "ĠÑĩÐ¸ÑģÑĤ": 1726,
      "ĠÑĤÐ²Ð¾": 1727,
      "ĠÐ³Ð¾ÑĢÐ¾Ð´": 1728,
      "Ð°Ð±Ð¾ÑĤ": 1729,
      "ĠÐ²Ð¸Ð´ÐµÐ»": 1730,
      "Ðĳ": 1731,
      "ĠÐ¿ÑĢÐ¸ÑħÐ¾Ð´": 1732,
      "?\"": 1733,
      "ĠÑģÐ²Ð¾ÐµÐ¼": 1734,
      "ĠÐ¾Ð´Ð½Ð¾Ð¹": 1735,
      "ĠÐ²ÐµÐ»Ð¸Ñĩ": 1736,
      "ÐµÐ´Ð»Ð¸": 1737,
      "ĠÐŁÐ¾Ñģ": 1738,
      "ĠÐ¾ÑĤÐºÑĢÑĭ": 1739,
      "ĠÐľÑĭ": 1740,
      "ĠÑģÐ°Ð¼Ð°": 1741,
      "Ð½Ð¾ÑģÑĤ": 1742,
      "ĠÐ°Ð½Ð³": 1743,
      "Ġyou": 1744,
      "Ð¸Ð½Ð¾Ð²": 1745,
      "ĠÐ²Ð·Ð´": 1746,
      "ght": 1747,
      "ÑħÐ²Ð°ÑĤ": 1748,
      "ĠÐ¼Ð¾Ðµ": 1749,
      "Ð¾ÑģÑĤÐ¾ÑĢ": 1750,
      "Ð»Ð¾ÑģÑĮ": 1751,
      "ĠÑĢÐ°ÑģÑģÐºÐ°Ð·": 1752,
      "ld": 1753,
      "ĠÑģÐ¾Ð³": 1754,
      "ĠÐ¿ÑĥÑĤ": 1755,
      "ÐµÐºÐ¾ÑĤÐ¾ÑĢ": 1756,
      "Ġit": 1757,
      "ÐµÑĢÐ³": 1758,
      "Ð½Ð¸ÑĨÐ°": 1759,
      "ĠÐĳÐµÐºÐºÐ¸": 1760,
      "ĠÐ³Ð¾Ð²Ð¾ÑĢÐ¸Ð»Ð°": 1761,
      "ĠÑĢÐµÐ±": 1762,
      "ĠÐ¾Ð´Ð½Ð¾": 1763,
      "ĠÐ½Ð°Ð±": 1764,
      "ĠÑĤÐµÑĢ": 1765,
      "Ġ1": 1766,
      "ÑĤÐ¾Ð½": 1767,
      "ĠÐºÑĢÐ°ÑģÐ¸Ð²": 1768,
      "ĠÐ³Ð¾ÑģÐ¿Ð¾Ð´": 1769,
      "ro": 1770,
      "ĠÑģÑĩÐ°ÑģÑĤÑĮ": 1771,
      "ĠÑĩÐ°ÑģÑĤ": 1772,
      "ĠÑĤÑĢÐ¸": 1773,
      "Ð½Ð¸ÑĨÑĭ": 1774,
      "ĠÐ²ÑĭÑħÐ¾Ð´": 1775,
      "ĠÐŁÐ¸ÑĤ": 1776,
      "ĠÐ¾Ð´Ð½Ð°": 1777,
      "Ð°Ð´ÑĨÐ°ÑĤÑĮ": 1778,
      "Ð²Ð°Ð½": 1779,
      "ĠÑĩÑĥÐ´": 1780,
      "ĠÐºÑĢÐ¸Ðº": 1781,
      "Ð¾ÑĤÑĢÑı": 1782,
      "'s": 1783,
      "ĠÐ²ÑĢÐµÐ¼ÐµÐ½Ð¸": 1784,
      "Ð½Ð¸Ð·": 1785,
      "ĠÐ²Ð¾Ð·Ð¼Ð¾Ð¶": 1786,
      "ĠÐ¸ÑģÐ¿Ð¾Ð»": 1787,
      "ĠÑĤÑĢÑĥÐ´": 1788,
      "ĠÐºÑĢÐ¾Ð¼Ðµ": 1789,
      "ĠÐ¼Ð°Ð»ÑĮ": 1790,
      "ĠÑģÐºÐ°Ð¶": 1791,
      "Ð°ÑĢÐ°": 1792,
      "ĠÐ²Ð¾Ð´": 1793,
      "ĠÑĤÑıÐ¶": 1794,
      "ÑģÐºÐ¾Ð¼": 1795,
      "ĠÑħÐ¾Ð»Ð¾Ð´": 1796,
      "ĠÑĪÐ°Ð³": 1797,
      "ĠÑĥÐ´Ð¾Ð²Ð¾Ð»ÑĮ": 1798,
      "ith": 1799,
      "ĠÐĿÐ°ÑĤÐ°ÑĪÐ°": 1800,
      "Ð¾ÑģÐ¸ÑĦ": 1801,
      "ĠÐĺÐ¾ÑģÐ¸ÑĦ": 1802,
      "al": 1803,
      "Ð°ÑĤÐµÐ»ÑĮÐ½Ð¾": 1804,
      "ĠÐºÐ°Ð¶ÐµÑĤÑģÑı": 1805,
      "Ð²Ð¸Ð´": 1806,
      "Ð·Ñı": 1807,
      "ĠÑĢÐ°Ð²": 1808,
      "Ð¾Ð½Ñĥ": 1809,
      "ĠÐ½Ð°ÐºÐ¾Ð½ÐµÑĨ": 1810,
      "ĠÐºÐ½ÑıÐ¶": 1811,
      "ĠÐ·Ð½Ð°Ð»": 1812,
      "ĠÐ´Ð¾Ð»Ð¶ÐµÐ½": 1813,
      "ĠÐĿÐ°Ð¿": 1814,
      "ÑİÐ´Ð°": 1815,
      "Ð¾Ð¼Ð½": 1816,
      "ĠÐ²ÑģÐ¿Ð¾Ð¼": 1817,
      "ĠÐºÐ¾ÑĢÐ¾Ð»": 1818,
      "Ð½ÐµÐ³Ð¾": 1819,
      "ĠÐ´ÑĥÑĢ": 1820,
      "ĠÑĩÐµÑĢÑĤ": 1821,
      "ÑģÑıÑĩ": 1822,
      "ÐºÐ¸Ðµ": 1823,
      "ri": 1824,
      "ĠÐ²Ð¿": 1825,
      "ĠÐ²ÑĭÐ¿": 1826,
      "ĠÐ²ÐµÑģÐµÐ»": 1827,
      "ĠÑĢÐ°Ð·Ð²": 1828,
      "ĠÐ¸Ñģ": 1829,
      "ĠÐºÐ°Ð½Ð¾": 1830,
      "ĠÐ¼ÑĥÐ¶Ñĩ": 1831,
      "ĠÑĢÐ°Ð½": 1832,
      "Ð°Ð²Ð»Ñı": 1833,
      "ÐµÑĩÑĮ": 1834,
      "Ð²Ð¾Ð·": 1835,
      "ĠÐ³ÐµÑĢ": 1836,
      "ĠÐ¿ÑĢÐ¾Ð´Ð¾Ð»Ð¶Ð°Ð»": 1837,
      "Ð·ÑĮ": 1838,
      "ĠÐ¿ÑĢÐ¸Ð³": 1839,
      "ĠÑģÑĥÐ¼": 1840,
      "am": 1841,
      "ĠÐºÑĥÐ´Ð°": 1842,
      "ÑģÐºÐ°Ñı": 1843,
      "ÑĭÐ²Ð°Ð»": 1844,
      "ĠÐ¿ÑĢÐµÐ²": 1845,
      "Ð½Ð¸Ñħ": 1846,
      "ĠÐ¿Ð¾ÑıÐ²": 1847,
      "ÑĢÐ¸Ð³": 1848,
      "ĠÐ¸Ð½ÑĤÐµÑĢÐµÑģ": 1849,
      "ir": 1850,
      "Ð¿ÑĢÐµÐ´": 1851,
      "ÑĢÐ¸ÑıÑĤ": 1852,
      "Â«": 1853,
      "ĠÑĢÐ°Ð·Ð±": 1854,
      "ĠÑģÐ´ÐµÐ»Ð°ÑĤÑĮ": 1855,
      "Ð¸ÑĪ": 1856,
      "ĠÑĩÐ°": 1857,
      "ĠÐĲÑħ": 1858,
      "Ð¿Ð¾Ð»Ð¾Ð¶": 1859,
      "ÐĶÐ¶": 1860,
      "Â»": 1861,
      "ĠÐ¸Ð·Ð±": 1862,
      "ĠÐ²Ð¸Ð´ÐµÑĤÑĮ": 1863,
      "Ðĺ": 1864,
      "Ð³Ð»ÑıÐ´": 1865,
      "ĠÑĥÐ·Ð½": 1866,
      "Ð¾ÑĤÑĮ": 1867,
      "ÑĨÐµÐ²": 1868,
      "ĠÐ²ÑĭÑģÐ¾Ðº": 1869,
      "ÑģÑĤÐ²Ð¾Ð²": 1870,
      "ĠÐ¾Ð¿Ð°Ñģ": 1871,
      "ÐµÐ»Ð¾ÑģÑĮ": 1872,
      "ĠÐ½Ð°Ð·Ð°Ð´": 1873,
      "ĠÐ²ÑģÑĤÑĢÐµÑĩ": 1874,
      "ĠÐ·Ð½Ð°ÐºÐ¾Ð¼": 1875,
      "ÑıÑħ": 1876,
      "ÑĪÐµÐµ": 1877,
      "ĠÐ±ÑĥÐ´Ñĥ": 1878,
      "ĠÑģÐ¾Ð»Ð´Ð°": 1879,
      "ĠÐ·ÐµÐ¼": 1880,
      "ÑģÑĤÐ²Ñĥ": 1881,
      "ÐµÑĩÐ°ÑĤ": 1882,
      "ĠÐ·Ð°ÑĤÐµÐ¼": 1883,
      "ĠÐ¿ÑĥÑģÑĤ": 1884,
      "ĠÐ¡Ðº": 1885,
      "ĠÐ¾ÐºÐ°Ð·": 1886,
      "ĠÐ¿Ð¾Ð²ÑĤÐ¾ÑĢ": 1887,
      "Ġhis": 1888,
      "ĠÐŀÑģÐ±Ð¾ÑĢÐ½": 1889,
      "Ð¾ÑĩÐµÑģÑĤ": 1890,
      "ĠÐłÐ¾ÑĩÐµÑģÑĤ": 1891,
      "ĠÐ¾ÑĦÐ¸ÑĨÐµÑĢ": 1892,
      "ĠÐ´Ð½Ñı": 1893,
      "ĠÐ·Ð°Ð»": 1894,
      "ĠÑģÑĥÐ´": 1895,
      "ĠÐ¿ÑĢÐ¸ÐºÐ°Ð·": 1896,
      "ÐĽ": 1897,
      "ĠÐ´Ð¾Ð²Ð¾Ð»ÑĮ": 1898,
      "ĠÐ¡ÐµÐ´Ð»Ð¸": 1899,
      "ĠÑĪÐº": 1900,
      "ĠÑģÐ¿Ð¾ÑģÐ¾Ð±": 1901,
      "ĠÐľÐ°Ð¹Ðº": 1902,
      "Ð°ÑģÐº": 1903,
      "ÐµÐ½ÐµÑĢ": 1904,
      "ÐµÐ»ÑĮÐ·Ñı": 1905,
      "ĠÐ»ÑİÐ´Ð¸": 1906,
      "ĠÑģÐµÑĢ": 1907,
      "ÐºÐ°Ðº": 1908,
      "Ð¸ÑĤÐµÐ»": 1909,
      "ĠÐ³Ð»ÑıÐ´": 1910,
      "ĠÐ¼ÐµÑģÑĤÐ¾": 1911,
      "Ð°ÐµÑĪÑĮ": 1912,
      "ĠÐ´Ð¾Ð²": 1913,
      "Ð°Ð´ÑĮ": 1914,
      "ĠÐ¸ÑģÐ¿ÑĭÑĤ": 1915,
      "ĠÐ¿ÑĢÐµÐ¶Ð´Ðµ": 1916,
      "Ð¸Ð½Ð¸": 1917,
      "ÑĢÐ¸Ñĩ": 1918,
      "ĠÐ¿ÑĢÐ¾Ñĩ": 1919,
      "ĠÑĤÐ¾Ð¹": 1920,
      "Ð»Ð¸Ð½": 1921,
      "ĠÐ¾ÑĤÑĤ": 1922,
      "Ð¸ÐºÐ°": 1923,
      "Ð½Ð¸ÐºÐ¾Ð²": 1924,
      "ĠÑħÐ¾ÑĤÐµÐ»": 1925,
      "ĠÐ¿ÑĢÐ¾ÑģÑĤÐ¾": 1926,
      "Ð»Ð¾Ð¼": 1927,
      "ĠÐ²Ð¾ÑĢ": 1928,
      "ĠÐºÐ½Ð¸": 1929,
      "ĠÐ½Ð°Ð¿ÑĢÐ°Ð²": 1930,
      "ĠÐ¿Ð¾Ð¹": 1931,
      "ĠÑģÐ²Ð¾ÐµÐ¼Ñĥ": 1932,
      "ĠÐĶÐ¾Ð±Ð±Ð¸Ð½": 1933,
      "ĠÐ¾Ð½Ð¾": 1934,
      "Ð°Ð´Ð¸": 1935,
      "ĠÐļÐ½ÑıÐ·ÑĮ": 1936,
      "ur": 1937,
      "ĠÐºÐ¾Ð¼Ð½Ð°ÑĤÑĥ": 1938,
      "Ð¶ÐµÐ»Ð¸": 1939,
      "ĠÐ¾Ð´Ð½Ð¾Ð³Ð¾": 1940,
      "ĠÐ¼Ð¾Ð¸": 1941,
      "ÐµÐ½ÑĤÐ»ÑĮ": 1942,
      "ĠÐ½Ð°Ð¹": 1943,
      "ÑĤÐ¾ÑĢÐ°": 1944,
      "ĠÐ¼ÑĭÑģÐ»Ð¸": 1945,
      "'t": 1946,
      "ÑĢÑĮ": 1947,
      "ĠÐ²Ð°Ð¼Ð¸": 1948,
      "ĠÐ¿Ð¾Ð¶Ð°Ð»": 1949,
      "ĠÐŃÐ¼Ð¸Ð»Ð¸Ñı": 1950,
      "ĠÑģÐ°Ð´": 1951,
      "Ð¾Ð²Ð°Ð½": 1952,
      "ĠÐ³ÑĢÐ¾Ð¼": 1953,
      "Ġwith": 1954,
      "ĠÑĢÐµÐ±ÐµÐ½": 1955,
      "ĠÑĢÑıÐ´": 1956,
      "Ð¾Ð±ÑĢ": 1957,
      "ĠÐºÐ¾ÑĤÐ¾ÑĢÑĭÐ¼": 1958,
      "ÑĭÐ²Ð°Ñı": 1959,
      "ĠÐ¼ÑĭÑģÐ»ÑĮ": 1960,
      "Ð°Ð½Ð¸Ð¸": 1961,
      "ĠÐ´ÑĢÑĥÐ³Ð°": 1962,
      "ĠÑģÑĢÐµÐ´Ð¸": 1963,
      "ĠÐ½ÐµÐºÐ¾ÑĤÐ¾ÑĢ": 1964,
      "ĠÐ±Ð»Ð°Ð³Ð¾Ð´Ð°ÑĢ": 1965,
      "ÐµÐ³Ð¾Ð´Ð½Ñı": 1966,
      "ÑĨÐ¸": 1967,
      "ÐºÐ¾Ðµ": 1968,
      "ĠÐºÐ¾ÑĤÐ¾ÑĢÐ¾Ð¼": 1969,
      "Ð¾Ð´ÑĥÑĪ": 1970,
      "Ð¶ÐµÐ½ÑĤÐ»ÑĮ": 1971,
      "ĠÐ³Ð¾Ð´": 1972,
      "ÑģÑĤÐ²Ð¸Ñı": 1973,
      "ĠÐºÐ°ÐºÐ¾Ðµ": 1974,
      "ĠĊ": 1975,
      "ĠÐ¾ÑĤÐ½Ð¾ÑĪ": 1976,
      "Ð¾Ð½Ñĩ": 1977,
      "ĠÐ´Ð²ÑĥÑħ": 1978,
      "ĠÐºÐ½ÑıÐ·Ñı": 1979,
      "ĠÐ²Ð¾ÑģÑĤÐ¾ÑĢ": 1980,
      "ĠÐĲÑĢ": 1981,
      "ĠÑĢÐ°ÑģÐ¿": 1982,
      "Ġst": 1983,
      "ÑıÑīÐµÐ½": 1984,
      "Ð¾Ð²Ð¾Ð¹": 1985,
      "ĠÑįÑĤÐ¾Ð¼Ñĥ": 1986,
      "ĠÐ¾ÑĤÐ²ÐµÑĤÐ¸Ð»Ð°": 1987,
      "ĠÐ½Ð¾Ñģ": 1988,
      "Ð¿ÐµÑĢÐ°": 1989,
      "Ð°ÑĤÑĢ": 1990,
      "ĠÐ¼Ð¾Ð»Ñĩ": 1991,
      "Ġme": 1992,
      "ad": 1993,
      "ĠÑģÐ²Ð¾Ð¸Ð¼Ð¸": 1994,
      "ĠÐ¿Ð»Ð°ÑĤÑĮ": 1995,
      "Ð½ÑĤ": 1996,
      "ĠÐ¿ÑĢÐ¾Ðº": 1997,
      "Ð¸Ð½ÑģÑĤÐ²ÐµÐ½": 1998,
      "ÐµÑĢÑĮÐµÐ·": 1999,
      "Ġwe": 2000,
      "ĠÐ½ÑĢÐ°Ð²": 2001,
      "ĠÐºÐ¾Ð³Ð¾": 2002,
      "ĠÐ¿ÑĢÑıÐ¼": 2003,
      "ĠÐĳÐ¾Ð³": 2004,
      "ĠÐ¿Ð¾Ð»ÐºÐ¾Ð²": 2005,
      "ĠÐ»ÑİÐ±Ð²Ð¸": 2006,
      "ĠÐ¿Ð¾Ð²ÐµÑĢ": 2007,
      "ĠÐłÐ¾Ð´Ð¾Ð½": 2008,
      "Ð°ÑĤÐ¸": 2009,
      "ĠÐŁÐ°ÑĢ": 2010,
      "ĠÑģÐ¼ÐµÑĢ": 2011,
      "Ð¼Ñĭ": 2012,
      "ĠÐ´ÑĥÐ¼Ð°Ð»": 2013,
      "ĠÐ¾ÑĤÐµÑĨ": 2014,
      "ĠÐ¿ÑĢÐ¸ÑĪ": 2015,
      "ĠÐ·Ð°Ð¼ÐµÑĩ": 2016,
      "ĠÑģÐ¿ÑĢÐ¾ÑģÐ¸Ð»Ð°": 2017,
      "Ð»Ñĥ": 2018,
      "ĠÑģÐ¾Ð±ÑģÑĤÐ²ÐµÐ½": 2019,
      "Ð²ÐµÐ´": 2020,
      "ÑĨÐµÐ½": 2021,
      "Ð¾ÑĤÐ°": 2022,
      "ĠÐĳÐ¾ÑĢ": 2023,
      "ĠÐ»Ð¸ÑĨÐ°": 2024,
      "ĠÑĤÑĭÑģÑıÑĩ": 2025,
      "ĠÐ¶ÐµÐ½ÑīÐ¸Ð½Ð°": 2026,
      "ÑĭÐ½": 2027,
      "Ð»ÑĥÐ±": 2028,
      "ĠÐ¿ÑĢÐ¾Ð¿": 2029,
      "ÐµÑĩÐµÑģÐº": 2030,
      "Ġat": 2031,
      "ĠÐ¿Ð»ÐµÑĩ": 2032,
      "ÑĢÐµÐ·": 2033,
      "ÑħÐ°": 2034,
      "ĠÐ³ÑĥÐ±": 2035,
      "ĠÑģÐ»Ð¾Ð²Ð¾": 2036,
      "ĠÐĿÐ¸ÐºÐ¾Ð»Ð°Ð¹": 2037,
      "ĠÐ¿ÑĢÐµÐ»": 2038,
      "Ð¼Ðµ": 2039,
      "ĠÑģÐ°Ð¼Ð¾Ð¼": 2040,
      "ÑģÐ¾Ð²": 2041,
      "Ð»Ð¾Ð´": 2042,
      "ĠÐ»ÐµÐ¶": 2043,
      "ÑĭÐ²Ð°ÑĤÑĮ": 2044,
      "ĠÐ²ÑģÑĤ": 2045,
      "ÑĪÐ¸Ð¼": 2046,
      "ĠÐ´ÐµÐ»Ð°": 2047
    },
    "merges": [
      [
        "Ġ",
        "Ð"
      ],
      [
        "Ð",
        "¾"
      ],
      [
        "Ð",
        "µ"
      ],
      [
        "Ð",
        "°"
      ],
      [
        "Ñ",
        "Ĥ"
      ],
      [
        "Ð",
        "¸"
      ],
      [
        "Ñ",
        "ģ"
      ],
      [
        "Ð",
        "½"
      ],
      [
        "Ð",
        "»"
      ],
      [
        "Ñ",
        "Ģ"
      ],
      [
        "Ð¾",
        "Ð"
      ],
      [
        "Ñ",
        "ĥ"
      ],
      [
        "Ð°",
        "Ð"
      ],
      [
        "Ñ",
        "ı"
      ],
      [
        "Ðµ",
        "Ð"
      ],
      [
        "Ñ",
        "Į"
      ],
      [
        "Ñ",
        "ĭ"
      ],
      [
        "Ġ",
        "Ñģ"
      ],
      [
        "ĠÐ",
        "¿"
      ],
      [
        "ĠÐ",
        "²"
      ],
      [
        "ĠÐ",
        "½"
      ],
      [
        "Ð",
        "º"
      ],
      [
        "Ð",
        "²"
      ],
      [
        "Ñ",
        "ĩ"
      ],
      [
        "Ð",
        "´"
      ],
      [
        "ĠÐ",
        "¾"
      ],
      [
        "ĠÐ",
        "¸"
      ],
      [
        "Ñģ",
        "ÑĤ"
      ],
      [
        "Ð",
        "¼"
      ],
      [
        "ÑĤ",
        "Ð¾"
      ],
      [
        "Ġ",
        "Ġ"
      ],
      [
        "ĠÐ",
        "º"
      ],
      [
        "Ðµ",
        "Ð½"
      ],
      [
        "Ð°",
        "Ð»"
      ],
      [
        "Ñ",
        "Ī"
      ],
      [
        "Ñ",
        "ħ"
      ],
      [
        "Ð¾Ð",
        "²"
      ],
      [
        "³",
        "Ð¾"
      ],
      [
        "Ðµ",
        "ÑĢ"
      ],
      [
        "ĠÐ",
        "±"
      ],
      [
        "ĠÐ",
        "´"
      ],
      [
        "ĠÐ",
        "¼"
      ],
      [
        "Ðµ",
        "Ð»"
      ],
      [
        "Ñ",
        "İ"
      ],
      [
        "Ð¾Ð",
        "¼"
      ],
      [
        "ÑĤ",
        "ÑĮ"
      ],
      [
        "Ð¾",
        "Ð»"
      ],
      [
        "ĠÐ¿",
        "ÑĢ"
      ],
      [
        "Ð",
        "¿"
      ],
      [
        "Ġ",
        "Ñĩ"
      ],
      [
        "Ġ",
        "ÑĤ"
      ],
      [
        "Ġ",
        "-"
      ],
      [
        "Ð¸",
        "Ð»"
      ],
      [
        "Ð½",
        "Ð¾"
      ],
      [
        "Ð",
        "±"
      ],
      [
        "Ð°Ð",
        "º"
      ],
      [
        "Ðµ",
        "ÑĤ"
      ],
      [
        "Ð½",
        "Ð°"
      ],
      [
        "Ð",
        "·"
      ],
      [
        "ĠÐ",
        "µ"
      ],
      [
        "Ð¾Ð",
        "¹"
      ],
      [
        "Ð¾Ð",
        "´"
      ],
      [
        "ĠÐ½",
        "Ðµ"
      ],
      [
        "Ġ",
        "Ñĥ"
      ],
      [
        "Ð¾",
        "ÑĢ"
      ],
      [
        "Ð½",
        "Ð¸"
      ],
      [
        "ĠÐ",
        "·"
      ],
      [
        "Ð",
        "¶"
      ],
      [
        "ÐµÐ",
        "¼"
      ],
      [
        "ÑĢ",
        "Ð°"
      ],
      [
        "Ð°Ð",
        "·"
      ],
      [
        "Ñģ",
        "Ñı"
      ],
      [
        "Ð",
        "¹"
      ],
      [
        "Ð½",
        "Ñĭ"
      ],
      [
        "ĠÐ½",
        "Ð°"
      ],
      [
        "Ñģ",
        "ÑĮ"
      ],
      [
        "Ġ",
        "Ñ"
      ],
      [
        "Ð",
        "³"
      ],
      [
        "Ð°Ð",
        "¼"
      ],
      [
        "Ð»",
        "Ð¸"
      ],
      [
        "ĠÐ±",
        "Ñĭ"
      ],
      [
        "Ð°Ð",
        "²"
      ],
      [
        "Ġ-",
        "-"
      ],
      [
        "ÐµÐ",
        "´"
      ],
      [
        "Ñ",
        "ī"
      ],
      [
        "Ñ",
        "Ĩ"
      ],
      [
        "Ġ",
        "ÑĢ"
      ],
      [
        "ĠÐ¿",
        "Ð¾"
      ],
      [
        "Ñģ",
        "Ðº"
      ],
      [
        "Ð¸",
        "ÑĤ"
      ],
      [
        "Ð¾Ð",
        "³"
      ],
      [
        "Ð¾Ð",
        "±"
      ],
      [
        "ĠÑĩ",
        "ÑĤÐ¾"
      ],
      [
        "ĠÐ",
        "»"
      ],
      [
        "ĠÐ",
        "³"
      ],
      [
        "ÐµÐ",
        "¹"
      ],
      [
        "ĠÑ",
        "į"
      ],
      [
        "Ð¾Ð",
        "³Ð¾"
      ],
      [
        "Ð´",
        "Ð°"
      ],
      [
        "ÐµÐ½",
        "Ð¸"
      ],
      [
        "Ð¸",
        "Ð½"
      ],
      [
        "Ð»",
        "Ð°"
      ],
      [
        "ĠÐ¾",
        "ÑĤ"
      ],
      [
        "ÑģÑĤ",
        "Ð²"
      ],
      [
        "Ð°Ð",
        "´"
      ],
      [
        "Ð¾",
        "Ð½"
      ],
      [
        "Ð°",
        "ÑĢ"
      ],
      [
        "Ð¸",
        "Ð²"
      ],
      [
        "Ð¸",
        "Ð¼"
      ],
      [
        "Ð°Ð»",
        "Ð°"
      ],
      [
        "Ð¾",
        "ÑĤ"
      ],
      [
        "ĠÐ",
        "¶"
      ],
      [
        "ĠĠ",
        "ĠĠ"
      ],
      [
        "Ð°",
        "ÑĤÑĮ"
      ],
      [
        "Ð",
        "³Ð¾"
      ],
      [
        "Ð°",
        "Ð½"
      ],
      [
        "ĠÑģ",
        "Ð²"
      ],
      [
        "Ð¾Ð",
        "¶"
      ],
      [
        "ĠÐº",
        "Ð°Ðº"
      ],
      [
        "Ð¾Ð",
        "º"
      ],
      [
        "ĠÐ¾",
        "Ð½"
      ],
      [
        "Ð»",
        "Ð¾"
      ],
      [
        "ÑĢ",
        "Ñĥ"
      ],
      [
        "Ġ",
        "Ñı"
      ],
      [
        "ĠÐ²",
        "Ñĭ"
      ],
      [
        "ĠÐ²",
        "Ñģ"
      ],
      [
        "Ð°",
        "Ñı"
      ],
      [
        "ÐµÐ",
        "²"
      ],
      [
        "ĠÐ",
        "Ŀ"
      ],
      [
        "Ð½",
        "Ñĥ"
      ],
      [
        "ĠÐ¿ÑĢ",
        "Ð¸"
      ],
      [
        "Ð°",
        "ÑĤ"
      ],
      [
        "ÑĤÐ¾",
        "ÑĢ"
      ],
      [
        "ĠÐ",
        "ļ"
      ],
      [
        "Ð¾",
        "ÑģÑĤ"
      ],
      [
        "ĠÐ¾",
        "Ð±"
      ],
      [
        "ÐµÐ",
        "±"
      ],
      [
        "Ð»",
        "Ñı"
      ],
      [
        "ĠÐ",
        "ŀ"
      ],
      [
        "ĠÐµ",
        "Ð³Ð¾"
      ],
      [
        "Ð¾",
        "Ñģ"
      ],
      [
        "ĠÑģ",
        "ÑĤ"
      ],
      [
        "Ġ",
        "ÑĤÐ¾"
      ],
      [
        "Ðµ",
        "ÑģÑĤ"
      ],
      [
        "ÐµÐ",
        "³Ð¾"
      ],
      [
        "ÐµÐ",
        "·"
      ],
      [
        "ĠÐ",
        "Ĵ"
      ],
      [
        "Ð¾Ð",
        "·"
      ],
      [
        "Ð¸",
        "ÑĤÑĮ"
      ],
      [
        "ĠÐ",
        "Ł"
      ],
      [
        "ÐµÐ»",
        "ÑĮ"
      ],
      [
        "ĠÐº",
        "Ð¾"
      ],
      [
        "ÐµÐ",
        "º"
      ],
      [
        "Ð½",
        "Ðµ"
      ],
      [
        "Ð¸",
        "Ñħ"
      ],
      [
        "Ð¾Ð»",
        "ÑĮ"
      ],
      [
        "ĠÐ",
        "Ķ"
      ],
      [
        "ĠÑģ",
        "Ðº"
      ],
      [
        "Ð°Ð",
        "¶"
      ],
      [
        "ĠÑĤ",
        "Ð°Ðº"
      ],
      [
        "Ð¸Ð»",
        "Ð°"
      ],
      [
        "Ñĥ",
        "Ð´"
      ],
      [
        "Ðº",
        "Ð¾"
      ],
      [
        "Ġ",
        "Ñħ"
      ],
      [
        "Ð¸",
        "Ð´"
      ],
      [
        "ĠÐ",
        "°"
      ],
      [
        "ĠÑģ",
        "Ð»"
      ],
      [
        "ĠÑį",
        "ÑĤ"
      ],
      [
        "Ð¸",
        "Ðº"
      ],
      [
        "ĠÐ¿",
        "Ð¾Ð´"
      ],
      [
        "ĠÐ¸",
        "Ð·"
      ],
      [
        "ĠÑģÐ²",
        "Ð¾"
      ],
      [
        "Ð°",
        "Ñģ"
      ],
      [
        "ĠÐ",
        "³Ð¾"
      ],
      [
        "ĠÐ¾",
        "Ð½Ð°"
      ],
      [
        "Ð¸",
        "Ñģ"
      ],
      [
        "Ðµ",
        "Ñĩ"
      ],
      [
        "ĠÐ",
        "Ĳ"
      ],
      [
        "Ðµ",
        "Ñģ"
      ],
      [
        "Ð°Ð»",
        "Ð¸"
      ],
      [
        "Ð½",
        "Ñı"
      ],
      [
        "Ðº",
        "Ð°"
      ],
      [
        "ĠÐ·",
        "Ð°"
      ],
      [
        "Ðº",
        "Ð¸"
      ],
      [
        "ĠÑį",
        "ÑĤÐ¾"
      ],
      [
        "ÐµÐ",
        "¿"
      ],
      [
        "ĠÐµ",
        "Ðµ"
      ],
      [
        "Ð»",
        "ÑĮ"
      ],
      [
        "Ð¾",
        "Ñĩ"
      ],
      [
        "ĠÐ²Ñģ",
        "Ðµ"
      ],
      [
        "Ð½",
        "Ð¾Ð¹"
      ],
      [
        "ĠÐºÐ¾",
        "ÑĤÐ¾ÑĢ"
      ],
      [
        "Ñĥ",
        "ÑĤ"
      ],
      [
        "Ð¾Ð³",
        "Ð´Ð°"
      ],
      [
        "ĠÐ",
        "¡"
      ],
      [
        "ÑĢÐ°",
        "Ñģ"
      ],
      [
        "ĠÑĢ",
        "Ð°Ð·"
      ],
      [
        "Ñ",
        "Ħ"
      ],
      [
        "ĠÐ",
        "ľ"
      ],
      [
        "ÑĪ",
        "Ð¸"
      ],
      [
        "Ð°Ð¼",
        "Ð¸"
      ],
      [
        "Ð¼",
        "Ð¸"
      ],
      [
        "Ð°Ð",
        "¹"
      ],
      [
        "Ð¸Ð»",
        "Ð¸"
      ],
      [
        "Ð½Ñĭ",
        "Ð¹"
      ],
      [
        "Ð¾Ð²",
        "Ð¾ÑĢ"
      ],
      [
        "ÐµÐ",
        "¶"
      ],
      [
        "ÐµÐ½",
        "ÑĮ"
      ],
      [
        "â",
        "Ģ"
      ],
      [
        "Ñĭ",
        "Ð²"
      ],
      [
        "Ð¿",
        "ÑĢ"
      ],
      [
        "Ðµ",
        "ÑĪ"
      ],
      [
        "Ð°Ð",
        "¿"
      ],
      [
        "ĠÐ",
        "ĳ"
      ],
      [
        "Ñī",
        "Ðµ"
      ],
      [
        "Ñĥ",
        "Ð¼"
      ],
      [
        "Ñĭ",
        "Ð¹"
      ],
      [
        "Ð¾Ð",
        "¿"
      ],
      [
        "Ñ",
        "į"
      ],
      [
        "ÑģÑĤ",
        "ÑĮ"
      ],
      [
        "ĠÐ¿",
        "ÐµÑĢ"
      ],
      [
        "Ñĥ",
        "Ñĩ"
      ],
      [
        "Ġ",
        "t"
      ],
      [
        "Ð¸",
        "Ñĩ"
      ],
      [
        "Ñĥ",
        "Ð¶"
      ],
      [
        "ÑĢÑĥ",
        "Ð³"
      ],
      [
        "h",
        "e"
      ],
      [
        "Ð¾Ð¼",
        "Ñĥ"
      ],
      [
        "ĠÐ",
        "¢"
      ],
      [
        "Ñı",
        "ÑĤ"
      ],
      [
        "ĠÐ½",
        "Ð¾"
      ],
      [
        "Ð½",
        "Ð¾Ð³Ð¾"
      ],
      [
        "Ñģ",
        "Ð»"
      ],
      [
        "Ðº",
        "Ñĥ"
      ],
      [
        "ĠÐ",
        "ĺ"
      ],
      [
        ".",
        "."
      ],
      [
        "Ð¾",
        "Ðµ"
      ],
      [
        "Ð¾",
        "ÑĪ"
      ],
      [
        "ĠÑģÐº",
        "Ð°Ð·"
      ],
      [
        "ĠÐ»",
        "Ð¸"
      ],
      [
        "ĠÐ¶",
        "Ðµ"
      ],
      [
        "ĠÐ±Ñĭ",
        "Ð»Ð¾"
      ],
      [
        "Ġ",
        "a"
      ],
      [
        "ĠÐ¾",
        "Ð´"
      ],
      [
        "Ñĥ",
        "Ñİ"
      ],
      [
        "ÑĪ",
        "Ðµ"
      ],
      [
        "ĠÐ¿",
        "Ð¾Ð»"
      ],
      [
        "ĠÐ",
        "¯"
      ],
      [
        "ÐµÐ½Ð¸",
        "Ðµ"
      ],
      [
        "Ð¸",
        "Ð·"
      ],
      [
        "Ð°",
        "Ð½Ð¸"
      ],
      [
        "ÐµÐ½",
        "Ð½Ð¾"
      ],
      [
        "ÐµÐ½",
        "Ñı"
      ],
      [
        "Ð°Ð",
        "±"
      ],
      [
        "ÐµÐ",
        "³"
      ],
      [
        "Ð¸",
        "Ðµ"
      ],
      [
        "ÐµÐ½Ð¸",
        "Ñı"
      ],
      [
        "Ġ",
        "\""
      ],
      [
        "Ð°Ð",
        "³"
      ],
      [
        "Ð¼",
        "Ñĥ"
      ],
      [
        "Ð°",
        "Ñİ"
      ],
      [
        "Ð½Ñĭ",
        "Ðµ"
      ],
      [
        "Ð½Ñĭ",
        "Ð¼"
      ],
      [
        "Ð°Ð»",
        "Ð¾"
      ],
      [
        "ĠÐ",
        "ł"
      ],
      [
        "Ñĥ",
        "ÑĪ"
      ],
      [
        "Ð°",
        "ÐµÑĤ"
      ],
      [
        "ĠÐ",
        "Ń"
      ],
      [
        "Ñħ",
        "Ð¾Ð´"
      ],
      [
        "Ġ",
        "ÑĪ"
      ],
      [
        "ĠÐ»",
        "Ñİ"
      ],
      [
        "ÑĢ",
        "Ð¸"
      ],
      [
        "ĠÑģ",
        "Ð°Ð¼"
      ],
      [
        "Ð´",
        "Ðµ"
      ],
      [
        "Ñĭ",
        "Ðµ"
      ],
      [
        "âĢ",
        "ĵ"
      ],
      [
        "ĠÐ´",
        "Ð²"
      ],
      [
        "ĠĠĠĠ",
        "Ġ"
      ],
      [
        "ĠÐ¼",
        "ÐµÐ½Ñı"
      ],
      [
        "ĠÐ±Ñĭ",
        "Ð»"
      ],
      [
        "ĠÑģ",
        "ÐµÐ±"
      ],
      [
        "Ð½Ð°",
        "Ñı"
      ],
      [
        "Ð¾Ð±",
        "Ñĭ"
      ],
      [
        "ĠÐ¼",
        "Ð½Ðµ"
      ],
      [
        "Ð°Ð»",
        "ÑĮ"
      ],
      [
        "Ð½Ñĭ",
        "Ñħ"
      ],
      [
        "Ñģ",
        "Ð¿"
      ],
      [
        "ÑĤ",
        "Ð¸"
      ],
      [
        "ĠÐ±",
        "ÑĥÐ´"
      ],
      [
        "i",
        "n"
      ],
      [
        "Ð¸ÑĤ",
        "ÐµÐ»ÑĮ"
      ],
      [
        "ÑĢ",
        "ÐµÐ¼"
      ],
      [
        "ĠÐ³",
        "Ð»"
      ],
      [
        "ÑģÑĤ",
        "Ð¸"
      ],
      [
        "ĠÐ²",
        "Ð¸Ð´"
      ],
      [
        "ĠÐ³",
        "Ð¾Ð²Ð¾ÑĢ"
      ],
      [
        "ĠÑĥ",
        "Ð¶"
      ],
      [
        "Ð¸",
        "Ð¹"
      ],
      [
        "Ð»ÑĮ",
        "ÐºÐ¾"
      ],
      [
        "Ñĭ",
        "Ñħ"
      ],
      [
        "ÐµÐ»",
        "Ð°"
      ],
      [
        "ĠÑģ",
        "Ð¿"
      ],
      [
        "ĠÐº",
        "ÑĢ"
      ],
      [
        "ĠÐ¸",
        "Ð¼"
      ],
      [
        "ĠÐ¿ÑĢ",
        "ÐµÐ´"
      ],
      [
        "ĠÐº",
        "Ð¾Ð³Ð´Ð°"
      ],
      [
        "ĠÐĶ",
        "Ð¶"
      ],
      [
        "ĠÐµ",
        "Ð¼Ñĥ"
      ],
      [
        "Ġ",
        "ÑĢÐ°Ñģ"
      ],
      [
        "ĠÐ¿",
        "Ð¾Ðº"
      ],
      [
        "ÐµÐ»",
        "Ð¸"
      ],
      [
        "ĠÑĩ",
        "ÑĤ"
      ],
      [
        "ĠÐ´",
        "ÑĢÑĥÐ³"
      ],
      [
        "Ð¸",
        "ÑģÑĤ"
      ],
      [
        "ĠÑ",
        "Ħ"
      ],
      [
        "ĠÐ²",
        "Ð·"
      ],
      [
        "ĠÑģ",
        "Ð¼"
      ],
      [
        "Ñĥ",
        "Ð¿"
      ],
      [
        "Ð½Ð¾",
        "Ðµ"
      ],
      [
        "ĠÑģ",
        "ÑĤÐ¾"
      ],
      [
        "ĠÐ²",
        "Ð¾"
      ],
      [
        "ĠÐ½",
        "Ð¸"
      ],
      [
        "Ð¾",
        "Ñı"
      ],
      [
        "ĠÐ",
        "ĵ"
      ],
      [
        "ĠÐŀ",
        "Ð½"
      ],
      [
        "Ñģ",
        "Ñĥ"
      ],
      [
        "ĠÑĤÐ¾",
        "Ð»ÑĮÐºÐ¾"
      ],
      [
        "ÑĢ",
        "Ð¾"
      ],
      [
        "ĠÐ¼",
        "Ð¾Ð³"
      ],
      [
        "Ðµ",
        "Ñħ"
      ],
      [
        "ÑģÑĤ",
        "Ð°Ð²"
      ],
      [
        "ĠÑĢ",
        "Ñĥ"
      ],
      [
        "ÐµÐ¼",
        "Ñĥ"
      ],
      [
        "Ð½Ð¸",
        "Ð¼"
      ],
      [
        "Ñĥ",
        "Ð²"
      ],
      [
        "ĠÐ±Ñĭ",
        "Ð»Ð°"
      ],
      [
        "ÐµÑĢ",
        "ÑĮ"
      ],
      [
        "ĠÐ½",
        "Ð°Ð´"
      ],
      [
        "ÑĤ",
        "Ðµ"
      ],
      [
        "Ð°",
        "Ñħ"
      ],
      [
        "Ñĭ",
        "Ð¼"
      ],
      [
        "ĠÐ»Ñİ",
        "Ð±"
      ],
      [
        "Ð°",
        "ÑĪ"
      ],
      [
        "Ð°Ð»",
        "ÑģÑı"
      ],
      [
        "ĠÐ´",
        "Ð»Ñı"
      ],
      [
        "Ñģ",
        "Ð»Ð¸"
      ],
      [
        "ĠÑĩÑĤ",
        "Ð¾Ð±Ñĭ"
      ],
      [
        "Ð¸Ð»",
        "ÑģÑı"
      ],
      [
        "ĠÐ¿ÑĢ",
        "Ð¾"
      ],
      [
        "ÑĢÐ°",
        "Ð½"
      ],
      [
        "ĠÑĤ",
        "Ñĭ"
      ],
      [
        "ĠÐµ",
        "ÑīÐµ"
      ],
      [
        "Ñĥ",
        "ÑĢ"
      ],
      [
        "ĠÐ±",
        "Ð¾Ð»ÑĮ"
      ],
      [
        "Ġ",
        "s"
      ],
      [
        "Ð¸Ñģ",
        "Ñģ"
      ],
      [
        "ĠÐ¾ÑĤ",
        "Ð²"
      ],
      [
        "ÑĢ",
        "Ð°Ð·"
      ],
      [
        "Ġ",
        "w"
      ],
      [
        "ĠÐ²",
        "Ð¾Ð·"
      ],
      [
        "ÑĨ",
        "Ð°"
      ],
      [
        "ÐµÐ»",
        "Ð¾Ð²"
      ],
      [
        "ĠÐ·",
        "Ð½Ð°"
      ],
      [
        "ĠÐĿ",
        "Ð¾"
      ],
      [
        "ĠÑ",
        "Ĩ"
      ],
      [
        "ĠÐ¼",
        "Ñĭ"
      ],
      [
        "Ð½Ð¸",
        "Ðº"
      ],
      [
        "ĠÑģ",
        "Ð¾"
      ],
      [
        "ĠÐĲ",
        "Ð½"
      ],
      [
        "Ð½",
        "Ð¾Ð²"
      ],
      [
        "Ðµ",
        "Ðµ"
      ],
      [
        "Ð¸Ð¼",
        "Ð¸"
      ],
      [
        "Ð¾Ð»",
        "Ð¶"
      ],
      [
        "ĠÐ¾",
        "Ñĩ"
      ],
      [
        "ĠÐ¼",
        "Ð¾"
      ],
      [
        "ĠÐ¸",
        "Ñħ"
      ],
      [
        "ĠÑģÐºÐ°Ð·",
        "Ð°Ð»"
      ],
      [
        "ĠÐ²",
        "ÑĢÐµÐ¼"
      ],
      [
        "ÑĢ",
        "Ñı"
      ],
      [
        "Ð¸ÑĤ",
        "Ðµ"
      ],
      [
        "ÑģÑĤÐ²",
        "Ð¾"
      ],
      [
        "Ñĩ",
        "Ð°"
      ],
      [
        "r",
        "e"
      ],
      [
        "ĠÐµ",
        "Ð¹"
      ],
      [
        "Ñĥ",
        "Ð»Ð¸"
      ],
      [
        "ÑĢ",
        "Ðµ"
      ],
      [
        "Ðº",
        "Ð¾Ð¹"
      ],
      [
        "ĠÐļ",
        "Ð¾Ð½"
      ],
      [
        "ÐµÑĢ",
        "ÑĤ"
      ],
      [
        "Ð»",
        "Ð¾Ð²"
      ],
      [
        "Ġt",
        "he"
      ],
      [
        "ĠÐ¼",
        "Ð¾Ð¶"
      ],
      [
        "Ġ",
        "o"
      ],
      [
        "Ñĭ",
        "ÑĪ"
      ],
      [
        "Ð¸",
        "Ñı"
      ],
      [
        "ĠÐ¿Ð¾",
        "ÑģÐ»"
      ],
      [
        "ĠÑĥ",
        "Ð²"
      ],
      [
        "..",
        "."
      ],
      [
        "Ð°Ð»Ð°",
        "ÑģÑĮ"
      ],
      [
        "ĠÐ²",
        "ÐµÑĢ"
      ],
      [
        "ĠÐ´",
        "Ð¾"
      ],
      [
        "ĠÑģÐ»",
        "Ð¾Ð²"
      ],
      [
        "Ð½Ñĥ",
        "Ñİ"
      ],
      [
        "Ðµ",
        "ÑģÐº"
      ],
      [
        "ĠÐ´",
        "ÐµÐ»"
      ],
      [
        "Ð½",
        "Ð¾Ð¼"
      ],
      [
        "Ð»Ð¸",
        "Ð²"
      ],
      [
        "Ð»",
        "Ñİ"
      ],
      [
        "ĠÐ¼",
        "Ð¾Ð»"
      ],
      [
        "Ñĥ",
        "Ð±"
      ],
      [
        "ÑĢ",
        "Ð°Ð²"
      ],
      [
        "Ð½Ñĥ",
        "Ð»"
      ],
      [
        "ĠÑģ",
        "Ð¾Ð±"
      ],
      [
        "ĠÐ¾",
        "Ð½Ð¸"
      ],
      [
        "ÑĢÐ°",
        "ÑĤ"
      ],
      [
        "ĠÐ",
        "ķ"
      ],
      [
        "ĠÐ¼",
        "Ð¸ÑģÑģ"
      ],
      [
        "Ð¸",
        "Ð½Ð°"
      ],
      [
        "ĠÐ±",
        "ÐµÐ·"
      ],
      [
        "Ðµ",
        "ÑĨ"
      ],
      [
        "Ð¸Ð»",
        "Ð¾"
      ],
      [
        "ÑĢ",
        "Ð¾Ð´"
      ],
      [
        "Ð»",
        "ÐµÐ½"
      ],
      [
        "Ñĥ",
        "Ñħ"
      ],
      [
        "ĠÐ¾",
        "Ð¿"
      ],
      [
        "ĠÐ¿Ð¾",
        "ÑĤ"
      ],
      [
        "n",
        "d"
      ],
      [
        "Ð½Ð¾",
        "ÑģÑĤÑĮ"
      ],
      [
        "ĠÐ½",
        "Ð¸Ðº"
      ],
      [
        "ĠÐ¾",
        "Ñģ"
      ],
      [
        "ĠÐ¿",
        "Ð¾ÑĢ"
      ],
      [
        "ĠÐ±",
        "Ð»"
      ],
      [
        "ÑĮ",
        "Ñı"
      ],
      [
        "Ð¸Ð»Ð°",
        "ÑģÑĮ"
      ],
      [
        "ÐµÑĢ",
        "Ð°"
      ],
      [
        "ĠÐŀ",
        "Ð½Ð°"
      ],
      [
        "ĠÐ",
        "§"
      ],
      [
        "ĠÐ·",
        "Ð°Ð¼"
      ],
      [
        "Ð´",
        "ÐµÐ»"
      ],
      [
        "ÑĢ",
        "Ñĭ"
      ],
      [
        "ĠÑģÑĤ",
        "Ð°ÑĢ"
      ],
      [
        "Ðº",
        "Ðµ"
      ],
      [
        "Ð°ÑĤÑĮ",
        "ÑģÑı"
      ],
      [
        "ĠÑĥÐ¶",
        "Ðµ"
      ],
      [
        "ÑģÑĥ",
        "Ñį"
      ],
      [
        "ĠÑģÐµÐ±",
        "Ñı"
      ],
      [
        "ÑģÑĥÑį",
        "Ð»Ð¾"
      ],
      [
        "ÑĥÐ²",
        "ÑģÑĤÐ²"
      ],
      [
        "ÐµÑĤ",
        "Ðµ"
      ],
      [
        "ĠÐļÐ¾Ð½",
        "ÑģÑĥÑįÐ»Ð¾"
      ],
      [
        "ĠÐ¸",
        "Ð»Ð¸"
      ],
      [
        "ĠÑĩ",
        "ÐµÐ¼"
      ],
      [
        "ĠÐ¶",
        "ÐµÐ½"
      ],
      [
        "ÐµÑĢ",
        "Ð´"
      ],
      [
        "ĠÐº",
        "Ð½Ñı"
      ],
      [
        "ĠÐ½",
        "ÐµÐ³Ð¾"
      ],
      [
        "ĠÑħ",
        "Ð¾ÑĤ"
      ],
      [
        "Ñĥ",
        "Ð·"
      ],
      [
        "ĠÐ",
        "£"
      ],
      [
        "ĠÐ¾",
        "Ðº"
      ],
      [
        "e",
        "d"
      ],
      [
        "Ñı",
        "ÑĤÑĮ"
      ],
      [
        "ÑĢ",
        "Ð°Ð¶"
      ],
      [
        "ÐµÑĢ",
        "Ð¶"
      ],
      [
        "ĠÑĥ",
        "Ð´"
      ],
      [
        "ÑĢÐ°",
        "ÑĦ"
      ],
      [
        "Ð¾Ð»ÑĮ",
        "ÐºÐ¾"
      ],
      [
        "ĠÐ¿",
        "Ð¾Ð²"
      ],
      [
        "ÑĨ",
        "Ðµ"
      ],
      [
        "Ð°Ð»Ð¾",
        "ÑģÑĮ"
      ],
      [
        "ĠÑĩ",
        "ÐµÐ»Ð¾Ð²"
      ],
      [
        "Ð´",
        "Ñĥ"
      ],
      [
        "ÑģÑĤ",
        "ÑĢ"
      ],
      [
        "ÐµÑĤ",
        "ÑģÑı"
      ],
      [
        "ĠÑģ",
        "Ð¾Ð²"
      ],
      [
        "Ð³",
        "Ð»Ñı"
      ],
      [
        "ĠÐ²",
        "Ð°Ñģ"
      ],
      [
        "ÑĮ",
        "Ñİ"
      ],
      [
        "ĠÐ±Ñĭ",
        "Ð»Ð¸"
      ],
      [
        "o",
        "u"
      ],
      [
        "ĠÐ±Ñĭ",
        "ÑĤÑĮ"
      ],
      [
        "e",
        "r"
      ],
      [
        "Ð¸",
        "Ð¸"
      ],
      [
        "h",
        "a"
      ],
      [
        "ĠÐº",
        "Ð¾Ð¼"
      ],
      [
        "ĠÑĤ",
        "ÐµÐ±"
      ],
      [
        "ÑģÑĤÐ²",
        "ÐµÐ½"
      ],
      [
        "ĠÐ",
        "Ľ"
      ],
      [
        "Ð¸",
        "ÑĢ"
      ],
      [
        "ĠÐ³Ð»",
        "Ð°Ð·"
      ],
      [
        "Ð½Ð¾",
        "ÑģÑĤÐ¸"
      ],
      [
        "ÐµÐ¿",
        "ÐµÑĢÑĮ"
      ],
      [
        "Ñĥ",
        "ÑģÑĤ"
      ],
      [
        "ĠÐĲÐ½",
        "Ð´"
      ],
      [
        "ĠÐº",
        "Ð¾Ð½"
      ],
      [
        "ĠÐ´",
        "Ð¾Ð¼"
      ],
      [
        "Ġ",
        "("
      ],
      [
        "ÑĢ",
        "Ð¾Ð¼"
      ],
      [
        "ĠÐ¾Ñĩ",
        "ÐµÐ½ÑĮ"
      ],
      [
        "Ðº",
        "Ð¾Ð¼"
      ],
      [
        "Ġ",
        "âĢĵ"
      ],
      [
        "ĠÐ²ÑĢÐµÐ¼",
        "Ñı"
      ],
      [
        "ĠÑģÐµÐ±",
        "Ðµ"
      ],
      [
        "Ñ",
        "Ĭ"
      ],
      [
        "ĠÐ¿Ð¾",
        "Ñĩ"
      ],
      [
        "Ð°Ð»Ð¸",
        "ÑģÑĮ"
      ],
      [
        "Ð¸ÑĤÑĮ",
        "ÑģÑı"
      ],
      [
        "ĠÐ¿",
        "Ð¾Ð¼"
      ],
      [
        "ÑģÑĤÐ²",
        "Ð°"
      ],
      [
        "ÐµÑĪ",
        "ÑĮ"
      ],
      [
        "Ñģ",
        "Ð¼"
      ],
      [
        "ĠÐ½",
        "Ð°Ð¿"
      ],
      [
        "ĠÑįÑĤ",
        "Ð¾Ð³Ð¾"
      ],
      [
        "Ð»",
        "Ñĭ"
      ],
      [
        "ĠÑĩÐµÐ»Ð¾Ð²",
        "ÐµÐº"
      ],
      [
        "ĠÑĤ",
        "ÑĢ"
      ],
      [
        "ĠÐ",
        "Ĺ"
      ],
      [
        "ĠÐ±",
        "Ð¾Ð»"
      ],
      [
        "ĠÐµ",
        "ÑģÐ»Ð¸"
      ],
      [
        "Ð½Ñĭ",
        "Ð¼Ð¸"
      ],
      [
        "ÑĢ",
        "Ð¾Ñģ"
      ],
      [
        "ĠÐŃ",
        "ÑĤÐ¾"
      ],
      [
        "ĠÑĤ",
        "ÐµÐ¼"
      ],
      [
        "Ġ",
        "m"
      ],
      [
        "Ð¸",
        "ÑĨ"
      ],
      [
        "Ð½Ñĥ",
        "Ð»Ð°"
      ],
      [
        "ĠÐ·",
        "Ð½"
      ],
      [
        "ĠÐ²",
        "Ð°Ð¼"
      ],
      [
        "ÑĥÐ´",
        "ÑĮ"
      ],
      [
        "ĠÑĥ",
        "Ð¼"
      ],
      [
        "ĠÐ¿ÐµÑĢ",
        "ÐµÐ´"
      ],
      [
        "i",
        "t"
      ],
      [
        "ĠÑĤ",
        "Ð¾Ð³Ð¾"
      ],
      [
        "ÑĪÐ¸",
        "Ð¹"
      ],
      [
        "ĠÐ¾",
        "ÑģÑĤ"
      ],
      [
        "ĠÐ´",
        "Ð¾Ð±"
      ],
      [
        "Ñģ",
        "Ðµ"
      ],
      [
        "ĠÐ³",
        "ÑĢÐ°ÑĦ"
      ],
      [
        "Ð¾ÑĢ",
        "Ð¾ÑĪ"
      ],
      [
        "Ðº",
        "Ð¾Ð²"
      ],
      [
        "ĠÐ½Ðµ",
        "Ðµ"
      ],
      [
        "ĠÐ´",
        "ÑĥÐ¼"
      ],
      [
        "ĠÐ¶",
        "Ð¸Ð·"
      ],
      [
        "ÐµÐ½",
        "ÑĤ"
      ],
      [
        "Ðµ",
        "ÑĤÑĮ"
      ],
      [
        "Ð°ÑĤ",
        "ÐµÐ»ÑĮ"
      ],
      [
        "ÐµÐ´",
        "Ð¸"
      ],
      [
        "ĠÐ½",
        "ÐµÐ¹"
      ],
      [
        "Ġ",
        "b"
      ],
      [
        "Ð°Ð½Ð¸",
        "Ñı"
      ],
      [
        "ĠÑĩ",
        "ÑĥÐ²ÑģÑĤÐ²"
      ],
      [
        "Ð°Ð¶",
        "Ðµ"
      ],
      [
        "ĠÑģÐ²Ð¾",
        "ÐµÐ¹"
      ],
      [
        "ÑĢÐ°",
        "Ñı"
      ],
      [
        "Ð°Ð·",
        "ÑĭÐ²"
      ],
      [
        "i",
        "s"
      ],
      [
        "Ð¸",
        "Ð¶"
      ],
      [
        "ĠÐ¼",
        "Ð¸ÑģÑĤ"
      ],
      [
        "ĠÐ½",
        "Ð¸Ñĩ"
      ],
      [
        "ĠÐ²",
        "ÐµÐ»"
      ],
      [
        "ĠÐļ",
        "Ð°Ðº"
      ],
      [
        "e",
        "n"
      ],
      [
        "Ġ",
        "c"
      ],
      [
        "ÑĪ",
        "ÑĮ"
      ],
      [
        "ÑĢ",
        "Ð¾Ð²"
      ],
      [
        "Ñĥ",
        "Ð´Ð°"
      ],
      [
        "ĠÑĤ",
        "ÐµÐ¿ÐµÑĢÑĮ"
      ],
      [
        "ÑĤ",
        "Ð°"
      ],
      [
        "ĠÐºÐ½Ñı",
        "Ð·"
      ],
      [
        "ĠÐºÐ¾",
        "ÑĤÐ¾"
      ],
      [
        "o",
        "n"
      ],
      [
        "ĠÐ¿ÑĢ",
        "Ð¸Ð²"
      ],
      [
        "ÐµÐ»",
        "Ð¾"
      ],
      [
        "Ñĩ",
        "Ð¸ÑĤ"
      ],
      [
        "Ð¾ÑģÑĤ",
        "Ð¸"
      ],
      [
        "ĠÑģ",
        "Ð¿ÑĢ"
      ],
      [
        "ÑĤ",
        "Ð¾Ð²"
      ],
      [
        "ĠÑĩ",
        "ÐµÑĢ"
      ],
      [
        "Ðµ",
        "Ñī"
      ],
      [
        "Ð¿",
        "Ð¾Ð»"
      ],
      [
        "Ð°Ñı",
        "ÑģÑĮ"
      ],
      [
        "ÐµÑĢ",
        "Ð¸"
      ],
      [
        "ĠÐ½",
        "ÐµÐ¼"
      ],
      [
        "in",
        "g"
      ],
      [
        "ĠÐ½",
        "ÐµÐ¿"
      ],
      [
        "ĠÐºÐ¾ÑĤÐ¾ÑĢ",
        "ÑĭÐ¹"
      ],
      [
        "Ġ",
        "f"
      ],
      [
        "Ð¸Ð½",
        "Ñĥ"
      ],
      [
        "ĠÐº",
        "Ð¾ÑĢ"
      ],
      [
        "ĠÑģÑĤ",
        "ÑĢÐ°"
      ],
      [
        "ĠÐ¼Ð¾Ð¶",
        "ÐµÑĤ"
      ],
      [
        "Ð°Ð²",
        "ÑĪ"
      ],
      [
        "Ð°Ñİ",
        "ÑĤ"
      ],
      [
        "ĠÐº",
        "Ð¾Ð»"
      ],
      [
        "ÐµÐ½Ð¸",
        "ÐµÐ¼"
      ],
      [
        "ĠÐ¿",
        "Ð¾Ð·"
      ],
      [
        "ĠÐĶ",
        "Ð°"
      ],
      [
        "ĠÐ·",
        "Ð°Ð±"
      ],
      [
        "ĠÑģ",
        "Ð´ÐµÐ»"
      ],
      [
        "ĠÐ³",
        "Ð´Ðµ"
      ],
      [
        "Ñĥ",
        "Ð³"
      ],
      [
        "Ñı",
        "Ñī"
      ],
      [
        "Ð¸Ð»",
        "ÑĮ"
      ],
      [
        "ÑĤÑĮ",
        "ÑģÑı"
      ],
      [
        "ĠÐĿ",
        "Ðµ"
      ],
      [
        "ĠÐ´",
        "ÐµÐ²"
      ],
      [
        "ÐµÐ½Ð¸",
        "Ð¸"
      ],
      [
        "Ð°Ð½Ð¸",
        "Ðµ"
      ],
      [
        "Ð»",
        "Ðµ"
      ],
      [
        "ĠÐ±ÑĥÐ´",
        "ÐµÑĤ"
      ],
      [
        "Ð»",
        "Ð°Ð´"
      ],
      [
        "ĠÐ¿ÑĢ",
        "Ð°Ð²"
      ],
      [
        "ĠÐ·",
        "Ð°Ðº"
      ],
      [
        "ÑģÑĤ",
        "ÑĥÐ¿"
      ],
      [
        "ĠÐ½Ð°",
        "Ñĩ"
      ],
      [
        "ÐµÐ½",
        "Ð°"
      ],
      [
        "ĠÐ´",
        "Ð¾Ð»Ð¶"
      ],
      [
        "ĠÐ³Ð¾",
        "Ð»Ð¾Ð²"
      ],
      [
        "ĠÑįÑĤÐ¾",
        "ÑĤ"
      ],
      [
        "Ð»Ñĭ",
        "Ð±"
      ],
      [
        "ĠÐ",
        "¤"
      ],
      [
        "ĠÐº",
        "ÑĢÐ°Ñģ"
      ],
      [
        "ĠÐ»Ð¸",
        "ÑĨ"
      ],
      [
        "ÑĪÐ¸",
        "ÑģÑĮ"
      ],
      [
        "ĠÐ¸",
        "ÑģÐ¿"
      ],
      [
        "ĠÐ±",
        "ÐµÑģ"
      ],
      [
        "ĠÐĴ",
        "Ñĭ"
      ],
      [
        "o",
        "r"
      ],
      [
        "Ð¸Ð½",
        "ÑĥÑĤ"
      ],
      [
        "ÑĢÑĥ",
        "Ð¶"
      ],
      [
        "Ð½",
        "ÐµÐ¹"
      ],
      [
        "ĠÑĤ",
        "Ð¾Ð¼"
      ],
      [
        "ĠÑģÐºÐ°Ð·",
        "Ð°Ð»Ð°"
      ],
      [
        "Ð°Ð¶",
        "Ð´"
      ],
      [
        "Ð¸Ð»Ð¸",
        "ÑģÑĮ"
      ],
      [
        "Ñı",
        "Ð·"
      ],
      [
        "ĠÐ½Ð°",
        "ÑĪ"
      ],
      [
        "ĠÐ½",
        "ÐµÐ²"
      ],
      [
        "ĠÐ´",
        "Ð°Ð¶Ðµ"
      ],
      [
        "ĠÐ¾ÑĤ",
        "Ðº"
      ],
      [
        "ĠÐ¾ÑĤÐ²",
        "ÐµÑĤ"
      ],
      [
        "âĢ",
        "Ķ"
      ],
      [
        "ĠÐ¿ÑĢ",
        "Ð¸Ð½"
      ],
      [
        "ĠÑħ",
        "Ð¾ÑĢÐ¾ÑĪ"
      ],
      [
        "Ġa",
        "nd"
      ],
      [
        "Ġ",
        "d"
      ],
      [
        "ĠÑĥ",
        "Ð»ÑĭÐ±"
      ],
      [
        "Ð¿",
        "ÐµÑĢ"
      ],
      [
        "ĠÐ½",
        "Ð¸Ð¼"
      ],
      [
        "ĠÐºÐ¾ÑĤÐ¾ÑĢ",
        "ÑĭÐµ"
      ],
      [
        "Ð¸ÑĤÐµÐ»ÑĮ",
        "Ð½Ð¾"
      ],
      [
        "ĠÐ½",
        "ÐµÑĤ"
      ],
      [
        "ĠÐ¿ÑĢ",
        "Ð¾Ð´"
      ],
      [
        "Ð¾ÑĤ",
        "ÑĢ"
      ],
      [
        "ĠÑįÑĤ",
        "Ð¾Ð¼"
      ],
      [
        "Ð¾Ð¶",
        "Ðµ"
      ],
      [
        "Ġt",
        "o"
      ],
      [
        "ĠÐ²",
        "Ð°ÑĪ"
      ],
      [
        "a",
        "s"
      ],
      [
        "ÑģÐº",
        "Ð¸Ð¹"
      ],
      [
        "Ð½Ð¸",
        "ÑĨ"
      ],
      [
        "Ð¾ÑģÑĤ",
        "ÑĮ"
      ],
      [
        "ĠÑĢ",
        "ÐµÑĪ"
      ],
      [
        "Ð¾",
        "Ñħ"
      ],
      [
        "ĠÐ´",
        "ÐµÐ½ÑĮ"
      ],
      [
        "ĠÑĥ",
        "ÑĤ"
      ],
      [
        "ÑĮ",
        "ÐµÑĢ"
      ],
      [
        "ĠÐ¼Ð¾Ð»",
        "Ð¾Ð´"
      ],
      [
        "Ġ",
        "I"
      ],
      [
        "ĠÐ»Ñİ",
        "Ð´"
      ],
      [
        "ĠÑĢ",
        "Ð°Ð´"
      ],
      [
        "Ñĭ",
        "ÑĤ"
      ],
      [
        "Ñı",
        "Ð»"
      ],
      [
        "ĠÐ¼",
        "Ð°Ð»"
      ],
      [
        "Ð»Ð¾",
        "Ñģ"
      ],
      [
        "ĠÐ½",
        "ÐµÐ´"
      ],
      [
        "Ð¾ÑĢ",
        "Ð´"
      ],
      [
        "ĠÑģ",
        "ÐµÑĢÐ´"
      ],
      [
        "Ð²",
        "Ð¾"
      ],
      [
        "Ð°Ð½",
        "Ð¾Ð²"
      ],
      [
        "Ñİ",
        "ÑĤ"
      ],
      [
        "ĠÐ±Ð¾Ð»",
        "ÐµÐµ"
      ],
      [
        "ĠÐ¼",
        "Ð¸Ð½ÑĥÑĤ"
      ],
      [
        "ĠÐ±Ð¾Ð»ÑĮ",
        "ÑĪÐµ"
      ],
      [
        "ĠÐ¼",
        "ÑĥÐ¶"
      ],
      [
        "Ð½Ðµ",
        "Ðµ"
      ],
      [
        "ÑĤ",
        "Ñĭ"
      ],
      [
        "Ñĥ",
        "Ñģ"
      ],
      [
        "ĠÐŃ",
        "Ð¼"
      ],
      [
        "ĠÐ²Ð·",
        "Ð³Ð»Ñı"
      ],
      [
        "ĠÑĥ",
        "Ð±"
      ],
      [
        "ĠÐ²",
        "Ð¾Ð»"
      ],
      [
        "ĠÐ½Ð¸Ñĩ",
        "ÐµÐ³Ð¾"
      ],
      [
        "ĠÐºÐ¾Ð¼",
        "Ð½Ð°"
      ],
      [
        "Ð¿",
        "Ð¾ÑĢ"
      ],
      [
        "ĠÐ²",
        "Ð¾Ñģ"
      ],
      [
        "ÐµÐ³",
        "Ð´Ð°"
      ],
      [
        "o",
        "m"
      ],
      [
        "Ġ",
        "in"
      ],
      [
        "Ð¼",
        "Ð°"
      ],
      [
        "ĠÐ·",
        "Ð°Ð¿"
      ],
      [
        "ĠÐ¼",
        "ÐµÑģÑĤ"
      ],
      [
        "ÑĪÐ¸",
        "Ðµ"
      ],
      [
        "Ð½Ð¸",
        "Ð±"
      ],
      [
        "ĠÑģÐ²Ð¾",
        "Ñİ"
      ],
      [
        "l",
        "e"
      ],
      [
        "Ð½Ð¸Ð±",
        "ÑĥÐ´ÑĮ"
      ],
      [
        "ÑĩÐ°",
        "ÑģÑĤ"
      ],
      [
        "ĠÐ¶",
        "ÐµÐ»"
      ],
      [
        "a",
        "n"
      ],
      [
        "ÑĢÐ°Ð½",
        "ÑĨ"
      ],
      [
        "ĠÐ§",
        "ÑĤÐ¾"
      ],
      [
        "a",
        "r"
      ],
      [
        "Ð½Ð¸",
        "Ðµ"
      ],
      [
        "ĠÐ±Ð¾Ð»ÑĮ",
        "ÑĪ"
      ],
      [
        "Â",
        "ł"
      ],
      [
        "ĠÐ´",
        "Ð¾ÑĢ"
      ],
      [
        "ĠÐ¼",
        "Ð¸Ð»"
      ],
      [
        "ÑĢÐ°",
        "Ñī"
      ],
      [
        "Ð¸",
        "Ð³"
      ],
      [
        "ĠÐ³Ð¾",
        "Ð»Ð¾Ñģ"
      ],
      [
        "Ð°Ñİ",
        "Ñī"
      ],
      [
        "ĠÐ¿",
        "Ð¾Ð¿"
      ],
      [
        "Ñĩ",
        "Ð°Ñģ"
      ],
      [
        "Ġ",
        "he"
      ],
      [
        "Ñı",
        "Ð²"
      ],
      [
        "ÑģÐº",
        "Ð¾Ð»ÑĮÐºÐ¾"
      ],
      [
        "ÑģÐº",
        "Ð¾Ð¹"
      ],
      [
        "ĠÐ·",
        "Ð°Ð²"
      ],
      [
        "Ð¸Ð»Ð¾",
        "ÑģÑĮ"
      ],
      [
        "a",
        "t"
      ],
      [
        "ÑģÐº",
        "Ð¾Ð³Ð¾"
      ],
      [
        "\"",
        "."
      ],
      [
        "Ð¾",
        "Ð½Ð°"
      ],
      [
        "Ð¸ÑĤ",
        "ÑģÑı"
      ],
      [
        "ĠÐ¿",
        "Ð»Ð°"
      ],
      [
        "ĠÐĶÐ¶",
        "ÑĥÐ»Ð¸"
      ],
      [
        "ĠÐ²ÑģÐµ",
        "Ñħ"
      ],
      [
        "Ð²",
        "Ð¾ÑĢ"
      ],
      [
        "ÑĢ",
        "ÐµÐ½"
      ],
      [
        "ĠÐ³Ð¾",
        "ÑĢ"
      ],
      [
        "Ð¾Ð²",
        "Ð¾Ð»ÑĮ"
      ],
      [
        "ĠÑģÐ²Ð¾",
        "ÐµÐ³Ð¾"
      ],
      [
        "ĠÐ¶ÐµÐ½",
        "Ñī"
      ],
      [
        "ĠÑįÑĤ",
        "Ð¾Ð¹"
      ],
      [
        "Ð½",
        "Ð°Ðº"
      ],
      [
        "Ñı",
        "Ð´"
      ],
      [
        "ĠÑģÐ¿ÑĢ",
        "Ð¾Ñģ"
      ],
      [
        "Ñĩ",
        "Ðµ"
      ],
      [
        "Ð¶",
        "Ðµ"
      ],
      [
        "ĠÐŁ",
        "ÑĮÐµÑĢ"
      ],
      [
        "ĠÐ¿ÐµÑĢ",
        "Ð²"
      ],
      [
        "ĠÐ¿ÑĢ",
        "Ð¾ÑģÑĤ"
      ],
      [
        "Ñĩ",
        "Ð½Ð¾"
      ],
      [
        "ĠÐ´",
        "Ð¾ÑģÑĤ"
      ],
      [
        "Ð°ÐµÑĤ",
        "ÑģÑı"
      ],
      [
        "ÑĤ",
        "Ñĥ"
      ],
      [
        "Ġo",
        "f"
      ],
      [
        "ĠÐ¿",
        "Ð»"
      ],
      [
        "Ð°",
        "ÑģÑĤ"
      ],
      [
        "Ð¿",
        "Ð¾Ð¼"
      ],
      [
        "Ġ",
        "h"
      ],
      [
        "ÑĤ",
        "ÐµÑĢ"
      ],
      [
        "ÐµÑģÑĤ",
        "Ð¸"
      ],
      [
        "ĠÐº",
        "Ð°ÑĢ"
      ],
      [
        "ĠÐ¾Ð´",
        "Ð¸Ð½"
      ],
      [
        "Ð²",
        "ÐµÑĢ"
      ],
      [
        "ĠÐ²",
        "ÐµÑĩ"
      ],
      [
        "Ð°Ð",
        "³Ð¾"
      ],
      [
        "ĠÐ",
        "¥"
      ],
      [
        "ĠÐº",
        "Ð°Ð·"
      ],
      [
        "ĠÐ»",
        "ÑĥÑĩ"
      ],
      [
        "ĠÐ²",
        "Ð´"
      ],
      [
        "ÑĢÑĥ",
        "Ð´"
      ],
      [
        "ĠÐ¡",
        "ÑĤ"
      ],
      [
        "ĠÐĿ",
        "Ñĥ"
      ],
      [
        "ÐµÑĢ",
        "ÑĪ"
      ],
      [
        "l",
        "l"
      ],
      [
        "Ð¾Ðº",
        "Ð¾Ð¹"
      ],
      [
        "ĠÐ²Ñģ",
        "ÐµÐ³Ð´Ð°"
      ],
      [
        "ĠÐ¿Ð¾ÑģÐ»",
        "Ðµ"
      ],
      [
        "ĠÐ¼Ð¸ÑģÑĤ",
        "ÐµÑĢ"
      ],
      [
        "ĠÐ½Ð¸Ðº",
        "Ð¾Ð³Ð´Ð°"
      ],
      [
        "ĠÐ²",
        "ÑģÑı"
      ],
      [
        "Ð",
        "Ķ"
      ],
      [
        "Ð¾Ð²",
        "Ð°Ð»"
      ],
      [
        "ĠÐ¿ÑĢÐ¾Ð´",
        "Ð¾Ð»Ð¶"
      ],
      [
        "ÑĢÐ¾",
        "ÑĥÐ»Ð¸"
      ],
      [
        "Ð»Ð°",
        "ÑģÑĮ"
      ],
      [
        "ĠÐ¿ÑĢ",
        "Ð¾ÑĤ"
      ],
      [
        "Ñı",
        "Ð¼"
      ],
      [
        "Ñĭ",
        "Ð¼Ð¸"
      ],
      [
        "ĠÐ¾Ñģ",
        "Ð¾Ð±"
      ],
      [
        "ĠÑĤÐµÐ±",
        "Ñı"
      ],
      [
        "ÐµÐ¶",
        "Ð´Ñĥ"
      ],
      [
        "ĠÐ½Ð°",
        "Ñģ"
      ],
      [
        "ĠÐ½",
        "Ð°Ð¼"
      ],
      [
        "Ð¾Ð»",
        "Ðµ"
      ],
      [
        "ÐµÐ½",
        "Ð½ÑĭÐ¹"
      ],
      [
        "e",
        "s"
      ],
      [
        "ĠÐ²Ñģ",
        "ÐµÐ¼"
      ],
      [
        "ĠÐ½",
        "Ð¸Ñħ"
      ],
      [
        "Ð²",
        "Ð°"
      ],
      [
        "ĠÐ¼Ð¸ÑģÑģ",
        "Ð¸Ñģ"
      ],
      [
        "ĠÑĤÐ¾",
        "ÑĤ"
      ],
      [
        "ĠÐ°",
        "ÑĢ"
      ],
      [
        "Ġ",
        "ÑĢÐ°"
      ],
      [
        "Ð½",
        "ÑĮ"
      ],
      [
        "Ð¸",
        "Ð´Ð°"
      ],
      [
        "Ð½",
        "Ð¾Ð¼Ñĥ"
      ],
      [
        "ĠÐ½Ðµ",
        "Ñģ"
      ],
      [
        "ÐµÐ´",
        "ÑĮ"
      ],
      [
        "Ð¿ÑĢ",
        "Ð°Ð²"
      ],
      [
        "ĠÐ²",
        "Ð¾ÑĤ"
      ],
      [
        "Ġ",
        "l"
      ],
      [
        "ĠÑģ",
        "Ð¾ÑģÑĤ"
      ],
      [
        "ÑģÑĤ",
        "ÑĢÐ¾"
      ],
      [
        "ĠÐ¸",
        "ÑģÐº"
      ],
      [
        "ĠÑģÐ»",
        "ÑĥÑĩ"
      ],
      [
        "ÑĢ",
        "ÐµÐ¹"
      ],
      [
        "Ñĥ",
        "Ð½"
      ],
      [
        "ĠÐ²Ñĭ",
        "Ñģ"
      ],
      [
        "Ð±",
        "Ñĭ"
      ],
      [
        "Ð³",
        "Ð¾Ð²Ð¾ÑĢ"
      ],
      [
        "ĠÐ½",
        "Ð¾Ð²"
      ],
      [
        "ĠÐ³Ð¾Ð²Ð¾ÑĢ",
        "Ð¸Ð»"
      ],
      [
        "ÑĢ",
        "ÐµÐ´"
      ],
      [
        "ĠÑĩ",
        "Ð°Ñģ"
      ],
      [
        "Ð¼",
        "ÐµÑģÑĤ"
      ],
      [
        "ĠÐµ",
        "ÑģÑĤÑĮ"
      ],
      [
        "ĠÐ´Ð¾ÑĢ",
        "Ð¾Ð³"
      ],
      [
        "Ð¸Ð½",
        "Ðµ"
      ],
      [
        "ĠÐ¸Ð·",
        "Ð²"
      ],
      [
        "ĠÑįÑĤ",
        "Ð¸"
      ],
      [
        "Ġ",
        "p"
      ],
      [
        "ĠÐ¸",
        "Ð½"
      ],
      [
        "ÑĤ",
        "ÑĢ"
      ],
      [
        "ĠÑĥÐ²",
        "Ð¸Ð´"
      ],
      [
        "Ð²",
        "Ñĭ"
      ],
      [
        "Ð¸Ñĩ",
        "ÐµÑģÐº"
      ],
      [
        "Ð½Ð¸",
        "ÐºÐ°"
      ],
      [
        "ĠÐļ",
        "ÑĢÐ¾ÑĥÐ»Ð¸"
      ],
      [
        "ÑĪ",
        "ÐµÐ»"
      ],
      [
        "ĠÑĤÐµÐ±",
        "Ðµ"
      ],
      [
        "ĠÐ¿",
        "Ð¾Ð¶"
      ],
      [
        "ÐµÐ¹",
        "ÑģÑĤÐ²"
      ],
      [
        "ĠÐĿ",
        "Ð¸Ðº"
      ],
      [
        "Ð´Ðµ",
        "ÑģÑĮ"
      ],
      [
        "ĠÐ¼",
        "Ð¾Ð¹"
      ],
      [
        "Ð¾Ð´",
        "Ð°"
      ],
      [
        "ĠÐ´",
        "Ð¾Ð»"
      ],
      [
        "Ð±",
        "Ð¾ÑĢ"
      ],
      [
        "ĠÐ¿Ð¾",
        "Ñģ"
      ],
      [
        "ÐµÐº",
        "ÑĢÐ°Ñģ"
      ],
      [
        "Ð¾Ð²",
        "Ð°ÑĤÑĮ"
      ],
      [
        "ÑĢ",
        "Ð°Ð´"
      ],
      [
        "ĠÑĥ",
        "Ð·"
      ],
      [
        "ĠÐ¿",
        "Ð¾Ð³"
      ],
      [
        "Ð¼",
        "Ð¾Ð¶"
      ],
      [
        "ÑĢ",
        "ÑĭÐ²"
      ],
      [
        "Ñĥ",
        "Ð»"
      ],
      [
        "Ñĥ",
        "Ñī"
      ],
      [
        "ĠÐ½",
        "ÑĥÐ¶"
      ],
      [
        "ĠÐ¿ÑĢÐ¾",
        "Ð¸Ð·"
      ],
      [
        "Ð¸",
        "Ñī"
      ],
      [
        "Ñĩ",
        "Ð¸Ð²"
      ],
      [
        "Ð»ÑĮ",
        "Ð±"
      ],
      [
        "Ġ",
        "âĢĶ"
      ],
      [
        "ĠÐ¿Ð¾ÑģÐ»",
        "ÐµÐ´"
      ],
      [
        "Ð±",
        "Ð¾"
      ],
      [
        "Ðº",
        "Ð°Ð¼Ð¸"
      ],
      [
        "ÐºÐ¸",
        "Ð¹"
      ],
      [
        "ĠÐ±",
        "Ð¾Ð³"
      ],
      [
        "ĠÐ´",
        "Ð°"
      ],
      [
        "Ð½Ð¾",
        "Ñģ"
      ],
      [
        "Ð¾ÑĢÐ´",
        "Ð¶"
      ],
      [
        "ĠÑĥ",
        "ÑģÐ¿"
      ],
      [
        "ĠÐ¿",
        "Ð¾Ð±"
      ],
      [
        "Ð½Ð¸",
        "Ñı"
      ],
      [
        "ĠÑĤ",
        "Ð°Ð¼"
      ],
      [
        "Ð¸",
        "ÑģÑĮ"
      ],
      [
        "Ġ",
        "g"
      ],
      [
        "ÑĤ",
        "Ð°Ðº"
      ],
      [
        "ÐµÐ½",
        "Ñĭ"
      ],
      [
        "ÐµÐ½Ð¸",
        "Ñİ"
      ],
      [
        "Ð°Ð¹",
        "ÑĤÐµ"
      ],
      [
        "ĠÐ¿Ð¾",
        "ÑģÑĤ"
      ],
      [
        "ĠÐ·",
        "Ð²"
      ],
      [
        "Ð¸",
        "Ð½Ñĭ"
      ],
      [
        "ĠÐº",
        "ÑĤÐ¾"
      ],
      [
        "ĠÑģ",
        "Ñĭ"
      ],
      [
        "ĠÐ²",
        "ÐµÑģ"
      ],
      [
        "Ðµ",
        "ÑģÑı"
      ],
      [
        "ĠÑģÐ»",
        "ÐµÐ´"
      ],
      [
        "ĠÐ½",
        "Ð°Ðº"
      ],
      [
        "Ð¸Ð²",
        "ÑĪ"
      ],
      [
        "ĠÐºÐ½ÑıÐ·",
        "ÑĮ"
      ],
      [
        "Ð¸Ð¼",
        "Ð¾"
      ],
      [
        "Ð½Ñĥ",
        "Ð²"
      ],
      [
        "ĠÐĲ",
        "Ð»ÑĮÐ±"
      ],
      [
        "ĠÐŁ",
        "ÑĢ"
      ],
      [
        "Ðµ",
        "ÑģÑĮ"
      ],
      [
        "ĠÐ±",
        "ÐµÐ´"
      ],
      [
        "\"",
        ","
      ],
      [
        "ĠÐ·",
        "Ð°ÑĤ"
      ],
      [
        "ĠÑģÐ»",
        "ÑĭÑĪ"
      ],
      [
        "Ð°",
        "Ð½Ð°"
      ],
      [
        "ĠÑħÐ¾ÑĤ",
        "Ñı"
      ],
      [
        "ĠÐ½Ðµ",
        "ÑģÐºÐ¾Ð»ÑĮÐºÐ¾"
      ],
      [
        "ĠÑįÑĤ",
        "Ñĥ"
      ],
      [
        "ĠÐĿ",
        "Ð°"
      ],
      [
        "ĠÐºÐ¾ÑĤÐ¾ÑĢ",
        "Ð¾Ð¹"
      ],
      [
        "ĠÐº",
        "Ð°Ð¿"
      ],
      [
        "Ð¾",
        "Ñİ"
      ],
      [
        "ĠÑģ",
        "Ð¸Ð´"
      ],
      [
        "ĠÐ½",
        "Ð°Ð·"
      ],
      [
        "ĠÐ½",
        "Ð¾Ñĩ"
      ],
      [
        "ĠÐ·",
        "Ð°Ð´"
      ],
      [
        "ĠÑĢÑĥ",
        "ÐºÑĥ"
      ],
      [
        "Ðµ",
        "Ñı"
      ],
      [
        "ĠÑĥ",
        "Ð³"
      ],
      [
        "ĠÑģ",
        "Ð¾Ð»"
      ],
      [
        "ĠÐĲÐ»ÑĮÐ±",
        "ÐµÑĢÑĤ"
      ],
      [
        "ĠÐ¾",
        "ÑģÑĤÐ°Ð²"
      ],
      [
        "ĠÐ¢",
        "Ñĭ"
      ],
      [
        "Ð½",
        "Ñİ"
      ],
      [
        "ĠÑĤÐ°Ðº",
        "Ð¾Ð¹"
      ],
      [
        "ĠÐ¶Ð¸Ð·",
        "Ð½Ð¸"
      ],
      [
        "ĠÐ»Ð¸ÑĨ",
        "Ð¾"
      ],
      [
        "ÐµÑĤ",
        "Ñĭ"
      ],
      [
        "Ð°",
        "Ð½Ð¾"
      ],
      [
        "ĠÐ¼Ð°Ð»",
        "ÐµÐ½ÑĮ"
      ],
      [
        "ĠÐµ",
        "Ð´"
      ],
      [
        "ĠÑģÐ²Ð¾",
        "Ð¸Ñħ"
      ],
      [
        "ĠÐ¢",
        "Ð°Ðº"
      ],
      [
        "Ð»",
        "ÐµÐº"
      ],
      [
        "ĠÐĶÐ¶",
        "Ð¾ÑĢÐ´Ð¶"
      ],
      [
        "ĠÐ³Ð»Ð°Ð·",
        "Ð°"
      ],
      [
        "ĠÑģ",
        "ÑĤÐ¾ÑĢ"
      ],
      [
        "ĠÑĢÐ°Ñģ",
        "ÑģÐº"
      ],
      [
        "Ð°Ð½",
        "Ð´"
      ],
      [
        "Ð²",
        "Ð¾Ð»"
      ],
      [
        "ÑĢÑĥ",
        "Ñİ"
      ],
      [
        "ĠÐ±ÑĥÐ´",
        "ÑĤÐ¾"
      ],
      [
        "ĠÑģÐ¾Ð²",
        "ÐµÑĢÑĪ"
      ],
      [
        "Ð³",
        "Ð¸"
      ],
      [
        "ĠÐĶÐ¶ÑĥÐ»Ð¸",
        "Ñı"
      ],
      [
        "ĠÑĥ",
        "Ðº"
      ],
      [
        "ĠÑģÐ²Ð¾",
        "Ðµ"
      ],
      [
        "ĠÐ½Ð°Ð´",
        "Ð¾"
      ],
      [
        "ĠÐļ",
        "Ð¾Ð³Ð´Ð°"
      ],
      [
        "ÐµÑģÑĤ",
        "ÑĮ"
      ],
      [
        "ĠÑĤ",
        "Ðµ"
      ],
      [
        "ĠÐ²",
        "ÑģÑĤÑĢ"
      ],
      [
        "Ñĩ",
        "Ð¸Ðº"
      ],
      [
        "Ġ",
        "ha"
      ],
      [
        "ĠÐ½",
        "Ð°Ð²"
      ],
      [
        "ĠÑģÐ²Ð¾",
        "Ð¸Ð¼"
      ],
      [
        "ÐµÑĤ",
        "Ð°"
      ],
      [
        "ĠÐ",
        "ĸ"
      ],
      [
        "ĠÐľ",
        "Ð°ÑĢ"
      ],
      [
        "ĠÑĥ",
        "Ñģ"
      ],
      [
        "ĠÐ²ÐµÐ»",
        "Ð¸Ðº"
      ],
      [
        "ĠÐ¿Ð¾ÑĤ",
        "Ð¾Ð¼Ñĥ"
      ],
      [
        "Ð¾ÑĢ",
        "Ð°"
      ],
      [
        "ĠÐ¿Ð¾",
        "Ð½Ñı"
      ],
      [
        "ĠÐ¿ÑĢ",
        "Ð¾Ð²"
      ],
      [
        "ÐµÐº",
        "Ð¾"
      ],
      [
        "ĠÑģÐ²Ð¾",
        "Ð¸"
      ],
      [
        "ĠÐ±Ð»",
        "Ð°Ð³"
      ],
      [
        "ĠÐºÐ¾ÑĤÐ¾",
        "ÑĢÐ°Ñı"
      ],
      [
        "ÑĢÐ°Ð½ÑĨ",
        "ÑĥÐ·"
      ],
      [
        "ĠÐ²Ð¾",
        "ÑģÐº"
      ],
      [
        "ĠÐ·Ð°Ð¼",
        "ÐµÑĤ"
      ],
      [
        "ĠĠ",
        "Ċ"
      ],
      [
        "ĠÐŀ",
        "Ð´"
      ],
      [
        "Ð½",
        "Ð³"
      ],
      [
        "Ð»",
        "Ð¾Ð½"
      ],
      [
        "ÑĢÐ°",
        "ÑĪ"
      ],
      [
        "ĠÑĥÐ¶",
        "Ð°Ñģ"
      ],
      [
        "Ð»",
        "Ð°Ð²"
      ],
      [
        "ĠÑģÐºÐ°Ð·",
        "Ð°ÑĤÑĮ"
      ],
      [
        "ĠÐ¿ÑĢÐµÐ´",
        "ÑģÑĤÐ°Ð²"
      ],
      [
        "Ð½ÑĥÐ»",
        "ÑģÑı"
      ],
      [
        "Ñį",
        "ÑĢ"
      ],
      [
        "ĠÐĲÐ½Ð´",
        "ÑĢÐµÐ¹"
      ],
      [
        "ĠÐ¼",
        "ÐµÐ¶Ð´Ñĥ"
      ],
      [
        "Ð¿",
        "Ð¾Ð´"
      ],
      [
        "Ñĥ",
        "ÑģÐº"
      ],
      [
        "ĠÐ¿",
        "Ð°ÑĢ"
      ],
      [
        "Ð²",
        "Ðµ"
      ],
      [
        "ĠÐ·",
        "Ð´ÐµÑģÑĮ"
      ],
      [
        "ĠÐ²",
        "Ð¼ÐµÑģÑĤ"
      ],
      [
        "ĠÐĿ",
        "ÐµÑĤ"
      ],
      [
        "ĠÐºÐ¾ÑĤÐ¾ÑĢ",
        "Ð¾Ð³Ð¾"
      ],
      [
        "Ñģ",
        "ÐµÐ¼"
      ],
      [
        "Ñĥ",
        "ÑīÐµ"
      ],
      [
        "ĠÐ»",
        "ÐµÑĤ"
      ],
      [
        "Ð¾Ð²",
        "Ð°Ð»Ð°"
      ],
      [
        "ha",
        "t"
      ],
      [
        "Ð¾Ð²",
        "Ð°"
      ],
      [
        "ĠÑħ",
        "Ð¾Ñĩ"
      ],
      [
        "Ð",
        "Ł"
      ],
      [
        "ÐµÐ»",
        "Ñı"
      ],
      [
        "ĠÐº",
        "Ð°Ð¶Ð´"
      ],
      [
        "Ð²",
        "Ð¸"
      ],
      [
        "ĠÑĥ",
        "Ñĩ"
      ],
      [
        "ĠÐ¿ÑĢ",
        "Ð¾ÑĪ"
      ],
      [
        "Ð»Ð¸",
        "Ðº"
      ],
      [
        "ÐµÐ½Ð¸",
        "Ð¹"
      ],
      [
        "ĠÐ¿ÑĢÐ¸",
        "Ðº"
      ],
      [
        "ĠÐ¿Ð¾Ð»",
        "Ð¾Ð¶"
      ],
      [
        "Ð",
        "ļ"
      ],
      [
        "ĠÐŃÐ¼",
        "Ð¸Ð»Ð¸"
      ],
      [
        "Ð»Ð°",
        "Ñģ"
      ],
      [
        "ÐµÐ½",
        "Ð½Ð¾Ð¹"
      ],
      [
        "ĠÐĴ",
        "ÑģÐµ"
      ],
      [
        "ĠÑģÐº",
        "Ð¾ÑĢ"
      ],
      [
        "Ð¸",
        "Ñİ"
      ],
      [
        "Ð½",
        "ÐµÐ²"
      ],
      [
        "ĠÐ¾",
        "Ð¶"
      ],
      [
        "ĠÐ·Ð½Ð°",
        "Ñİ"
      ],
      [
        "Ñı",
        "Ð¶"
      ],
      [
        "Ð²",
        "Ð°ÑĤ"
      ],
      [
        "ĠÑĤÐ¾",
        "Ð»"
      ],
      [
        "Ð",
        "Ĵ"
      ],
      [
        "ĠÑģ",
        "ÐµÐ¼"
      ],
      [
        "ĠÐ¿ÑĢ",
        "ÐµÐºÑĢÐ°Ñģ"
      ],
      [
        "ĠÐ¶",
        "Ð¸Ð²"
      ],
      [
        "ÐºÐ°",
        "Ñħ"
      ],
      [
        "o",
        "w"
      ],
      [
        "ĠÐ½",
        "Ð¾Ð³"
      ],
      [
        "ĠÐ¿ÑĢ",
        "Ð¾Ñģ"
      ],
      [
        "ÑģÑĤÐ²",
        "ÐµÐ½Ð½Ð¾"
      ],
      [
        "ĠÐ¾",
        "Ð³"
      ],
      [
        "Ñĭ",
        "Ðº"
      ],
      [
        "ĠÐ¼Ð¾Ð³",
        "Ð»Ð°"
      ],
      [
        "ĠÑĢ",
        "Ð¾Ð´"
      ],
      [
        "ĠÐ¿Ð¾",
        "Ð½Ð¸Ð¼"
      ],
      [
        "ĠÐ½Ð°",
        "ÑģÑĤ"
      ],
      [
        "Ð",
        "¡"
      ],
      [
        "Ñĥ",
        "Ðº"
      ],
      [
        "ĠÐ¸",
        "Ð³"
      ],
      [
        "Ñı",
        "Ð½"
      ],
      [
        "Ð°Ð½",
        "ÑĤ"
      ],
      [
        "Ð¾Ðº",
        "Ð¾"
      ],
      [
        "Ñİ",
        "Ñī"
      ],
      [
        "ĠÐ²Ñģ",
        "ÐµÐ³Ð¾"
      ],
      [
        "ÐµÐ¹",
        "ÑĩÐ°Ñģ"
      ],
      [
        "Ð½Ñĥ",
        "ÑĤÑĮ"
      ],
      [
        "ĠÐ¿ÑĢÐ¸",
        "Ð·"
      ],
      [
        "Ð½Ð¾ÑģÑĤÑĮ",
        "Ñİ"
      ],
      [
        "Ð»Ð¸",
        "ÑĪ"
      ],
      [
        "Ð»Ð¸",
        "ÑģÑĮ"
      ],
      [
        "ĠÐĿ",
        "Ð°ÑĤ"
      ],
      [
        "ÑĥÐ¶",
        "Ð´"
      ],
      [
        "ÑĦ",
        "Ð¸ÑĨ"
      ],
      [
        "Ð¾Ð²",
        "ÑĮ"
      ],
      [
        "ĠÐ²ÐµÑĩ",
        "ÐµÑĢ"
      ],
      [
        "Ġw",
        "as"
      ],
      [
        "ĠÐ¿Ð¾Ð»",
        "ÑĥÑĩ"
      ],
      [
        "u",
        "t"
      ],
      [
        "ĠÐºÐ°Ðº",
        "Ð¾Ð¹"
      ],
      [
        "Ð°",
        "ÐµÐ¼"
      ],
      [
        "ĠÐ½",
        "ÐµÐ±"
      ],
      [
        "Ð½Ð°Ðº",
        "Ð¾"
      ],
      [
        "ĠÐºÐ¾ÑĤÐ¾ÑĢ",
        "Ð¾Ðµ"
      ],
      [
        "ĠÐ¸",
        "ÑģÑĤ"
      ],
      [
        "ĠÐ¿ÑĢ",
        "Ð¾Ð³"
      ],
      [
        "Ð¸",
        "ÑĢÐ°"
      ],
      [
        "ÑģÑĤÐ²",
        "Ðµ"
      ],
      [
        "ĠÐ",
        "¨"
      ],
      [
        "l",
        "y"
      ],
      [
        "ĠÐ´",
        "Ð°Ð²"
      ],
      [
        "ĠÐ³",
        "ÑĢ"
      ],
      [
        "ĠÐ½Ð°",
        "ÑħÐ¾Ð´"
      ],
      [
        "Ð°Ð´",
        "ÑĨ"
      ],
      [
        "ĠÑģÐ²",
        "ÐµÑĤ"
      ],
      [
        "ĠÑĥ",
        "ÑģÐ»"
      ],
      [
        "Ð½Ð¸",
        "Ñĩ"
      ],
      [
        "Ð»Ð¸",
        "Ñĩ"
      ],
      [
        "ĠÐºÐ¾ÑĤÐ¾",
        "ÑĢÑĥÑİ"
      ],
      [
        "Ġ",
        "n"
      ],
      [
        "ĠÐ±",
        "Ð°ÑĢ"
      ],
      [
        "ĠÑĤ",
        "ÑĥÑĤ"
      ],
      [
        "ĠÐĴ",
        "Ð¾ÑĤ"
      ],
      [
        "ĠÐł",
        "Ð¾Ð´"
      ],
      [
        "ĠÐ¿ÑĢÐ¾ÑĤ",
        "Ð¸Ð²"
      ],
      [
        "ĠÐ¼",
        "Ð¾Ñı"
      ],
      [
        "Ð·",
        "Ð°"
      ],
      [
        "ĠÑĥ",
        "ÑģÑĤ"
      ],
      [
        "Ð¾ÑĪ",
        "Ð°Ð´"
      ],
      [
        "ĠÐ·",
        "Ð°Ð³"
      ],
      [
        "ĠÐ¾ÑĤÐ²",
        "ÐµÑĩ"
      ],
      [
        "ĠÐ¾Ð±",
        "ÑĢÐ°Ð·"
      ],
      [
        "ĠÐŀ",
        "Ñģ"
      ],
      [
        "ĠÑģÐ»Ð¾Ð²",
        "Ð°"
      ],
      [
        "ĠÑĤ",
        "Ð¾Ð¼Ñĥ"
      ],
      [
        "Ð¾",
        "ÑıÑĤ"
      ],
      [
        "ĠÐ´",
        "ÐµÑĢ"
      ],
      [
        "ĠÐ»",
        "ÐµÐ³"
      ],
      [
        "ĠÑĩÐµÑĢ",
        "ÐµÐ·"
      ],
      [
        "ĠÑħÐ¾ÑĢÐ¾ÑĪ",
        "Ð¾"
      ],
      [
        "ĠÑģ",
        "Ð¸Ð»"
      ],
      [
        "Ð¾Ð½",
        "ÐµÑĨ"
      ],
      [
        "Ð»Ð¸ÑĪ",
        "ÐºÐ¾Ð¼"
      ],
      [
        "ĠÐ¾Ð±",
        "ÑĬ"
      ],
      [
        "Ð¼",
        "ÐµÐ½"
      ],
      [
        "i",
        "d"
      ],
      [
        "Ð",
        "ŀ"
      ],
      [
        "ĠÐ¿ÑĢÐ¸",
        "Ð±"
      ],
      [
        "ĠÐ²",
        "ÐµÑģÑĮ"
      ],
      [
        "Ñı",
        "Ñģ"
      ],
      [
        "Ð",
        "Ŀ"
      ],
      [
        "ĠÐ´",
        "ÑĢ"
      ],
      [
        "ĠÐ´ÐµÐ»",
        "Ð¾"
      ],
      [
        "ĠÐ±Ñĭ",
        "Ð²"
      ],
      [
        "Ð»",
        "ÐµÐ½Ð¸Ñı"
      ],
      [
        "ĠÐ´",
        "ÐµÐ¹ÑģÑĤÐ²"
      ],
      [
        "ĠÐº",
        "Ð°Ð¼"
      ],
      [
        "Ð¾Ð¶",
        "Ð´"
      ],
      [
        "ĠÐ²",
        "Ð¾Ð¿"
      ],
      [
        "ĠÐ¿Ð¾Ð´",
        "ÑĥÐ¼"
      ],
      [
        "ĠÐ¼Ð¾Ð¶",
        "Ð½Ð¾"
      ],
      [
        "s",
        "t"
      ],
      [
        "ĠÐ²",
        "Ð¾Ð¹"
      ],
      [
        "ĠÐ´",
        "Ñĥ"
      ],
      [
        "Ð¾Ð»",
        "Ð¾Ð´"
      ],
      [
        "ĠÐ¿ÑĢÐ¸",
        "Ð´"
      ],
      [
        "Ġ",
        "Ñİ"
      ],
      [
        "ĠÑģ",
        "Ð»Ð¸ÑĪÐºÐ¾Ð¼"
      ],
      [
        "ÑģÐº",
        "Ð¸Ñħ"
      ],
      [
        "Ð»",
        "Ð¾Ð¶"
      ],
      [
        "i",
        "c"
      ],
      [
        "ÑĪ",
        "ÐµÐ¹"
      ],
      [
        "ĠÐł",
        "Ð¾ÑģÑĤ"
      ],
      [
        "ĠÐ²Ð·Ð³Ð»Ñı",
        "Ð´"
      ],
      [
        "ÑĨ",
        "Ñĭ"
      ],
      [
        "ĠÐ¾Ð¿",
        "ÑıÑĤÑĮ"
      ],
      [
        "ĠÐ»",
        "Ð¾ÑĪÐ°Ð´"
      ],
      [
        "ĠÑģÐ²",
        "Ð¾Ð¹"
      ],
      [
        "Ð»",
        "ÐµÐ½Ð¸Ðµ"
      ],
      [
        "ĠÐ¾Ð±",
        "ÐµÐ´"
      ],
      [
        "ĠÐ´",
        "ÑĥÑĪ"
      ],
      [
        "Ð¸Ð½",
        "Ñı"
      ],
      [
        "Ð¼",
        "Ð¾"
      ],
      [
        "ĠÑĤ",
        "ÐµÑħ"
      ],
      [
        "ĠÐ¿",
        "Ð¸ÑģÑĮ"
      ],
      [
        "Ð´Ð°",
        "ÑĢ"
      ],
      [
        "Ġ",
        "e"
      ],
      [
        "Ð",
        "ĵ"
      ],
      [
        "ĠÑģ",
        "ÑĩÐ¸ÑĤ"
      ],
      [
        "ĠÐŁ",
        "Ð¾ÑĢ"
      ],
      [
        "ĠÐĶ",
        "Ð¾Ð±"
      ],
      [
        "ÑĩÐ°",
        "ÑģÑĤÑĮ"
      ],
      [
        "Ñĭ",
        "Ñĩ"
      ],
      [
        "Ð½Ð¸",
        "Ð¹"
      ],
      [
        "ĠÐ¾Ð±",
        "ÑĢÐ°ÑĤ"
      ],
      [
        "ĠÐ´Ð²",
        "Ð°"
      ],
      [
        "ĠÐ´ÐµÐ²",
        "ÑĥÑĪ"
      ],
      [
        "ĠÐ¼Ð¸Ð½ÑĥÑĤ",
        "Ñĥ"
      ],
      [
        "ĠÐĿÐ¸Ðº",
        "Ð¾Ð»"
      ],
      [
        "Ñĥ",
        "ÐµÑĤ"
      ],
      [
        "ĠÑĤ",
        "Ð¾Ð¶Ðµ"
      ],
      [
        "ĠÑįÑĤ",
        "Ð¸Ñħ"
      ],
      [
        "ÑĥÑİ",
        "Ñī"
      ],
      [
        "Ð¾Ð´",
        "Ñĥ"
      ],
      [
        "ĠÐ¼",
        "Ð½"
      ],
      [
        "ÐµÑģ",
        "Ñģ"
      ],
      [
        "Ð½Ð°",
        "Ñĩ"
      ],
      [
        "ĠÐ³Ð¾",
        "ÑģÑĤ"
      ],
      [
        "ĠÐ»ÑĥÑĩ",
        "ÑĪÐµ"
      ],
      [
        "ĠÐ·",
        "Ð°Ð½"
      ],
      [
        "ĠĠĠĠ",
        "ĠĠĠĠ"
      ],
      [
        "g",
        "h"
      ],
      [
        "ĠÐ¼",
        "Ð½Ð¾Ð³Ð¾"
      ],
      [
        "ĠÐ¿ÑĢ",
        "ÐµÐ¶"
      ],
      [
        "ÑģÐº",
        "Ð¾ÑĢ"
      ],
      [
        ".",
        "\""
      ],
      [
        "i",
        "m"
      ],
      [
        "Ð¸Ð²",
        "Ð°Ñı"
      ],
      [
        "Ð¸",
        "ÑĪÑĮ"
      ],
      [
        "Ð»",
        "ÐµÐ´"
      ],
      [
        "ĠÑģÐ¿",
        "Ð¾ÐºÐ¾Ð¹"
      ],
      [
        "ĠÐ³Ð¾Ð»Ð¾Ð²",
        "Ñĥ"
      ],
      [
        "ÑĩÐ°ÑģÑĤ",
        "Ð»Ð¸Ð²"
      ],
      [
        "Ð²",
        "ÐµÑĤ"
      ],
      [
        "ĠÑįÑĤ",
        "Ð¸Ð¼"
      ],
      [
        "Ð½Ð¾Ð²",
        "Ð°"
      ],
      [
        "ĠÐķ",
        "ÑģÐ»Ð¸"
      ],
      [
        "ĠÐ³Ð¾",
        "ÑģÐ¿"
      ],
      [
        "Ð»Ñı",
        "Ð´"
      ],
      [
        "ĠÑįÑĤ",
        "Ð°"
      ],
      [
        "ĠÐ´ÑĢÑĥÐ³",
        "Ð¾Ð¹"
      ],
      [
        "ĠÐŀÑģ",
        "Ð±Ð¾ÑĢ"
      ],
      [
        "ĠÐ»Ð¸",
        "ÑĪÑĮ"
      ],
      [
        "ĠÑģ",
        "ÐµÐ¹ÑĩÐ°Ñģ"
      ],
      [
        "ĠÐ¿Ð¾Ðº",
        "Ð°"
      ],
      [
        "Ðº",
        "Ð¾Ð½"
      ],
      [
        "ÐµÐ½",
        "Ð½ÑĭÐµ"
      ],
      [
        "Ñĭ",
        "Ð»"
      ],
      [
        "ÑģÑĤÐ²",
        "Ð¸Ðµ"
      ],
      [
        "ĠÑģ",
        "ÑįÑĢ"
      ],
      [
        "ĠÐ±",
        "ÑĢ"
      ],
      [
        "ĠÐ´",
        "ÐµÑĤ"
      ],
      [
        "ĠÐ·",
        "Ð°Ñģ"
      ],
      [
        "ĠÐ¼Ð¾Ð³",
        "Ñĥ"
      ],
      [
        "Ð½Ð¾",
        "ÑĪ"
      ],
      [
        "Ð¾Ð´",
        "Ð°ÑĢ"
      ],
      [
        "Ð½Ð¸",
        "Ð¸"
      ],
      [
        "Ð°ÐµÑĤ",
        "Ðµ"
      ],
      [
        "Ð¸",
        "ÑģÐº"
      ],
      [
        "Ñı",
        "ÑģÑĮ"
      ],
      [
        "Ðº",
        "Ð°Ñı"
      ],
      [
        "ĠÐ²Ð¾ÑģÐº",
        "Ð»Ð¸Ðº"
      ],
      [
        "ĠÑģÐ¾Ð²",
        "ÑģÐµÐ¼"
      ],
      [
        "ĠÐ²Ð¼ÐµÑģÑĤ",
        "Ðµ"
      ],
      [
        "ĠÐ³Ð»",
        "Ð°Ð²"
      ],
      [
        "ĠÑĦ",
        "ÑĢÐ°Ð½ÑĨÑĥÐ·"
      ],
      [
        "ÐµÑĩ",
        "Ð½Ð¾"
      ],
      [
        "Ð¾",
        "Ñī"
      ],
      [
        "ÐµÐ±",
        "ÐµÐº"
      ],
      [
        "ĠÐ²",
        "Ð½Ð¸Ð¼"
      ],
      [
        "ĠÐ´",
        "Ð¾Ñĩ"
      ],
      [
        "ĠÑģÑĤÐ¾",
        "Ð»"
      ],
      [
        "ĠÐ³",
        "ÑĢÑĥ"
      ],
      [
        "ĠÐļ",
        "Ð½Ñı"
      ],
      [
        "ĠÐ¶Ð¸Ð·",
        "Ð½ÑĮ"
      ],
      [
        "ÑģÑĤÐ²",
        "Ð¾Ð¼"
      ],
      [
        "ĠÐ±Ð»",
        "Ð°Ð³Ð¾"
      ],
      [
        "ĠÐ²",
        "Ð¿ÐµÑĢ"
      ],
      [
        "ÐµÐ³",
        "Ð¾Ð´"
      ],
      [
        "ĠÐ¿Ð¾",
        "Ñħ"
      ],
      [
        "Ð¸Ð²",
        "Ð°Ð»"
      ],
      [
        "Ñĥ",
        "Ð¹"
      ],
      [
        "ĠÑĤ",
        "Ð°"
      ],
      [
        "ĠÐ²Ð´",
        "ÑĢÑĥÐ³"
      ],
      [
        "ĠÐ±",
        "ÑĢÐ°ÑĤ"
      ],
      [
        "ĠÐ±",
        "Ð»Ð¸"
      ],
      [
        "ĠÐ³Ð»",
        "ÑĥÐ±"
      ],
      [
        "ĠÐ´Ð¾Ð±",
        "ÑĢ"
      ],
      [
        "Ð¸Ð½",
        "Ð¾Ð¹"
      ],
      [
        "ÐµÐ½",
        "Ð¾"
      ],
      [
        "ĠÐ´",
        "Ð¾Ðº"
      ],
      [
        "ĠÐºÐ¾ÑĤÐ¾ÑĢ",
        "ÑĭÑħ"
      ],
      [
        "ÑĢÐ°",
        "Ñĩ"
      ],
      [
        "ĠÐŀ",
        "ÑĤ"
      ],
      [
        "Ð´",
        "Ð¾ÑĢ"
      ],
      [
        "Ð½Ðµ",
        "Ñģ"
      ],
      [
        "ĠÑĥÐ²",
        "ÐµÑĢ"
      ],
      [
        "ĠÐ¿Ð¾Ð´",
        "Ð½Ñı"
      ],
      [
        "ĠÑģÑĤ",
        "ÑĢ"
      ],
      [
        "ĠÑĢÐ°Ð·",
        "Ð³Ð¾Ð²Ð¾ÑĢ"
      ],
      [
        "Ð¾ÑĪ",
        "ÐµÐ»"
      ],
      [
        "ĠÐ¼",
        "Ð°ÑĤ"
      ],
      [
        "ĠÐ¿ÑĢÐ¸",
        "ÑıÑĤ"
      ],
      [
        "Ð¾ÑģÑĤ",
        "ÑĮÑİ"
      ],
      [
        "ĠÑģÐ¿ÑĢÐ¾Ñģ",
        "Ð¸Ð»"
      ],
      [
        "ĠÐ¸Ð·Ð²",
        "ÐµÑģÑĤ"
      ],
      [
        "ĠÑģÐ¾ÑģÑĤ",
        "Ð¾Ñı"
      ],
      [
        "Ð¾Ð²",
        "Ð°ÑĢ"
      ],
      [
        "ĠÑģÐ¼",
        "Ð¾ÑĤÑĢ"
      ],
      [
        "-",
        "-"
      ],
      [
        "ĠÐ¿ÑĢÐ¸",
        "Ñģ"
      ],
      [
        "Ð»Ñİ",
        "Ñĩ"
      ],
      [
        "ĠÑģÐµÑĢÐ´",
        "ÑĨÐµ"
      ],
      [
        "ĠÐºÐ°Ð·",
        "Ð°Ð»Ð¾ÑģÑĮ"
      ],
      [
        "Ð¸Ð²",
        "Ð°ÑĤÑĮ"
      ],
      [
        "ĠÑģÑĤ",
        "Ð°Ð»"
      ],
      [
        "ĠÐľ",
        "Ð½Ðµ"
      ],
      [
        "ĠÑģ",
        "Ð¾Ð·"
      ],
      [
        "ĠÐ²Ñĭ",
        "ÑĢÐ°Ð¶"
      ],
      [
        "ĠÐ´Ð²",
        "Ð¾ÑĢ"
      ],
      [
        "ĠÑĤÐ°Ðº",
        "Ð¸Ð¼"
      ],
      [
        "Ñĥ",
        "ÑĤÑĮ"
      ],
      [
        "ÑĪ",
        "ÐµÐ³Ð¾"
      ],
      [
        "ÐµÐ·",
        "Ð¶"
      ],
      [
        "ĠÐ¾ÑĤ",
        "Ð´"
      ],
      [
        "ĠÐŁÐ¾ÑĢ",
        "Ð¿Ð¾ÑĢ"
      ],
      [
        "ĠÐ¾",
        "ÑĦÐ¸ÑĨ"
      ],
      [
        "ĠÑĩÐµÐ»Ð¾Ð²ÐµÐº",
        "Ð°"
      ],
      [
        "ĠÑģ",
        "Ð½Ð¾Ð²Ð°"
      ],
      [
        "ĠÐ½",
        "ÐµÐ¶"
      ],
      [
        "ĠÑĥÐ´",
        "Ð¸Ð²"
      ],
      [
        "ĠÐ·Ð½",
        "Ð°Ðº"
      ],
      [
        "ĠÐ¿ÑĢÐ¸",
        "Ñĩ"
      ],
      [
        "Ðº",
        "Ð¸Ñħ"
      ],
      [
        "v",
        "e"
      ],
      [
        "Ġ",
        "y"
      ],
      [
        "Ð³",
        "Ñĥ"
      ],
      [
        "ĠÐ¿Ð¾Ðº",
        "Ð°Ð·"
      ],
      [
        ".",
        ")"
      ],
      [
        "Ð½ÑĥÐ»Ð°",
        "ÑģÑĮ"
      ],
      [
        "Ġb",
        "e"
      ],
      [
        "Ð¸",
        "ÑĦ"
      ],
      [
        "Ð¾Ð»ÑĮ",
        "Ð·"
      ],
      [
        "Ð°ÑĪ",
        "Ð°"
      ],
      [
        "Ð´",
        "ÐµÑĢÐ¶"
      ],
      [
        "Ð",
        "Ĳ"
      ],
      [
        "ÑĢ",
        "Ð¾Ð½"
      ],
      [
        "Ð¸ÑĤ",
        "Ð°Ð½"
      ],
      [
        "ĠÐ¾ÑĤ",
        "Ñĩ"
      ],
      [
        "Ð´Ð°",
        "ÑĤÑĮ"
      ],
      [
        "ĠÑģÐ»Ð¾Ð²",
        "Ð½Ð¾"
      ],
      [
        "Ð´",
        "ÐµÑĤ"
      ],
      [
        "ÐµÐ½",
        "Ð½ÑĭÐ¼"
      ],
      [
        "Ð¾Ð·",
        "Ñı"
      ],
      [
        "ÐµÐ½",
        "Ð½Ð°Ñı"
      ],
      [
        "ĠÐ±",
        "ÑĢÐ¾Ñģ"
      ],
      [
        "Ñĭ",
        "Ð³"
      ],
      [
        "ĠÐ½",
        "ÐµÐ¼Ñĥ"
      ],
      [
        "en",
        "t"
      ],
      [
        "ÑĪ",
        "Ð»Ð°"
      ],
      [
        "ĠÑ",
        "ī"
      ],
      [
        "ĠÐļ",
        "Ð¾ÑĢ"
      ],
      [
        "ĠÐ¼",
        "Ð½Ð¾Ð¹"
      ],
      [
        "ĠÑģÑĤ",
        "ÑĢÐ°Ð½"
      ],
      [
        "ĠÐĶ",
        "Ð¾Ð»"
      ],
      [
        "ĠÐ³Ð¾Ð²Ð¾ÑĢ",
        "Ð¸ÑĤÑĮ"
      ],
      [
        "ĠÑĢÑĥ",
        "ÐºÐ¸"
      ],
      [
        "Ñħ",
        "Ð¾ÑĤ"
      ],
      [
        "ĠÑĤ",
        "Ð¾Ð³Ð´Ð°"
      ],
      [
        "Ð½Ð¸",
        "ÑĤÑĮ"
      ],
      [
        "ĠÐ¾Ð±",
        "ÑīÐµ"
      ],
      [
        "Ð½",
        "ÐµÐ¼"
      ],
      [
        "Ð²",
        "Ð°ÑĢ"
      ],
      [
        "ÐµÑĢ",
        "Ðº"
      ],
      [
        "ĠÐ´Ð¾Ð¼",
        "Ð°"
      ],
      [
        "ĠÑģÑĤÑĢÐ°",
        "ÑĪ"
      ],
      [
        "ĠÐ¶",
        "Ð°Ð»"
      ],
      [
        "ĠÑģÐ¾Ð±",
        "Ð¾Ð¹"
      ],
      [
        "ĠÐ´",
        "Ð°Ð¼"
      ],
      [
        "ĠÐ²Ð¾Ð·",
        "Ð²"
      ],
      [
        ")",
        ","
      ],
      [
        "ĠÐŁ",
        "Ð¾"
      ],
      [
        "ĠÐ¼",
        "ÑĥÐ·"
      ],
      [
        "Ġ",
        "ÑĤÐ¾ÑĢ"
      ],
      [
        "ĠÑģÐ»",
        "ÑĥÑĪ"
      ],
      [
        "âĢ",
        "¦"
      ],
      [
        "Ð»",
        "ÐµÑĤ"
      ],
      [
        "Ñı",
        "Ð»Ð°"
      ],
      [
        "ĠÐº",
        "Ð°Ð¶"
      ],
      [
        "Ð±",
        "Ð°"
      ],
      [
        "Ġo",
        "n"
      ],
      [
        "ĠÐ¿Ð¾ÑĤ",
        "Ð¾Ð¼"
      ],
      [
        "ÑĮ",
        "Ðµ"
      ],
      [
        "ĠÑĤ",
        "Ð²"
      ],
      [
        "ĠÑĨ",
        "ÐµÐ»"
      ],
      [
        "ĠÐĶÐ¾Ð±",
        "Ð±"
      ],
      [
        "ÐµÑħ",
        "Ð°Ð»"
      ],
      [
        "ĠÐł",
        "ÐµÐ±ÐµÐº"
      ],
      [
        "Ð¾Ñģ",
        "Ð¾Ð±"
      ],
      [
        "Ð»",
        "ÑģÑı"
      ],
      [
        "ÐµÐ½",
        "Ð½ÑĭÑħ"
      ],
      [
        "ĠÐ²",
        "ÐµÐ´ÑĮ"
      ],
      [
        "ĠÐ´",
        "ÐµÑĢÐ¶"
      ],
      [
        "Ð»Ñİ",
        "Ð±"
      ],
      [
        "ĠÐĲÐ½Ð´",
        "ÑĢÐµ"
      ],
      [
        "Ð",
        "ľ"
      ],
      [
        "ĠÐ´",
        "Ð°Ð»"
      ],
      [
        "Ġ",
        "u"
      ],
      [
        "Ð»",
        "Ð°Ð³"
      ],
      [
        "ÑĪ",
        "Ð¸Ñħ"
      ],
      [
        "ĠÐ¿Ð¾Ð´",
        "Ð¾Ð±"
      ],
      [
        "ÑĤÐµÑĢ",
        "ÐµÑģ"
      ],
      [
        "ĠÑģÐ»",
        "ÑĥÐ¶"
      ],
      [
        "s",
        "e"
      ],
      [
        "ĠÐ´",
        "ÑĥÑħ"
      ],
      [
        "ĠÑĥ",
        "Ð¿"
      ],
      [
        "ĠÐ¿Ð¾",
        "ÑģÐ¼"
      ],
      [
        "ĠÐĶÐ¶",
        "Ð¾Ð·"
      ],
      [
        "ĠÐ¾ÑģÐ¾Ð±",
        "ÐµÐ½Ð½Ð¾"
      ],
      [
        "v",
        "er"
      ],
      [
        "ÑĨ",
        "Ñĥ"
      ],
      [
        "Ġ",
        "T"
      ],
      [
        "Ñı",
        "Ð³"
      ],
      [
        "Ð¾Ð±",
        "ÑĢÐ°Ð¶"
      ],
      [
        "ĠÑı",
        "Ð²"
      ],
      [
        "ĠÐ½Ð¸Ðº",
        "Ð°Ðº"
      ],
      [
        "Ðº",
        "Ð¾Ð³Ð¾"
      ],
      [
        "ĠÑĩ",
        "Ð¸ÑĤ"
      ],
      [
        "ĠÑģÑĤÐ¾",
        "Ð»ÑĮ"
      ],
      [
        "Ð°",
        "Ñĩ"
      ],
      [
        "ĠÐ¿ÑĢ",
        "Ð¾Ð±"
      ],
      [
        "ĠÐ³Ð¾",
        "ÑĤÐ¾Ð²"
      ],
      [
        "ÑģÐº",
        "Ð¸Ðµ"
      ],
      [
        "ĠÐ¾Ð±",
        "ÑĢÐ°Ñī"
      ],
      [
        "ĠÐŀ",
        "Ð½Ð¸"
      ],
      [
        "ĠÐ³Ð¾",
        "ÑģÑĥ"
      ],
      [
        "Ð",
        "¢"
      ],
      [
        "Ñĩ",
        "ÑĤÐ¾"
      ],
      [
        "ĠÐłÐ¾ÑģÑĤ",
        "Ð¾Ð²"
      ],
      [
        "Ðµ",
        "Ñİ"
      ],
      [
        "ĠÑģ",
        "ÑĩÐ°ÑģÑĤÐ»Ð¸Ð²"
      ],
      [
        "ĠÐ»ÑİÐ´",
        "ÐµÐ¹"
      ],
      [
        "ĠÑģ",
        "ÑĥÑīÐµ"
      ],
      [
        "ÑĢÐ°",
        "ÑĤÑĮ"
      ],
      [
        "ĠÑĢÐ°Ñģ",
        "Ñģ"
      ],
      [
        "ĠÐ²Ð¾Ð¿",
        "ÑĢÐ¾Ñģ"
      ],
      [
        "ĠÐ·Ð°",
        "ÑģÑĤÐ°Ð²"
      ],
      [
        "ÑĢÐµ",
        "ÑĤÑĮ"
      ],
      [
        "ĠÐ±",
        "ÐµÐ»"
      ],
      [
        "ĠÐ²Ñĭ",
        "Ð·"
      ],
      [
        "Ðº",
        "Ð¸Ð¼"
      ],
      [
        "ĠÑģ",
        "Ð¸Ð»ÑĮ"
      ],
      [
        "Ð·",
        "Ð¾Ð»Ðµ"
      ],
      [
        "Ñģ",
        "Ð°"
      ],
      [
        "ĠÐ¼Ð¾",
        "ÐµÐ¹"
      ],
      [
        "ĠÐ¾ÑĤÐ²ÐµÑĤ",
        "Ð¸Ð»"
      ],
      [
        "o",
        "t"
      ],
      [
        "Ð½Ñĥ",
        "ÑĤ"
      ],
      [
        "ÐµÐ¶",
        "Ð´"
      ],
      [
        "Ġt",
        "hat"
      ],
      [
        "Ð·Ð¾Ð»Ðµ",
        "ÑĤÐ¾"
      ],
      [
        "ÐµÐ·",
        "Ð´"
      ],
      [
        "ĠÐĲÐ½Ð´",
        "Ð·Ð¾Ð»ÐµÑĤÐ¾"
      ],
      [
        "ÑĢ",
        "Ð¾Ðº"
      ],
      [
        "ĠÐ¿",
        "Ð»Ð¾"
      ],
      [
        "ĠÑĤ",
        "Ñĥ"
      ],
      [
        "ĠÑģÐ»",
        "ÐµÐ·"
      ],
      [
        "ĠÐ´ÐµÑĢ",
        "ÐµÐ²"
      ],
      [
        "ÑĢ",
        "ÐµÐ´Ð¸"
      ],
      [
        "Ñį",
        "ÑĤ"
      ],
      [
        "ĠÐ½",
        "ÐµÐ·"
      ],
      [
        "e",
        "t"
      ],
      [
        "ĠÐ²",
        "Ð°"
      ],
      [
        "ĠÐ²Ñģ",
        "Ñİ"
      ],
      [
        "ĠÐ¾ÑģÑĤ",
        "Ð°Ð½Ð¾Ð²"
      ],
      [
        "Ð¸",
        "ÐµÐ¼"
      ],
      [
        "ÐµÐº",
        "ÐºÐ¸"
      ],
      [
        "ĠÐł",
        "Ð°Ð·"
      ],
      [
        "Ð¾",
        "ÑģÐº"
      ],
      [
        "Ð°Ð²",
        "ÑĪÐ¸Ð¹"
      ],
      [
        "ĠÐ»",
        "ÐµÐ´Ð¸"
      ],
      [
        "ĠÑģ",
        "ÐµÑģÑĤ"
      ],
      [
        "ÑģÐº",
        "Ð¸"
      ],
      [
        "ĠÐ¼Ñĭ",
        "Ñģ"
      ],
      [
        "Ð»Ð°",
        "Ð½"
      ],
      [
        "ĠÑĤÐ°Ðº",
        "Ð¾Ðµ"
      ],
      [
        "Ð¸",
        "Ð±"
      ],
      [
        "ÐµÐ½Ð½Ð¾",
        "Ðµ"
      ],
      [
        "ĠÐ´Ð²",
        "ÐµÑĢÑĮ"
      ],
      [
        "Ð²",
        "Ð°Ð»"
      ],
      [
        "ÐµÐ½",
        "Ð½Ð¾Ð³Ð¾"
      ],
      [
        "a",
        "c"
      ],
      [
        "a",
        "y"
      ],
      [
        "ÐµÑĢ",
        "Ðµ"
      ],
      [
        "!",
        "\""
      ],
      [
        "ĠÐ´",
        "ÑĢÑĥ"
      ],
      [
        "Ð¾Ð±",
        "ÑĢÐ°Ð·"
      ],
      [
        "ĠÐľ",
        "Ð°Ð¹"
      ],
      [
        "ĠÐ¿Ð¾Ñĩ",
        "ÑĤÐ¸"
      ],
      [
        "Ð¾",
        "Ð½Ñĭ"
      ],
      [
        "ĠÑħ",
        "Ð¾Ð·Ñı"
      ],
      [
        "Ð¾Ð¼",
        "Ðµ"
      ],
      [
        "ĠÑĢÐ°Ð·",
        "Ð´"
      ],
      [
        "Ð¾Ð²Ð¾ÑĢ",
        "Ð¸Ð»"
      ],
      [
        "ĠÐ½ÑĥÐ¶",
        "Ð½Ð¾"
      ],
      [
        "Ñİ",
        "Ð±"
      ],
      [
        "ĠÑĩ",
        "ÐµÐ³Ð¾"
      ],
      [
        "ĠÑģÐ¾Ð²ÐµÑĢÑĪ",
        "ÐµÐ½Ð½Ð¾"
      ],
      [
        "ÑıÐ·",
        "Ð°Ð½"
      ],
      [
        "Ð°",
        "ÑĤÐ¾"
      ],
      [
        "Ð¸Ð²",
        "ÑĪÐ¸ÑģÑĮ"
      ],
      [
        "Ġt",
        "h"
      ],
      [
        "ĠÐ¼Ð¸ÑģÑĤ",
        "ÐµÑĢÐ°"
      ],
      [
        "ĠÐ°",
        "Ðº"
      ],
      [
        "Ñı",
        "Ð¼Ð¸"
      ],
      [
        "ÑĪ",
        "Ð°Ñı"
      ],
      [
        "ĠÑĩ",
        "Ð¸ÑģÑĤ"
      ],
      [
        "ĠÑĤ",
        "Ð²Ð¾"
      ],
      [
        "ĠÐ³Ð¾",
        "ÑĢÐ¾Ð´"
      ],
      [
        "Ð°Ð±",
        "Ð¾ÑĤ"
      ],
      [
        "ĠÐ²Ð¸Ð´",
        "ÐµÐ»"
      ],
      [
        "Ð",
        "ĳ"
      ],
      [
        "ĠÐ¿ÑĢÐ¸",
        "ÑħÐ¾Ð´"
      ],
      [
        "?",
        "\""
      ],
      [
        "ĠÑģÐ²Ð¾",
        "ÐµÐ¼"
      ],
      [
        "ĠÐ¾Ð´",
        "Ð½Ð¾Ð¹"
      ],
      [
        "ĠÐ²ÐµÐ»",
        "Ð¸Ñĩ"
      ],
      [
        "ÐµÐ´",
        "Ð»Ð¸"
      ],
      [
        "ĠÐŁ",
        "Ð¾Ñģ"
      ],
      [
        "ĠÐ¾ÑĤÐº",
        "ÑĢÑĭ"
      ],
      [
        "ĠÐľ",
        "Ñĭ"
      ],
      [
        "ĠÑģÐ°Ð¼",
        "Ð°"
      ],
      [
        "Ð½Ð¾",
        "ÑģÑĤ"
      ],
      [
        "ĠÐ°",
        "Ð½Ð³"
      ],
      [
        "Ġy",
        "ou"
      ],
      [
        "Ð¸Ð½",
        "Ð¾Ð²"
      ],
      [
        "ĠÐ²Ð·",
        "Ð´"
      ],
      [
        "gh",
        "t"
      ],
      [
        "Ñħ",
        "Ð²Ð°ÑĤ"
      ],
      [
        "ĠÐ¼",
        "Ð¾Ðµ"
      ],
      [
        "Ð¾ÑģÑĤ",
        "Ð¾ÑĢ"
      ],
      [
        "Ð»Ð¾",
        "ÑģÑĮ"
      ],
      [
        "ĠÑĢÐ°ÑģÑģÐº",
        "Ð°Ð·"
      ],
      [
        "l",
        "d"
      ],
      [
        "ĠÑģ",
        "Ð¾Ð³"
      ],
      [
        "ĠÐ¿",
        "ÑĥÑĤ"
      ],
      [
        "ÐµÐºÐ¾",
        "ÑĤÐ¾ÑĢ"
      ],
      [
        "Ġ",
        "it"
      ],
      [
        "ÐµÑĢ",
        "Ð³"
      ],
      [
        "Ð½Ð¸",
        "ÑĨÐ°"
      ],
      [
        "ĠÐĳ",
        "ÐµÐºÐºÐ¸"
      ],
      [
        "ĠÐ³Ð¾Ð²Ð¾ÑĢ",
        "Ð¸Ð»Ð°"
      ],
      [
        "ĠÑĢ",
        "ÐµÐ±"
      ],
      [
        "ĠÐ¾Ð´",
        "Ð½Ð¾"
      ],
      [
        "ĠÐ½",
        "Ð°Ð±"
      ],
      [
        "ĠÑĤ",
        "ÐµÑĢ"
      ],
      [
        "Ġ",
        "1"
      ],
      [
        "ÑĤÐ¾",
        "Ð½"
      ],
      [
        "ĠÐºÑĢÐ°Ñģ",
        "Ð¸Ð²"
      ],
      [
        "ĠÐ³Ð¾ÑģÐ¿",
        "Ð¾Ð´"
      ],
      [
        "r",
        "o"
      ],
      [
        "ĠÑģ",
        "ÑĩÐ°ÑģÑĤÑĮ"
      ],
      [
        "ĠÑĩ",
        "Ð°ÑģÑĤ"
      ],
      [
        "ĠÑĤ",
        "ÑĢÐ¸"
      ],
      [
        "Ð½Ð¸ÑĨ",
        "Ñĭ"
      ],
      [
        "ĠÐ²Ñĭ",
        "ÑħÐ¾Ð´"
      ],
      [
        "ĠÐŁ",
        "Ð¸ÑĤ"
      ],
      [
        "ĠÐ¾Ð´",
        "Ð½Ð°"
      ],
      [
        "Ð°Ð´ÑĨ",
        "Ð°ÑĤÑĮ"
      ],
      [
        "Ð²",
        "Ð°Ð½"
      ],
      [
        "ĠÑĩ",
        "ÑĥÐ´"
      ],
      [
        "ĠÐºÑĢ",
        "Ð¸Ðº"
      ],
      [
        "Ð¾ÑĤ",
        "ÑĢÑı"
      ],
      [
        "'",
        "s"
      ],
      [
        "ĠÐ²ÑĢÐµÐ¼",
        "ÐµÐ½Ð¸"
      ],
      [
        "Ð½Ð¸",
        "Ð·"
      ],
      [
        "ĠÐ²Ð¾Ð·",
        "Ð¼Ð¾Ð¶"
      ],
      [
        "ĠÐ¸ÑģÐ¿",
        "Ð¾Ð»"
      ],
      [
        "ĠÑĤ",
        "ÑĢÑĥÐ´"
      ],
      [
        "ĠÐºÑĢ",
        "Ð¾Ð¼Ðµ"
      ],
      [
        "ĠÐ¼",
        "Ð°Ð»ÑĮ"
      ],
      [
        "ĠÑģÐº",
        "Ð°Ð¶"
      ],
      [
        "Ð°",
        "ÑĢÐ°"
      ],
      [
        "ĠÐ²",
        "Ð¾Ð´"
      ],
      [
        "ĠÑĤ",
        "ÑıÐ¶"
      ],
      [
        "ÑģÐº",
        "Ð¾Ð¼"
      ],
      [
        "ĠÑħ",
        "Ð¾Ð»Ð¾Ð´"
      ],
      [
        "ĠÑĪ",
        "Ð°Ð³"
      ],
      [
        "ĠÑĥÐ´",
        "Ð¾Ð²Ð¾Ð»ÑĮ"
      ],
      [
        "it",
        "h"
      ],
      [
        "ĠÐĿÐ°ÑĤ",
        "Ð°ÑĪÐ°"
      ],
      [
        "Ð¾Ñģ",
        "Ð¸ÑĦ"
      ],
      [
        "ĠÐĺ",
        "Ð¾ÑģÐ¸ÑĦ"
      ],
      [
        "a",
        "l"
      ],
      [
        "Ð°ÑĤÐµÐ»ÑĮ",
        "Ð½Ð¾"
      ],
      [
        "ĠÐºÐ°Ð¶",
        "ÐµÑĤÑģÑı"
      ],
      [
        "Ð²",
        "Ð¸Ð´"
      ],
      [
        "Ð·",
        "Ñı"
      ],
      [
        "ĠÑĢ",
        "Ð°Ð²"
      ],
      [
        "Ð¾Ð½",
        "Ñĥ"
      ],
      [
        "ĠÐ½Ð°Ðº",
        "Ð¾Ð½ÐµÑĨ"
      ],
      [
        "ĠÐºÐ½Ñı",
        "Ð¶"
      ],
      [
        "ĠÐ·Ð½",
        "Ð°Ð»"
      ],
      [
        "ĠÐ´Ð¾Ð»Ð¶",
        "ÐµÐ½"
      ],
      [
        "ĠÐĿ",
        "Ð°Ð¿"
      ],
      [
        "Ñİ",
        "Ð´Ð°"
      ],
      [
        "Ð¾Ð¼",
        "Ð½"
      ],
      [
        "ĠÐ²Ñģ",
        "Ð¿Ð¾Ð¼"
      ],
      [
        "ĠÐºÐ¾ÑĢ",
        "Ð¾Ð»"
      ],
      [
        "Ð½",
        "ÐµÐ³Ð¾"
      ],
      [
        "ĠÐ´",
        "ÑĥÑĢ"
      ],
      [
        "ĠÑĩ",
        "ÐµÑĢÑĤ"
      ],
      [
        "ÑģÑı",
        "Ñĩ"
      ],
      [
        "ÐºÐ¸",
        "Ðµ"
      ],
      [
        "r",
        "i"
      ],
      [
        "ĠÐ²",
        "Ð¿"
      ],
      [
        "ĠÐ²Ñĭ",
        "Ð¿"
      ],
      [
        "ĠÐ²ÐµÑģ",
        "ÐµÐ»"
      ],
      [
        "ĠÑĢÐ°Ð·",
        "Ð²"
      ],
      [
        "ĠÐ¸",
        "Ñģ"
      ],
      [
        "ĠÐº",
        "Ð°Ð½Ð¾"
      ],
      [
        "ĠÐ¼ÑĥÐ¶",
        "Ñĩ"
      ],
      [
        "Ġ",
        "ÑĢÐ°Ð½"
      ],
      [
        "Ð°Ð²",
        "Ð»Ñı"
      ],
      [
        "ÐµÑĩ",
        "ÑĮ"
      ],
      [
        "Ð²",
        "Ð¾Ð·"
      ],
      [
        "ĠÐ³",
        "ÐµÑĢ"
      ],
      [
        "ĠÐ¿ÑĢÐ¾Ð´Ð¾Ð»Ð¶",
        "Ð°Ð»"
      ],
      [
        "Ð·",
        "ÑĮ"
      ],
      [
        "ĠÐ¿ÑĢÐ¸",
        "Ð³"
      ],
      [
        "ĠÑģ",
        "ÑĥÐ¼"
      ],
      [
        "a",
        "m"
      ],
      [
        "ĠÐº",
        "ÑĥÐ´Ð°"
      ],
      [
        "ÑģÐº",
        "Ð°Ñı"
      ],
      [
        "ÑĭÐ²",
        "Ð°Ð»"
      ],
      [
        "ĠÐ¿ÑĢ",
        "ÐµÐ²"
      ],
      [
        "Ð½Ð¸",
        "Ñħ"
      ],
      [
        "ĠÐ¿Ð¾",
        "ÑıÐ²"
      ],
      [
        "ÑĢÐ¸",
        "Ð³"
      ],
      [
        "ĠÐ¸Ð½",
        "ÑĤÐµÑĢÐµÑģ"
      ],
      [
        "i",
        "r"
      ],
      [
        "Ð¿ÑĢ",
        "ÐµÐ´"
      ],
      [
        "ÑĢÐ¸",
        "ÑıÑĤ"
      ],
      [
        "Â",
        "«"
      ],
      [
        "ĠÑĢÐ°Ð·",
        "Ð±"
      ],
      [
        "ĠÑģÐ´ÐµÐ»",
        "Ð°ÑĤÑĮ"
      ],
      [
        "Ð¸",
        "ÑĪ"
      ],
      [
        "ĠÑĩ",
        "Ð°"
      ],
      [
        "ĠÐĲ",
        "Ñħ"
      ],
      [
        "Ð¿Ð¾Ð»",
        "Ð¾Ð¶"
      ],
      [
        "ÐĶ",
        "Ð¶"
      ],
      [
        "Â",
        "»"
      ],
      [
        "ĠÐ¸Ð·",
        "Ð±"
      ],
      [
        "ĠÐ²Ð¸Ð´",
        "ÐµÑĤÑĮ"
      ],
      [
        "Ð",
        "ĺ"
      ],
      [
        "Ð³Ð»Ñı",
        "Ð´"
      ],
      [
        "ĠÑĥÐ·",
        "Ð½"
      ],
      [
        "Ð¾",
        "ÑĤÑĮ"
      ],
      [
        "ÑĨ",
        "ÐµÐ²"
      ],
      [
        "ĠÐ²ÑĭÑģ",
        "Ð¾Ðº"
      ],
      [
        "ÑģÑĤÐ²",
        "Ð¾Ð²"
      ],
      [
        "ĠÐ¾Ð¿",
        "Ð°Ñģ"
      ],
      [
        "ÐµÐ»Ð¾",
        "ÑģÑĮ"
      ],
      [
        "ĠÐ½Ð°Ð·",
        "Ð°Ð´"
      ],
      [
        "ĠÐ²ÑģÑĤÑĢ",
        "ÐµÑĩ"
      ],
      [
        "ĠÐ·Ð½Ð°Ðº",
        "Ð¾Ð¼"
      ],
      [
        "Ñı",
        "Ñħ"
      ],
      [
        "ÑĪÐµ",
        "Ðµ"
      ],
      [
        "ĠÐ±ÑĥÐ´",
        "Ñĥ"
      ],
      [
        "ĠÑģÐ¾Ð»",
        "Ð´Ð°"
      ],
      [
        "ĠÐ·",
        "ÐµÐ¼"
      ],
      [
        "ÑģÑĤÐ²",
        "Ñĥ"
      ],
      [
        "ÐµÑĩ",
        "Ð°ÑĤ"
      ],
      [
        "ĠÐ·Ð°ÑĤ",
        "ÐµÐ¼"
      ],
      [
        "ĠÐ¿",
        "ÑĥÑģÑĤ"
      ],
      [
        "ĠÐ¡",
        "Ðº"
      ],
      [
        "ĠÐ¾Ðº",
        "Ð°Ð·"
      ],
      [
        "ĠÐ¿Ð¾Ð²",
        "ÑĤÐ¾ÑĢ"
      ],
      [
        "Ġh",
        "is"
      ],
      [
        "ĠÐŀÑģÐ±Ð¾ÑĢ",
        "Ð½"
      ],
      [
        "Ð¾Ñĩ",
        "ÐµÑģÑĤ"
      ],
      [
        "ĠÐł",
        "Ð¾ÑĩÐµÑģÑĤ"
      ],
      [
        "ĠÐ¾ÑĦÐ¸ÑĨ",
        "ÐµÑĢ"
      ],
      [
        "ĠÐ´",
        "Ð½Ñı"
      ],
      [
        "ĠÐ·",
        "Ð°Ð»"
      ],
      [
        "ĠÑģ",
        "ÑĥÐ´"
      ],
      [
        "ĠÐ¿ÑĢÐ¸Ðº",
        "Ð°Ð·"
      ],
      [
        "Ð",
        "Ľ"
      ],
      [
        "ĠÐ´",
        "Ð¾Ð²Ð¾Ð»ÑĮ"
      ],
      [
        "ĠÐ¡",
        "ÐµÐ´Ð»Ð¸"
      ],
      [
        "ĠÑĪ",
        "Ðº"
      ],
      [
        "ĠÑģÐ¿",
        "Ð¾ÑģÐ¾Ð±"
      ],
      [
        "ĠÐľÐ°Ð¹",
        "Ðº"
      ],
      [
        "Ð°",
        "ÑģÐº"
      ],
      [
        "ÐµÐ½",
        "ÐµÑĢ"
      ],
      [
        "ÐµÐ»ÑĮ",
        "Ð·Ñı"
      ],
      [
        "ĠÐ»ÑİÐ´",
        "Ð¸"
      ],
      [
        "ĠÑģ",
        "ÐµÑĢ"
      ],
      [
        "Ðº",
        "Ð°Ðº"
      ],
      [
        "Ð¸ÑĤ",
        "ÐµÐ»"
      ],
      [
        "ĠÐ³",
        "Ð»ÑıÐ´"
      ],
      [
        "ĠÐ¼ÐµÑģÑĤ",
        "Ð¾"
      ],
      [
        "Ð°",
        "ÐµÑĪÑĮ"
      ],
      [
        "ĠÐ´",
        "Ð¾Ð²"
      ],
      [
        "Ð°Ð´",
        "ÑĮ"
      ],
      [
        "ĠÐ¸ÑģÐ¿",
        "ÑĭÑĤ"
      ],
      [
        "ĠÐ¿ÑĢÐµÐ¶",
        "Ð´Ðµ"
      ],
      [
        "Ð¸",
        "Ð½Ð¸"
      ],
      [
        "ÑĢ",
        "Ð¸Ñĩ"
      ],
      [
        "ĠÐ¿ÑĢ",
        "Ð¾Ñĩ"
      ],
      [
        "ĠÑĤ",
        "Ð¾Ð¹"
      ],
      [
        "Ð»Ð¸",
        "Ð½"
      ],
      [
        "ĠÐ¾ÑĤ",
        "ÑĤ"
      ],
      [
        "Ð¸Ðº",
        "Ð°"
      ],
      [
        "Ð½Ð¸Ðº",
        "Ð¾Ð²"
      ],
      [
        "ĠÑħÐ¾ÑĤ",
        "ÐµÐ»"
      ],
      [
        "ĠÐ¿ÑĢÐ¾ÑģÑĤ",
        "Ð¾"
      ],
      [
        "Ð»",
        "Ð¾Ð¼"
      ],
      [
        "ĠÐ²",
        "Ð¾ÑĢ"
      ],
      [
        "ĠÐº",
        "Ð½Ð¸"
      ],
      [
        "ĠÐ½Ð°Ð¿",
        "ÑĢÐ°Ð²"
      ],
      [
        "ĠÐ¿",
        "Ð¾Ð¹"
      ],
      [
        "ĠÑģÐ²Ð¾",
        "ÐµÐ¼Ñĥ"
      ],
      [
        "ĠÐĶÐ¾Ð±Ð±",
        "Ð¸Ð½"
      ],
      [
        "ĠÐ¾",
        "Ð½Ð¾"
      ],
      [
        "Ð°Ð´",
        "Ð¸"
      ],
      [
        "ĠÐļÐ½Ñı",
        "Ð·ÑĮ"
      ],
      [
        "u",
        "r"
      ],
      [
        "ĠÐºÐ¾Ð¼Ð½Ð°",
        "ÑĤÑĥ"
      ],
      [
        "Ð¶",
        "ÐµÐ»Ð¸"
      ],
      [
        "ĠÐ¾Ð´",
        "Ð½Ð¾Ð³Ð¾"
      ],
      [
        "ĠÐ¼Ð¾",
        "Ð¸"
      ],
      [
        "ÐµÐ½ÑĤ",
        "Ð»ÑĮ"
      ],
      [
        "ĠÐ½",
        "Ð°Ð¹"
      ],
      [
        "ÑĤÐ¾",
        "ÑĢÐ°"
      ],
      [
        "ĠÐ¼Ñĭ",
        "ÑģÐ»Ð¸"
      ],
      [
        "'",
        "t"
      ],
      [
        "ÑĢ",
        "ÑĮ"
      ],
      [
        "ĠÐ²",
        "Ð°Ð¼Ð¸"
      ],
      [
        "ĠÐ¿Ð¾Ð¶",
        "Ð°Ð»"
      ],
      [
        "ĠÐŃÐ¼Ð¸Ð»Ð¸",
        "Ñı"
      ],
      [
        "ĠÑģ",
        "Ð°Ð´"
      ],
      [
        "Ð¾Ð²",
        "Ð°Ð½"
      ],
      [
        "ĠÐ³",
        "ÑĢÐ¾Ð¼"
      ],
      [
        "Ġw",
        "ith"
      ],
      [
        "ĠÑĢÐµÐ±",
        "ÐµÐ½"
      ],
      [
        "ĠÑĢ",
        "ÑıÐ´"
      ],
      [
        "Ð¾Ð±",
        "ÑĢ"
      ],
      [
        "ĠÐºÐ¾ÑĤÐ¾ÑĢ",
        "ÑĭÐ¼"
      ],
      [
        "ÑĭÐ²",
        "Ð°Ñı"
      ],
      [
        "ĠÐ¼ÑĭÑģ",
        "Ð»ÑĮ"
      ],
      [
        "Ð°Ð½Ð¸",
        "Ð¸"
      ],
      [
        "ĠÐ´ÑĢÑĥÐ³",
        "Ð°"
      ],
      [
        "ĠÑģ",
        "ÑĢÐµÐ´Ð¸"
      ],
      [
        "ĠÐ½",
        "ÐµÐºÐ¾ÑĤÐ¾ÑĢ"
      ],
      [
        "ĠÐ±Ð»Ð°Ð³",
        "Ð¾Ð´Ð°ÑĢ"
      ],
      [
        "ÐµÐ³Ð¾Ð´",
        "Ð½Ñı"
      ],
      [
        "ÑĨ",
        "Ð¸"
      ],
      [
        "ÐºÐ¾",
        "Ðµ"
      ],
      [
        "ĠÐºÐ¾ÑĤÐ¾ÑĢ",
        "Ð¾Ð¼"
      ],
      [
        "Ð¾Ð´",
        "ÑĥÑĪ"
      ],
      [
        "Ð¶",
        "ÐµÐ½ÑĤÐ»ÑĮ"
      ],
      [
        "ĠÐ³",
        "Ð¾Ð´"
      ],
      [
        "ÑģÑĤÐ²",
        "Ð¸Ñı"
      ],
      [
        "ĠÐºÐ°Ðº",
        "Ð¾Ðµ"
      ],
      [
        "Ġ",
        "Ċ"
      ],
      [
        "ĠÐ¾ÑĤ",
        "Ð½Ð¾ÑĪ"
      ],
      [
        "Ð¾Ð½",
        "Ñĩ"
      ],
      [
        "ĠÐ´Ð²",
        "ÑĥÑħ"
      ],
      [
        "ĠÐºÐ½ÑıÐ·",
        "Ñı"
      ],
      [
        "ĠÐ²",
        "Ð¾ÑģÑĤÐ¾ÑĢ"
      ],
      [
        "ĠÐĲ",
        "ÑĢ"
      ],
      [
        "ĠÑĢÐ°Ñģ",
        "Ð¿"
      ],
      [
        "Ġs",
        "t"
      ],
      [
        "ÑıÑī",
        "ÐµÐ½"
      ],
      [
        "Ð¾Ð²",
        "Ð¾Ð¹"
      ],
      [
        "ĠÑįÑĤ",
        "Ð¾Ð¼Ñĥ"
      ],
      [
        "ĠÐ¾ÑĤÐ²ÐµÑĤ",
        "Ð¸Ð»Ð°"
      ],
      [
        "ĠÐ½",
        "Ð¾Ñģ"
      ],
      [
        "Ð¿",
        "ÐµÑĢÐ°"
      ],
      [
        "Ð°ÑĤ",
        "ÑĢ"
      ],
      [
        "ĠÐ¼Ð¾Ð»",
        "Ñĩ"
      ],
      [
        "Ġm",
        "e"
      ],
      [
        "a",
        "d"
      ],
      [
        "ĠÑģÐ²Ð¾",
        "Ð¸Ð¼Ð¸"
      ],
      [
        "ĠÐ¿Ð»Ð°",
        "ÑĤÑĮ"
      ],
      [
        "Ð½",
        "ÑĤ"
      ],
      [
        "ĠÐ¿ÑĢ",
        "Ð¾Ðº"
      ],
      [
        "Ð¸Ð½",
        "ÑģÑĤÐ²ÐµÐ½"
      ],
      [
        "ÐµÑĢÑĮ",
        "ÐµÐ·"
      ],
      [
        "Ġw",
        "e"
      ],
      [
        "ĠÐ½",
        "ÑĢÐ°Ð²"
      ],
      [
        "ĠÐº",
        "Ð¾Ð³Ð¾"
      ],
      [
        "ĠÐ¿ÑĢ",
        "ÑıÐ¼"
      ],
      [
        "ĠÐĳ",
        "Ð¾Ð³"
      ],
      [
        "ĠÐ¿Ð¾Ð»",
        "ÐºÐ¾Ð²"
      ],
      [
        "ĠÐ»ÑİÐ±",
        "Ð²Ð¸"
      ],
      [
        "ĠÐ¿Ð¾Ð²",
        "ÐµÑĢ"
      ],
      [
        "ĠÐłÐ¾Ð´",
        "Ð¾Ð½"
      ],
      [
        "Ð°ÑĤ",
        "Ð¸"
      ],
      [
        "ĠÐŁ",
        "Ð°ÑĢ"
      ],
      [
        "ĠÑģÐ¼",
        "ÐµÑĢ"
      ],
      [
        "Ð¼",
        "Ñĭ"
      ],
      [
        "ĠÐ´ÑĥÐ¼",
        "Ð°Ð»"
      ],
      [
        "ĠÐ¾ÑĤ",
        "ÐµÑĨ"
      ],
      [
        "ĠÐ¿ÑĢÐ¸",
        "ÑĪ"
      ],
      [
        "ĠÐ·Ð°Ð¼",
        "ÐµÑĩ"
      ],
      [
        "ĠÑģÐ¿ÑĢÐ¾Ñģ",
        "Ð¸Ð»Ð°"
      ],
      [
        "Ð»",
        "Ñĥ"
      ],
      [
        "ĠÑģÐ¾Ð±",
        "ÑģÑĤÐ²ÐµÐ½"
      ],
      [
        "Ð²",
        "ÐµÐ´"
      ],
      [
        "ÑĨ",
        "ÐµÐ½"
      ],
      [
        "Ð¾ÑĤ",
        "Ð°"
      ],
      [
        "ĠÐĳ",
        "Ð¾ÑĢ"
      ],
      [
        "ĠÐ»Ð¸",
        "ÑĨÐ°"
      ],
      [
        "ĠÑĤÑĭ",
        "ÑģÑıÑĩ"
      ],
      [
        "ĠÐ¶ÐµÐ½Ñī",
        "Ð¸Ð½Ð°"
      ],
      [
        "Ñĭ",
        "Ð½"
      ],
      [
        "Ð»",
        "ÑĥÐ±"
      ],
      [
        "ĠÐ¿ÑĢ",
        "Ð¾Ð¿"
      ],
      [
        "ÐµÑĩ",
        "ÐµÑģÐº"
      ],
      [
        "Ġa",
        "t"
      ],
      [
        "ĠÐ¿Ð»",
        "ÐµÑĩ"
      ],
      [
        "ÑĢ",
        "ÐµÐ·"
      ],
      [
        "Ñħ",
        "Ð°"
      ],
      [
        "ĠÐ³",
        "ÑĥÐ±"
      ],
      [
        "ĠÑģÐ»Ð¾Ð²",
        "Ð¾"
      ],
      [
        "ĠÐĿÐ¸ÐºÐ¾Ð»",
        "Ð°Ð¹"
      ],
      [
        "ĠÐ¿ÑĢ",
        "ÐµÐ»"
      ],
      [
        "Ð¼",
        "Ðµ"
      ],
      [
        "ĠÑģÐ°Ð¼",
        "Ð¾Ð¼"
      ],
      [
        "Ñģ",
        "Ð¾Ð²"
      ],
      [
        "Ð»",
        "Ð¾Ð´"
      ],
      [
        "ĠÐ»",
        "ÐµÐ¶"
      ],
      [
        "ÑĭÐ²",
        "Ð°ÑĤÑĮ"
      ],
      [
        "ĠÐ²",
        "ÑģÑĤ"
      ],
      [
        "ÑĪ",
        "Ð¸Ð¼"
      ],
      [
        "ĠÐ´",
        "ÐµÐ»Ð°"
      ]
    ]
  }
}