{
  "version": "1.0",
  "truncation": null,
  "padding": null,
  "added_tokens": [
    {
      "id": 0,
      "content": "<unk>",
      "single_word": false,
      "lstrip": false,
      "rstrip": false,
      "normalized": false,
      "special": true
    },
    {
      "id": 1,
      "content": "<eot>",
      "single_word": false,
      "lstrip": false,
      "rstrip": false,
      "normalized": false,
      "special": true
    },
    {
      "id": 2,
      "content": "<user>",
      "single_word": false,
      "lstrip": false,
      "rstrip": false,
      "normalized": false,
      "special": true
    },
    {
      "id": 3,
      "content": "<system>",
      "single_word": false,
      "lstrip": false,
      "rstrip": false,
      "normalized": false,
      "special": true
    },
    {
      "id": 4,
      "content": "<answer>",
      "single_word": false,
      "lstrip": false,
      "rstrip": false,
      "normalized": false,
      "special": true
    }
  ],
  "normalizer": null,
  "pre_tokenizer": {
    "type": "ByteLevel",
    "add_prefix_space": false,
    "trim_offsets": true,
    "use_regex": true
  },
  "post_processor": {
    "type": "ByteLevel",
    "add_prefix_space": true,
    "trim_offsets": false,
    "use_regex": true
  },
  "decoder": {
    "type": "ByteLevel",
    "add_prefix_space": true,
    "trim_offsets": true,
    "use_regex": true
  },
  "model": {
    "type": "BPE",
    "dropout": null,
    "unk_token": null,
    "continuing_subword_prefix": null,
    "end_of_word_suffix": null,
    "fuse_unk": false,
    "byte_fallback": false,
    "ignore_merges": false,
    "vocab": {
      "<unk>": 0,
      "<eot>": 1,
      "<user>": 2,
      "<system>": 3,
      "<answer>": 4,
      "!": 5,
      "\"": 6,
      "#": 7,
      "$": 8,
      "%": 9,
      "&": 10,
      "'": 11,
      "(": 12,
      ")": 13,
      "*": 14,
      "+": 15,
      ",": 16,
      "-": 17,
      ".": 18,
      "/": 19,
      "0": 20,
      "1": 21,
      "2": 22,
      "3": 23,
      "4": 24,
      "5": 25,
      "6": 26,
      "7": 27,
      "8": 28,
      "9": 29,
      ":": 30,
      ";": 31,
      "<": 32,
      "=": 33,
      ">": 34,
      "?": 35,
      "@": 36,
      "A": 37,
      "B": 38,
      "C": 39,
      "D": 40,
      "E": 41,
      "F": 42,
      "G": 43,
      "H": 44,
      "I": 45,
      "J": 46,
      "K": 47,
      "L": 48,
      "M": 49,
      "N": 50,
      "O": 51,
      "P": 52,
      "Q": 53,
      "R": 54,
      "S": 55,
      "T": 56,
      "U": 57,
      "V": 58,
      "W": 59,
      "X": 60,
      "Y": 61,
      "Z": 62,
      "[": 63,
      "\\": 64,
      "]": 65,
      "^": 66,
      "_": 67,
      "`": 68,
      "a": 69,
      "b": 70,
      "c": 71,
      "d": 72,
      "e": 73,
      "f": 74,
      "g": 75,
      "h": 76,
      "i": 77,
      "j": 78,
      "k": 79,
      "l": 80,
      "m": 81,
      "n": 82,
      "o": 83,
      "p": 84,
      "q": 85,
      "r": 86,
      "s": 87,
      "t": 88,
      "u": 89,
      "v": 90,
      "w": 91,
      "x": 92,
      "y": 93,
      "z": 94,
      "{": 95,
      "|": 96,
      "}": 97,
      "~": 98,
      "¡": 99,
      "¢": 100,
      "£": 101,
      "¤": 102,
      "¥": 103,
      "¦": 104,
      "§": 105,
      "¨": 106,
      "©": 107,
      "ª": 108,
      "«": 109,
      "¬": 110,
      "®": 111,
      "¯": 112,
      "°": 113,
      "±": 114,
      "²": 115,
      "³": 116,
      "´": 117,
      "µ": 118,
      "¶": 119,
      "·": 120,
      "¸": 121,
      "¹": 122,
      "º": 123,
      "»": 124,
      "¼": 125,
      "½": 126,
      "¾": 127,
      "¿": 128,
      "À": 129,
      "Á": 130,
      "Â": 131,
      "Ã": 132,
      "Ä": 133,
      "Å": 134,
      "Æ": 135,
      "Ç": 136,
      "È": 137,
      "É": 138,
      "Ê": 139,
      "Ë": 140,
      "Ì": 141,
      "Í": 142,
      "Î": 143,
      "Ï": 144,
      "Ð": 145,
      "Ñ": 146,
      "Ò": 147,
      "Ó": 148,
      "Ô": 149,
      "Õ": 150,
      "Ö": 151,
      "×": 152,
      "Ø": 153,
      "Ù": 154,
      "Ú": 155,
      "Û": 156,
      "Ü": 157,
      "Ý": 158,
      "Þ": 159,
      "ß": 160,
      "à": 161,
      "á": 162,
      "â": 163,
      "ã": 164,
      "ä": 165,
      "å": 166,
      "æ": 167,
      "ç": 168,
      "è": 169,
      "é": 170,
      "ê": 171,
      "ë": 172,
      "ì": 173,
      "í": 174,
      "î": 175,
      "ï": 176,
      "ð": 177,
      "ñ": 178,
      "ò": 179,
      "ó": 180,
      "ô": 181,
      "õ": 182,
      "ö": 183,
      "÷": 184,
      "ø": 185,
      "ù": 186,
      "ú": 187,
      "û": 188,
      "ü": 189,
      "ý": 190,
      "þ": 191,
      "ÿ": 192,
      "Ā": 193,
      "ā": 194,
      "Ă": 195,
      "ă": 196,
      "Ą": 197,
      "ą": 198,
      "Ć": 199,
      "ć": 200,
      "Ĉ": 201,
      "ĉ": 202,
      "Ċ": 203,
      "ċ": 204,
      "Č": 205,
      "č": 206,
      "Ď": 207,
      "ď": 208,
      "Đ": 209,
      "đ": 210,
      "Ē": 211,
      "ē": 212,
      "Ĕ": 213,
      "ĕ": 214,
      "Ė": 215,
      "ė": 216,
      "Ę": 217,
      "ę": 218,
      "Ě": 219,
      "ě": 220,
      "Ĝ": 221,
      "ĝ": 222,
      "Ğ": 223,
      "ğ": 224,
      "Ġ": 225,
      "ġ": 226,
      "Ģ": 227,
      "ģ": 228,
      "Ĥ": 229,
      "ĥ": 230,
      "Ħ": 231,
      "ħ": 232,
      "Ĩ": 233,
      "ĩ": 234,
      "Ī": 235,
      "ī": 236,
      "Ĭ": 237,
      "ĭ": 238,
      "Į": 239,
      "į": 240,
      "İ": 241,
      "ı": 242,
      "Ĳ": 243,
      "ĳ": 244,
      "Ĵ": 245,
      "ĵ": 246,
      "Ķ": 247,
      "ķ": 248,
      "ĸ": 249,
      "Ĺ": 250,
      "ĺ": 251,
      "Ļ": 252,
      "ļ": 253,
      "Ľ": 254,
      "ľ": 255,
      "Ŀ": 256,
      "ŀ": 257,
      "Ł": 258,
      "ł": 259,
      "Ń": 260,
      "ĠÐ": 261,
      "Ð¾": 262,
      "Ð°": 263,
      "Ðµ": 264,
      "Ð¸": 265,
      "Ð½": 266,
      "ÑĢ": 267,
      "Ñģ": 268,
      "ÑĤ": 269,
      "Ð¾Ð": 270,
      "Ð»": 271,
      "Ðº": 272,
      "Ñĥ": 273,
      "Ð²": 274,
      "Ñı": 275,
      "Ñĭ": 276,
      "Ð¼": 277,
      "Ð´": 278,
      "ÑģÑĤ": 279,
      "ĠÐ¿": 280,
      "ĠÐ²": 281,
      "ÑĮ": 282,
      "ÑĢÐ°": 283,
      "ÐµÐ½": 284,
      "Ñĩ": 285,
      "Ð¾Ð²": 286,
      "ĠÑģ": 287,
      "Ð¹": 288,
      "Ð·": 289,
      "Ñħ": 290,
      "ĠÐ¸": 291,
      "Ð¿": 292,
      "Ð°Ð½": 293,
      "ÑģÐº": 294,
      "ÐµÑĢ": 295,
      "Ð³": 296,
      "Ð±": 297,
      "Ð¾Ð´": 298,
      "ĠÐ½": 299,
      "ĠÐ¾": 300,
      "Ð¾ÑĢ": 301,
      "Ð¾Ð»": 302,
      "ĠÐº": 303,
      "Ð¾Ð¼": 304,
      "Ð°Ð»": 305,
      "ÐµÐ»": 306,
      "ÑĨ": 307,
      "Ð½Ñĭ": 308,
      "Ð¾Ð³": 309,
      "ÑĢÐµ": 310,
      "ĠÐ³": 311,
      "Ð¾Ð¹": 312,
      "Ñİ": 313,
      "Ð¾Ð½": 314,
      "ĠÐ´": 315,
      "Ð¶": 316,
      "Ð¸Ð½": 317,
      "ÐµÑĤ": 318,
      "ĠÐ½Ð°": 319,
      "ÑĪ": 320,
      "Ð¸ÑĤ": 321,
      "âĢ": 322,
      "Ð¸Ñı": 323,
      "Âł": 324,
      "Ġ1": 325,
      "âĢĶ": 326,
      "Ð°ÑĤ": 327,
      "ĠÐ¼": 328,
      "ÑĦ": 329,
      "ĠÐ±": 330,
      "ĠÑĤ": 331,
      "Ð°ÑĢ": 332,
      "Ð¸Ð»": 333,
      "Ð¸Ðµ": 334,
      "Ð¾Ð³Ð¾": 335,
      "Ð¸Ðº": 336,
      "Ġ(": 337,
      "Ð¸Ð¸": 338,
      "ĠÐ¿ÑĢ": 339,
      "Ð¾ÑĤ": 340,
      "Ð¾Ñģ": 341,
      "Ð¸Ð¹": 342,
      "Ð½Ð¾": 343,
      "Ð¸Ð¼": 344,
      "ĠÐ¡": 345,
      "ĠÐ·": 346,
      "ÑģÑĤÐ²": 347,
      "Ð»Ð°": 348,
      "Ñī": 349,
      "Ñĳ": 350,
      "ĠÐ³Ð¾Ð´": 351,
      "ĠÑĥ": 352,
      "ĠÐ°": 353,
      "Â«": 354,
      "Â»": 355,
      "ĠÐĴ": 356,
      "ÐµÐ¼": 357,
      "Ð°Ðº": 358,
      "ĠÂ«": 359,
      "ÐµÐ´": 360,
      "ÑģÑı": 361,
      "Ð¸Ñĩ": 362,
      "ĠÑĩ": 363,
      "ĠÑĢÐ°": 364,
      "Ð°Ð¼": 365,
      "ÐµÐ¹": 366,
      "Ġ2": 367,
      "Ð°Ñı": 368,
      "Ġ19": 369,
      "ĠÐļ": 370,
      "ÑĢÑĥ": 371,
      "ÐµÐ²": 372,
      "ĠĊ": 373,
      "Ð°Ð²": 374,
      "Ñį": 375,
      "ÐµÐº": 376,
      "Ð¾ÑģÑĤ": 377,
      "ĠÐŁ": 378,
      "Ð¸Ð²": 379,
      "Ð¸Ñģ": 380,
      "Ð¡": 381,
      "Ð¾Ðº": 382,
      "ÐµÐ»ÑĮ": 383,
      "ĠÐľ": 384,
      "Ð¾Ð±": 385,
      "Ð¸Ñħ": 386,
      "ĠÐ¾Ð±": 387,
      "Ð»Ñı": 388,
      "ĠÑģÑĤ": 389,
      "ĠÐĲ": 390,
      "ĠÐ¾ÑĤ": 391,
      "Ð¸Ð·": 392,
      "Ð½Ð¾Ð¹": 393,
      "ĠÐ±Ñĭ": 394,
      "ÐŁ": 395,
      "ĠÐ»": 396,
      "Ð°Ð»ÑĮ": 397,
      "Ð¾Ð·": 398,
      "Ġ20": 399,
      "ĠÐ¿Ð¾": 400,
      "Ð»Ð¸": 401,
      "Ð¾Ð»ÑĮ": 402,
      "ÐµÑģÐº": 403,
      "ĠÑĦ": 404,
      "Ð¸ÑĢ": 405,
      "ĠÐł": 406,
      "ÐµÐ½Ð¸Ñı": 407,
      "ĠÐ¸Ð·": 408,
      "ĠÐ³Ð¾Ð´Ð°": 409,
      "ĠÐĳ": 410,
      "Ð½ÑĭÐ¹": 411,
      "Ð½ÑĭÑħ": 412,
      "ÐºÐ°": 413,
      "Ð½Ð¾Ð³Ð¾": 414,
      "ĠÑį": 415,
      "Ð³Ð¾": 416,
      "Ð¾Ð¶": 417,
      "Ð°Ñģ": 418,
      "Ð¸ÑģÑĤ": 419,
      "ÐµÑģ": 420,
      "ÐĴ": 421,
      "Ð½ÑĭÐµ": 422,
      "Ð¾Ð¿": 423,
      "ĠÐĿ": 424,
      "ĠÐĵ": 425,
      "Ð°Ð´": 426,
      "ÐµÐ½Ð¸Ðµ": 427,
      "ĠÐµ": 428,
      "ÑĢÐµÐ´": 429,
      "ÐµÑģÑĤ": 430,
      "ĠÐĶ": 431,
      "ĠÐŀ": 432,
      "ĠÐ²Ñĭ": 433,
      "Ð½Ð¸Ðº": 434,
      "ĠÐ¿ÐµÑĢ": 435,
      "ÑĥÑĢ": 436,
      "ÑģÐºÐ¾Ð³Ð¾": 437,
      "Ð½Ð°": 438,
      "Ð»ÑĮ": 439,
      "Ð¸ÑĩÐµÑģÐº": 440,
      "ÐµÐ½ÑĤ": 441,
      "ÑĤÐ¾": 442,
      "ÑĨÐ¸": 443,
      "ĠÐ½Ðµ": 444,
      "ÑģÐºÐ¾Ð¹": 445,
      "ÑĥÑİ": 446,
      "ĠÑĢÐµ": 447,
      "Ð¸Ð´": 448,
      "ĠÐ¢": 449,
      "ÑĢÐ°Ð½": 450,
      "ÐºÐ¸": 451,
      "Ð¾Ð²Ð°Ð½": 452,
      "ÐµÑĢÐ°": 453,
      "ÑģÐºÐ¸Ð¹": 454,
      "ĠÐ·Ð°": 455,
      "ĠÐ¶": 456,
      "ÑĥÐ´": 457,
      "ÐµÑĩ": 458,
      "ÑģÐ¿": 459,
      "Ð½Ð¾ÑģÑĤ": 460,
      "Ðļ": 461,
      "ÑĥÑĤ": 462,
      "ĠÐĺ": 463,
      "ĠÐ³Ð¾Ð´Ñĥ": 464,
      "ĠÐĽ": 465,
      "ÐµÐ·": 466,
      "ĠâĢĶ": 467,
      "Ð½ÑĭÐ¼": 468,
      "Ð°ÑģÑĤ": 469,
      "19": 470,
      "ĠÐ±ÑĭÐ»": 471,
      "Ð½Ð¸": 472,
      "ĠÐ¿Ð¾Ð»": 473,
      "ÑıÑĤ": 474,
      "ĠÑĢ": 475,
      "ÑĢÐ°Ð²": 476,
      "ÐµÑģÑĤÐ²": 477,
      "ĠÑģÐ²": 478,
      "ÑĤÐ°": 479,
      "ÐĲ": 480,
      "ÑĨÐ¸Ð¸": 481,
      "Ð¾Ñĩ": 482,
      "ÐºÑĤ": 483,
      "Ðł": 484,
      "Ð°Ð¹": 485,
      "Ð°ÐµÑĤ": 486,
      "Ð¾ÑĤÐ¾ÑĢ": 487,
      "ÑħÐ¾Ð´": 488,
      "Ð½Ð°Ñı": 489,
      "ÑĥÑĩ": 490,
      "Ð»ÐµÐ½": 491,
      ").": 492,
      "Ð°Ð½Ð¸Ñı": 493,
      "Ð°Ð½Ð´": 494,
      "Ð»Ðµ": 495,
      "ĠÐ¤": 496,
      "ĠÐ¿Ð¾Ð´": 497,
      "ÑĥÐ±": 498,
      "Ð°Ñħ": 499,
      "Ð¶Ðµ": 500,
      "Ð°Ð·": 501,
      "ĠÐ¿ÑĢÐ¾": 502,
      "ÐĿ": 503,
      "ÑĢÐµÐ¼": 504,
      "ĠÑĢÐ°Ð·": 505,
      "ÐºÐ¾Ð²": 506,
      "ĠÑħ": 507,
      "Ð°ÑĤÑĮ": 508,
      "ĠÐºÐ¾Ð¼": 509,
      "Ð¾Ðµ": 510,
      "ĠÐºÐ¾ÑĤÐ¾ÑĢ": 511,
      "Ðĺ": 512,
      "ÑİÑĤ": 513,
      "Ð¶Ð´": 514,
      "er": 515,
      "ĠÐ¿Ð¾Ñģ": 516,
      "00": 517,
      "Ð¸ÑĤÐµÐ»ÑĮ": 518,
      "Ð½Ðµ": 519,
      "ĠÑĤÐ°Ðº": 520,
      "ĠÑı": 521,
      "Ð¸Ð³": 522,
      "),": 523,
      "Ð´Ð°": 524,
      "Ð½Ð¾Ð¼": 525,
      "Ð¸ÑĨ": 526,
      "ÑĢÐ¾": 527,
      "ÑĥÐ½": 528,
      "ÑĢÐ¾Ð²": 529,
      "Ð½Ñı": 530,
      "Ð°Ð¼Ð¸": 531,
      "ĠÑģÐ¾ÑģÑĤ": 532,
      "ÑĳÐ½": 533,
      "ÑĢÑı": 534,
      "Ð¸Ð»ÑĮ": 535,
      "ĠÑĨ": 536,
      "ĠÑĪ": 537,
      "ĠÐ£": 538,
      "ÑĭÑħ": 539,
      "ĠÐ¸Ð¼": 540,
      "ÑĭÐ¹": 541,
      "ÑĭÐµ": 542,
      "Ġ201": 543,
      "ÑĤÐ¾ÑĢ": 544,
      "Ðľ": 545,
      "ÑĥÑģ": 546,
      "ĠÑĩÑĤÐ¾": 547,
      "Ġ200": 548,
      "Ðŀ": 549,
      "ot": 550,
      "Ð¾Ð½Ð°": 551,
      "ĠÐ¿ÑĢÐµÐ´": 552,
      "ÑĭÐ²": 553,
      "Ð¸Ñİ": 554,
      "Â».": 555,
      "ÑĥÐ¿": 556,
      "Ð¾ÑĢÐ¾Ð´": 557,
      "Ð¾Ñı": 558,
      "ĠÐºÐ¾Ð½": 559,
      "ÐĶ": 560,
      "Ð°Ð»Ð°": 561,
      "ÑĢÐ°Ð·": 562,
      "Ð»ÐµÐ´": 563,
      "Ð¾ÑģÑģ": 564,
      "Ġ3": 565,
      "ÑĢÐ°ÑĤ": 566,
      "Ð½Ð¾Ðµ": 567,
      "ĠÐ¾Ñģ": 568,
      "ĠÑģÐ¾": 569,
      "Ġ18": 570,
      "ĠÐ´Ð»Ñı": 571,
      "Ðĳ": 572,
      "Ð½Ð¾Ð²": 573,
      "an": 574,
      "ÐµÐ¿": 575,
      "ĠÐºÐ°Ðº": 576,
      "ĠÑĥÑĩ": 577,
      "Ð¼Ð¸": 578,
      "Ð¸Ð½Ð°": 579,
      "ĠÐ²Ð¾": 580,
      "ĠÐ¾Ð´": 581,
      "Ð»Ð°Ð²": 582,
      "Ð°Ð»Ð¸": 583,
      "ÑĥÐ¶": 584,
      "ĠÐĹ": 585,
      "ĠÐ¥": 586,
      "Â»,": 587,
      "ÑĢÑĥÐ³": 588,
      "Ð±Ð¾ÑĤ": 589,
      "ĠÑįÑĤ": 590,
      "in": 591,
      "ÑĢÐ¸": 592,
      "Ð°Ð³": 593,
      "ÐµÑħ": 594,
      "eot": 595,
      "ĠÐ´Ð²": 596,
      "ÐºÐ¾": 597,
      "Ðĵ": 598,
      "ÐµÐ³": 599,
      "ĠÑģÐ¿": 600,
      "ĠÐµÐ³Ð¾": 601,
      "ÑĢÐ¸Ð¼": 602,
      "ÑĥÐ¼": 603,
      "on": 604,
      "ÑĢÑĭ": 605,
      "ĠÐŃ": 606,
      "ĠÑģÐ¾ÑģÑĤÐ°Ð²": 607,
      "ÑĢÐ°ÑĦ": 608,
      "ÑĥÐ»ÑĮ": 609,
      "ÑģÐºÐ¾Ð¼": 610,
      "ĠÐ¸Ð½": 611,
      "Ð°ÑĢÑĤ": 612,
      "ÐµÐµ": 613,
      "ÑģÐºÐ°Ñı": 614,
      "en": 615,
      "ÑģÑģ": 616,
      "Ð°Ð½Ð¸Ðµ": 617,
      "ÑģÑĤÐ²ÐµÐ½": 618,
      "Ð°Ð±": 619,
      "Ð¢": 620,
      "ĠÐ´Ð¾": 621,
      "Ð½Ð¾ÑģÑĤÐ¸": 622,
      "ĠÐ¾Ðº": 623,
      "Ð»Ð°ÑģÑĤ": 624,
      "Ð½Ð¾ÑģÑĤÑĮ": 625,
      "Ð»ÐµÐº": 626,
      "Ð¸ÑĤÑĮ": 627,
      "ĠÐ¿ÑĢÐ¸": 628,
      "ĠÑĢÐ°Ð¹": 629,
      "Ð¸ÑģÑĮ": 630,
      "Ð¾ÑĢÐ°": 631,
      "ĠI": 632,
      "ĠS": 633,
      "ĠÐķ": 634,
      "Ð¼ÐµÑĢ": 635,
      "ÑĥÐ·": 636,
      "Ð°Ð½Ð¾Ð²": 637,
      "ÑĨÐ¸Ð¾Ð½": 638,
      "Ð¸Ð¾Ð½": 639,
      "ĠÐ°Ð²": 640,
      "ÐĽ": 641,
      "Ð»Ð¾Ð²": 642,
      "ĠÐ§": 643,
      "ÑģÐºÐ¸Ñħ": 644,
      "Ð¸Ð»Ð¸": 645,
      "ÐµÐ±": 646,
      "ÑİÑī": 647,
      "ÐµÐ½Ð°": 648,
      "ĠÐ¾Ð¿": 649,
      "ÐµÐ»Ñı": 650,
      "Ð¾Ð²ÐµÑĤ": 651,
      "Ġ199": 652,
      "Ð°Ð¿": 653,
      "ĠÐ²ÑĢÐµÐ¼": 654,
      "ÑģÑĤÐ²Ð°": 655,
      "ĠÑĤÐ°ÐºÐ¶Ðµ": 656,
      "Ð»Ñİ": 657,
      "ar": 658,
      "Ð¸ÑĢÐ¾Ð²": 659,
      "ĠÐ¿ÑĢÐµ": 660,
      "ĠÐ³Ð¾ÑĢÐ¾Ð´": 661,
      "Ð°ÑĤÐµÐ»ÑĮ": 662,
      "or": 663,
      "ĠÐ²Ñģ": 664,
      "Ð»Ð°Ð´": 665,
      "ĠÐ¾Ð½": 666,
      "Ð¼Ð°": 667,
      "Ð¤": 668,
      "ĠÐ²Ð¾Ð·": 669,
      "ĠÐ½Ð°Ñĩ": 670,
      "ÑĥÑī": 671,
      "ĠÐ°ÑĢ": 672,
      "ÑĢÐ¸ÑĤ": 673,
      "ÐµÑĤÑģÑı": 674,
      "ĠÐ¨": 675,
      "ÐµÐ³Ð¾": 676,
      "ÑĢÐ¸Ð¼ÐµÑĩ": 677,
      "Ġ4": 678,
      "Ð°ÑĢÐ°": 679,
      "Ð¸Ð±": 680,
      "ÐºÐµ": 681,
      "Ð½ÑĥÑİ": 682,
      "ĠÑĩÐ°ÑģÑĤ": 683,
      "ÑģÑĤÐ°Ð²": 684,
      "ÑĤÑĥ": 685,
      "Ð»Ð¾": 686,
      "Ð¾Ð»ÑĮÑĪ": 687,
      "20": 688,
      "al": 689,
      "ĠÑĢÑĥ": 690,
      "ĠÐłÐ¾ÑģÑģ": 691,
      "es": 692,
      "ĠC": 693,
      "Ð¸ÐºÐ¸": 694,
      "ĠA": 695,
      "ĠÐ½Ð°Ð·": 696,
      "ÑģÑĤÐ¾ÑĢ": 697,
      "ÐŁÑĢÐ¸Ð¼ÐµÑĩ": 698,
      "ĠÑģÐ²Ð¾": 699,
      "ÐŁÑĢÐ¸Ð¼ÐµÑĩÐ°Ð½Ð¸Ñı": 700,
      "Ð´Ðµ": 701,
      "ÑĨÐ¸Ñı": 702,
      "ÐµÑĢÑģ": 703,
      "Ð¸ÐºÐ°": 704,
      "ÑĥÐ»": 705,
      "ĠM": 706,
      "Ð°Ð½Ð°": 707,
      "ĠÐ¿ÐµÑĢÐ²": 708,
      "Ð°Ð½ÑĤ": 709,
      "Ð¾Ð³ÑĢÐ°ÑĦ": 710,
      "ÑģÑĭ": 711,
      "ÑĢÑĥÐ¿": 712,
      "Ġ5": 713,
      "ĠÐ¾Ð±Ð»Ð°ÑģÑĤ": 714,
      "ĠÑĢÐ°Ð±Ð¾ÑĤ": 715,
      "Ð¿ÑĢ": 716,
      "ÑĭÐ¼": 717,
      "ÑģÑĤÐ²Ð¾": 718,
      "ÑĳÑĤ": 719,
      "ĠÐ¸ÑģÐ¿": 720,
      "18": 721,
      "ĠÐ¾ÑĢ": 722,
      "ÑĬ": 723,
      "ĠÐ¸Ð³": 724,
      "ÐµÑĨ": 725,
      "Ð½Ð°Ñĩ": 726,
      "Ð¾Ð»Ð¾Ð³": 727,
      "ÐµÐ¼Ð¿": 728,
      "ĠÐ¿ÑĢÐ°Ð²": 729,
      "ÑĥÐ»ÑĮÑĤ": 730,
      "Ð£": 731,
      "ĠÑģÐ°Ð¼": 732,
      "ÐµÑĢÐ²": 733,
      "Ð¸ÑĢÐ¾Ð²Ð°Ð½": 734,
      "ĠÐ²Ð¾Ð¹": 735,
      "Ð°Ñĩ": 736,
      "ÐµÐ»Ð¸": 737,
      "at": 738,
      "Ð³Ð¾Ð´": 739,
      "ÑıÐ½": 740,
      "Ð°ÐµÑĤÑģÑı": 741,
      "Ð¾ÑĢÑĤ": 742,
      "ĠT": 743,
      "Ġ194": 744,
      "Ð¸Ð½Ð³": 745,
      "ÑĥÑħ": 746,
      "Ð°ÑİÑĤ": 747,
      "ĠÑģÐ»": 748,
      "ĠP": 749,
      "ĠÐ¼ÐµÑģÑĤ": 750,
      "ÐºÑĥ": 751,
      "ÐµÐ½ÑĮ": 752,
      "ĠÐ±ÑĭÐ»Ð°": 753,
      "ÑĨÐ°": 754,
      "ĠÐ¿Ð¾ÑģÑĤ": 755,
      "ÑĥÑģÑĤ": 756,
      "Ð¡Ðł": 757,
      "Ð¾Ð½Ðµ": 758,
      "ĠĠ": 759,
      "Ð¸Ð¿": 760,
      "ĠÐ±ÑĭÐ»Ð¸": 761,
      "ÑĳÑĢ": 762,
      "ĠB": 763,
      "Ð¸Ð½Ñĭ": 764,
      "Ð±ÑĢÑı": 765,
      "Ð¸Ð»ÑģÑı": 766,
      "Ð¸Ð»Ð°": 767,
      "Ð¸Ð¼Ð¸": 768,
      "ic": 769,
      "Ġ198": 770,
      "Ð°Ð½Ð¸Ð¸": 771,
      "ĠÐ²ÑĢÐµÐ¼Ñı": 772,
      "Ð½ÑĭÐ¼Ð¸": 773,
      "Ð¾ÑģÑĮ": 774,
      "ĠÐºÐ¾ÑĢ": 775,
      "ÑģÐºÐ¸Ðµ": 776,
      "Ð²Ð»Ñı": 777,
      "ĠÐ±ÑĭÐ»Ð¾": 778,
      "ÐµÐºÑĤ": 779,
      "is": 780,
      "ÐµÑĢÐ½": 781,
      "ÐµÑĤÐ°": 782,
      "Ð¾ÑģÐº": 783,
      "Ð¿ÑĢÐ°Ð²": 784,
      "Ð°ÑĪ": 785,
      "ÐĹ": 786,
      "ÐµÐ»Ð¾Ð²": 787,
      "Ð¾ÑĢÐ¼": 788,
      "ÐºÐ°Ð·": 789,
      "he": 790,
      "ĠÐ¡ÑĤ": 791,
      "ÑģÑĤÑĥÐ¿": 792,
      "ÑĳÐ»": 793,
      "ĠÐ½Ð°Ñģ": 794,
      "ĠÐ´ÑĢÑĥÐ³": 795,
      "ÐµÐ½Ð¸Ð¸": 796,
      "Ð¨": 797,
      "ĠÐ¿ÑĢÐ¾ÑĤ": 798,
      "Ġ6": 799,
      "ĠÐĲÐ½": 800,
      "Ð´ÐµÐ»": 801,
      "ÑĮÑİ": 802,
      "ÐµÑģÑĤÐ²ÐµÐ½": 803,
      "ÑģÑĭÐ»": 804,
      "ÑĢÐ°Ð¼": 805,
      "ÐµÐ¶Ð´": 806,
      "ĠÑģÐ¾Ð±": 807,
      "ĠÐ´Ðµ": 808,
      "Ð°ÑģÑĮ": 809,
      "ĠÐ¾Ð±Ð»Ð°ÑģÑĤÐ¸": 810,
      "Ð¾Ð·Ð´": 811,
      "ÑĥÐº": 812,
      "Ð±Ð¾ÑĢ": 813,
      "ĠÐ¸Ð»Ð¸": 814,
      "ÐµÐ½Ñĭ": 815,
      "Ð½ÐµÐ¹": 816,
      "ĠÐºÐ¾Ð»": 817,
      "ĠÐ¿ÑĢÐ¸Ð½": 818,
      "ÑģÑĭÐ»ÐºÐ¸": 819,
      "ĠÐĶÐ¶": 820,
      "ÐµÐ½Ð¸": 821,
      "ÑĢÐ¾Ð½": 822,
      "ĠÐºÐ¾Ð¼Ð°Ð½Ð´": 823,
      "ÐµÑĢÐ¶": 824,
      "ĠÐ½Ð¾": 825,
      "Ġ197": 826,
      "Ð¾ÑģÑĥÐ´": 827,
      "Ð¡ÑģÑĭÐ»ÐºÐ¸": 828,
      "Ð»ÑİÑĩ": 829,
      "ĠÐ»ÐµÑĤ": 830,
      "Ð³Ð°Ð½": 831,
      "Ð¸Ð¶": 832,
      "ÑĢÐ¾Ð¼": 833,
      "ÑĤÐ¸": 834,
      "ÐµÑĢÐµÐ²": 835,
      "ÑģÐ°": 836,
      "Ð¾Ð»Ð¶": 837,
      "ĠÐĿÐ°": 838,
      "ÑıÐ·": 839,
      "ĠÐºÐ¾Ð¼Ð¿": 840,
      "ÑĢÐ°Ð´": 841,
      "ÑĢÐ¾Ð´": 842,
      "ĠÐ¾Ð±ÑĢÐ°Ð·": 843,
      "Ð¸Ð·Ð²": 844,
      "Ð½Ð¸ÐºÐ¸": 845,
      "ÑĢÑĥÐ¿Ð¿": 846,
      "ĠÐ¸Ñİ": 847,
      "ÑĥÑĪ": 848,
      "Ð¾Ð»ÑĮÐºÐ¾": 849,
      "ÐµÐ¶": 850,
      "ÑĢÐ¾Ð¿": 851,
      "ĠÑįÐº": 852,
      "Ð¾Ð»ÑĮÐ·": 853,
      "ĠR": 854,
      "ĠÐ¿Ð¾Ð»ÑĥÑĩ": 855,
      "ĠÑĢÐ°ÑģÐ¿": 856,
      "Ð¾ÑģÑĥÐ´Ð°ÑĢ": 857,
      "Ìģ": 858,
      "ÑĢÐ¾Ðº": 859,
      "ÑħÐ¾Ð´Ð¸ÑĤ": 860,
      "ĠÐ¾Ð±Ñī": 861,
      "Ð¿Ð¸Ñģ": 862,
      "Ġ196": 863,
      "Ð°Ð»ÑģÑı": 864,
      "Ð²ÐµÑĢ": 865,
      "ÑĥÑİÑī": 866,
      "ÑĢÐµÑĤ": 867,
      "it": 868,
      "Ð¾Ð²Ð°": 869,
      "ĠD": 870,
      "Ð¸Ð½Ð¸ÑģÑĤ": 871,
      "Ð¸ÑĢÐ°": 872,
      "ĠÐłÐ¾ÑģÑģÐ¸Ð¸": 873,
      "ĠÐ¿ÑĢÐ¾Ð²": 874,
      "ĠÑĩÐµÐ»Ð¾Ð²": 875,
      "ÐµÑĪ": 876,
      "Ġ/": 877,
      "Ð²Ð°ÑĢ": 878,
      "Ð»ÐµÐºÑģ": 879,
      "ÑĮÑı": 880,
      "Ð»ÐµÐ½Ð¸Ñı": 881,
      "ÐµÐºÐ°": 882,
      "ĠÐ¯": 883,
      "ĠÐ·Ð°Ð²": 884,
      "ĠÑģÐµÑĢ": 885,
      "Ð·Ð°": 886,
      "ĠL": 887,
      "ÑĨÐ¸Ð°Ð»ÑĮ": 888,
      "Ð¡Ð¡Ðł": 889,
      "ĠÐ¿ÑĢÐ¾Ð´": 890,
      "Ð°ÑİÑī": 891,
      "ĠÑģÑĢÐµÐ´": 892,
      "ÐµÐ½Ð¸Ð¹": 893,
      "ÐµÑģÑģ": 894,
      "ÐºÑĢÐ°": 895,
      "Ð¾Ð²Ð°Ð½Ð¸Ñı": 896,
      "ĠÐ¿Ð¾ÑģÐ»Ðµ": 897,
      "Ġ7": 898,
      "ÐµÐ¼Ð¿Ð¸Ð¾Ð½": 899,
      "Ð¿Ð¾Ð»": 900,
      "ĠÑıÐ²Ð»Ñı": 901,
      "ĠX": 902,
      "Ð¸Ð»ÑĮÐ¼": 903,
      "Ð½Ð°Ðº": 904,
      "Ġ17": 905,
      "ÑĥÐ±Ð»": 906,
      "ĠÑİ": 907,
      "ÑĳÐ¼": 908,
      "ĠÐ®": 909,
      "ĠÐ°Ð½": 910,
      "ĠÐ¼Ð°ÑĤ": 911,
      "ÑĢÐ°Ð¶": 912,
      "Ð¸Ð·Ð°": 913,
      "us": 914,
      "ĠÐ·Ð°Ðº": 915,
      "Ġâ": 916,
      "ÑģÐºÐ¾Ðµ": 917,
      "Ð¾Ð³Ð´Ð°": 918,
      "ĠÑĢÐ¾Ð´": 919,
      "Ð¸ÑģÑģ": 920,
      "Ð²ÐµÑĤ": 921,
      "Ð¾Ð»ÐµÐµ": 922,
      "ĠÐ¿Ð»": 923,
      "ÐµÐ²ÐµÑĢ": 924,
      "el": 925,
      "ĠÑģÐº": 926,
      "Ð¾Ð¼Ñĥ": 927,
      "Ð»Ð°Ñģ": 928,
      "ol": 929,
      "ĠÐ¿Ð¾Ðº": 930,
      "ĠÐ²Ð¸Ð´": 931,
      "Ġ193": 932,
      "ĠÐ¶Ðµ": 933,
      "Ġ8": 934,
      "ÐµÐ½Ð¸ÐµÐ¼": 935,
      "Ð¼ÐµÐ½": 936,
      "ĠÐ½Ð¾Ð²": 937,
      "Ð¾Ð³ÑĢÐ°ÑĦÐ¸Ñı": 938,
      "Ġ9": 939,
      "ÑĪÐ¸Ð¹": 940,
      "ĠÐ±Ð¾Ð»ÑĮÑĪ": 941,
      "ÐµÐ»ÐµÐ¹": 942,
      "ĠÑĥÑĩÐ°ÑģÑĤ": 943,
      "ĠÑģÐ¾Ð²ÐµÑĤ": 944,
      "Ġ195": 945,
      "ĠÐ¦": 946,
      "ÐµÑĢÐ¼": 947,
      "Ð¾Ð²Ð°Ð»": 948,
      "Ð°ÑĤÐ°": 949,
      "ÑĢÐ°Ñģ": 950,
      "Ð¸ÑģÐº": 951,
      "ÑĢÐµÐ½": 952,
      "Ð²Ð°": 953,
      "ĠG": 954,
      "ĠÐ´ÐµÑĢÐµÐ²": 955,
      "ÑĭÑĪ": 956,
      "ÑıÐ±ÑĢÑı": 957,
      "Ð¾Ñħ": 958,
      "Ð½Ð¸ÐºÐ¾Ð²": 959,
      "Ð¼Ñĥ": 960,
      "Ð¸ÑĤÐµÑĢÐ°": 961,
      "II": 962,
      "ĠÑģÐ¾Ð²": 963,
      "ÑĢÑĥÐ´": 964,
      "ÐµÑĢÐ±": 965,
      "Ð¾Ð¶Ð´": 966,
      "Ð³Ð°": 967,
      "ĠÐ³ÑĢÑĥÐ¿Ð¿": 968,
      "ĠÐ¾ÑģÑĤ": 969,
      "ĠF": 970,
      "Ð²ÐµÑģÑĤ": 971,
      "Ð§": 972,
      "ĠÑĥÐ½": 973,
      "17": 974,
      "ĠÐľÐ¾ÑģÐº": 975,
      "ÑĨÑĭ": 976,
      "ÐŃ": 977,
      "Ð¾Ð½Ñĩ": 978,
      "ĠÐ¡Ð¡Ð¡Ðł": 979,
      "ĠÐ¸ÑģÑĤÐ¾ÑĢ": 980,
      "ĠÑĨÐµÐ½ÑĤ": 981,
      "ĠÐ¾ÑģÐ½Ð¾Ð²": 982,
      "ÑĢÐ¾Ñģ": 983,
      "ÐµÑī": 984,
      "ĠH": 985,
      "Ð·Ñĭ": 986,
      "Ġ15": 987,
      "Ð»Ð¸Ñĩ": 988,
      "ÑĤÑĥÑĢÐ°": 989,
      "ĠÑģÑĤÐ°Ð»": 990,
      "ÐµÐ´Ð¸Ð½": 991,
      "Ð°ÑĢÑĮ": 992,
      "Ð¸ÑĪ": 993,
      "ĠÑĢÐ°Ð¹Ð¾Ð½Ð°": 994,
      "ĠÐ²ÑĭÑģ": 995,
      "ÑĭÑĤ": 996,
      "ÐµÐ¹ÑģÑĤÐ²": 997,
      "Ð½Ð¸ÐºÐ°": 998,
      "Ð¥": 999,
      "Ð¸ÑĩÐµÑģÐºÐ¾Ð¹": 1000,
      "200": 1001,
      "ĠÐ¿ÑĢÐ¾ÑĤÐ¸Ð²": 1002,
      "ÐµÑĢÐ¸": 1003,
      "Ð»ÑĥÐ±": 1004,
      "ĠÐ½Ð°Ð·Ð²": 1005,
      "ĠÐ¸Ñħ": 1006,
      "ĠÐ·Ð°Ð½": 1007,
      "ĠÐĲÐ»ÐµÐºÑģ": 1008,
      "ÐµÐ»Ð¸Ðº": 1009,
      "Ð´Ð¸Ð½": 1010,
      "Ġ10": 1011,
      "ch": 1012,
      "ĠÐ¾Ð±ÑĬ": 1013,
      "ĠÐ¸ÑģÐ¿Ð¾Ð»ÑĮÐ·": 1014,
      "Ð¾ÑĦ": 1015,
      "ÑıÑī": 1016,
      "Ð¼ÐµÑģÑĤ": 1017,
      "ĠÐ¼Ð°ÑĢ": 1018,
      "Ð°Ð»Ðµ": 1019,
      "ĠÐ³Ð¾ÑģÑĥÐ´Ð°ÑĢ": 1020,
      "ĠÐ½Ð°ÑģÐµÐ»": 1021,
      "ĠÑģÐµÐ»ÑĮ": 1022,
      "Ð»Ð¸Ð½": 1023,
      "ĠE": 1024,
      "ĠÐµÑĳ": 1025,
      "Ð¸ÐµÐ¹": 1026,
      "ÐµÑģÐ¿": 1027,
      "ĠÐ¿Ð¾Ð¼": 1028,
      "ĠÑĥÑģÑĤ": 1029,
      "Ð¸Ð²ÐµÑĢÑģ": 1030,
      "ur": 1031,
      "om": 1032,
      "Ħĸ": 1033,
      ".,": 1034,
      "ĠÑģÐµÐ¼": 1035,
      "ÐµÑĢÐ³": 1036,
      "ĠÐĲÑĢ": 1037,
      "ÐºÐ¾Ð¼": 1038,
      "Ð¾Ð½Ð¾Ð¼": 1039,
      "ÐµÑĢÑĤ": 1040,
      "ÑĨÐ¸Ð¾Ð½Ð°Ð»ÑĮ": 1041,
      "Ð¸ÑĩÐµÑģÐºÐ¸Ñħ": 1042,
      "Ð¾Ð²Ð°Ð½Ð¸Ðµ": 1043,
      "ĠÐ¼ÐµÐ¶Ð´": 1044,
      "ĠÐ¿ÑĢÐ¾Ð¸Ð·Ð²": 1045,
      "10": 1046,
      "ĠÑĢÐ°Ñģ": 1047,
      "ĠÐ¿ÑĢÐµÐ´ÑģÑĤÐ°Ð²": 1048,
      "Ð¾Ð²Ð¾Ð¹": 1049,
      "ĠÐ¿Ð¾Ð²": 1050,
      "ĠÐºÐ¾ÑĤÐ¾ÑĢÑĭÐ¹": 1051,
      "ĠÐ¼ÑĥÐ·": 1052,
      "ĠÐ·Ð°Ð¿": 1053,
      "ĠN": 1054,
      "ĠW": 1055,
      "ĠÑģÐ¾Ð·Ð´": 1056,
      "as": 1057,
      "Ð¾ÑĪ": 1058,
      "ÐºÐ¾Ð»": 1059,
      "ÐºÐ¾Ð¹": 1060,
      "Ð¨ÐĲ": 1061,
      "ĠÑĢÐµÐ·": 1062,
      "ĠÐ³Ð´Ðµ": 1063,
      "ĠÑĩÐµÐ¼Ð¿Ð¸Ð¾Ð½": 1064,
      "et": 1065,
      "il": 1066,
      "Ð¸ÑĩÐµÑģÐºÐ¾Ð³Ð¾": 1067,
      "ÐµÐ½Ð½Ð¾": 1068,
      "ĠÑģÐµÐ»": 1069,
      "ĠÐ·Ð°Ð¼": 1070,
      "Ð°ÑģÐµÐ»": 1071,
      "Ð¸ÐºÐ°Ð½": 1072,
      "ÐµÐ½Ð¸Ñİ": 1073,
      "ÐµÐ½Ð¾": 1074,
      "ÑıÐ²": 1075,
      "ĠÐ¼Ð½": 1076,
      "ĠâĦĸ": 1077,
      "Ġ16": 1078,
      "ÑĥÑĢÐ³": 1079,
      "ÑĢÐ°Ð»": 1080,
      "ÑĨÐµÐ²": 1081,
      "Ġ()": 1082,
      "Ð¾ÑģÐ»Ðµ": 1083,
      "ĠÐĸ": 1084,
      "ÑĥÑģÐº": 1085,
      "ĠÐ¼ÐµÑĤ": 1086,
      "ÑģÐºÐ¸Ð¼": 1087,
      "Ð¸Ð²ÐµÑĢÑģÐ¸ÑĤ": 1088,
      "ĠÐ¡Ð¨ÐĲ": 1089,
      "ĠÐľÐ°ÑĢ": 1090,
      "ĠÑĩÐ¸Ñģ": 1091,
      "ĠÐ¾ÑĢÐ³Ð°Ð½": 1092,
      "ĠÐ»Ñİ": 1093,
      "Ġd": 1094,
      "Ð»Ð¸Ð¼": 1095,
      "ĠÐ³Ð»Ð°Ð²": 1096,
      "15": 1097,
      "ion": 1098,
      "Ð²Ð¾Ð»": 1099,
      "ÐµÑĢÑħ": 1100,
      "ÑĪÐ¸Ñħ": 1101,
      "ĠÐ°ÐºÑĤ": 1102,
      "12": 1103,
      "ÑĨÐ¸Ñİ": 1104,
      "ĠÑįÑĤÐ¾": 1105,
      "16": 1106,
      "Ð´Ð¶": 1107,
      "ÐµÑģÑĤÐ²Ð¾": 1108,
      "ĠÑĢÐ°Ð·Ð²": 1109,
      "Ð¾Ð»Ð½": 1110,
      "Ð±Ð¾Ð»": 1111,
      "Ð´Ð¸": 1112,
      "Ġ192": 1113,
      "ĠÐ´Ð¾Ð¼": 1114,
      "ĠÑģÐ¾ÑģÑĤÐ°Ð²Ð»Ñı": 1115,
      "ĠÐ´ÐµÐº": 1116,
      "ĠÐ±Ð¾Ð»ÐµÐµ": 1117,
      "ĠÐ¿Ð¾Ð¿": 1118,
      "Ð¾Ð½Ñĭ": 1119,
      "ĠÑĤÐµÑĢ": 1120,
      "ĠÐŀÑĤ": 1121,
      "Ð¾ÑģÑĤÐ¸": 1122,
      "Ð°ÑĢÐ¾Ð´": 1123,
      "ĠV": 1124,
      "Ð°ÑĤÑĭ": 1125,
      "ĠÐ¶ÐµÐ½": 1126,
      "ĠÑĩÐµÐ»Ð¾Ð²ÐµÐº": 1127,
      "Ð¸ÑĩÐµÑģÐºÐ¸Ð¹": 1128,
      "ÑıÑĤÐµÐ»ÑĮ": 1129,
      "Ġ12": 1130,
      "ĠÐ´ÐµÐ»": 1131,
      "Ð¾Ð±Ñĭ": 1132,
      "ĠÐ²Ð¾Ð¹Ð½Ñĭ": 1133,
      "ĠÑĤÐµ": 1134,
      "ÑĢÐµÐ±": 1135,
      "ĠÑĤÐ¾Ð¼": 1136,
      "ÐµÑĤÑĭ": 1137,
      "am": 1138,
      "ĠÐķÐ²": 1139,
      "ĠÐ¿Ð¾Ð·": 1140,
      "Ð°ÑģÑģ": 1141,
      "ÑĢÐ¸ÑĤÐ¾ÑĢ": 1142,
      "ÑĤÐµ": 1143,
      "ĠÐ´Ð¾ÑģÑĤ": 1144,
      "Ð»ÐµÐ½Ð¸Ðµ": 1145,
      "le": 1146,
      "Ġt": 1147,
      "ÑĤÑĮ": 1148,
      "ĠÑıÐ·Ñĭ": 1149,
      "Ð¾ÑĢÐ¾Ð²": 1150,
      "ÑıÐ´": 1151,
      "Ð¸Ñī": 1152,
      "ĠÑģÐ²ÑıÐ·": 1153,
      "ÑĥÑīÐµÑģÑĤÐ²": 1154,
      "ĠÐ´Ð°Ð½": 1155,
      "ÑĪÐ¸Ðµ": 1156,
      "ĠÐ¸ÑģÐº": 1157,
      "un": 1158,
      "ĠÐ¼ÐµÐ´": 1159,
      "Ð¸ÑĦ": 1160,
      "ĠÐ¼Ð¾Ð¶": 1161,
      "Ð¸ÑĩÐµÑģÐºÐ¸Ðµ": 1162,
      "Ð¸ÑĢÑĥ": 1163,
      "ĠÐ²ÑĤÐ¾ÑĢ": 1164,
      "ĠÐ²ÑĭÐ¿": 1165,
      "ÑĤÐµÑĢ": 1166,
      "ĠÐ²Ð¾Ð´": 1167,
      "Ð¸ÑģÑĤÐµÐ¼": 1168,
      "ÐµÑĢÑĪ": 1169,
      "ÑĭÑģ": 1170,
      "ÑĢÐ°Ð»ÑĮ": 1171,
      "ĠÐ·Ð²": 1172,
      "of": 1173,
      "ÐµÐ²Ð¸Ñĩ": 1174,
      "Ð³Ð¸": 1175,
      "Ð¸Ð·Ð½": 1176,
      "ĠÑĥÐ´": 1177,
      "ĠÐ¿ÐµÑĢÐµÐ´": 1178,
      "ĠÐ¿Ð¾ÑĤ": 1179,
      "ig": 1180,
      "Ð½Ð¸Ð¼": 1181,
      "ĠÑģÑĭ": 1182,
      "Ð³ÑĥÑģÑĤ": 1183,
      "Ġ14": 1184,
      "Ð½Ð¸Ðµ": 1185,
      "Ð½Ð°ÐºÐ¾": 1186,
      "ĠÑĢÑĥÑģ": 1187,
      "ÑĥÑĢÐ½": 1188,
      "Ð¾ÑĢÐ¾Ð½": 1189,
      "re": 1190,
      "ĠÐºÐ¾Ð½ÑĨ": 1191,
      "ĠÑĥÐ½Ð¸Ð²ÐµÑĢÑģÐ¸ÑĤ": 1192,
      "Ð¾Ñī": 1193,
      "ÑģÑĤÐ¸ÑĤ": 1194,
      "ĠÑĤÐµÐ»": 1195,
      "ĠÐ½Ð°Ð´": 1196,
      "ÑĨÐµÐ½": 1197,
      "ĠÑĤÐ¾": 1198,
      "ter": 1199,
      "ĠÑıÐ²Ð»ÑıÐµÑĤÑģÑı": 1200,
      "Ð»ÑĮÐ±": 1201,
      "Ġ13": 1202,
      "Ð¸ÑĤÑģÑı": 1203,
      "Ðķ": 1204,
      "ÑĢÐµÑģÑĤ": 1205,
      "Ð½ÐµÐµ": 1206,
      "ÑĥÐ´Ð¾Ð¶": 1207,
      "ÑĤÐ¾ÑĢÐ°": 1208,
      "Ð°Ð»Ð¸ÑģÑĮ": 1209,
      "Ð´ÐµÐ½": 1210,
      "ĠÐ¾ÑĤÐº": 1211,
      "ÑıÑĤÑĮ": 1212,
      "ÐĿÐ°ÑģÐµÐ»": 1213,
      "ÑĥÑĢÑĭ": 1214,
      "ĠÐĿÐ¸Ðº": 1215,
      "ĠÑģÐ¾ÑģÑĤÐ¾Ñı": 1216,
      "ĠÐ¿Ð¾Ð±": 1217,
      "ĠÐ²Ð¾Ñģ": 1218,
      "Ð²Ð¾ÑĢ": 1219,
      "ro": 1220,
      "Ð´Ð¼": 1221,
      "Ð»ÐµÑĤ": 1222,
      "Ð¸Ð¹ÑģÐºÐ¾Ð¹": 1223,
      "ĠÐ±ÐµÐ·": 1224,
      "ÑĮÐµ": 1225,
      "ĠÑĢÐ°ÑģÐ¿Ð¾Ð»": 1226,
      "ĠÐ°ÑĢÐ¼": 1227,
      "ĠÑģÐ±Ð¾ÑĢ": 1228,
      "ÐµÐ½ÐµÑĢÐ°": 1229,
      "ĠÐ´Ð¾Ð»Ð¶": 1230,
      "14": 1231,
      "Ð´ÐµÐ¼": 1232,
      "Ð³Ð»": 1233,
      "ĠÐ¿ÑĥÐ½": 1234,
      "Ġ,": 1235,
      "ĠÐ³Ð¾ÑĢÐ¾Ð´Ð°": 1236,
      "Ð±Ñĭ": 1237,
      "ĠÐ¸Ð·Ð²ÐµÑģÑĤ": 1238,
      "Ð°ÑĤÐµ": 1239,
      "ĠÐºÐ¾Ð½ÑĤ": 1240,
      "ĠÑıÐ½": 1241,
      "Ð¸Ð½Ðµ": 1242,
      "ĠÐ°Ð²ÑĤ": 1243,
      "13": 1244,
      "Ð°Ð»Ð¾": 1245,
      "ĠÐ²Ðº": 1246,
      "ÐµÐ½Ð½ÑĭÐ¹": 1247,
      "ÑģÑĤÐ¾ÑĢÐ¸Ñı": 1248,
      "Ð°Ð»Ð¸ÑģÑĤ": 1249,
      "ÐµÑĢÑĭ": 1250,
      "Ð»ÐµÐºÑĤ": 1251,
      "ÑĦÐ¸": 1252,
      "ĠÐĺÐ½": 1253,
      "Ð¾Ð»Ð¾Ð´": 1254,
      "ĠÑĪÐºÐ¾Ð»": 1255,
      "ĠÑĤÐ¾Ð³Ð¾": 1256,
      "ĠÑĢÐ°Ð¹Ð¾Ð½Ðµ": 1257,
      "ĠÐ¿Ð¾ÑģÐ»ÐµÐ´": 1258,
      "ĠÐ¡Ð¾Ð²ÐµÑĤ": 1259,
      "ĠÐ¾Ñĩ": 1260,
      "ĠÐ´ÐµÐºÐ°Ð±": 1261,
      "ĠÐºÐ¾ÑĤÐ¾ÑĢÑĭÐµ": 1262,
      "ÐµÑģÑĤÐ²Ð°": 1263,
      "ĠÐ¾ÐºÑĤ": 1264,
      "ĠÐŁÐ¾": 1265,
      "ÐµÐ½ÑĤÐ°": 1266,
      "ÑĢÐµÐ²": 1267,
      "ÑĢÐ°Ð¶Ð´": 1268,
      "and": 1269,
      "ĠÑģÐµÐ½ÑĤ": 1270,
      "Ð½Ð¾Ð¼Ñĥ": 1271,
      "199": 1272,
      "ĠÐ½ÐµÐ¼": 1273,
      "ĠÑģÑĩ": 1274,
      "ĠÐĲÐ»ÐµÐºÑģÐ°Ð½Ð´": 1275,
      "ĠÐ¿ÑĢÐ¸Ð¼": 1276,
      "ĠÐ¸Ð¼Ðµ": 1277,
      "ĠÑĦÐ¸Ð»ÑĮÐ¼": 1278,
      "ĠÑĤÐ¾Ð»ÑĮÐºÐ¾": 1279,
      "ĠÐĴÐµÐ»Ð¸Ðº": 1280,
      "ĠÑĤÐµÑĢÑĢÐ¸ÑĤÐ¾ÑĢ": 1281,
      "ĠÐ½ÐµÑģÐº": 1282,
      "ÑĢÐµÐ¹": 1283,
      "ĠÑĢÐµÑĪ": 1284,
      "ĠÑĤÐµÑħ": 1285,
      "ÑĳÐ½Ð½ÑĭÐµ": 1286,
      "ĠÐ¤ÑĢÐ°Ð½": 1287,
      "ÑĢÑĭÑĤ": 1288,
      "ĠÑģÐ¸ÑģÑĤÐµÐ¼": 1289,
      "ĠÐ£ÐºÑĢÐ°": 1290,
      "ĠÐ°Ð²Ð³ÑĥÑģÑĤ": 1291,
      "ĠÐ²ÑĭÑģÑĤÑĥÐ¿": 1292,
      "Ð¸ÐºÐ¾Ð²": 1293,
      "Ð°Ð¶": 1294,
      "ĠÐ¾ÐºÑĢÑĥÐ³": 1295,
      "ac": 1296,
      "Ð½Ð¾Ñģ": 1297,
      "ĠÑģÐ¼": 1298,
      "ÑĦÐ¾ÑĢ": 1299,
      "ĠÑģÐ»ÐµÐ´": 1300,
      "ĠÐ°Ð¿ÑĢ": 1301,
      "ÐĿÐ°": 1302,
      "ĠÐ¿Ð°ÑĢÑĤ": 1303,
      "ĠÐ·Ð´": 1304,
      "Ð°Ð»Ð¾ÑģÑĮ": 1305,
      "ĠÐ´ÐµÐ¹ÑģÑĤÐ²": 1306,
      "ÐµÑĢÐµÐ·": 1307,
      "Ð»ÐµÐ¼": 1308,
      "ĠÐĺÐ·": 1309,
      "ĠÐ³Ð¾Ð»": 1310,
      "ing": 1311,
      "ÑĢÐ¾Ð¹": 1312,
      "ĠÐ³Ð¾ÑģÑĥÐ´Ð°ÑĢÑģÑĤÐ²ÐµÐ½": 1313,
      "ĠÐºÐ»ÑĥÐ±": 1314,
      "ĠÐ¿ÑĥÐ½ÐºÑĤ": 1315,
      "Ð½Ð¸Ñħ": 1316,
      "ÐĺÐ³": 1317,
      "Ð¾ÑĤÐ¾Ð²": 1318,
      "ÑĢÑĥÐ¶": 1319,
      "ÑĢÐ°Ð±Ð¾ÑĤ": 1320,
      "ÑģÐºÑĥÑİ": 1321,
      "Ð¾ÑĤÐ°": 1322,
      "ĠÐ¾Ð½Ð°": 1323,
      "ĠÐ¸Ð¼Ð¿": 1324,
      "ÑĭÐº": 1325,
      "Ð¸Ð¾Ð´": 1326,
      "Ð¸Ð»Ð¸ÑģÑĮ": 1327,
      "ĠÐ¿Ð°ÑĢ": 1328,
      "ÑĢÐ°Ñħ": 1329,
      "ĠÑĩÐ»ÐµÐ½": 1330,
      "ÐµÐ·Ð´": 1331,
      "Ð¾Ñİ": 1332,
      "Ġof": 1333,
      "ĠÐļÐ¾Ð½": 1334,
      "Ð¸Ð»Ð°ÑģÑĮ": 1335,
      "ĠÐ¿Ð¾Ð»Ð¸ÑĤ": 1336,
      "ĠÑĨÐµÑĢ": 1337,
      "ĠÑĢÐµÐ·ÑĥÐ»ÑĮÑĤ": 1338,
      "ÐµÑĢÐµ": 1339,
      "ĠÐ´ÐµÑĤ": 1340,
      "Ð¾Ð»Ð¾": 1341,
      "ĠÐ´Ð¸": 1342,
      "ĠÑĥÑģ": 1343,
      "ĠÐ°ÑĢÑħ": 1344,
      "ÑĥÐµÑĤ": 1345,
      "ĠÐ¼Ð¾Ð½": 1346,
      "Ð¼Ð°Ð½": 1347,
      "Ð°ÑĤÐµÐ¼": 1348,
      "Ð½Ð¸Ð¹": 1349,
      "Ð°ÑĤÑĮÑģÑı": 1350,
      "Ð°Ð»Ð°ÑģÑĮ": 1351,
      "ÐµÐ½Ð½ÑĭÐµ": 1352,
      "ĠÐĿÐ¾Ð²": 1353,
      "ĠâĢ": 1354,
      "Ð¸Ð½Ð¾": 1355,
      "ĠÐ½Ð¾Ñı": 1356,
      "ÑįÑĤ": 1357,
      "ed": 1358,
      "id": 1359,
      "ÑĥÐ»Ñı": 1360,
      "Ð¾ÐµÐ²": 1361,
      "Ġ.": 1362,
      "ĠÐ¿ÐµÑĢÐ¸Ð¾Ð´": 1363,
      "Ð¾ÑĢÐµ": 1364,
      "st": 1365,
      "ĠÐļÐ°ÑĢ": 1366,
      "Ð¸ÑĤÐµÑĢÐ°ÑĤÑĥÑĢÐ°": 1367,
      "ĠÐ¿ÑĢÐ¸Ð²": 1368,
      "ĠÐ²ÐµÐºÐ°": 1369,
      "ÑİÑĤÑģÑı": 1370,
      "ÑĢÐ¾ÐºÐ¸": 1371,
      "Ð»Ð°ÑģÑģ": 1372,
      "ĠÑģÐ°Ð¹": 1373,
      "ĠÐºÐ°": 1374,
      "Ð´Ð¼Ð¸Ð½Ð¸ÑģÑĤ": 1375,
      "ÑĨÐ¸Ð¿": 1376,
      "ĠÑģÑĥÐ´": 1377,
      "ĠÑģÐµÐ²ÐµÑĢ": 1378,
      "Ð·Ð¸Ð´": 1379,
      "ĠÐ¿Ð¾ÑģÐµÐ»": 1380,
      "ĠÐ´Ð¾Ðº": 1381,
      "ÑĢÐµÑĩ": 1382,
      "ÑįÐ½": 1383,
      "ĠÐ²Ð¿": 1384,
      "Ð³Ð¾Ð²": 1385,
      "ÐĺÑģÑĤÐ¾ÑĢÐ¸Ñı": 1386,
      "Ġ0": 1387,
      "ĠÐ¿ÐµÑĢÐµ": 1388,
      "11": 1389,
      "ÐºÐ°Ð´ÐµÐ¼": 1390,
      "Ð²Ð°ÑĢÑı": 1391,
      "ĠÐŀÐ´": 1392,
      "ĠÑģÐ»ÑĥÐ¶": 1393,
      "ĠÐ¾Ð´Ð¸Ð½": 1394,
      "ĠÐ±ÑĥÐ´": 1395,
      "ĠÐ´ÐµÑıÑĤÐµÐ»ÑĮ": 1396,
      "ĠÑģÐµÐ·": 1397,
      "ÑģÑĤÐ¸ÑĤÑĥÑĤ": 1398,
      "Ð°ÐºÑĤ": 1399,
      "ÐºÐ°Ñħ": 1400,
      "ÐµÐ»ÐµÐ¼": 1401,
      "194": 1402,
      "ĠÑĢÐ°Ð¹Ð¾Ð½": 1403,
      "ĠK": 1404,
      "ĠÐ¼ÐµÐ¶Ð´Ñĥ": 1405,
      "ÐµÑģÑĤÐ²Ðµ": 1406,
      "ĠÑįÑĤÐ¾Ð³Ð¾": 1407,
      "ĠĠĠĠ": 1408,
      "ÑĢÐ°Ñī": 1409,
      "ÐµÐ½Ð½ÑĭÑħ": 1410,
      "ĠÐĺÐ²": 1411,
      "ĠÑĦÐµÐ²": 1412,
      "ĠÐ²Ð·": 1413,
      "ĠÐ¿ÑĢÐ¾ÑĦ": 1414,
      "ĠÑĩÑĤ": 1415,
      "Ð¸ÐºÐµ": 1416,
      "Ð½Ñĥ": 1417,
      "ĠÐ¼Ð°ÑĤÑĩ": 1418,
      "ĠÐ¼Ð¾Ð³": 1419,
      "Ð¸Ð¾Ð³ÑĢÐ°ÑĦÐ¸Ñı": 1420,
      "ĠÐºÐ¼": 1421,
      "ĠÑĦÐ¾ÑĢÐ¼": 1422,
      "ĠÐ¸Ð·Ð´": 1423,
      "ĠÐ¾Ð½Ð¸": 1424,
      "ĠÑĥÐ¿": 1425,
      "ÐºÐ¾Ð²Ð¾Ð´": 1426,
      "ĠÑĩÐ°ÑģÑĤÐ¸": 1427,
      "Ð¸ÐµÐ²": 1428,
      "ÑıÐ¼": 1429,
      "ĠÑįÑĤÐ¾Ð¼": 1430,
      "ĠÑģÑĤÐ°ÑĢ": 1431,
      "ÑĢÐ¸ÑģÑĤ": 1432,
      "ÑģÑĤÐ¾Ñı": 1433,
      "ÑģÑģÐ»ÐµÐ´": 1434,
      ");": 1435,
      "ĠÐ¢Ð°Ðº": 1436,
      "ĠO": 1437,
      "ÑĪÐµÐ¹": 1438,
      "Ð¸ÑĤÐµÐ»ÐµÐ¹": 1439,
      "Ð±Ð°": 1440,
      "Ð»ÑĮÐ±Ð¾Ð¼": 1441,
      "Ð¿Ð¾Ð´": 1442,
      "Ð¾Ð³Ð»Ð°Ñģ": 1443,
      "ÑĢÐ°ÑĤÐ¸Ð²": 1444,
      "ÑıÐ»": 1445,
      "ĠÑĦÐµÐ²ÑĢÐ°": 1446,
      "Ð°Ð½Ñĭ": 1447,
      "Ð¾ÑģÑģÐ¸Ð¹": 1448,
      "ĠÑħÑĥÐ´Ð¾Ð¶": 1449,
      "Ð»Ð°Ð½Ð´": 1450,
      "ÑĥÐ½Ð°ÑĢÐ¾Ð´": 1451,
      "Ð¾ÑģÑĤÑĮ": 1452,
      "ĠÐ¿Ð¾Ñĩ": 1453,
      "ĠÐ²ÐºÐ»ÑİÑĩ": 1454,
      "ĠÑģÐ¾ÑģÑĤÐ°Ð²Ðµ": 1455,
      "ĠÐĳÐµÐ»": 1456,
      "Ð¾Ð²Ð¸Ñĩ": 1457,
      "ÑĨÐ¸Ð¹": 1458,
      "Ð°ÑĢÐ¸": 1459,
      "Ð½ÐµÐ¼": 1460,
      "Ð¼ÐµÑĢÐ¸ÐºÐ°Ð½": 1461,
      "ĠÐ³Ð¾Ð´Ð°Ñħ": 1462,
      "ÐĽÐ¸ÑĤÐµÑĢÐ°ÑĤÑĥÑĢÐ°": 1463,
      "ĠÐ¡Ð²": 1464,
      "ĠÐ²Ð½": 1465,
      "Ð°ÑİÑĤÑģÑı": 1466,
      "ÐµÐºÐ¾ÑĤÐ¾ÑĢ": 1467,
      "ĠÑĢÐµÐ³": 1468,
      "ÐµÐ½Ð´": 1469,
      "ĠÐ¿ÑĢÐ¸Ñģ": 1470,
      "Ġ//": 1471,
      "ĠÐ·Ð½Ð°Ñĩ": 1472,
      "ĠÐĲÐ²": 1473,
      "ĠÐ¶ÐµÐ»": 1474,
      "Ð°Ð¿Ð°Ð´": 1475,
      "ĠÐŀÐ±": 1476,
      "ĠÐ¼Ð¸ÑĢÐ°": 1477,
      "ĠÐ¼Ð°Ñı": 1478,
      "ĠÐ¼ÐµÑģÑĤÐ¾": 1479,
      "Ġ-": 1480,
      "ra": 1481,
      "ĠÐºÐ¾ÑĤÐ¾ÑĢÑĭÑħ": 1482,
      "Ð³Ð¾Ð´Ð°": 1483,
      "ĠÐºÐ½Ð¸": 1484,
      "Ð°ÑĢÐ´": 1485,
      "ĠÑĢÐ°ÑģÐ¿Ð¾Ð»Ð¾Ð¶": 1486,
      "ÑĥÐ³": 1487,
      "Ð»Ð¸Ð²": 1488,
      "ÐµÐ´ÐµÑĢÐ°": 1489,
      "ĠÐŀÐ½": 1490,
      "ĠÐ½Ð°Ð¿": 1491,
      "ĠÐ·ÐµÐ¼": 1492,
      "ÑĢÐ¸Ð³": 1493,
      "22": 1494,
      "ĠÐ½Ð°ÑħÐ¾Ð´": 1495,
      "ÐºÐ¸Ð¹": 1496,
      "Ð°ÐµÐ¼": 1497,
      "ĠÑĦÑĥÑĤ": 1498,
      "Ð¸Ð·Ð°ÑĨÐ¸Ð¸": 1499,
      "ĠÑıÐ½Ð²Ð°ÑĢÑı": 1500,
      "ĠÐ¿ÐµÑģ": 1501,
      "ĠÐ¿ÑĢÐ¾Ð¸Ð·Ð²Ð¾Ð´": 1502,
      "Ð½Ð¾ÑģÑĤÑĮÑİ": 1503,
      "ia": 1504,
      "ĠÐ´ÐµÐºÐ°Ð±ÑĢÑı": 1505,
      "Ð²ÐµÐ´": 1506,
      "ÑĢÐ°ÐºÑĤ": 1507,
      "ĠÑĦÐ¸Ð½": 1508,
      "Ð²Ðµ": 1509,
      "Ð»Ð¸Ð¼Ð¿": 1510,
      "ÑĢÐµÐ»": 1511,
      "ÐµÐ½Ð½Ð¾Ð¹": 1512,
      "ĠÐ¼Ð½Ð¾Ð³": 1513,
      "ĠÐ¿Ð¾ÑĢ": 1514,
      "ĠÑĩÑĤÐ¾Ð±Ñĭ": 1515,
      "ÐĺÐ³ÑĢÐ¾ÐºÐ¸": 1516,
      "ĠÐºÐ¾Ð³Ð´Ð°": 1517,
      "ÑģÑĤÑĢÑĥ": 1518,
      "ĠÐ¿ÑĢÐµÐ¼": 1519,
      "ÑĢÑĮ": 1520,
      "ĠÐ¼Ð°ÑĢÑĤÐ°": 1521,
      "Ġ2010": 1522,
      "ÑīÑĳ": 1523,
      "Ð¼Ð¾Ð¶": 1524,
      "Ð¸ÑĤÐµÐ»ÑĮÐ½Ð¾": 1525,
      "Ð°ÑĤÐ¾ÑĢ": 1526,
      "Ð½Ð¾ÑĪ": 1527,
      "ĠÐ¼ÑĥÐ¶": 1528,
      "ÑĦÐ¸ÑĨÐ¸Ð°Ð»ÑĮ": 1529,
      "ĠÐºÐ°Ñĩ": 1530,
      "ĠÑĥÐ±": 1531,
      "ĠÐŁÐµÑĤ": 1532,
      "198": 1533,
      "ĠÐ¾ÐºÐ¾Ð½Ñĩ": 1534,
      "ĠÑģÐµÐ½ÑĤÑıÐ±ÑĢÑı": 1535,
      "Ð¸ÐµÐ¼": 1536,
      "ĠÐ½Ð°Ð·Ð²Ð°Ð½Ð¸Ðµ": 1537,
      "ĠÐ²ÑģÐµ": 1538,
      "Ð¸Ð²Ð¸Ð·": 1539,
      "ĠÐ¾ÐºÑĤÑıÐ±ÑĢÑı": 1540,
      "ĠÐĿÐ¸ÐºÐ¾Ð»": 1541,
      "ÑĦÐ¾ÑĢÐ¼": 1542,
      "ÐĳÐ¸Ð¾Ð³ÑĢÐ°ÑĦÐ¸Ñı": 1543,
      "ĠJ": 1544,
      "ĠÐ¸ÑİÐ»Ñı": 1545,
      "Ð»Ð¾Ñī": 1546,
      "Ġ190": 1547,
      "ĠÐŁÑĢ": 1548,
      "ĠÐ°Ð¿ÑĢÐµÐ»Ñı": 1549,
      "ĠÐ°Ð²Ð³ÑĥÑģÑĤÐ°": 1550,
      "Ð»ÑĥÐ¶": 1551,
      "ĠÐ³Ð¾Ð´Ñĭ": 1552,
      "21": 1553,
      "Ġ25": 1554,
      "Ð¸Ð½ÑģÐºÐ¾Ð³Ð¾": 1555,
      "ĠÑĥÐ»Ð¸": 1556,
      "Ðĸ": 1557,
      "Ð¾Ð·Ñı": 1558,
      "ÑĭÐ¼Ð¸": 1559,
      "ĠÐŁÐ¾ÑģÐ»Ðµ": 1560,
      "Ð¸Ð»Ð¾": 1561,
      "Ð¡ÑĤ": 1562,
      "ĠÐ¸ÑİÐ½Ñı": 1563,
      "ĠÐĴÐ»Ð°Ð´": 1564,
      "ÑĪÐµÐ³Ð¾": 1565,
      "Ð²Ð¸": 1566,
      "ĠÑĢÐµÐºÐ¸": 1567,
      "Ð¾Ð²Ð¾ÑĢ": 1568,
      "ÑģÑĤÐ²Ðµ": 1569,
      "Ð°Ð½Ð¾": 1570,
      "Ð¸ÑĨÑĭ": 1571,
      "ĠÑģÐµÐ±": 1572,
      "Ð¾Ð±Ñī": 1573,
      "Ð¾Ð½Ð´": 1574,
      "ÐµÑĢÐ¾Ð²": 1575,
      "ĠÐ²Ð¼ÐµÑģÑĤ": 1576,
      "um": 1577,
      "ĠÐļÑĢÐ°Ñģ": 1578,
      "ĠÐ¿Ð¸Ñģ": 1579,
      "ĠÑĤÐµÐ¼": 1580,
      "Ð¼Ñĭ": 1581,
      "ĠÐ³ÐµÐ½ÐµÑĢÐ°": 1582,
      "ÐµÐ²Ð°": 1583,
      "ĠÐ´ÐµÑĢÐµÐ²Ð½Ñı": 1584,
      "ĠÐºÐ¾ÑĤ": 1585,
      "ĠThe": 1586,
      "ĠÐ·Ð°Ð½Ð¸Ð¼": 1587,
      "ÐµÑĢÐ¾": 1588,
      "Ð»Ð¸Ð·": 1589,
      "ÐµÑĢÐ¾Ð¼": 1590,
      "ĠÑģÑĤÑĢÐ¾": 1591,
      "Ð¾ÑģÑĤÐ¾Ñĩ": 1592,
      "ÑģÑĤÐ²Ð¾Ð¼": 1593,
      "ĠÑĥÐ¿ÑĢÐ°Ð²": 1594,
      "Ð¾ÑĢÐ¾Ð³": 1595,
      "ĠÐ²ÑĭÑĪ": 1596,
      "ĠÑĢÑĥÐºÐ¾Ð²Ð¾Ð´": 1597,
      "ÑıÐ¶": 1598,
      "ĠÐ¿Ð¾Ð±ÐµÐ´": 1599,
      "Ð²Ñĭ": 1600,
      "ĠÐ´Ð²Ð°": 1601,
      "Ð¸ÑĨÐ°": 1602,
      "ÐµÑĦ": 1603,
      "ĠÐ¡Ð°Ð½": 1604,
      "ĠÐ¼Ð¸Ð½": 1605,
      "ĠÑģÐ»Ð¾Ð²": 1606,
      "ad": 1607,
      "Ð¾Ð³ÑĢÐ°Ð¼": 1608,
      "ĠÐ¿ÐµÑĢÐµÐ²": 1609,
      "Ð¸ÑĤÐ°": 1610,
      "Ð¾Ð»Ñı": 1611,
      "Ð¾Ð»Ð¾ÑĤ": 1612,
      "ÑıÑģ": 1613,
      "ĠÐŀÑĢ": 1614,
      "Ð¸ÑĩÐµÑģÐºÐ°Ñı": 1615,
      "ÑħÐ¾Ð´Ð¸ÑĤÑģÑı": 1616,
      "ĠÐ½Ð¾ÑıÐ±ÑĢÑı": 1617,
      "ĠÐ½Ð°ÑģÐµÐ»ÐµÐ½Ð¸Ñı": 1618,
      "Ð»ÐµÐ¹": 1619,
      "Ð¾ÑģÑĤÐ¾Ðº": 1620,
      "ÑĢÑĳ": 1621,
      "ĠÐ¿ÑĢÐ¾ÑĦÐµÑģÑģ": 1622,
      "Ð°Ð»ÑĮÐ½ÑĭÐ¹": 1623,
      "Ð¸Ð»Ð»": 1624,
      "Ð´ÐµÑĢÐ¶": 1625,
      "ĠÐ½Ð°ÑĢÐ¾Ð´": 1626,
      "ĠÐ¾ÐºÐ¾Ð»Ð¾": 1627,
      "Ð¸Ð½Ñĥ": 1628,
      "Ð¾Ð´Ð°": 1629,
      "ĠÑģÐ¿Ðµ": 1630,
      "ÐŁÐ¾": 1631,
      "ĠÑĩÐ°ÑģÑĤÑĮ": 1632,
      "ĠÐ´Ð²ÑĥÑħ": 1633,
      "ĠÐºÐ»Ð°ÑģÑģ": 1634,
      "ĠÑĪÑĤ": 1635,
      "ent": 1636,
      "ÑĤÐ¾Ð²": 1637,
      "ĠÐ°Ð¼ÐµÑĢÐ¸ÐºÐ°Ð½": 1638,
      "Ġp": 1639,
      "ĠÐŁÐµÑĢÐ²": 1640,
      "ĠÐķÐ²ÑĢÐ¾Ð¿": 1641,
      "ĠÐ¼Ð¾ÑĢ": 1642,
      "ĠÐ½Ð°ÑĥÑĩ": 1643,
      "Ð¸ÑĤÐµÐ»Ñı": 1644,
      "Ñĸ": 1645,
      "ĠÐºÐ°ÑĤ": 1646,
      "ĠÐ´Ð¸Ð²Ð¸Ð·": 1647,
      "op": 1648,
      "Ð°Ð½Ñģ": 1649,
      "ĠÐ¿ÑĥÑĤ": 1650,
      "ĠÑįÐºÑģÐ¿": 1651,
      "ÐµÐ½Ð½Ð¾Ð³Ð¾": 1652,
      "ĠÐºÑĢÐ°": 1653,
      "Ð½ÐµÐ²": 1654,
      "Ð»Ð¾Ð¶": 1655,
      "ĠÑģÐ¸Ð»": 1656,
      "Ð½Ð¸ÐºÐ¾Ð¼": 1657,
      "ĠÐ¶Ð¸Ð²": 1658,
      "ĠÐ²Ð¾Ð¹ÑģÐº": 1659,
      "Ð¾Ð½Ð¾Ð²": 1660,
      "ÑĥÑĢÐµ": 1661,
      "ĠÑģÑĤÐ°Ð½": 1662,
      "Ð¸ÑĤÐµÐ»Ð¸": 1663,
      "ÐµÑĤÐµ": 1664,
      "ĠÐ³Ð¾ÑĢ": 1665,
      "ĠÐ²Ð¾Ð»": 1666,
      "ĠÐ¾Ð³": 1667,
      "Ð¾Ð·ÑıÐ¹": 1668,
      "Ð´Ð¼Ð¸Ð½Ð¸ÑģÑĤÑĢÐ°ÑĤÐ¸Ð²": 1669,
      "ĠÑĤÐµÐ°ÑĤ": 1670,
      "ÑĥÑĢÐ°": 1671,
      "ÑıÐ±": 1672,
      "ĠÐĴÑģ": 1673,
      "ĠÑĤÑĥÑĢ": 1674,
      "ĠÐ¸ÑģÑģÐ»ÐµÐ´": 1675,
      "Ð»Ð¾ÑīÐ°Ð´": 1676,
      "ĠÑĦÐµÐ²ÑĢÐ°Ð»Ñı": 1677,
      "ĠÑĢÐµÐ¶": 1678,
      "ĠÑĩÐµÑĢÐµÐ·": 1679,
      "ĠU": 1680,
      "ĠÐ¸ÑģÐºÑĥÑģ": 1681,
      "197": 1682,
      "ĠÐ¶ÑĥÑĢÐ½": 1683,
      "Ð¾ÑģÑĤÑĢÐ°Ð½": 1684,
      "Ð°ÐºÑģ": 1685,
      "Ð½Ð¾Ð²Ð°Ð½": 1686,
      "Ð¾Ð¼Ð¸Ð½": 1687,
      "Ð¿Ð¾Ð½": 1688,
      "ĠÐ°Ð»ÑĮÐ±Ð¾Ð¼": 1689,
      "Ð¾ÑĢÐ°Ñı": 1690,
      "Ð¾ÑģÐ¾Ð±": 1691,
      "ÑīÐ¸ÑĤ": 1692,
      "ĠÐ°ÑĤ": 1693,
      "Ð´ÐµÐ¹": 1694,
      "Ð°Ð»ÑĮÐ½Ð¾Ð³Ð¾": 1695,
      "ĠÐ½ÐµÐ´": 1696,
      "Ð»Ñĥ": 1697,
      "im": 1698,
      "os": 1699,
      "ĠÐ½Ð°ÑĨÐ¸Ð¾Ð½Ð°Ð»ÑĮ": 1700,
      "ÐµÑģÐ¿ÑĥÐ±Ð»": 1701,
      "ĠÑĥÑģÑĤÐ°Ð½Ð¾Ð²": 1702,
      "Ð¼ÐµÑĤ": 1703,
      "ĠÐ¿ÑĢÐ¾Ð´Ð¾Ð»Ð¶": 1704,
      "ÐµÐºÑģ": 1705,
      "ĠÐ½ÐµÑģÐºÐ¾Ð»ÑĮÐºÐ¾": 1706,
      "ĠÐ·Ð°Ð´": 1707,
      "ĠÑģÑĤÐµÐ¿": 1708,
      "Ð°Ð»ÑĮÐ½Ð¾Ð¹": 1709,
      "ĠÐ¼Ð¾Ð¶ÐµÑĤ": 1710,
      "ĠÐ¿Ð¾Ð»ÑĥÑĩÐ¸Ð»": 1711,
      "ĠÐļÐ¾ÑĢ": 1712,
      "âĢĻ": 1713,
      "Ð½ÑıÑı": 1714,
      "ie": 1715,
      "ĠÐ±ÐµÑĢ": 1716,
      "ÐºÐ¼": 1717,
      "ut": 1718,
      "ĠÐºÐ¾ÑĤÐ¾ÑĢÐ°Ñı": 1719,
      "ĠÐµÑīÑĳ": 1720,
      "Ð¾Ð±ÑĢÐ°Ð·": 1721,
      "ÑĥÐ½Ð¸": 1722,
      "ĠÐºÐ¾ÑĤÐ¾ÑĢÐ¾Ð¹": 1723,
      "ÑĢÑĥÐ·": 1724,
      "la": 1725,
      "ÑģÑĤÑĮ": 1726,
      "ĠÑĢÐ¾ÑģÑģÐ¸Ð¹": 1727,
      "ĠÐ²ÑģÑĤ": 1728,
      "ĠÐºÑĥÐ»ÑĮÑĤ": 1729,
      "ÑĢÑĭÐ²": 1730,
      "Ð¾ÑĢÑĮ": 1731,
      "Ð¸ÑģÐ¸": 1732,
      "ĠÐ¡ÑĢÐµÐ´": 1733,
      "ĠÐ½ÐµÐºÐ¾ÑĤÐ¾ÑĢ": 1734,
      "ĠÑĤÐµÑĢÑĢÐ¸ÑĤÐ¾ÑĢÐ¸Ð¸": 1735,
      "ĠÐ½Ð°Ð·Ð½Ð°Ñĩ": 1736,
      "ĠÐłÐµÑģÐ¿ÑĥÐ±Ð»": 1737,
      "Ð¾Ð½ÑĤ": 1738,
      "Ð¡Ð¼": 1739,
      "Ġthe": 1740,
      "ĠÐ»ÑİÐ±": 1741,
      "Ð½ÐµÐ³Ð¾": 1742,
      "Ġ30": 1743,
      "Ð¾Ð²ÑģÐºÐ¾Ð³Ð¾": 1744,
      "ĠII": 1745,
      "ĠÑĥÑĤ": 1746,
      "ĠÐĲÐ»": 1747,
      "ĠÑģÑĤÑĢÐ°Ð½": 1748,
      "ĠÐ¿ÑĢÐ¸Ð·": 1749,
      "ĠÑĢÐ°Ð·Ð²Ð¸ÑĤ": 1750,
      "ĠÑģÐ²Ð¾ÐµÐ¹": 1751,
      "Ð»Ð°Ð³": 1752,
      "ĠÑĥÐ¶Ðµ": 1753,
      "Ð»ÐµÐ½Ñĭ": 1754,
      "ÑĥÐ±ÐµÑĢÐ½": 1755,
      "Ġ11": 1756,
      "Ð¼Ðµ": 1757,
      "ĠÐ¾ÑĤÐ´": 1758,
      "ĠÐ¿Ð¾Ð¼Ð¾Ñī": 1759,
      "ĠÐ¸Ð½ÑģÑĤÐ¸ÑĤÑĥÑĤ": 1760,
      "ÐµÐ½ÐºÐ¾": 1761,
      "Ð°ÑĢÐ°ÐºÑĤ": 1762,
      "ĠÐĵÐµÑĢÐ¼": 1763,
      "Ð»Ð¾Ð¼": 1764,
      "Ð¼ÐµÐ½ÑĤ": 1765,
      "ĠÑģÑĤÑĢÐ°": 1766,
      "ĠÑĢÐµÐ´": 1767,
      "ĠÐ´Ð¾Ð»": 1768,
      "ÐºÐ¸Ñħ": 1769,
      "ĠÐ½Ð°Ð³": 1770,
      "ÑĥÐ²": 1771,
      "ĠÐµÐ´Ð¸Ð½": 1772,
      "ĠÐ¿ÐµÑĢÐµÐ¿": 1773,
      "ĠÐ¸Ð¼ÐµÐ½Ð¸": 1774,
      "ÑĢÐµÐ¿": 1775,
      "ĠÐ´ÑĢÑĥÐ³Ð¸Ñħ": 1776,
      "ĠÐľÐ¸Ñħ": 1777,
      "ĠÐ¸ÑģÑĤ": 1778,
      "Ð°Ð¼ÑıÑĤ": 1779,
      "Ð°ÑĢÑħ": 1780,
      "Ð¸ÑıÑĤ": 1781,
      "ĠÐĽÐµÐ½": 1782,
      "ÑĩÐµÑģÐº": 1783,
      "Ð¾ÑĢÑĥÐ¶": 1784,
      "Ð»Ð¸Ð¼Ð¿Ð¸Ð¹": 1785,
      "ÐµÑģÑĤÐ²ÐµÐ½Ð½Ð¾Ð¹": 1786,
      "ĠÐ¾Ð·": 1787,
      "ĠÐŀÑģ": 1788,
      "ir": 1789,
      "iv": 1790,
      "ÐµÑģÑĮ": 1791,
      "ÑĢÐ¸Ð´": 1792,
      "ĠÑĤÑĢÐ¸": 1793,
      "Â°": 1794,
      "ĠÐ³ÑĢÐ°ÑĦ": 1795,
      "ĠÐ»ÑĥÑĩ": 1796,
      "ÐµÐ´ÐµÐ½Ð¸Ñı": 1797,
      "ĠÐ½Ð°Ð¿ÑĢÐ°Ð²": 1798,
      "ĠÐ½Ð°Ð·ÑĭÐ²": 1799,
      "ĠÐ½Ð¸Ñħ": 1800,
      "ÑĢÐµÐ´ÐµÐ»": 1801,
      "Ð°Ð»ÑĮÐ½ÑĭÐµ": 1802,
      "Ð°Ð»ÑĮÐ½ÑĭÑħ": 1803,
      "ec": 1804,
      "ĠÐļÐ¾Ð¼": 1805,
      "ÑĪÐ°Ñı": 1806,
      "ÑģÐºÐ¾Ð¼Ñĥ": 1807,
      "ĠÑģÐ»ÑĥÑĩ": 1808,
      "ĠÐĴÐ¾": 1809,
      "Ð°ÑĢÐ¾Ð²": 1810,
      "ĠÐºÐ°ÑĩÐµÑģÑĤÐ²Ðµ": 1811,
      "Ð¸Ð½ÑģÐºÐ¸Ð¹": 1812,
      "ĠÐ¾ÑģÐ¾Ð±": 1813,
      "ĠÑĥÐ½Ð¸Ð²ÐµÑĢÑģÐ¸ÑĤÐµÑĤÐ°": 1814,
      "Ġs": 1815,
      "ÑĭÐ½": 1816,
      "Ð³Ð¾Ð´Ñĥ": 1817,
      "Ġ189": 1818,
      "ĠÐ¿Ð¾Ð³": 1819,
      "ÑħÑĢÐ°Ð½": 1820,
      "Ð¸ÑģÐ°": 1821,
      "ĠÐ°ÐºÐ°Ð´ÐµÐ¼": 1822,
      "ÑĢÑĳÑħ": 1823,
      "ĠÐŁÐ¾Ð»": 1824,
      "ĠÐļÐ°Ð·": 1825,
      "ĠÐ½Ð°ÑħÐ¾Ð´Ð¸ÑĤÑģÑı": 1826,
      "Ð¼Ð°ÑĤ": 1827,
      "ÑĥÑİÑĤ": 1828,
      "000": 1829,
      "Ð°Ð½ÑģÐºÐ¾Ð¹": 1830,
      "ÐµÑĢÐµÐ´": 1831,
      "196": 1832,
      "ĠÑĢÐ°Ð·Ð»Ð¸Ñĩ": 1833,
      "Ð¸ÑĨÐ¸Ð¸": 1834,
      "ĠÐ¶ÐµÐ½Ñī": 1835,
      "ÑĳÐ²": 1836,
      "ÑĪÐ¸Ð¼": 1837,
      "Ġ(Â«": 1838,
      "ĠÐ¿ÑĥÐ½ÐºÑĤÑĭ": 1839,
      "ĠÐ´Ð¾Ð±": 1840,
      "ĠÑģÐ¾ÑģÑĤÐ°Ð²Ð»ÑıÐµÑĤ": 1841,
      "ĠÐ¤Ðļ": 1842,
      "ĠÐ·Ð°ÑĤÐµÐ¼": 1843,
      "ĠÑĤÐ¸Ð¿": 1844,
      "ÑĨÑĥÐ·": 1845,
      "ĠÐ³Ð¾Ð´Ð¾Ð²": 1846,
      "ĠÐ¸Ð·Ð±": 1847,
      "ĠSt": 1848,
      "30": 1849,
      "ÑģÑĤÑĢ": 1850,
      "ĠÐºÑĢÑĥÐ¿": 1851,
      "Ð»Ð°Ð½": 1852,
      "ÑĢÐ°ÑģÑĤ": 1853,
      "ĠÑģÑĤÐ°ÑĤ": 1854,
      "ĠÐ¸ÑģÑĤÐ¾ÑĢÐ¸Ð¸": 1855,
      "ĠÐ²Ð¾Ð·Ð¼Ð¾Ð¶": 1856,
      "ĠÐ³ÑĢÑĥÐ¿Ð¿Ñĭ": 1857,
      "ĠÐłÐ¾ÑģÑģÐ¸Ð¹ÑģÐºÐ¾Ð¹": 1858,
      "ÐºÐ¾Ð³Ð¾": 1859,
      "ĠÑģÑĥÑīÐµÑģÑĤÐ²": 1860,
      "ÐµÐ¼Ñĥ": 1861,
      "Ð°ÑģÑĤÐ²": 1862,
      "Ð¸Ð½Ð¾Ð²": 1863,
      "ĠÐ¾ÑĤÐ´ÐµÐ»": 1864,
      "ĠÑĥÑĢÐ¾Ð²": 1865,
      "ĠÐµÐ¼Ñĥ": 1866,
      "Ġc": 1867,
      "ĠÑĦÑĢÐ°Ð½": 1868,
      "Ð°ÑĤÐ¾Ð²": 1869,
      "ĠÐ¾ÑĤÐ½Ð¾Ñģ": 1870,
      "Ð¸ÑĩÐµÑģÐºÐ¸": 1871,
      "Ð¸ÑģÑĤÑĭ": 1872,
      "Ð°ÑĢÑı": 1873,
      "ĠÐ¿ÑĢÐ¾Ð¸Ñģ": 1874,
      "ĠÐ¸ÑĤ": 1875,
      "ÐµÑģÑı": 1876,
      "ÑĥÐ»ÑıÑĢ": 1877,
      "ĠÑĦÑĥÑĤÐ±Ð¾Ð»": 1878,
      "ĠÑģÐ¾Ð¾ÑĤ": 1879,
      "ĠÐºÐ°Ð¼": 1880,
      "ĠÑģÑĩÐ¸ÑĤ": 1881,
      "ĠÐ»Ð¸Ð½": 1882,
      "ÑĥÐ½Ð¸ÑĨÐ¸Ð¿": 1883,
      "ÑĳÐ½Ð½ÑĭÑħ": 1884,
      "ÐµÐ·Ð´Ð°": 1885,
      "ĠÐ°Ð»": 1886,
      "ĠÐµÐ²": 1887,
      "ĠÐ¿Ð¾ÑģÑĤÑĢÐ¾": 1888,
      "ĠÐ£ÐºÑĢÐ°Ð¸Ð½Ñĭ": 1889,
      "em": 1890,
      "Ġ2008": 1891,
      "Ð¾Ð³Ð»Ð°ÑģÐ½Ð¾": 1892,
      "ÐĿÐ°ÑģÐµÐ»ÐµÐ½Ð¸Ðµ": 1893,
      "ĠÐ¼ÐµÐ½": 1894,
      "ĠÐ¼Ð¾Ð´": 1895,
      "ÑģÐºÐ¾": 1896,
      "ĠÐ¿Ð¾Ð´Ð´ÐµÑĢÐ¶": 1897,
      "Ð¾Ð»Ð¾Ð³Ð¸Ð¸": 1898,
      "ÐµÑģÑĤÑĮ": 1899,
      "ĠÐĲÐ½Ð´": 1900,
      "ÑĢÐ¾ÑĦ": 1901,
      "ĠÑģÑĢÐµÐ´Ð¸": 1902,
      "ĠÐ´ÐµÐ¿": 1903,
      "50": 1904,
      "ĠÑģÐ»ÐµÐ´ÑĥÑİÑī": 1905,
      "ĠÑĢÐ°Ð½": 1906,
      "Ġ2012": 1907,
      "ĠÑģÐ²Ð¾Ðµ": 1908,
      "ÑĭÐ¿": 1909,
      "Ð±Ñĥ": 1910,
      "ÑĩÐ¸Ð½": 1911,
      "Ġ2011": 1912,
      "ĠÐºÐ½Ñı": 1913,
      "ĠÐ²Ð¼ÐµÑģÑĤÐµ": 1914,
      "Ð»Ð¾ÑĤ": 1915,
      "Ð¸ÑĤÑĥ": 1916,
      "Ð²Ð°ÑĤ": 1917,
      "ÑĤÐ¾Ð½": 1918,
      "Ð¼Ð¾ÑĤ": 1919,
      "ht": 1920,
      "ĠÐ¶Ð¸Ð·": 1921,
      "Ġ2009": 1922,
      "ĠÐ¾Ð¿ÐµÑĢÐ°": 1923,
      "ĠÐ¶ÐµÐ»ÐµÐ·": 1924,
      "ĠÐ²ÑģÐµÑħ": 1925,
      "Ð°ÑĤÐµÐ»Ñı": 1926,
      "ĠÐ²ÑħÐ¾Ð´": 1927,
      "Ð°ÑĢÐ°ÐºÑĤÐµÑĢ": 1928,
      "Ð¸Ð°Ð½": 1929,
      "ĠÐ¿Ð¾ÐºÐ°Ð·": 1930,
      "Ð°ÑĦ": 1931,
      "ĠÐ¿ÑĢÐ¾Ð³ÑĢÐ°Ð¼": 1932,
      "Ð°Ð»ÑĮÐ½Ð¾": 1933,
      "ĠÑģÐ¼ÐµÑĢ": 1934,
      "Ð¸Ð»Ð¾ÑģÑĮ": 1935,
      "ÑģÐ»Ð¸": 1936,
      "ĠÐ¿Ð»Ð¾ÑīÐ°Ð´": 1937,
      "ĠÐ¾ÑĤÐ»Ð¸Ñĩ": 1938,
      "ÐµÑĢÐ¸Ð¸": 1939,
      "Ð°Ð»Ð¸Ð·": 1940,
      "Ð½Ð°Ð¼": 1941,
      "Ð¦": 1942,
      "ĠÑįÐ»ÐµÐºÑĤ": 1943,
      "ĠÐ°ÐºÑĤÐ¸Ð²": 1944,
      "ĠÐ³ÑĢÐ°Ð½": 1945,
      "Ð¾ÑģÐ»Ð°Ð²": 1946,
      "Ð²Ð¸Ð½": 1947,
      "ĠÐ³ÑĥÐ±ÐµÑĢÐ½": 1948,
      "ÑĦÐ¾ÑĢÐ¼Ð°": 1949,
      "ĠÐºÐ¾Ð»Ð¸Ñĩ": 1950,
      "ĠÑģÐµÐº": 1951,
      "ÑĦÐµÑĢ": 1952,
      "Ð°Ð½ÑĮ": 1953,
      "ul": 1954,
      "ĠÐ¿ÑĢÐ¾ÑĨ": 1955,
      "Ð¯": 1956,
      "ĠÑģÐµÐ»Ð¾": 1957,
      "ĠÐ²ÑĭÑģÐ¾Ðº": 1958,
      "ĠÐ¶Ð¸Ð·Ð½Ð¸": 1959,
      "ĠÐĴÐµÑĢÑħ": 1960,
      "ÑĥÐ½Ð´": 1961,
      "ĠÐ¾ÑģÑĤÑĢÐ¾Ð²": 1962,
      "Ġ24": 1963,
      "Ð¾ÑĢÐ´": 1964,
      "Ġ2007": 1965,
      "ation": 1966,
      "Ġ2002": 1967,
      "Ð¸Ð½ÑģÐºÐ¾Ð¹": 1968,
      "Ð¾Ð»ÐµÐ²": 1969,
      "ĠÐ¡ÐµÐ²ÐµÑĢ": 1970,
      "ÐµÑĩÐµÐ½Ð¸Ðµ": 1971,
      "Ð°Ð½Ð³": 1972,
      "ĠÑĥÑĩÐ°ÑģÑĤÐ¸Ðµ": 1973,
      "Ð¾Ð²ÑĭÑħ": 1974,
      "Ð¾ÑĢÐ¾Ð½Ñĭ": 1975,
      "ĠÐ¼ÑĥÐ·ÑĭÐº": 1976,
      "Ð¾Ð²ÑģÐºÐ¾Ð¹": 1977,
      "Ð°Ð»Ð¸Ð¸": 1978,
      "Ġ2014": 1979,
      "ĠÑĩÐ¸ÑģÐ»Ðµ": 1980,
      "ÑģÐºÐ°Ð·": 1981,
      ".:": 1982,
      "ĠÐºÐ¾ÑĤÐ¾ÑĢÐ¾Ð³Ð¾": 1983,
      "Ġ|": 1984,
      "ĠÑĥÐ²": 1985,
      "ĠÑģÐ°Ð¹ÑĤÐµ": 1986,
      "ĠÐ¾Ð´Ð½Ð°ÐºÐ¾": 1987,
      "ĠÐ²Ð»Ð°ÑģÑĤ": 1988,
      "od": 1989,
      "Ð°ÑĨÐ¸Ð¸": 1990,
      "ÐµÐ¹Ð½": 1991,
      "23": 1992,
      "ĠÐ¾ÑĤÐ½Ð¾ÑĪ": 1993,
      "Ð°Ð½Ð¸Ð¹": 1994,
      "ĠÐ½ÐµÐ¼ÐµÑĨ": 1995,
      "ĠÑĥÑģÐ¿": 1996,
      "Ð½Ð¸ÑĨ": 1997,
      "ÑĢÐ°Ð·Ð´": 1998,
      "ĠÑģÐ¾Ð²ÑĢÐµÐ¼": 1999,
      "Ð¾Ð²Ð°ÑĤÑĮ": 2000,
      "Ġ:": 2001,
      "25": 2002,
      "ĠÐļÑĥÐ±": 2003,
      "ĠÐ³Ð°Ð·": 2004,
      "Ð°ÑĤÐµÐ»Ð¸": 2005,
      "Ġ2006": 2006,
      "ÑĭÑĩ": 2007,
      "Ð°Ð½Ðµ": 2008,
      "og": 2009,
      "ĠÐ°ÑĢÑĤ": 2010,
      "ÐºÐ¾Ð½": 2011,
      "ĠÑģÐ¾ÑĤ": 2012,
      "ÑĤÐµÐ½": 2013,
      "Ð¾ÑģÐ»ÐµÐ´": 2014,
      "ĠÐ±ÑĭÑĤÑĮ": 2015,
      "Ð¿Ð¸ÑģÐº": 2016,
      "ĠÐ¤ÐµÐ´ÐµÑĢÐ°": 2017,
      "Ð³Ðµ": 2018,
      "ÐŀÐ±": 2019,
      "ĠÑįÐ¿": 2020,
      "ÑģÐµÐ´": 2021,
      "ĠÐĲÐ·": 2022,
      "Ð¸ÑĩÐµÑģÐºÐ¾Ðµ": 2023,
      "Ð²Ð¾": 2024,
      "Ð°Ñī": 2025,
      "Ð¾Ð±Ð¾Ð´": 2026,
      "ĠÑĤÑĢÐ°Ð½": 2027,
      "ĠÐ°ÑĢÐ¼Ð¸Ð¸": 2028,
      "Ð¾ÑĢÐ¾Ð¶": 2029,
      "Ġ2013": 2030,
      "ÑĢÐ°Ð±": 2031,
      "Ð¸ÑĤÑĮÑģÑı": 2032,
      "ĠÑįÐºÐ¾Ð½Ð¾Ð¼": 2033,
      "ĠÑģÐ²Ð¾Ñİ": 2034,
      "ag": 2035,
      "ĠÑģÐµÐ±Ñı": 2036,
      "ÑĥÑĢÑģ": 2037,
      "Ġ2000": 2038,
      "ĠÑģÐ¾Ð¾ÑĤÐ²ÐµÑĤ": 2039,
      "ĠÐºÐ°ÑĢÑĤ": 2040,
      "Ð¸ÑıÑħ": 2041,
      "ÑĢÑıÐ´": 2042,
      "ĠÑĢÑıÐ´": 2043,
      "ĠÐ¾ÐºÐ°Ð·": 2044,
      "ĠÐ»Ð¸ÑĪ": 2045,
      "Ð°Ð»Ñĭ": 2046,
      "ĠÐºÐ°Ð½": 2047,
      "ĠÑģÐ¾Ð¾Ð±Ñī": 2048,
      "ÐµÐ»Ð°": 2049,
      "ĠÐºÐ°ÑĢÑĮ": 2050,
      "ÐłÐ¾Ð´": 2051,
      "ÑĤÑĥÑĢ": 2052,
      "ÐºÐ°Ð¼Ð¸": 2053,
      "Ġ2015": 2054,
      "ĠÐŁÑĢÐµ": 2055,
      "ĠIn": 2056,
      "ĠÐ´Ð¾ÑĢÐ¾Ð³": 2057,
      "ĠÐ³Ð¾ÑĢÐ¾Ð´Ðµ": 2058,
      "ĠÑĢÐ°Ð±Ð¾ÑĤÑĭ": 2059,
      "ĠÐ½Ð°ÑĥÐº": 2060,
      "ĠÑĩÐµÑĤÑĭ": 2061,
      "Ð³Ð¾ÑĤÐ¾Ð²": 2062,
      "ĠÐ±ÐµÑĢÐµÐ³": 2063,
      "Ð°Ð½Ð½ÑĭÐµ": 2064,
      "ĠÑįÑĤÐ¾Ð¹": 2065,
      "ÑıÑħ": 2066,
      "ĠÐ²ÑĢÐµÐ¼ÐµÐ½Ð¸": 2067,
      "Ð½Ð´": 2068,
      "ĠÑĤÐµÑħÐ½": 2069,
      "Ġ23": 2070,
      "ĠÐµÑģÑĤÑĮ": 2071,
      "ĠÐ²ÐµÐº": 2072,
      "ÐµÑĢÐ²ÑĭÐµ": 2073,
      "ĠÑįÑĤÐ°": 2074,
      "ÐµÑĢÑĥ": 2075,
      "Ð°Ð½Ð¸Ñİ": 2076,
      "ĠÐ»Ð¸ÑĤÐµÑĢÐ°": 2077,
      "ĠÑĢÐ°Ð·ÑĢÐ°Ð±Ð¾ÑĤ": 2078,
      "ĠÐ¸ÑģÐ¿Ð¾Ð»Ð½": 2079,
      "Ð¿Ð°": 2080,
      "ÑĢÑĥÑĪ": 2081,
      "ow": 2082,
      "Ð»ÑģÑı": 2083,
      "Ð¸ÑĢÐ¾Ð²Ð°Ð»": 2084,
      "ÑĦÑĦ": 2085,
      "ĠÐ²Ð¾Ð·Ð´": 2086,
      "Ġ2016": 2087,
      "ÐŁÐµÑĤ": 2088,
      "ĠÑħÐ¾Ð´": 2089,
      "ĠÑĩÐµÐ¼": 2090,
      "ĠÐŁÑĢÐ¸": 2091,
      "ĠÐĽÑİ": 2092,
      "Ð»Ð°ÑģÑĮ": 2093,
      "ĠÐ¼Ð¾Ð»Ð¾Ð´": 2094,
      "Ġ22": 2095,
      "ÑįÐ¹": 2096,
      "ĠÑģÐ²Ð¾ÐµÐ³Ð¾": 2097,
      "ĠÐ·Ð°Ð¿Ð°Ð´": 2098,
      "ĠÐ°Ð²ÑĤÐ¾ÑĢ": 2099,
      "ĠÑĥÑĩÐ°ÑģÑĤÐ²": 2100,
      "Ð¾Ð¶Ð´ÐµÐ½Ð¸Ñı": 2101,
      "ĠÐ°Ð´Ð¼Ð¸Ð½Ð¸ÑģÑĤÑĢÐ°ÑĤÐ¸Ð²": 2102,
      "ĠÐºÐ°Ð¶Ð´": 2103,
      "ĠÐ³ÐµÑĢ": 2104,
      "ĠÐŀÑĤÐµÑĩ": 2105,
      "Ġ188": 2106,
      "ĠÐ¼Ð¸ÑĢÐ¾Ð²": 2107,
      "ĠÑĦÑĢÐ°Ð½ÑĨÑĥÐ·": 2108,
      "ÐļÐ¾Ð¼": 2109,
      "Ð»Ñĭ": 2110,
      "Ġ2005": 2111,
      "ĠÐŀÐ´Ð½Ð°ÐºÐ¾": 2112,
      "Ġf": 2113,
      "ĠÐ°Ð²Ð¸": 2114,
      "ĠÑĤÑĢÑĥÐ´": 2115,
      "ÑĨÐ¸ÐµÐ¹": 2116,
      "ĠÑģÐ¾Ð´": 2117,
      "ÑĪÐµ": 2118,
      "ÐĵÐµ": 2119,
      "Ð²Ð¾Ð´": 2120,
      "ÑĥÑĤÑģÑĤÐ²": 2121,
      "Ð¾Ð±ÑĢÐ°Ð¶": 2122,
      "ÐµÑģÑĤÐ¸": 2123,
      "ÐŁÐ¾ÑģÐ»Ðµ": 2124,
      "Ð¾Ð²ÑĭÐµ": 2125,
      "Ġ2004": 2126,
      "ĠÐĴÐ°Ñģ": 2127,
      "ÑĢÐ¾Ð¼Ðµ": 2128,
      "ĠÑĩÐµÐ»Ð¾Ð²ÐµÐºÐ°": 2129,
      "ÐĺÐ·": 2130,
      "ĠÑģÑĤÑĥÐ´": 2131,
      "ĠÐ¿ÑĢÐ°Ð²Ð¸ÑĤÐµÐ»ÑĮ": 2132,
      "ÑĭÐ²Ð°ÐµÑĤ": 2133,
      "ĠÐ¿Ð¾ÑıÐ²": 2134,
      "ĠÐ°Ð²ÑĤÐ¾Ð¼": 2135,
      "oc": 2136,
      "ĠÐ¾ÑģÐ½Ð¾Ð²Ð°Ð½": 2137,
      "ÐµÑı": 2138,
      "ĠÑĤÑĢÐµÐ½": 2139,
      "ĠÐ½Ð°ÑĩÐ°Ð»Ðµ": 2140,
      "ĠÐļÐ¾Ð»": 2141,
      "ĠÐ´Ð°": 2142,
      "ĠÐ½Ð°ÑĩÐ°Ð»": 2143,
      "Ġ\"": 2144,
      "ĠÐ½Ð°Ð¿Ð¸Ñģ": 2145,
      "ÑĢÐ¸Ð¼ÐµÑĢ": 2146,
      "ĠÐ²ÐµÐ´": 2147,
      "Ð¸ÑģÐ¸Ð¼": 2148,
      "ĠÐ¾ÑģÑĤÐ°Ð²": 2149,
      "ĠÑģÐ²Ð¾Ð¹": 2150,
      "ĠÑģÑĤÐ¾Ð»": 2151,
      "ĠÑģÑĤÐ°Ð»Ð°": 2152,
      "Ġ26": 2153,
      "ĠÐ¼Ð½Ð¾Ð³Ð¾": 2154,
      "ÑĩÐ°ÑģÑĤ": 2155,
      "ĠÐ½Ð°Ð±": 2156,
      "Ð¸Ð±Ð»Ð¸": 2157,
      "ĠÐºÐ²": 2158,
      "ĠÐ¿ÑĢÐ¾ÑĪ": 2159,
      "Ð½Ð¸Ñĩ": 2160,
      "ÐµÑĢÐ±ÑĥÑĢÐ³": 2161,
      "ĠÐ¾Ð¿Ð¸Ñģ": 2162,
      "ĠÑħÐ°ÑĢÐ°ÐºÑĤÐµÑĢ": 2163,
      "ĠÐ¿ÐµÑĢÐ²ÑĭÐ¹": 2164,
      "ĠÑĤÐ¾ÑĢ": 2165,
      "Ð½Ñİ": 2166,
      "Ġand": 2167,
      "ĠÐ´Ð²Ð¸Ð¶": 2168,
      "ĠÐ¿Ð¾ÑģÐµÐ»ÐµÐ½Ð¸Ñı": 2169,
      "Ð¾ÑĢÑĤÐ°": 2170,
      "Ð»Ð¾Ð½": 2171,
      "ÑĥÑģÐ°": 2172,
      "ĠÑĥÐ¼ÐµÑĢ": 2173,
      "ĠÐºÐ¾Ð½ÑĨÐµ": 2174,
      "ist": 2175,
      "Ð¾ÑģÐ¿": 2176,
      "ĠÐ·Ð°ÑīÐ¸ÑĤ": 2177,
      "Ġ(;": 2178,
      "ĠÐ¾ÑĤÐºÑĢÑĭÑĤ": 2179,
      "ers": 2180,
      "Ġm": 2181,
      "ĠÐºÐ¸Ð½": 2182,
      "Ð°Ð»Ð¾Ð³": 2183,
      "ÑĢÐµÑģÑģ": 2184,
      "ĠÑĪÐ¸ÑĢ": 2185,
      "ĠÐ¼Ð°ÑĤÐµÑĢÐ¸": 2186,
      "ÐĿÐ°ÑģÐµÐ»ÑĳÐ½Ð½ÑĭÐµ": 2187,
      "Ð¾ÐºÑĢÐ°ÑĤ": 2188,
      "ĠÑģÐ±Ð¾ÑĢÐ½Ð¾Ð¹": 2189,
      "Ð¸Ð·Ð¼": 2190,
      "ĠÐ·Ð°Ñģ": 2191,
      "ĠÐ¼ÐµÐ¶Ð´ÑĥÐ½Ð°ÑĢÐ¾Ð´": 2192,
      "ĠÐ´ÐµÐ½ÑĮ": 2193,
      "ĠÐ¸Ð·Ð¼ÐµÐ½": 2194,
      "ĠÐ¿ÑĢÐ¾Ð±": 2195,
      "ĠÑģÐ²ÑıÐ·Ð¸": 2196,
      "Ð¾Ð»Ð¸": 2197,
      "ĠÐ¡Ð°Ð¼": 2198,
      "Ð¾Ð²Ð°ÑĤÐµÐ»ÑĮ": 2199,
      "ĠÐ¿ÑĢÐµÐ·Ð¸Ð´": 2200,
      "195": 2201,
      "Ð¾Ð»Ð´": 2202,
      "ĠÑģÐ´ÐµÐ»": 2203,
      "ĠÐ±ÑĭÐ²": 2204,
      "ÐµÐ½Ð½Ð°Ñı": 2205,
      "ĠÑĤÐ°Ð½": 2206,
      "ĠÐ¤ÑĢÐ°Ð½ÑĨÐ¸Ð¸": 2207,
      "ĠÑģÑĤÑĢÐ¾Ð¸ÑĤÐµÐ»ÑĮ": 2208,
      "ÐµÐ»Ð¸Ñĩ": 2209,
      "ÐµÐ»Ð¾": 2210,
      "ĠÐ²ÑģÐµÐ³Ð¾": 2211,
      "ĠÐ¡Ð¿": 2212,
      "ÑģÐºÐ°": 2213,
      "ĠÑģÐ¾ÑħÑĢÐ°Ð½": 2214,
      "ĠÐ¡Ð¾Ñİ": 2215,
      "ĠÑģÐ¾Ð±ÑģÑĤÐ²ÐµÐ½": 2216,
      "Ð¾ÑģÑĤÐ¾": 2217,
      "ĠÐŀÐ»Ð¸Ð¼Ð¿Ð¸Ð¹": 2218,
      "ĠXV": 2219,
      "ĠÐŁÐ¾Ð´": 2220,
      "ÑģÐ¾Ð²ÐµÑĤ": 2221,
      "ÐµÐ½ÑĤÐ¾Ð²": 2222,
      "ÐºÐ²Ð¸": 2223,
      "ĠÐ¼ÑĥÐ½Ð¸ÑĨÐ¸Ð¿": 2224,
      "Ð¾Ð¿ÑĢÐ¾Ñģ": 2225,
      "Ġ28": 2226,
      "Ð°Ð»Ð¾Ð²": 2227,
      "ĠÐłÐµÑģÐ¿ÑĥÐ±Ð»Ð¸ÐºÐ¸": 2228,
      "Ð¼Ð¸ÑĤ": 2229,
      "ĠÐ¿Ð¾Ð»Ð¾Ð¶": 2230,
      "ĠÐĲÐ±": 2231,
      "ĠÐĵÐµÑĢ": 2232,
      "ÑıÑĤÑģÑı": 2233,
      "ĠÐ¿ÑĢÐ¾Ð¼": 2234,
      "193": 2235,
      "ĠÐ¿ÑĢÐ¸Ñĩ": 2236,
      "ĠÐ²ÐµÑĢÐ½": 2237,
      "ĠÑĤÑĭ": 2238,
      "Ð¿Ð¸ÑģÐºÐ¾Ð¿": 2239,
      "ĠÐ¿Ð»Ð°Ð½": 2240,
      "ĠÐ¿Ð¾ÑģÑĳÐ»": 2241,
      "ÑģÐ¾Ð½": 2242,
      "ĠÑįÐ½": 2243,
      "ĠÐ²Ð¸Ð´Ðµ": 2244,
      "ĠÐºÐ¾ÑĢÐ¿": 2245,
      "Ð¸Ð³Ð¸": 2246,
      "Ġ21": 2247,
      "ĠÐºÐ°Ð¿": 2248,
      "ĠÐ¿Ð°Ð¼ÑıÑĤ": 2249,
      "Ġ27": 2250,
      "ĠÑģÐ¾Ð²ÐµÑĤÑģÐºÐ¸Ð¹": 2251,
      "ĠÐ±ÐµÐ»": 2252,
      "Ð°Ð´Ñĭ": 2253,
      "ĠÐ½ÐµÐ·": 2254,
      "ĠXX": 2255,
      "ĠÐ²ÑģÑĤÑĢÐµÑĩ": 2256,
      "ĠÐ»ÐµÑģ": 2257,
      "Ð²ÐµÑĢÐ¶Ð´": 2258,
      "Ð½Ð°ÑĢ": 2259,
      "Ð¾ÐºÐ°": 2260,
      "ĠÑģÐ¿Ð¾ÑģÐ¾Ð±": 2261,
      "ĠÐ·Ð°Ð±": 2262,
      "Ð°ÑĤÐ¸Ð²": 2263,
      "ÑĥÐµÑĤÑģÑı": 2264,
      "ÑĭÑĪÐ»ÐµÐ½": 2265,
      "ĠÐ¸Ð¼ÐµÐµÑĤ": 2266,
      "ĠÐ¿ÑıÑĤ": 2267,
      "ÑģÑĤÐ¾ÑıÑī": 2268,
      "ÐºÑĤÐ¾ÑĢ": 2269,
      "ÐºÐ¸Ð½": 2270,
      "ĠÐľÐ°Ðº": 2271,
      "ĠÐ´Ð°Ð½Ð½ÑĭÐ¼": 2272,
      "Ð±ÑĥÑĢÐ³": 2273,
      "ĠÐ³ÑĢÐ°Ð¶Ð´": 2274,
      "Ð°Ð´Ð°": 2275,
      "ĠÐ²ÑĭÐ¿Ð¾Ð»": 2276,
      "ÐŁÑĢ": 2277,
      "Ġ2017": 2278,
      "Ð¶ÐµÐ½": 2279,
      "ĠÑĥÐºÐ°Ð·": 2280,
      "ĠÐ½ÐµÐ±": 2281,
      "ĠÐ²ÑĤÐ¾ÑĢÐ¾Ð¹": 2282,
      "ĠÑĢÐ°Ð±Ð¾ÑĤÐ°Ð»": 2283,
      "ÑĤÑĭ": 2284,
      "Ð°Ð»ÑĮÐ½Ð°Ñı": 2285,
      "Ġ100": 2286,
      "Ġ186": 2287,
      "Ġin": 2288,
      "ĠÐ¡ÐµÑĢÐ³": 2289,
      "ov": 2290,
      "ĠÐĴÐ»Ð°Ð´Ð¸Ð¼": 2291,
      ".)": 2292,
      "ĠÑĦÐ°Ðº": 2293,
      "Ð»ÐµÐ½Ð°": 2294,
      "ĠÐ¿Ð¾ÑįÑĤ": 2295,
      "Ġ187": 2296,
      "ĠÑģÑĤÐµÐ¿ÐµÐ½Ð¸": 2297,
      "ĠÑĥÐ³": 2298,
      "ĠÐ¸Ð½ÑĤ": 2299,
      "ĠÐ²ÑĭÐ±": 2300,
      "ĠÐ¾ÐºÑĢÑĥÐ³Ð°": 2301,
      "ÐºÑģ": 2302,
      "ĠÐ¼Ð¾Ð¶Ð½Ð¾": 2303,
      "Ġ2001": 2304,
      "ĠÐ¿ÑĢÐ¾Ð²Ð¾Ð´": 2305,
      "ĠÐłÑĥÑģ": 2306,
      "ĠÐ¿ÑĢÐµÐ´ÑģÑĤÐ°Ð²Ð»Ñı": 2307,
      "ĠÐºÐ°Ð·": 2308,
      "ĠÐ¼ÐµÑģÑı": 2309,
      "Ġ2018": 2310,
      "ĠÐ²Ð½ÑĥÑĤ": 2311,
      "ĠÐ²ÐµÑĢÑģ": 2312,
      "ĠÐĺÐ²Ð°Ð½Ð¾Ð²": 2313,
      "ĠÑģÐµÐ»ÑĮÑģÐºÐ¾Ð³Ð¾": 2314,
      "ĠIS": 2315,
      "Ð»ÐµÐ¶": 2316,
      "ÑĨÐ¸Ð°Ð»Ð¸ÑģÑĤ": 2317,
      "Ð°Ðµ": 2318,
      "ĠÐ¿ÑĢÐ¸Ð³": 2319,
      "Ð°ÑĤÐµÐ»ÐµÐ¹": 2320,
      "ĠÐ¾ÑĤÐ¿ÑĢÐ°Ð²": 2321,
      "ĠÑĤÐ¾Ñĩ": 2322,
      "Ð¾ÑĢÐ°Ð±": 2323,
      "Ð¾Ð²Ð¾Ð³Ð¾": 2324,
      "Ð¾Ð¼ÐµÑĤ": 2325,
      "Ð²Ð¸Ð´": 2326,
      "24": 2327,
      "Â»)": 2328,
      "ĠÐ¿ÑĢÐ¸Ðº": 2329,
      "Ð¸Ð²Ð°ÐµÑĤ": 2330,
      "âĢ¦": 2331,
      "ĠÐŀÑĤÐµÑĩÐµÑģÑĤÐ²ÐµÐ½Ð½Ð¾Ð¹": 2332,
      "Ð°Ð²Ð°Ð»": 2333,
      "ĠÑįÑĤÐ¾ÑĤ": 2334,
      "Ð¾ÑģÑĤÐ°Ð²": 2335,
      "Ð»Ð¸Ñı": 2336,
      "ĠÐ·Ð°Ñı": 2337,
      "ÑĳÐ·": 2338,
      "ĠÐ¿ÑĢÐµÐ´Ð¿ÑĢ": 2339,
      "ĠÐ²Ð¾ÑģÑģÑĤ": 2340,
      "ĠÐ±Ð°Ð·": 2341,
      "ĠÑģÐ¸Ð¼": 2342,
      "ĠÐĲÐ»ÐµÐºÑģÐ°Ð½Ð´ÑĢ": 2343,
      "ĠXI": 2344,
      "ÐĹÐ°": 2345,
      "Ð¾ÑģÑĥÐ´Ð°ÑĢÑģÑĤÐ²ÐµÐ½": 2346,
      "Ð¸ÑĤÐµÐ»ÐµÐ¼": 2347,
      "ÑĥÐ½Ðº": 2348,
      "Ð¾Ð²ÑģÐºÐ¸Ð¹": 2349,
      "ard": 2350,
      "Ð±Ðµ": 2351,
      "ÑĢÐ°ÑĤÑĮ": 2352,
      "ĠÐĺÑĤ": 2353,
      "Ð³Ñĥ": 2354,
      "ĠÑģÐ¾Ð¿": 2355,
      "Ð¾Ð²Ð°Ñı": 2356,
      "Ð³Ð¾ÑĢÐ¾Ð´": 2357,
      "Ð¸ÐºÑĥ": 2358,
      "ĠÑĦÐ¸Ð·": 2359,
      "ĠÐĽÑĥ": 2360,
      "Ġb": 2361,
      "Ð¾ÑĤÐ¸Ð²": 2362,
      "ÑĨÐµ": 2363,
      "ĠÐ²Ð¾Ð·ÑĢÐ°ÑģÑĤ": 2364,
      "ĠÑģÐ¾Ð²ÐµÑĢÑĪ": 2365,
      "ÐµÐºÑģÑĤ": 2366,
      "ÐµÐ½Ñģ": 2367,
      "Ð¸Ð»Ð¸Ñī": 2368,
      "ĠÐ°Ð½Ð³Ð»": 2369,
      "ĠÐŃÑĤÐ¾": 2370,
      "ĠÐ¾Ð¿ÑĢÐµÐ´ÐµÐ»": 2371,
      "ĠÐ¿ÑĢÐ¾ÐµÐºÑĤ": 2372,
      "Ð°Ð½Ð¸": 2373,
      "ĠÐ´Ð¾Ð¿": 2374,
      "ĠÑĢÐµÐ¶Ð¸ÑģÑģ": 2375,
      "ĠÑĨÐµÐ½ÑĤÑĢÐ°": 2376,
      "ĠÐ½Ð°ÑĩÐ°Ð»ÑĮ": 2377,
      "ĠÑĢÐ¾Ð¼": 2378,
      "ĠÐ¼Ð¾Ð¼": 2379,
      "ĠÑģÐ¿Ð¾ÑĢÑĤ": 2380,
      "ĠÐºÐ¾Ð¼Ð¿Ð¾Ð·": 2381,
      "ÑģÑĤÐ²Ð¸Ð¸": 2382,
      "Ð¸Ð¹ÑģÐºÐ¸Ð¹": 2383,
      "ĠÑģÐ¾Ð·": 2384,
      "ĠÑģÐ¾ÑĤÑĢÑĥÐ´": 2385,
      "ĠÑģÐ¾Ð´ÐµÑĢÐ¶": 2386,
      "ĠÑĦÐ¸Ð»": 2387,
      "ÑģÐºÐ¸Ð¼Ð¸": 2388,
      "ĠÐ²ÑĭÑħÐ¾Ð´": 2389,
      "ÑĭÐ¿ÑĥÑģÐº": 2390,
      "ĠÑĢÐ°Ð´Ð¸": 2391,
      "ÑĢÑĥÐºÑĤ": 2392,
      "Ð¾Ð²Ð°Ð»Ð¸": 2393,
      "ign": 2394,
      "Ġ2003": 2395,
      "Ð¸ÑĨÐµ": 2396,
      "ĠCh": 2397,
      "ĠÐ¡Ð¾Ð²ÐµÑĤÐ°": 2398,
      "Ġ2019": 2399,
      "Ð¾Ð»Ð¾Ð²": 2400,
      "ĠÐ´Ð¾Ñĩ": 2401,
      "ĠÐ¿ÐµÑĢÐµÐ¿Ð¸ÑģÐ¸": 2402,
      "Ð¾ÑĢÑĥÑģ": 2403,
      "ÐµÐ½Ðµ": 2404,
      "ĠÐ½ÐµÐ³Ð¾": 2405,
      "ĠÑĤÐµÐ¼Ð¿": 2406,
      "Ġde": 2407,
      "Ð²ÑĢÐ°Ñī": 2408,
      "Ð½Ð¾Ð´": 2409,
      "Ð¤Ð¸Ð»ÑĮÐ¼": 2410,
      "Ð¾ÑıÐ½": 2411,
      "ĠÐ¸Ð½Ð´": 2412,
      "ĠÐºÑĢÐµÑģÑĤ": 2413,
      "ĠÑĤÑĢÐµÑĤ": 2414,
      "ĠÐ´Ð¸ÑĢÐµ": 2415,
      "BN": 2416,
      "Ð¸Ð½Ð¾Ð¹": 2417,
      "ĠÑħÐ¾Ð·ÑıÐ¹": 2418,
      "ÑİÑĢ": 2419,
      "ĠÐĳÐµÑĢ": 2420,
      "ĠÑĢÐ°ÑģÑģ": 2421,
      "ĠÐ½Ð¸": 2422,
      "ĠÐ°ÑĢÑħÐ¸ÑĤ": 2423,
      "ĠÐŀÐ»Ð¸Ð¼Ð¿Ð¸Ð¹ÑģÐºÐ¸Ñħ": 2424,
      "ĠÐ³ÐµÐ½ÐµÑĢÐ°Ð»": 2425,
      "ĠÐ¾ÑģÐ²": 2426,
      "ĠÐ¿Ð¾Ð·Ð²Ð¾Ð»": 2427,
      "ÐµÑĤÑĮ": 2428,
      "Ð½Ð¸ÑĨÐ°": 2429,
      "ĠÐ¿Ð¾Ð½": 2430,
      "ÐµÐºÑĤÐ°": 2431,
      "Ð¾ÑĤÑĭ": 2432,
      "ĠÑĢÐ¾Ð»ÑĮ": 2433,
      "ĠÐĴÐµÐ»Ð¸ÐºÐ¾Ð¹": 2434,
      "ÑĥÑį": 2435,
      "ĠÐ´ÑĢÑĥÐ³Ð¸Ðµ": 2436,
      "ĠÑħÐ¾ÑĤ": 2437,
      "Ð·Ð°Ð¿Ð°Ð´": 2438,
      "ĠÐ»Ð¸Ñĩ": 2439,
      "ÑģÑıÑĩ": 2440,
      "Ð¾ÐºÑģ": 2441,
      "ÑĥÑĤÑĮ": 2442,
      "Ð°Ð¼Ð±": 2443,
      "ĠÑĢÐ°ÑģÑĤ": 2444,
      "ĠÐĵÐµÑĢÐ¼Ð°Ð½Ð¸Ð¸": 2445,
      "Ð¾Ð»Ð¸ÑĤ": 2446,
      "ĠÐ²ÑĭÐ¿ÑĥÑģÐº": 2447,
      "ĠÐ¸Ð³ÑĢÐ¾Ðº": 2448,
      "ri": 2449,
      "ÐµÐ½Ð³": 2450,
      "ĠÑģÐ²Ð¾Ð¸Ñħ": 2451,
      "Ð¸Ð¹ÑģÐºÐ¾Ð³Ð¾": 2452,
      "ĠÐ¸Ð½ÑĤÐµÑĢ": 2453,
      "ĠÐ¤ÐµÐ´ÐµÑĢÐ°ÑĨÐ¸Ð¸": 2454,
      "ĠÐĳÐ¾Ð»ÑĮÑĪ": 2455,
      "ĠâĢĵ": 2456,
      "Ð»Ð°ÑĪ": 2457,
      "Ð¸Ð½Ð°Ð¼": 2458,
      "Ã©": 2459,
      "ĠÐļÐ°Ð½": 2460,
      "ĠÑĢÐµÐ·ÑĥÐ»ÑĮÑĤÐ°ÑĤÐµ": 2461,
      "Ð®": 2462,
      "ĠÐ¾ÑĦÐ¸ÑĨÐ¸Ð°Ð»ÑĮ": 2463,
      "ĠÑĤÐµÑĩÐµÐ½Ð¸Ðµ": 2464,
      "Ġ29": 2465,
      "ÑĢÐ¸Ð²": 2466,
      "ĠÑģÐ¿ÐµÑĨÐ¸Ð°Ð»ÑĮ": 2467,
      "III": 2468,
      "ĠÐ±Ð¾ÐµÐ²": 2469,
      "ĠÑĦÑĢÐ¾Ð½": 2470,
      "ÑĢÐµÑģ": 2471,
      "ÑĨÐ¾Ð²": 2472,
      "ÑĢÐ¾ÑģÑĤÑĢÐ°Ð½": 2473,
      "ĠÑĨÐµÑĢÐºÐ¾Ð²": 2474,
      "ĠY": 2475,
      "Ð´Ð¾": 2476,
      "ÑĢÐ°Ð½Ð¸Ñĩ": 2477,
      "ĠÑĥÐºÑĢÐ°": 2478,
      "ĠÐºÐ¾ÑĤÐ¾ÑĢÐ¾Ð¼": 2479,
      "ĠÐ¿ÑĢÑıÐ¼": 2480,
      "ĠÐ¸Ð³ÑĢÑĭ": 2481,
      "ĠÐ¾Ð´Ð½Ð¾Ð¹": 2482,
      "ÐµÐ±ÑİÑĤ": 2483,
      "Ġ1990": 2484,
      "ĠÐ¡Ð¾": 2485,
      "Ð¸ÐºÐ¾": 2486,
      "ĠÐºÐ¾ÑĢÐ°Ð±": 2487,
      "ĠÐ²Ð¾Ð¿ÑĢÐ¾Ñģ": 2488,
      "Ð°ÑĨÐ¸Ð¾Ð½": 2489,
      "ĠISBN": 2490,
      "ĠÐ¾Ð±ÐµÑģÐ¿": 2491,
      "ĠÐ¿ÑĢÐ¸Ð¼ÐµÐ½": 2492,
      "Ð¸ÑīÐµ": 2493,
      "ĠÐķÐ²ÑĢÐ¾Ð¿Ñĭ": 2494,
      "ÐµÐ½ÑĤÑĭ": 2495,
      "ĠÐ¿Ñģ": 2496,
      "ĠÐ·Ð°ÐºÐ»ÑİÑĩ": 2497,
      "ÑĩÐ¸Ðº": 2498,
      "ĠÐĲÑĦ": 2499,
      "ĠÐ½Ð°ÑģÑĤÐ¾ÑıÑī": 2500,
      "ĠÑĢÐ°ÑģÐ¿ÑĢÐ¾ÑģÑĤÑĢÐ°Ð½": 2501,
      "ĠÑĥÐ·": 2502,
      "ĠÐ½Ð¾Ð¼": 2503,
      "Ð¸ÑĢÐ¾Ð²Ð°Ð½Ð¸Ñı": 2504,
      "ĠÐ¼Ð°Ð³": 2505,
      "Ð¿Ð¾": 2506,
      "Ð¸Ð¾": 2507,
      "Ġ2020": 2508,
      "Ð°Ð½ÑģÐºÐ¸Ð¹": 2509,
      "Ð³Ð°ÑĢ": 2510,
      "ĠÐ´Ð²Ð¾ÑĢ": 2511,
      "ÑĢÐµÐ¶Ð´": 2512,
      "ĠÐĹÐ°": 2513,
      "ĠÑģÐ¾Ð±Ð¾Ð¹": 2514,
      "Ð°ÑģÑĤÑĭ": 2515,
      "28": 2516,
      "ĠÑģÐµÐ»ÑĮÑģÐ¾Ð²ÐµÑĤ": 2517,
      "ĠÐ¾Ð±ÑĢÐ°Ð·Ð¾Ð¼": 2518,
      "ĠÐĺÑģÐ¿": 2519,
      "ÑĢÐ°Ðº": 2520,
      "ĠÐ¡Ð°Ð½ÐºÑĤ": 2521,
      "ÑĢÐ°Ñĩ": 2522,
      "ĠÐŁÐ°Ð²": 2523,
      "Ġ1941": 2524,
      "ĠÐ²Ð»Ð°Ð´": 2525,
      "ÑģÐ¼": 2526,
      "Ð²Ð¾Ð»Ñİ": 2527,
      "ÑĢÑİ": 2528,
      "Ð¾ÑĢÐµÐ²": 2529,
      "Ð°Ð½ÑģÐºÐ¾Ð³Ð¾": 2530,
      "ĠÑģÑĨÐµÐ½": 2531,
      "Ð¾Ð¶Ð¸Ð²": 2532,
      "Ð½Ð¸Ð¸": 2533,
      "ĠÑĨÐµÑĢÐºÐ²Ð¸": 2534,
      "26": 2535,
      "ap": 2536,
      "Ð»Ð°Ð¼": 2537,
      "ÑıÐ¼Ð¸": 2538,
      "ĠÑĢÐµÐ³Ð¸Ð¾Ð½": 2539,
      "ĠÐĿÐ°ÑĨÐ¸Ð¾Ð½Ð°Ð»ÑĮ": 2540,
      "ĠÐ¢Ð¾Ð¼": 2541,
      "ÐŀÑģ": 2542,
      "78": 2543,
      "ĠÐ·Ð°Ð²Ð¾Ð´": 2544,
      "est": 2545,
      "ĠÐ¿ÑĢÐ¸Ð½Ð¸Ð¼": 2546,
      "ĠÐ·Ð°Ð¿Ð¸Ñģ": 2547,
      "ÑĢÐ°Ð´Ñĭ": 2548,
      "ÐµÑĢÐ°ÑĤÐ¾ÑĢ": 2549,
      "ĠÑĤÐµÐ¼Ð¿ÐµÑĢÐ°": 2550,
      "Ð»ÐµÐ½Ð¸Ð¸": 2551,
      "ĠÐ½Ð°ÑĩÐ°Ð»Ð°": 2552,
      "ĠÑģÐµÐ²ÐµÑĢÐ¾": 2553,
      "ĠÑģÐ¼ÐµÑĢÑĤÐ¸": 2554,
      "ĠÐ²ÑĭÐ·": 2555,
      "ay": 2556,
      "ĠÑĢÐ°Ð±": 2557,
      "ĠÐ»ÐµÐ³": 2558,
      "ĠÐ°Ðº": 2559,
      "ĠÐºÑĢÐ°Ñģ": 2560,
      "Ð°ÐµÐ²": 2561,
      "ĠÐ¾Ð±Ð»Ð°ÑģÑĤÑĮ": 2562,
      "ĠÐ·Ð°ÑıÐ²": 2563,
      "ĠÐ´ÑĢÐµÐ²": 2564,
      "Ġ1999": 2565,
      "ĠÐ´ÐµÐ²": 2566,
      "ÐµÐ¾ÑĢ": 2567,
      "Ð¸ÑĢÐµ": 2568,
      "ÐĴÑĭÐ¿ÑĥÑģÐº": 2569,
      "ĠÐºÑĢÐ¸ÑĤ": 2570,
      "Ð¼Ð¼": 2571,
      "ĠÐ¶Ð¸Ð·Ð½": 2572,
      "ĠÐ½ÐµÐ¹": 2573,
      "Ð¸ÑĩÐµÑģÐºÐ¸Ð¼": 2574,
      "Ð¸Ð»Ð»Ð¸": 2575,
      "ĠÐ¾ÑĤÐ´ÐµÐ»ÑĮ": 2576,
      "ÐµÐºÑĤÐ¸Ð²": 2577,
      "ÐĲÑĢ": 2578,
      "ĠÑģÑĤÑĢÐ°Ð½Ñĭ": 2579,
      "Ð¡Ð¿": 2580,
      "ÑĥÐ±Ð»Ð¸Ðº": 2581,
      "ĠÐ¼Ð¸Ð½Ð¸ÑģÑĤ": 2582,
      "ĠÐĴÐµÑĢÑħÐ¾Ð²": 2583,
      "ĠÐ¦ÐµÐ½ÑĤ": 2584,
      "27": 2585,
      "Ġ[": 2586,
      "ĠÐŁÐ°ÑĢ": 2587,
      "ĠÑİÐ³Ð¾": 2588,
      "ÐµÐ½Ð½": 2589,
      "ĠÐ¼Ð°Ð»": 2590,
      "Ð³Ð»Ð°Ð²": 2591,
      "ĠÐ¿Ð°ÑĢÑĤÐ¸Ð¸": 2592,
      "ce": 2593,
      "ÑĢÐ¸Ð½": 2594,
      "ĠÐ¾Ð´Ð½Ð¸Ð¼": 2595,
      "Ð¸Ð¼Ð¾": 2596,
      "ÑĮÑıÐ½": 2597,
      "Ð¾ÑĢÐ¸Ð¸": 2598,
      "ÑĦÐ¸ÑĨ": 2599,
      "40": 2600,
      "Ð¶Ð½Ð¾Ð¹": 2601,
      "ĠÐ³Ðµ": 2602,
      "ĠÐºÐ½ÑıÐ·": 2603,
      "Ð¸Ð»Ð¸Ñı": 2604,
      "ĠÑĩÐµÐ³Ð¾": 2605,
      "ĠÐ¿ÑĢÐ¸Ð·Ð½": 2606,
      "ĠÑģÑĤÐ°Ð»Ð¸": 2607,
      "ĠÐ»Ð¸ÑĪÑĮ": 2608,
      "ÑĥÐ´Ð°": 2609,
      "und": 2610,
      "ĠÐ¿ÐµÑĢÐ²Ð¾Ð¹": 2611,
      "ĠÐ¡Ð¾ÑİÐ·Ð°": 2612,
      "ÐµÑĢÐ½Ð¾": 2613,
      "Ð¿Ð»": 2614,
      "ĠÐ·Ð°Ñħ": 2615,
      "ÑĢÐ°Ð³": 2616,
      "ĠÐ¾ÑĢÐ³Ð°Ð½Ð¸Ð·": 2617,
      "ĠÐķÐ³Ð¾": 2618,
      "ub": 2619,
      "Ð´ÐµÐ½Ð°": 2620,
      "ĠÐ¾ÑĩÐµÐ½ÑĮ": 2621,
      "ÐĲÐ½": 2622,
      "ÑĢÐ¸Ñģ": 2623,
      "Ð¾Ñĥ": 2624,
      "ĠÐ½Ð¾Ñģ": 2625,
      "ĠÑĥÑģÐ»Ð¾Ð²": 2626,
      "Ð¾Ð²Ð¾": 2627,
      "Ð°ÑĤÐ¾Ð¼": 2628,
      "ĠÐ¿ÑĢÐ¾ÑħÐ¾Ð´": 2629,
      "ĠÐ½ÐµÑģ": 2630,
      "ĠÐ±ÑĢÐ¾Ð½": 2631,
      "ĠÐ¢Ð°ÐºÐ¶Ðµ": 2632,
      "ÐĵÐµÐ¾Ð³ÑĢÐ°ÑĦÐ¸Ñı": 2633,
      "ÑģÐ¾Ð½Ð°": 2634,
      "ĠÐĳÐ¾ÑĢ": 2635,
      "ĠÐ°Ð¿": 2636,
      "ĠÐ¿ÑĢÐµÐ´ÑģÐµÐ´": 2637,
      "ÑĪÐ¸ÑĢ": 2638,
      "ĠÐ¾Ð±ÑĢÐ°Ð·Ð¾Ð²Ð°Ð½Ð¸Ñı": 2639,
      "ĠÐĴÐ¾Ð»": 2640,
      "Ġv": 2641,
      "ĠÐ°Ð³": 2642,
      "ĠÐ¡Ð²ÑıÑĤ": 2643,
      "ĠÐ¾Ð±ÑĬÐµÐ´Ð¸Ð½": 2644,
      "Ð°Ð»Ð»": 2645,
      "Ð°ÐºÑģÐ¸Ð¼": 2646,
      "ĠÐºÐ¾Ð½ÑĤÑĢ": 2647,
      "ĠÐ¾ÑĢÐ´ÐµÐ½": 2648,
      "ĠÐ¸Ð½ÑĦÐ¾ÑĢÐ¼Ð°": 2649,
      "ĠÐ²Ð¾Ðº": 2650,
      "ĠÑĥÑĩÑĳ": 2651,
      "ÑĥÐ¶Ð´": 2652,
      "ÑĳÐ½Ð½ÑĭÐ¹": 2653,
      "ĠÑģÑĤÐ°ÑĤÑĮ": 2654,
      "ÑĮÐ¸": 2655,
      "ĠÐºÑĥÐ»ÑĮÑĤÑĥÑĢÑĭ": 2656,
      "ĠÐºÐ¾Ð¼Ð°Ð½Ð´Ñĭ": 2657,
      "ĠÑĤÑĢÑĳÑħ": 2658,
      "ÑĢÐµÐ·": 2659,
      "ĠÐ¼ÑĥÐ·Ñĭ": 2660,
      "ĠÐ¿ÑĢÐ°ÐºÑĤ": 2661,
      "ÑıÐ±ÑĢÐµ": 2662,
      "ÐµÐ¶Ð´ÑĥÐ½Ð°ÑĢÐ¾Ð´": 2663,
      "29": 2664,
      "Â²": 2665,
      "ĠÐ¡Ðº": 2666,
      "Ð½ÐµÑĪ": 2667,
      "Ð¸Ð±Ð¾Ð»ÐµÐµ": 2668,
      "Ð»Ð°Ð³Ð¾Ð´": 2669,
      "Ð¾Ð»Ð¾Ð³Ð¸Ñı": 2670,
      "ĠÑģÐ¸Ð»ÑĮ": 2671,
      "ĠÐºÐ¾Ð¼Ð¼Ñĥ": 2672,
      "190": 2673,
      "ĠÐĵÐ¾ÑģÑĥÐ´Ð°ÑĢÑģÑĤÐ²ÐµÐ½": 2674,
      "ÑģÑĤÐ²Ñĥ": 2675,
      "ĠÑģÐºÐ¾ÑĢ": 2676,
      "ĠÑĢÐ°Ð²": 2677,
      "ĠÐºÐ¾Ð½Ðº": 2678,
      "ĠÐ¿ÑĢÐ¸Ñħ": 2679,
      "ÑĥÐ¼Ð°": 2680,
      "Ð¸ÑģÑĤÐ¾Ð²": 2681,
      "ĠÐ³Ð¾Ð²Ð¾ÑĢ": 2682,
      "ĠÐ²Ð¾ÑĪ": 2683,
      "ÐĴÑĭÐ¿ÑĥÑģÐºÐ½Ð¸ÐºÐ¸": 2684,
      "ÑĤÐ¾Ð¼": 2685,
      "ÐµÑĢÑĤÐ°": 2686,
      "ĠÐ¢ÑĥÑĢ": 2687,
      "ĠÐ´Ð°Ð»ÑĮ": 2688,
      "ĠÑĤÑĭÑģÑıÑĩ": 2689,
      "Ġ(,": 2690,
      "ĠÐľÐ°Ð»": 2691,
      "Ð´Ñĭ": 2692,
      "ĠÐĴÐ°Ð»": 2693,
      "align": 2694,
      "ĠÐºÐ¾Ð»Ð¸ÑĩÐµÑģÑĤÐ²Ð¾": 2695,
      "Ð¸ÐºÐ»": 2696,
      "ĠÐ¿ÑĢÐ¸Ð±": 2697,
      "ÐŁÐµÑĤÐµÑĢÐ±ÑĥÑĢÐ³": 2698,
      "Ð¾Ð±ÑĢÐ¸ÑĤ": 2699,
      "ÑĭÐ»": 2700,
      "ĠÐ¿ÑĢÐ¾Ð²Ð¸Ð½": 2701,
      "ĠÐ²ÑĭÐ¸Ð³": 2702,
      "th": 2703,
      "Ð°Ð»ÑĮÐ½Ð¾Ðµ": 2704,
      "ĠÐ±Ð°Ð»": 2705,
      "ĠÐ¾ÑĤÑģ": 2706,
      "ĠÐºÐ°ÑĢ": 2707,
      "ĠÑĨÐµÐ½ÑĤÑĢ": 2708,
      "ÐµÐ»Ðµ": 2709,
      "ĠÑħÐ¾ÑĢ": 2710,
      "Ð¶Ð¸": 2711,
      "ĠÐ¼Ð°ÑģÑĤ": 2712,
      "Ð¾Ð´Ñĭ": 2713,
      "ÑģÑĤÑĢÐ¾": 2714,
      "ÐµÑħÐ°Ð½": 2715,
      "ĠÐ¼Ð¾Ð³ÑĥÑĤ": 2716,
      "Ð¿Ð¾Ð´Ð°Ð²": 2717,
      "ĠÐĺÐ³": 2718,
      "ĠÐ¸Ð·Ð¾Ð±ÑĢÐ°Ð¶": 2719,
      "Ð°ÑģÐº": 2720,
      "ÑĢÐ¸Ðº": 2721,
      "Ð¸ÑĤÐµÑĤ": 2722,
      "ĠÐļÐ°Ð»": 2723,
      "ÑģÐ¿Ð¾ÑĢÑĤ": 2724,
      "ĠÐ¿Ð°ÑĢÐ°": 2725,
      "ĠÑĤÑĥÑĢÐ½Ð¸": 2726,
      "ĠÐ½Ð°Ð·Ð½Ð°ÑĩÐµÐ½": 2727,
      "ĠÐ·Ð°Ð²ÐµÑĢÑĪ": 2728,
      "Ġ)": 2729,
      "ĠÐ²Ð¾ÑģÐ¿": 2730,
      "ess": 2731,
      "ÑĥÐ»Ð¸": 2732,
      "ÑĩÐ¸ÑĤ": 2733,
      "ĠÐĴÐ»Ð°Ð´Ð¸Ð¼Ð¸ÑĢ": 2734,
      "ĠÑĢÐ°ÑģÑģÐºÐ°Ð·": 2735,
      "ĠÐŀÑĦÐ¸ÑĨÐ¸Ð°Ð»ÑĮ": 2736,
      "Ġ50": 2737,
      "ĠÐļÐ°Ð¼": 2738,
      "ĠÑĩÐµÐ¼Ð¿Ð¸Ð¾Ð½Ð°ÑĤÐ°": 2739,
      "Ð¾Ð·Ð°": 2740,
      "Ð¸ÑģÐ»ÐµÐ½": 2741,
      "ÐµÐ½Ð½Ð¾Ðµ": 2742,
      "Ð°ÑĤÐµÐ»ÐµÐ¼": 2743,
      "ĠÑģÑĤÑĢÐµÐ»": 2744,
      "ru": 2745,
      "ae": 2746,
      "ĠÐĳÐ°ÑĢ": 2747,
      "ÑĢÐ°Ð¹": 2748,
      "ĠÐ±ÑĥÐ´ÐµÑĤ": 2749,
      "ĠÐĲÑĢÐ¼": 2750,
      "ĠÐľÐ¸ÑħÐ°": 2751,
      "Ð½Ð¾Ð²Ð°Ð½Ð¸Ñı": 2752,
      "ĠÑĩÐµÑĤ": 2753,
      "Ð¾ÑģÐ¾ÑĦ": 2754,
      "ab": 2755,
      "Ð±Ð¾Ð»ÑĮ": 2756,
      "ĠÑģÑĤÑĢÑĥÐºÑĤ": 2757,
      "Ð¸Ð¼Ð°": 2758,
      "ĠÐ¾Ð±ÑĭÑĩ": 2759,
      "ĠÐ½ÐµÐ¾Ð±": 2760,
      "ĠÐ¿ÑĢÐ¾Ð±Ð»ÐµÐ¼": 2761,
      "ĠÐºÐ»Ð°Ð´": 2762,
      "ĠÐ²ÐµÑģ": 2763,
      "ĠÐĽÐµ": 2764,
      "Ð¾Ð²ÑĭÐ¹": 2765,
      "ĠÑĦÑĥÐ½Ðº": 2766,
      "Ð¸Ð±Ð¸ÑĢ": 2767,
      "Ð¾Ð²ÐµÐ´": 2768,
      "ĠÑĢÐµÐº": 2769,
      "ĠÑģÑĤÐ¾ÑĢÐ¾Ð½Ñĭ": 2770,
      "ĠÑģÑĭÐ³": 2771,
      "Ð¸Ð·Ð°ÑĨÐ¸Ñı": 2772,
      "ĠÐ¿ÐµÑĢÐµÑĪ": 2773,
      "ĠÐ±ÑĢÐ°ÑĤ": 2774,
      "ÑĢÐ¸Ð¹": 2775,
      "ĠÐ´ÐµÑģÑı": 2776,
      "ĠÐ´Ð°Ð¶Ðµ": 2777,
      "ĠÐºÐ°Ð¿Ð¸ÑĤ": 2778,
      "):": 2779,
      "Ð²ÐµÐ¹": 2780,
      "ĠÐ°Ð½ÑĤ": 2781,
      "ÑİÐ¶": 2782,
      "ÑĪÐµÐµ": 2783,
      "ĠÑģÑĤÐ¾ÑĢÐ¾Ð½": 2784,
      "ĠÐ»Ð¸ÑĨ": 2785,
      "Ð¼Ð¿": 2786,
      "Ð¸Ð½Ð³ÑĢÐ°Ð´": 2787,
      "ĠÐ´Ð»Ð¸Ð½": 2788,
      "ÐµÑĩÐ°ÑĤ": 2789,
      "ĠÑģÐµÐ·Ð¾Ð½Ð°": 2790,
      "ĠÑĪÐºÐ¾Ð»Ñĭ": 2791,
      "Ð¸ÑĩÐµÑģÐºÐ¾Ð¼": 2792,
      "ÐĴÐ¾": 2793,
      "ÐºÐ¸Ðµ": 2794,
      "ĠÐ¸Ñģ": 2795,
      "ÑĩÐ¸Ð²": 2796,
      "ĠÐ¾ÑĨÐµÐ½": 2797,
      "ĠÐ¿ÑĢÐ¾ÑĨÐµÑģÑģ": 2798,
      "ĠÐ¼Ð°ÑĪ": 2799,
      "Ð°Ð½Ðº": 2800,
      "ÑģÐ¾Ð»": 2801,
      "ÐĿÐ°Ð³": 2802,
      "ĠÑĥÑĤÐ²ÐµÑĢÐ¶Ð´": 2803,
      "ud": 2804,
      "Ð°Ð´Ð»ÐµÐ¶": 2805,
      "ĠÐ¸Ð³ÑĢÐ°Ñħ": 2806,
      "ÑİÐ·": 2807,
      "Ġn": 2808,
      "ĠÑģÐ°Ð¼Ð¾Ð»": 2809,
      "Ð¸Ð¼ÐµÐ½": 2810,
      "ĠÑĤÐ¾ÑĤ": 2811,
      "ĠÐĴÐµÐ»Ð¸ÐºÐ¾Ð±ÑĢÐ¸ÑĤ": 2812,
      "ÑĳÐ´": 2813,
      "Ð°ÑİÑīÐ¸Ñħ": 2814,
      "Ð»ÐµÐ½Ð¸ÐµÐ¼": 2815,
      "ĠÑĤÑĢÐµÐ±": 2816,
      "Ð½Ð°ÑĢÑĥÐ¶": 2817,
      "ĠÐ¾Ð±ÐµÑģÐ¿ÐµÑĩ": 2818,
      "ÑģÑĮ": 2819,
      "ĠÐĺÑĢ": 2820,
      "ĠIII": 2821,
      "ĠÐ¸Ð³ÑĢ": 2822,
      "ĠÐ¸Ð·ÑĥÑĩ": 2823,
      "ĠÐ´Ð²Ðµ": 2824,
      "ÐºÐ°Ñı": 2825,
      "Ð°Ð²Ð¸ÑģÐ¸Ð¼": 2826,
      "ĠÐ¾Ñħ": 2827,
      "Ð¸ÑĤÐ°Ð¹": 2828,
      "ĠÐ¸Ð³ÑĢÐ°": 2829,
      "ĠÐºÐ¾Ð¼Ð¿Ð°Ð½Ð¸Ð¸": 2830,
      "ĠÑģÐ²Ð¾Ð¸": 2831,
      "ĠÐ´ÐµÐ¼": 2832,
      "ÑĢÐ°Ð²Ð½": 2833,
      "ĠÐ²ÑĭÐ¿Ð¾Ð»Ð½": 2834,
      "ĠÐ°ÐºÐ°Ð´ÐµÐ¼Ð¸Ð¸": 2835,
      "ĠÐ¸ÑĤÐ¾Ð³": 2836,
      "Ġ||": 2837,
      "ÑĮÐµÑĢ": 2838,
      "Ġ1944": 2839,
      "ĠÐ¼Ð¾Ð½Ð°ÑģÑĤÑĭ": 2840,
      "ÐµÐ½Ð½ÑĭÐ¼": 2841,
      "ĠÐºÐ¸Ð»": 2842,
      "ĠÐ²Ð¿ÐµÑĢÐ²ÑĭÐµ": 2843,
      "ĠÑĦÐ°ÐºÑĥÐ»ÑĮÑĤ": 2844,
      "Ġ2021": 2845,
      "ĠÐ¸Ð¼Ð¿ÐµÑĢÐ¸Ð¸": 2846,
      "ÐµÑĢÐº": 2847,
      "ĠAn": 2848,
      "ĠÐ¿ÑĢÐµÐ´Ð»Ð¾Ð¶": 2849,
      "Ð¾Ð½Ð¸Ð¸": 2850,
      "Ġ185": 2851,
      "ĠÐ¼ÐµÑĤÑĢÐ¾Ð²": 2852,
      "ĠÐľÐµÐ´": 2853,
      "ĠÐ¿Ð¾ÑģÑĤÑĥÐ¿": 2854,
      "ĠÐ´Ð½ÐµÐ¹": 2855,
      "Ð¼ÐµÑĩ": 2856,
      "ĠÑĢÐ¾ÑģÑģÐ¸Ð¹ÑģÐºÐ¸Ð¹": 2857,
      "Ð¶Ð°": 2858,
      "ÐºÐ°ÑĤ": 2859,
      "ĠÐ¾Ð´Ð½Ð¾": 2860,
      "ĠĠĠĠĠĠĠĠ": 2861,
      "ĠÑĥÐ»": 2862,
      "ĠÑģÐ¸ÑģÑĤÐµÐ¼Ñĭ": 2863,
      "Ð¾Ð³ÑĢÐ°ÑĦÐ¸Ð¸": 2864,
      "ĠÐ¿Ð¾Ñħ": 2865,
      "Ġ1998": 2866,
      "ĠÐ±ÑĢÐ¸Ð³": 2867,
      "Ġ1992": 2868,
      "ÑĪÐµÐ¼": 2869,
      "Ð°ÑĢÑĭ": 2870,
      "Ð»ÑİÐ´": 2871,
      "ĠÐ±Ð¾ÑĢÑĮ": 2872,
      "ĠÑĩÐ°Ñģ": 2873,
      "ĠÐ¼Ð¸ÑĢÐ¾Ð²Ð¾Ð¹": 2874,
      "ĠÐ½ÐµÐ±Ð¾Ð»ÑĮÑĪ": 2875,
      "ĠÐ¾ÑĤÐºÐ°Ð·": 2876,
      "ĠÑĪÐ¸ÑĢÐ¾Ðº": 2877,
      "ĠÐ´ÐµÐ±ÑİÑĤ": 2878,
      "Ð²ÑıÑī": 2879,
      "Ð»ÐµÐ³": 2880,
      "Ð¾ÑĢÐ²": 2881,
      "ĠÑģÐµÐ¼ÐµÐ¹": 2882,
      "ÑĢÐ¸Ñħ": 2883,
      "ĠÐ¿ÑĢÐ¾Ð¸Ð·Ð²ÐµÐ´": 2884,
      "ĠÑĨÐµÐ»": 2885,
      "ĠÑĩÐµÐ¼Ð¿Ð¸Ð¾Ð½Ð°ÑĤÐµ": 2886,
      "ĠÐ¿ÑĢÐµÐ¼Ð¸Ð¸": 2887,
      "ĠÑĢÐ°Ð±Ð¾Ñĩ": 2888,
      "ÐŀÑĤ": 2889,
      "ĠÐĴÐ¸Ðº": 2890,
      "ĠÑĩÐµÑģÑĤÑĮ": 2891,
      "ĠÑģÑĭÐ½": 2892,
      "ĠÑįÑĤÐ¸Ñħ": 2893,
      "ÑıÑĩ": 2894,
      "ĠÐ·Ð½Ð°Ðº": 2895,
      "ĠÐ·Ð°Ð»": 2896,
      "ÐµÑģÑĤÐ¸Ð²": 2897,
      "ĠÑģÑĬ": 2898,
      "ĠÐ¿ÑĢÐ¾Ð¿": 2899,
      "ĠÐ¼Ð°ÑģÑģ": 2900,
      "ĠÐ¼ÐµÐ½ÐµÐµ": 2901,
      "ĠÐ¾Ð±ÑĬÑıÐ²": 2902,
      "Ð¤Ð¸Ð»ÑĮÐ¼Ñĭ": 2903,
      "ĠÐ±ÑĢÐ¸ÑĤ": 2904,
      "ĠÐ¾ÑĢÐ³Ð°Ð½Ð¸Ð·Ð°ÑĨÐ¸Ð¸": 2905,
      "ĠÐ½ÐµÑģÐºÐ¾Ð»ÑĮ": 2906,
      "ĠÐ¾Ð±ÑīÐµÑģÑĤÐ²ÐµÐ½": 2907,
      "ill": 2908,
      "ph": 2909,
      "Ð°Ð½Ð´Ð¸Ð´": 2910,
      "ÐĻ": 2911,
      "Ð³Ð³": 2912,
      "ĠÐĳÐ¾Ð³": 2913,
      "Ð¸Ð»Ñı": 2914,
      "all": 2915,
      "ĠÐ¼Ð¾Ð¼ÐµÐ½ÑĤ": 2916,
      "Ð°Ð´ÑĨ": 2917,
      "|-": 2918,
      "ĠÐĶÐ¶Ð¾Ð½": 2919,
      "ĠÐ½Ð°ÑĩÐ¸Ð½": 2920,
      "ĠÐ¼Ð¾ÑĢÑı": 2921,
      "ĠÐ¿ÑĢÐ¾Ð¼ÑĭÑĪÐ»ÐµÐ½": 2922,
      "ĠÐ¿ÑĢÐ¸Ð½Ð°Ð´Ð»ÐµÐ¶": 2923,
      "ĠÑģÑĤÐ°Ð½Ð¾Ð²": 2924,
      "ĠÐ½Ð¸Ðº": 2925,
      "ĠÐĻ": 2926,
      "ÑĨÐ¾Ð³": 2927,
      "Ð¸Ð·Ð¼Ð°": 2928,
      "ĠÐ¶ÐµÐ½ÑīÐ¸Ð½": 2929,
      "ĠÐľÐ°Ð¹": 2930,
      "ĠÐ¿Ð¾Ð´Ð¿Ð¸Ñģ": 2931,
      "ĠÐºÐ¾Ð½Ñģ": 2932,
      "ĠÐ¿ÑĢÐ¾Ð¶Ð¸Ð²": 2933,
      "ord": 2934,
      "ĠÐ±Ð¸": 2935,
      "enter": 2936,
      "Ð¾ÑģÐ¼": 2937,
      "ĠÐ´Ð¾ÐºÑĥÐ¼": 2938,
      "ĠÑĤÑĢÐ°Ð´": 2939,
      "ĠÐ¿Ð¾Ð´Ð³Ð¾ÑĤÐ¾Ð²": 2940,
      "60": 2941,
      "Ð´Ñĥ": 2942,
      "ĠÐ´ÑĥÑħ": 2943,
      "ÐµÐºÑĤÐ¾ÑĢ": 2944,
      "ĠÐ±ÐµÑĢÐµÐ³Ñĥ": 2945,
      "ĠÐ¶Ð¸ÑĤÐµÐ»ÐµÐ¹": 2946,
      "ÐĺÐ½": 2947,
      "Ġ1996": 2948,
      "Ð°ÑİÑīÐ¸Ð¹": 2949,
      "art": 2950,
      "Ġ1991": 2951,
      "Ð°ÑħÑģÑĤ": 2952,
      "ĠÐ»ÐµÐ²": 2953,
      "ĠÐĴÑĭ": 2954,
      "ant": 2955,
      "80": 2956,
      "ĠÐ´ÐµÐ¿ÑĥÑĤ": 2957,
      "Ð»Ð°ÑĤ": 2958,
      "Ð°Ð²ÑĪÐ¸Ð¹": 2959,
      "ĠÐ¸ÑģÑĤÐ¾Ñĩ": 2960,
      "Ð½ÐµÑģ": 2961,
      "Ð°ÑĤÐ°Ð»ÑĮ": 2962,
      "Ð±Ð¾": 2963,
      "ĠÑĢÐµÐ»": 2964,
      "ĠÑıÐ²Ð»ÑıÑİÑĤÑģÑı": 2965,
      "ĠÑĨÐ²ÐµÑĤ": 2966,
      "ÐµÐ±ÑĢÑı": 2967,
      "Ġ%": 2968,
      "ĠÐľÐ¾ÑģÐºÐ²Ðµ": 2969,
      "ĠÐ·Ð¾Ð»Ð¾ÑĤ": 2970,
      "ĠÑĦÐ¸Ð»ÑĮ": 2971,
      "ĠÐ¸Ð¼Ñı": 2972,
      "ĠÐ§ÐµÑĢ": 2973,
      "Ġ1997": 2974,
      "Ð¿Ð¾Ð»Ð¾Ð¶": 2975,
      "ĠÐĶÐ¼Ð¸ÑĤ": 2976,
      "Ð¸ÐºÐ°ÑĨÐ¸Ð¸": 2977,
      "ĠÐ´ÐµÑĤÐµÐ¹": 2978,
      "Ġ1980": 2979,
      "Ð»Ð¸Ð½Ð°": 2980,
      "ĠÐļÐŁ": 2981,
      "ÐµÑħÐ½": 2982,
      "ew": 2983,
      "ÑĢÐ°ÑĨÐ¸Ð¸": 2984,
      "Ð¼ÑĥÐ½": 2985,
      "ÑĪÐ¸ÐµÑģÑı": 2986,
      "Ð»Ð¾Ðº": 2987,
      "ĠÑģÐµÐ»Ð°": 2988,
      "ĠÐ°Ð´": 2989,
      "ĠÐ¼Ð¸ÑĢ": 2990,
      "ĠÐ¿Ð¾ÑĢÑĤ": 2991,
      "ÑģÐºÐµ": 2992,
      "ĠÐŃÐ½": 2993,
      "ĠÐµÑģÐ»Ð¸": 2994,
      "ÑĪÑĤ": 2995,
      "ĠÑĤÐ¸ÑĤ": 2996,
      "Ð¾ÐµÐ´Ð¸Ð½": 2997,
      "ĠÐ³ÑĢÑĥÐ¿Ð¿Ð°": 2998,
      "ĠÑģÐ¾Ñģ": 2999,
      "Ð¾Ð²Ð°Ð½Ð¸ÐµÐ¼": 3000,
      "Ð°ÑĢÐ¸Ð¸": 3001,
      "ĠÐľÐ¾Ð½": 3002,
      "ĠÐļÑĥÑĢ": 3003,
      "ĠÐ´Ð¾ÑģÑĤÐ¸Ð³": 3004,
      "ĠÐ¿ÑĢÐ¾Ñģ": 3005,
      "ĠÑģÐ¾ÑĨÐ¸Ð°Ð»ÑĮ": 3006,
      "Ġa": 3007,
      "ĠÐĴÑĤÐ¾ÑĢ": 3008,
      "ĠÐ½ÐµÐ¾Ð±ÑħÐ¾Ð´": 3009,
      "ĠÐ²ÑĭÑģÑĤÐ°Ð²": 3010,
      "Ð¸ÑĢÐ¾Ð²Ð°ÑĤÑĮ": 3011,
      "=\"": 3012,
      "ĠÐ¯Ð¿Ð¾Ð½": 3013,
      "ĠÑģÐ²Ð¾Ð±Ð¾Ð´": 3014,
      "ĠÐľÐ¸Ð½": 3015,
      "ĠÐĲÐ»ÑĮ": 3016,
      "ĠÐ¶Ð¸Ð·Ð½ÑĮ": 3017,
      "Ð»Ð¸Ðº": 3018,
      "ĠÐ¾Ð±ÑĢÐ°Ð·Ð¾Ð²Ð°Ð½": 3019,
      "ĠÐ°Ð²ÑĤÐ¾Ð¼Ð¾Ð±": 3020,
      "ĠXIX": 3021,
      "Ð¾ÑĢÑĭ": 3022,
      "ĠÐ¾Ð´Ð½Ð¾Ð³Ð¾": 3023,
      "ĠÑĢÐµÐ´Ð°Ðº": 3024,
      "ĠÑĤÐ°Ð¼": 3025,
      "ĠÐ¿Ð¾Ð»ÑĮÐ·": 3026,
      "Ð°ÑģÑģÐ°": 3027,
      "ĠÑģÐ°Ð¼Ð¾Ð³Ð¾": 3028,
      "ÐµÐ½ÑĤÐ¾Ð¼": 3029,
      "Ġ40": 3030,
      "Ð¸ÑĤÐµÐ»ÑĮÐ½Ð¾Ð¹": 3031,
      "ĠÑĤÐ¾ÑĢÐ³Ð¾Ð²": 3032,
      "ĠÐ·Ð°Ð¼ÐµÑģÑĤ": 3033,
      "Ð¸ÑĨÐ¸Ð¾Ð½": 3034,
      "ĠÐĿÐ¾": 3035,
      "ÐŁÐµÑĢÐ²": 3036,
      "ĠÑıÐ·ÑĭÐºÐµ": 3037,
      "Ð¸ÑĤÐµÑĤÐ°": 3038,
      "ÑĢÐ¾Ð±": 3039,
      "ĠÐŁÑĢÐµÐ·Ð¸Ð´": 3040,
      "ĠÐºÐ°ÑĦ": 3041,
      "Ġ31": 3042,
      "ĠÐ¿Ð¾Ð»Ð¾Ð²": 3043,
      "ĠÐ¿ÑĢÐ¾ÑĦÐµÑģÑģÐ¾ÑĢ": 3044,
      "Ð¾Ð±ÐµÐ´": 3045,
      "ĠÐļÐ¸ÐµÐ²": 3046,
      "Ġ1995": 3047,
      "ĠÐ»ÑİÐ´ÐµÐ¹": 3048,
      "ĠÐ²ÑĭÐ¿ÑĥÑī": 3049,
      "ĠÐ²Ð°Ð¶": 3050,
      "ĠÐ¾Ð±Ð½Ð°ÑĢÑĥÐ¶": 3051,
      "Ð°Ð³Ð¾Ð³": 3052,
      "ĠÑĤÐ²Ð¾ÑĢ": 3053,
      "ĠÐľÐ¾ÑģÐºÐ²Ð°": 3054,
      "ĠÑĩÐµÐ»": 3055,
      "ou": 3056,
      "ĠÐºÐ»Ð°Ð´Ð±": 3057,
      "ĠÑĢÐ°Ð·Ð¼": 3058,
      "ÑĮÑİÑĤ": 3059,
      "ÐºÐ¾Ð²Ð°": 3060,
      "Ġ1943": 3061,
      "ĠÑĥÐ¿ÑĢÐ°Ð²Ð»ÐµÐ½Ð¸Ñı": 3062,
      "ĠÑģÐµÐ¼ÑĮÐµ": 3063,
      "ĠÐ¾ÑģÑĥÑīÐµÑģÑĤÐ²": 3064,
      "ĠÑģÐ¸Ð½": 3065,
      "ak": 3066,
      "ĠÐ³ÑĥÐ±ÐµÑĢÐ½Ð¸Ð¸": 3067,
      "Ġ1994": 3068,
      "Ð°Ð¹Ð´Ð¶": 3069,
      "Ð±Ð¸": 3070,
      "ĠÐºÐ¾": 3071,
      "ÐµÐ½Ð·": 3072,
      "Ð»Ð¸Ð¼Ð°ÑĤ": 3073,
      "ĠÐ¾ÑĤÐ²ÐµÑĤ": 3074,
      "ĠÐ±Ð¾Ð»": 3075,
      "ÐµÑĢÑģÐ¾Ð½": 3076,
      "ÐµÐ´Ð°Ð³Ð¾Ð³": 3077,
      "ÑģÐ¾Ð»ÑİÑĤ": 3078,
      "ÑıÐ²Ð»Ñı": 3079,
      "Ð¸Ð±Ð»Ð¸Ð¾ÑĤ": 3080,
      "ÑģÑĤÐ°Ð½ÑĤ": 3081,
      "Ġ1945": 3082,
      "Ð¸ÑĤÐµÐ»ÑĮÐ½ÑĭÐ¹": 3083,
      "Ð¾Ð²Ð°Ð»Ð°": 3084,
      "ĠÐŁÐ¾Ñĩ": 3085,
      "ĠÐ¡Ð¼": 3086,
      "ĠÐ·Ð¸Ð¼": 3087,
      "ĠÐ³ÑĢÐ°Ð¶Ð´Ð°Ð½": 3088,
      "ĠÐ²Ð»Ð¸Ñı": 3089,
      "Ð°Ð½Ð¸ÐµÐ¼": 3090,
      "Ð¼Ð¾ÑĤÑĢÑı": 3091,
      "ĠÑĤÑıÐ¶": 3092,
      "Ð½Ð¾ÑģÑĤÐµÐ¹": 3093,
      "ĠÐŁÐµÑĢ": 3094,
      "ÑİÑģ": 3095,
      "Ġl": 3096,
      "ĠÐ¾ÑĢÐ´ÐµÐ½Ð°": 3097,
      "ĠÑģÐ»Ð¾Ð¶": 3098,
      "ĠÑĢÑĭ": 3099,
      "Ð¾Ð½Ð°Ñĩ": 3100,
      "ĠÐĹÐ°Ð¿Ð°Ð´": 3101,
      "ĠÐ²ÑģÑĳ": 3102,
      "ĠÐ²Ð¾Ð·Ð³Ð»Ð°Ð²": 3103,
      "ĠÑģÐºÐ°Ð·": 3104,
      "ĠÐ§ÐµÐ¼Ð¿Ð¸Ð¾Ð½": 3105,
      "ĠÑģÐ¾ÑĢÐµÐ²": 3106,
      "ine": 3107,
      "ĠÑģÐµÑĢÐ¸Ð¸": 3108,
      "ÑģÐºÐ¾ÑĢÐµ": 3109,
      "ĠÐ¿ÐµÑĢÐµÑģ": 3110,
      "âĢľ": 3111,
      "ĠÐĶÐ¾Ð½": 3112,
      "ÑģÑĤÑĢÑĥÐº": 3113,
      "ĠÑģÑĤÑĢ": 3114,
      "ĠÐ²Ð½ÑĥÑĤÑĢÐµÐ½": 3115,
      "ĠÑĤÐ¸Ð¿Ð°": 3116,
      "ell": 3117,
      "ÐºÐ¾ÑĢ": 3118,
      "ÐłÐ°Ñģ": 3119,
      "Ð½Ð¾Ð´Ð¾ÑĢÐ¾Ð¶": 3120,
      "189": 3121,
      "Ð¸ÑĩÐµÑģÐºÑĥÑİ": 3122,
      "ĠÐºÑĥÑĢ": 3123,
      "ĠÐ³Ð²Ð°ÑĢ": 3124,
      "ĠÐµÐ¿Ð¸ÑģÐºÐ¾Ð¿": 3125,
      "ĠÑĤÐµÐºÑģÑĤ": 3126,
      "Ð¾Ð»ÐµÑĤ": 3127,
      "ÐºÐ¸Ð¼": 3128,
      "ĠÐºÐ»ÑĥÐ±Ð°": 3129,
      "ĠÐĲÐ´": 3130,
      "ÑĤÑĥÑĢÐµ": 3131,
      "Ð°Ð»ÑĮÑıÐ½": 3132,
      "ÐµÐ¼Ð°ÑĤ": 3133,
      "ĠÐľÐ°ÑĤ": 3134,
      "ĠÑĩÐ°ÑģÑĤÐ¾": 3135,
      "Ð½ÑĥÑĤ": 3136,
      "Ð²Ð¸Ð³": 3137,
      "ĠÑĢÐ°ÑģÑģÑĤÐ¾Ñı": 3138,
      "ĠÐ·Ð°ÐºÐ¾Ð½": 3139,
      "ik": 3140,
      "ĠÐ²Ð»Ð°ÑģÑĤÐ¸": 3141,
      "ĠÑĦÐ¾ÑĤ": 3142,
      "ÑĥÐºÐ¸": 3143,
      "ĠÐĺÐ½Ð´": 3144,
      "ĠÐºÐ¸Ð»Ð¾Ð¼ÐµÑĤ": 3145,
      "ĠÐ²ÑĭÐ´": 3146,
      "ĠÑĢÐ¾Ð´Ð¸Ð»ÑģÑı": 3147,
      "ĠÐºÑĢÑĭ": 3148,
      "ĠÐ¿Ð¾Ð¶": 3149,
      "ĠÐ¾Ð±ÑĥÑĩ": 3150,
      "ĠÐ¿ÑĢÐ¸ÑĪ": 3151,
      "ĠÐļÑĢÑĭ": 3152,
      "ob": 3153,
      "ĠÐ¿Ð°ÑĤ": 3154,
      "Ð¾Ð¿Ð¾Ð»": 3155,
      "ÑĥÐ»ÑģÑı": 3156,
      "ĠÑĢÐµÐ²Ð¾Ð»Ñİ": 3157,
      "ĠÑģÐµÐ»Ðµ": 3158,
      "ian": 3159,
      "ĠÐ½ÐµÐ¿": 3160,
      "Ð¾Ð»ÑĮÐºÑĥ": 3161,
      "ĠÐ¾ÑĤÐºÑĢÑĭ": 3162,
      "ĠÑĥÐ»Ð¸ÑĨÐ°": 3163,
      "ĠÑħÐ¾Ð´Ðµ": 3164,
      "ĠÐ°Ð»ÑĮ": 3165,
      "ĠÐłÐ¡": 3166,
      "ĠÐ³Ð¾ÑģÑĥÐ´Ð°ÑĢÑģÑĤÐ²ÐµÐ½Ð½Ð¾Ð³Ð¾": 3167,
      "Ð°Ð¹Ð»Ð¾Ð²": 3168,
      "ĠÐĵÐ»Ð°Ð²": 3169,
      "ĠÐºÐ¾ÑĤÐ¾ÑĢÐ¾Ðµ": 3170,
      "ĠÐ±Ð»Ð¸Ð·": 3171,
      "Ð½Ð°Ð·": 3172,
      "ĠÑģÐ¾Ñĩ": 3173,
      "center": 3174,
      "ĠÐ¸Ð´Ðµ": 3175,
      "ÐĲÐ²": 3176,
      "ÐµÑĢÐ±Ð°Ð¹Ð´Ð¶": 3177,
      "ĪĴ": 3178,
      "ĠÐ½ÐµÐ²": 3179,
      "ĠÑģÑĥÐ¼": 3180,
      "ÑĢÐ¾Ð·": 3181,
      "ĠÐ²ÑģÑĤÑĥÐ¿": 3182,
      "ĠÐĿÑĮÑİ": 3183,
      "ĠÐ³Ð¾Ð»Ð¾Ð²": 3184,
      "ĠÐ±Ð¾Ð³": 3185,
      "ÑĥÑħÐ°": 3186,
      "ĠÐ¿ÑĢÐ¾Ð¸Ð·": 3187,
      "ĠÐ¾ÑĤÐ¼ÐµÑĩ": 3188,
      "ev": 3189,
      "ĠÑģÑĤÐ°Ð½ÑĨÐ¸Ð¸": 3190,
      "ÑĳÑĤÐ°": 3191,
      "ĠÑĢÑĥÐ±": 3192,
      "Ġ1993": 3193,
      "Ð½Ð¾Ð²ÑĮ": 3194,
      "ĠÐ¿ÑĢÐ¸ÑħÐ¾Ð´": 3195,
      "ĠÐ¿Ð¾ÑģÑĤÐ°Ð²": 3196,
      "ĠÑģÐ²ÐµÑĤ": 3197,
      "ĠÑĥÑĩÐµÐ±": 3198,
      "ĠÑģÐ¾Ð±ÑĭÑĤ": 3199,
      "ÑĢÐµÐ³": 3200,
      "ÐµÑĢÐ¸Ñı": 3201,
      "ÑģÑĤÐ²ÐµÐ½Ð½Ð¾": 3202,
      "ĠÐ¿ÑĢÐµÐ´Ð¿ÑĢÐ¸ÑıÑĤ": 3203,
      "ĠÐŀÑĢÐ´ÐµÐ½": 3204,
      "ĠÐ¼ÐµÐ´Ð°Ð»ÑĮ": 3205,
      "Ð°ÑĢÐ¼": 3206,
      "Ġw": 3207,
      "ĠÑĢÐµÑģÐ¿": 3208,
      "ĠÐ¿Ð¾ÑģÑĤÐ¾ÑıÐ½": 3209,
      "Ð»Ð°Ð³Ð¾Ð´Ð°ÑĢÑı": 3210,
      "ÐµÐµÐ²": 3211,
      "ÑĳÑĢÐ°": 3212,
      "Ð¾ÑĢÐ¸": 3213,
      "ĠÑĦÐ¾Ð½": 3214,
      "Ġ1970": 3215,
      "Ð²Ð¸Ð¶": 3216,
      "ĠÐ±Ð¾Ð»ÑĮÑĪÐµ": 3217,
      "Ð¾Ð²Ð¾Ðµ": 3218,
      "Ð»Ð¸Ð¶": 3219,
      "ĠÑģÐµÐºÑĢÐµÑĤ": 3220,
      "Ð¸ÑĩÐ°": 3221,
      "ĠÐ¡ÐµÐ¼": 3222,
      "ÑįÐº": 3223,
      "ĠÑģÐµÐ·Ð¾Ð½Ðµ": 3224,
      "ĠÐ¡Ð¡Ðł": 3225,
      "ĠÐ²ÐµÑĢÑħ": 3226,
      "ÐµÑĢÑĮ": 3227,
      "ĠÐ²Ð¾Ð¾ÑĢÑĥÐ¶": 3228,
      "ĠÐºÐ¾Ð¼Ð¸ÑģÑģ": 3229,
      "av": 3230,
      "ĠÐ¿Ð»Ð°ÑĤ": 3231,
      "ĠÐ¿ÐµÑĢÐµÐ²Ð¾Ð´": 3232,
      "Ġ2022": 3233,
      "ĠÐłÐ¾Ð±": 3234,
      "ct": 3235,
      "ĠÐ¿ÑģÐ¸Ñħ": 3236,
      "ĠÑĪÑĤÐ°": 3237,
      "Ð½Ð¾Ð²Ð°": 3238,
      "ÑįÑĢ": 3239,
      "ĠÐłÐ¾Ð´": 3240,
      "Ð¿Ð¸ÑģÐ¾Ðº": 3241,
      "ĠÑĦÐ¸Ð»ÑĮÐ¼Ð°": 3242,
      "ĠÐºÐ¸Ð½Ð¾": 3243,
      "ĠÑĨÐµÐ½ÑĤÑĢÐ°Ð»ÑĮ": 3244,
      "Ð°ÑĪÐº": 3245,
      "ĠÑĢÐµÐ·ÑĥÐ»ÑĮÑĤÐ°ÑĤ": 3246,
      "ĠÐ¿ÑĢÐ¸ÑĢ": 3247,
      "if": 3248,
      "Ð¾Ð»Ð°": 3249,
      "Ð¸ÑĢÐ¾Ð²Ð°Ð½Ð¸Ðµ": 3250,
      "ĠÑģÐ¾ÐµÐ´Ð¸Ð½": 3251,
      "ĠÐ°ÑģÑģ": 3252,
      "Ð°Ð½Ð½ÑĭÐ¹": 3253,
      "Ð¾Ð¼Ð±": 3254,
      "ĠÐ¿Ð¾Ð¿ÑĥÐ»ÑıÑĢ": 3255,
      "ÑıÐµÑĤ": 3256,
      "ĠÑĥÐ¼": 3257,
      "Ð¾ÑģÐ»ÐµÐ´ÑģÑĤÐ²Ð¸Ð¸": 3258,
      "ĠÐ¡Ð°": 3259,
      "Ð¾Ð¿Ð°Ñģ": 3260,
      "70": 3261,
      "ĠÑģÐ°Ð¹ÑĤ": 3262,
      "Ġ1960": 3263,
      "ĠÐ¿ÐµÑĢÐ²Ð¾Ð³Ð¾": 3264,
      "ĠÐ´ÑĢ": 3265,
      "ĠÑĢÐ°Ð¼": 3266,
      "ĠÐ¾ÐºÑĢÑĥÐ¶": 3267,
      "ĠÑĢÐ°Ð±Ð¾ÑĤÑĥ": 3268,
      "ĠÐ½Ð°ÑģÐ»ÐµÐ´": 3269,
      "ĠÐ¿Ð¾ÑĩÑĤÐ¸": 3270,
      "ĠâĢŀ": 3271,
      "ĠÑĥÐ½Ð¸Ð²ÐµÑĢÑģÐ¸ÑĤÐµÑĤ": 3272,
      "ĠÐ´Ð¸Ð²Ð¸Ð·Ð¸Ð¸": 3273,
      "Ð°Ð¹Ð½": 3274,
      "ĠÐ¾Ð±ÑīÐµÑģÑĤÐ²Ð°": 3275,
      "ĠÐ´ÐµÑıÑĤÐµÐ»ÑĮÐ½Ð¾ÑģÑĤÑĮ": 3276,
      "Ð¸ÑĤÐµÐ»ÑĮÐ½ÑĭÐµ": 3277,
      "ĠÐ½Ð°ÑģÑĤÐ¾ÑıÑīÐµÐµ": 3278,
      "Ð°Ð½Ð½ÑĭÑħ": 3279,
      "ĠÐ¿ÑĢÐ¸Ð¼ÐµÑĢÐ½Ð¾": 3280,
      "ÑĭÐ²Ð°ÐµÑĤÑģÑı": 3281,
      "ĠÐ¾ÐºÐ¾Ð½ÑĩÐ¸Ð»": 3282,
      "ÑĥÐºÐ°": 3283,
      "ĠÐ¿ÑĢÐ¾Ð²ÐµÐ´": 3284,
      "ĠÐĲÐ¼ÐµÑĢ": 3285,
      "ÑĪÐ¸ÑģÑĮ": 3286,
      "ÑĨÐ°Ð¼Ð¸": 3287,
      "ÐĶÐ¶": 3288,
      "Ð»ÐµÐ²": 3289,
      "ĠÐ¿ÑĥÐ±Ð»": 3290,
      "Ġ&": 3291,
      "Ð¾ÑĢÐ¾ÑĤ": 3292,
      "qu": 3293,
      "eg": 3294,
      "Ð°ÑĥÑĢÐµ": 3295,
      "ĠÑģÐ¾Ð²Ð¼ÐµÑģÑĤ": 3296,
      "Ð¸Ð´Ð°": 3297,
      "ĠÑĥÑĩÐ¸Ð»Ð¸Ñī": 3298,
      "Ð»ÐµÐ½Ð¾": 3299,
      "ĠÐ²Ð½Ð¾Ð²ÑĮ": 3300,
      "ĠÐ±ÑĢÐ°": 3301,
      "ĠÐ¸ÑģÐºÐ»ÑİÑĩ": 3302,
      "ĠÑĦÑĥÑĤÐ±Ð¾Ð»Ð¸ÑģÑĤ": 3303,
      "Ð°ÑĤÐ¾Ñĩ": 3304,
      "ĠÐĲÐ¼": 3305,
      "ÑĢÐ°Ð·Ð´Ð½": 3306,
      "ÐĿÐ°Ð³ÑĢÐ°Ð´Ñĭ": 3307,
      "Ð¾Ð²ÑĭÐ¼": 3308,
      "ĠÐ¿Ð¾Ð»ÐºÐ°": 3309,
      "ĠÐºÐ¾ÑĢÐ¾Ð»ÐµÐ²": 3310,
      "ĠÐ²ÐµÑĤ": 3311,
      "ÑıÐ»Ð¸": 3312,
      "ĠÐ»Ð¸Ð±": 3313,
      "Ð°ÑİÑīÐ¸Ðµ": 3314,
      "ÑĢÐ¾Ð¿ÐµÐ¹": 3315,
      "ĠÐľÐ¾ÑĢ": 3316,
      "ÐµÑģÐ°": 3317,
      "ĠÐ½ÐµÐ·Ð°Ð²Ð¸ÑģÐ¸Ð¼": 3318,
      "Â»).": 3319,
      "ip": 3320,
      "ĠÑģÑĤÐ°Ð²": 3321,
      "Ð½Ð¸Ñı": 3322,
      "ĠÐ±Ð¾Ñı": 3323,
      "Ð»Ð¾ÑĢ": 3324,
      "ĠÐľÐ¸Ð½Ð¸ÑģÑĤ": 3325,
      "Ġ1989": 3326,
      "our": 3327,
      "Ð¾Ð·Ð½Ð°Ñĩ": 3328,
      "ens": 3329,
      "ĠÑįÐ»ÐµÐ¼": 3330,
      "35": 3331,
      "Ð¾ÑĢÐ¾Ð½Ðµ": 3332,
      "ĠÐĶÐ»Ñı": 3333,
      "ĠÐĵÐµÐ¾ÑĢ": 3334,
      "Ð°Ð½ÑĤÐ°": 3335,
      "ĠÐ¸Ð´": 3336,
      "ĠÐ¼ÐµÑħÐ°Ð½": 3337,
      "ĠÐŁÑĢÐµÐ´": 3338,
      "ÑİÑīÐ¸Ð¹": 3339,
      "ĠAl": 3340,
      "ĠÑĦÐ¸Ð»Ð¾ÑģÐ¾ÑĦ": 3341,
      "ĠÑĤÑĢÐµ": 3342,
      "Ð¸ÐºÑģ": 3343,
      "Ð»Ð¾ÑģÑĮ": 3344,
      "ÑĥÑĦ": 3345,
      "ĠÐ¾Ð±ÑıÐ·": 3346,
      "ĠÐ¼Ð°ÑĤÑĩÐµ": 3347,
      "ĠÐºÐ°ÑĦÐµÐ´": 3348,
      "ÐµÑģÑĤÑĢÐ°": 3349,
      "ĠÐ³ÐµÑĢÑĨÐ¾Ð³": 3350,
      "Ð¾ÑģÑĤÐ¾ÑĩÐ½Ð¾Ð¹": 3351,
      "ĠÑģÐ²ÑıÑĤ": 3352,
      "ÐłÐ¾Ð´Ð¸Ð»ÑģÑı": 3353,
      "ĠÐ¿ÑĢÐ¾ÑĦÐµÑģÑģÐ¸Ð¾Ð½": 3354,
      "ĠÑģÑĤÑĢÐµÐ»ÐºÐ¾Ð²": 3355,
      "Ġ1942": 3356,
      "ÑıÐ±ÑĢÑĮ": 3357,
      "ÑĳÐ½Ð½Ð¾Ð³Ð¾": 3358,
      "Ð²Ð¾ÑģÑĤÐ¾Ðº": 3359,
      "eb": 3360,
      "ĠÐĴÐµÐ»Ð¸ÐºÐ¾Ð±ÑĢÐ¸ÑĤÐ°Ð½Ð¸Ð¸": 3361,
      "Ð±ÐµÑĢÐ³": 3362,
      "ĠÑĥÐº": 3363,
      "ĠÐ¾Ð±Ñģ": 3364,
      "ĠÐ¿Ð¾Ð·Ð´": 3365,
      "ĠÑĢÐ°Ð·Ð²Ð¸ÑĤÐ¸Ñı": 3366,
      "ĠÐºÐ°Ð½Ð´Ð¸Ð´": 3367,
      "ĠÐĴÐµÑĢÑħÐ¾Ð²Ð½Ð¾Ð³Ð¾": 3368,
      "ĠÐ¾ÑģÐ½Ð¾Ð²Ð½Ð¾Ð¼": 3369,
      "ĠÑĢÐ°Ð·Ð´ÐµÐ»": 3370,
      "Ð¾ÐºÐ¾Ð¼": 3371,
      "Ġ184": 3372,
      "ĠÐ²Ð¾Ð·Ð½Ð¸Ðº": 3373,
      "Ð¸ÑĨÐ¸Ñı": 3374,
      "Ð°ÐºÐ¸": 3375,
      "ĠÐŁÑĢÐ°Ð²": 3376,
      "ĠÑĢÐµÐ¹": 3377,
      "ĠÐºÐ¾Ð½ÑĦ": 3378,
      "ĠÐ¿Ð¾ÑģÐ²ÑıÑī": 3379,
      "ĠÑįÑĤÐ¸": 3380,
      "Ð¸Ð´ÐµÑĢ": 3381,
      "Ð»Ð½": 3382,
      "Ð¾ÑģÐ°": 3383,
      "Ð¾Ð½Ð¸Ð¼": 3384,
      "ĠÐ¿Ð»Ð¾ÑīÐ°Ð´ÑĮ": 3385,
      "ÑģÑĤÐ²ÐµÐ½Ð½ÑĭÐ¹": 3386,
      "ĠÐŁÐ¾Ð»ÑĮÑĪ": 3387,
      "ĠÐŀÐ½Ð°": 3388,
      "ĠZ": 3389,
      "ĠÐ²Ð¾Ð·Ð²ÑĢÐ°Ñī": 3390,
      "Ð¾Ð¸ÑĤ": 3391,
      "ĠÑĢÐ°Ð·Ð»Ð¸ÑĩÐ½ÑĭÑħ": 3392,
      "ÑĦÐ°Ð²": 3393,
      "ĠÑĩÐ°ÑģÑĤÐ½Ð¾ÑģÑĤÐ¸": 3394,
      "ĠÐ¾Ð¿ÑĥÐ±Ð»Ð¸Ðº": 3395,
      "ÑģÑĤÑĢÐ°Ð»": 3396,
      "ĠÑĥÐ²ÐµÐ»Ð¸Ñĩ": 3397,
      "ĠÐ¼ÐµÐ´Ð¸ÑĨ": 3398,
      "ÑĢÐ¸ÑģÑĤÐ¸Ð°Ð½": 3399,
      "ĠÐĺÑĤÐ°Ð»Ð¸Ð¸": 3400,
      "ĠÑģÐ½": 3401,
      "ÑĢÐµÑĪ": 3402,
      "Ð¸ÑĤÐµÐ»ÑĮÐ½Ð¾Ð³Ð¾": 3403,
      "Ð¾ÑĤÐ²Ð¾ÑĢ": 3404,
      "Ð²ÑĳÑĢ": 3405,
      "ĠÐĵÐµÐ½": 3406,
      "Ð°ÑĢÑĤÐµ": 3407,
      "ĠÐ²ÑħÐ¾Ð´Ð¸ÑĤ": 3408,
      "Ð°ÐºÐ°": 3409,
      "ĠÐ½Ð°Ð³ÑĢÐ°Ð¶Ð´": 3410,
      "ÑİÑīÐ¸Ðµ": 3411,
      "ĠÐ³Ð¾Ð½": 3412,
      "ĠÑħÐ¾ÑĤÑı": 3413,
      "ĠÐĳÐ¾Ð»": 3414,
      "ĠÐŀÑĦÐ¸ÑĨÐ¸Ð°Ð»ÑĮÐ½ÑĭÐ¹": 3415,
      "ĠÐºÐ»Ð°Ð´Ð±Ð¸ÑīÐµ": 3416,
      "ĠÐļÐ¾Ð½ÑģÑĤÐ°Ð½ÑĤ": 3417,
      "ĠÐ´Ð¾Ð¿Ð¾Ð»Ð½": 3418,
      "ÑĥÐ¹": 3419,
      "03": 3420,
      "ÐºÐ°Ð¼": 3421,
      "ĠÑįÐ¼": 3422,
      "ok": 3423,
      "ĠÐ¸Ð½ÑģÑĤÐ¸ÑĤÑĥÑĤÐ°": 3424,
      "Ð»Ð»": 3425,
      "Ð¸ÑĤÑĭ": 3426,
      ".<": 3427,
      "Ð½Ð¸ÐºÐ°Ð¼Ð¸": 3428,
      "ÑĤÑĥÑĢÑĭ": 3429,
      "Ð°ÑĢÑĤÐ°Ð¼": 3430,
      "ÑīÐ¸Ðº": 3431,
      "ĠÐĲÐ½Ð´ÑĢÐµ": 3432,
      "ĠÐ²Ð´": 3433,
      "ĠÑĤÐµÐ¼Ð¿ÐµÑĢÐ°ÑĤÑĥÑĢÐ°": 3434,
      "ÑĢÐ¸Ð¿": 3435,
      "ĠÐ½ÐµÑģÐºÐ¾Ð»ÑĮÐºÐ¸Ñħ": 3436,
      "ĠÑģÐ¾Ð²ÐµÑĤÐ°": 3437,
      "ĠÑĢÐ¾Ð´Ð°": 3438,
      "ÐµÐ½Ð¸ÑıÑħ": 3439,
      "ĠÐ¿ÐµÑĢÑģÐ¾Ð½Ð°": 3440,
      "Ð¤Ð¡Ðł": 3441,
      "io": 3442,
      "ĠÐ·Ð´ÐµÑģÑĮ": 3443,
      "ĠÐ²ÐµÑī": 3444,
      "ĠÐ¾Ð±ÑĬÐµÐºÑĤ": 3445,
      "ĠÐĺÐ²Ð°Ð½": 3446,
      "Ð½Ð¾Ð³": 3447,
      "ran": 3448,
      "Ð¸ÑĤÐ°ÑĢ": 3449,
      "ĠÑĦÐ¸Ð½Ð°Ð½Ñģ": 3450,
      "ĠÐ±Ð°ÑģÑģ": 3451,
      "ÑİÐ¶ÐµÑĤ": 3452,
      "04": 3453,
      "ĠÐ»Ð¸Ð½Ð¸Ð¸": 3454,
      "ÑĢÐ¸Ð¸": 3455,
      "ĠÐ¿Ð¾Ð»ÐºÐ¾Ð²": 3456,
      "ĠÐ½Ð¸Ð¼": 3457,
      "Ð¾Ð¶Ð´ÐµÐ½Ð¸Ðµ": 3458,
      "Ð°ÐºÑĥ": 3459,
      "ĠÐľÐµÐ¶Ð´ÑĥÐ½Ð°ÑĢÐ¾Ð´": 3460,
      "Ð¸Ð»Ðµ": 3461,
      "ĠÐĳÐµÐ»Ð¾ÑĢÑĥÑģ": 3462,
      "Ð¾ÑĤÐµ": 3463,
      "ÑģÐµ": 3464,
      "ĠÐļÑĥÐ±ÐºÐ°": 3465,
      "ĠÐłÐ°Ñģ": 3466,
      "ĠÐ±Ð¾Ð»ÑĮÑĪÐ¸Ð½": 3467,
      "ÑģÐ¸": 3468,
      "ĠÐ´Ð¸ÑĢÐµÐºÑĤÐ¾ÑĢ": 3469,
      "ĠÐ´Ð°Ð²": 3470,
      "ĠÐ°Ð»ÑĦÐ°Ð²": 3471,
      "ĠÐ´Ð¾Ð»Ð¶Ð½Ð¾ÑģÑĤÑĮ": 3472,
      "ĠÐ°Ñį": 3473,
      "ĠÐ´Ð¾Ð¼Ð°": 3474,
      "ÑİÑīÐ¸Ñħ": 3475,
      "ÑĢÐ°Ð»Ð°": 3476,
      "ĠÐ¼ÐµÑģÑĤÐµ": 3477,
      "ĠÐ²ÑĭÐ±Ð¾ÑĢ": 3478,
      "ĠÑģÐ¾Ð±ÑĢÐ°Ð½": 3479,
      "ĠÐ»ÐµÐ¹": 3480,
      "ack": 3481,
      "ÑıÐ»Ð°": 3482,
      "ĠÑģÑĤÐ°Ð»Ð¾": 3483,
      "ĠÐ¾ÑĤÑģÑĥÑĤÑģÑĤÐ²": 3484,
      "ĠÐłÐ¡Ð¤Ð¡Ðł": 3485,
      "ĠÐ½Ð°Ð¸Ð±Ð¾Ð»ÐµÐµ": 3486,
      "ĠÐ¸Ð½Ð¶ÐµÐ½": 3487,
      "ĠÑĩÐ»ÐµÐ½Ð¾Ð¼": 3488,
      "Ð°ÐºÐ¾Ð²": 3489,
      "ĠÑģÐ²Ð¾Ð¸Ð¼": 3490,
      "Ð¾ÑĢÑĤÑĥ": 3491,
      "05": 3492,
      "ÐµÐ¹Ð¼": 3493,
      "Ð¸Ð»Ð»ÐµÑĢ": 3494,
      "ÑĩÐ¸": 3495,
      "ĠÐĲÐ»ÐµÐºÑģÐ°Ð½Ð´ÑĢÐ¾Ð²": 3496,
      "ĠÐļÐ¸ÑĢ": 3497,
      "ge": 3498,
      "ĠÐ½Ð°Ð·Ð²Ð°Ð½Ð¸ÐµÐ¼": 3499,
      "ĠÐ¦ÐµÐ½ÑĤÑĢÐ°Ð»ÑĮ": 3500,
      "Ð°Ð»Ð¾Ð¼": 3501,
      "ĠÐŁÑĢÐ¾": 3502,
      "ĠÐ¿Ð¾Ð¿ÑĭÑĤ": 3503,
      "ĠAr": 3504,
      "Ð¸ÑĤÐ¾ÑĢ": 3505,
      "ĠÐ¼Ð¾Ñī": 3506,
      "ĠÐ¿ÑĢÐµÐ²": 3507,
      "ÑĢÑĥÐ´Ð°": 3508,
      "Ð¸Ð¾Ð½Ð°": 3509,
      "Ð»Ð¸ÑģÑĮ": 3510,
      "Ð¸Ð½Ð´": 3511,
      "Ð¡Ð¡": 3512,
      "ĠÑĢÐ°ÑģÐ¿Ð¾Ð»Ð°Ð³": 3513,
      "ĠÑĤÐ°ÐºÐ¸Ñħ": 3514,
      "ĠÐĲÐ½Ð³Ð»": 3515,
      "ĠÐ¸ÑģÐºÑĥÑģÑģÑĤÐ²Ð°": 3516,
      "ÐµÐ²Ð¸Ð´": 3517,
      "ĠÐ¿ÑĢÐ¸Ð½ÑıÑĤ": 3518,
      "ĠÐĿÐ¸ÐºÐ¾Ð»Ð°Ð¹": 3519,
      "Ð»ÐµÐ½Ð¸Ð¹": 3520,
      "Ð¸ÑģÐ»Ð°Ð²": 3521,
      "ÑĨÐ¸ÐºÐ»": 3522,
      "ÑĥÑīÐµÑģÑĤÐ²ÐµÐ½": 3523,
      "Ġ=": 3524,
      "Ð»Ð°Ð·": 3525,
      "ĠPr": 3526,
      "Ð°Ð´Ðµ": 3527,
      "ĠÐ¶Ð¸Ð»": 3528,
      "ĠÑĤÐµÐ¿": 3529,
      "ĠÐ°Ð¼ÐµÑĢÐ¸ÐºÐ°Ð½ÑģÐºÐ¸Ð¹": 3530,
      "ĠÑģÐµÑĤ": 3531,
      "ĠÐ¼ÐµÑĤÐ¾Ð´": 3532,
      "Ð±ÐµÐº": 3533,
      "Ð¾Ð²Ð°Ð²": 3534,
      "ĠÑħÐ¾ÑĢÐ¾ÑĪ": 3535,
      "ĠÑĩÐµÑĤÑĭÑĢÐµ": 3536,
      "ĠÐłÐ°Ð·": 3537,
      "Ð¾ÑħÐ¾Ð·ÑıÐ¹": 3538,
      "34": 3539,
      "ÐµÐ²Ð¾Ð¹": 3540,
      "ĠÑģÐ¾Ð¾ÑĤÐ²ÐµÑĤÑģÑĤÐ²": 3541,
      "ĠÐ¿ÑĢÐ¾ÑģÑĤ": 3542,
      "ĠÑģÐ¸Ð¼Ð²Ð¾Ð»": 3543,
      "ĠÐĴÑĭÑģ": 3544,
      "Ð¸ÑĩÑĤ": 3545,
      "ĠÑħÑĢÐ°Ð¼": 3546,
      "ĠÑĥÑĩÐµÐ½": 3547,
      "ĠÐºÐ°ÑĤÐµÐ³": 3548,
      "ĠÑĥÑģÐ¿ÐµÑħ": 3549,
      "ĠÐļÑĢÐ¾Ð¼Ðµ": 3550,
      "ĠÑĢÐ°Ð¼ÐºÐ°Ñħ": 3551,
      "ĠÐ¸Ð½ÑĤÐµÑĢÐµÑģ": 3552,
      "Ð½Ð¾ÑģÑĤÑĢÐ°Ð½": 3553,
      "ĠÑĤÐµÐ°ÑĤÑĢÐ°": 3554,
      "ĠÐ¿ÑĢÐ¸ÑģÐ¾ÐµÐ´Ð¸Ð½": 3555,
      "01": 3556,
      "ĠÐ¡ÑĤÐ°ÑĢ": 3557,
      "ÑĦÐ°": 3558,
      "ÐµÐ½Ð½Ð¾ÑģÑĤÐ¸": 3559,
      "ĠÐ±Ð¸Ð±Ð»Ð¸Ð¾ÑĤ": 3560,
      "ĠÑĥÑĩÐ°ÑģÑĤÐ²Ð¾Ð²Ð°Ð»": 3561,
      "ĠÑĨÐµÐ»ÑĮ": 3562,
      "ĠÐ¿Ð¾Ð»Ðº": 3563,
      "Ð¸Ð»Ð¸Ð¸": 3564,
      "ĠÐ¿ÐµÑģÐ½Ð¸": 3565,
      "ĠÐ¼ÐµÑģÑĤÐ°": 3566,
      "Ð¶Ð´Ñĭ": 3567,
      "ep": 3568,
      "ĠÑĢÐµÐ¶Ð¸ÑģÑģÑĳÑĢ": 3569,
      "Ð¾Ð²Ð¾Ð»ÑĮ": 3570,
      "Ð°Ð¹ÑĤ": 3571,
      "..": 3572,
      "ÑĪÑĥÑİ": 3573,
      "ĠÐ¿ÐµÐ²": 3574,
      "ÐµÑĢÐµÐ¶": 3575,
      "ĠÐ¼Ð½Ð¾Ð³Ð¸Ñħ": 3576,
      "ĠÑģÐ²Ð¾Ñĳ": 3577,
      "ĠÐ²Ð¾ÑģÑĤÐ¾Ðº": 3578,
      "ÑĢÐ¸Ñı": 3579,
      "ĠÐ»ÐµÑĤÐ½Ð¸Ñħ": 3580,
      "ĠÐĵÐ¾ÑĢ": 3581,
      "//": 3582,
      "ÑĳÐ½Ð½Ð¾Ð¹": 3583,
      "ĠÑģÑĤÐ¸Ñħ": 3584,
      "ĠÑĢÐ¾Ð»Ð¸": 3585,
      "ort": 3586,
      "ĠÐ½Ð¸Ð·": 3587,
      "ne": 3588,
      "ĠÐºÑĥÐ»ÑĮÑĤÑĥÑĢ": 3589,
      "Ð²Ð°Ð½": 3590,
      "ÐµÐ½Ð¸ÑĤ": 3591,
      "02": 3592,
      "com": 3593,
      "Ð¾Ð¿ÐµÐ´": 3594,
      "ĠÑįÑĦÑĦ": 3595,
      "ĠÐ³Ð¾ÑĢÐ¾Ð´ÑģÐºÐ¾Ð³Ð¾": 3596,
      "ĠÐ²Ð¾ÑģÑģÑĤÐ°Ð½Ð¾Ð²": 3597,
      "Ð¸Ð½Ð¸": 3598,
      "Ġ1988": 3599,
      "ĠÐ´ÐµÑıÑĤÐµÐ»ÑĮÐ½Ð¾ÑģÑĤÐ¸": 3600,
      "ĠÐ¿ÐµÑĢÐ²ÑĭÐ¼": 3601,
      "ÐµÐ½ÑģÐºÐ¾Ð³Ð¾": 3602,
      "ĠÐºÑĢÐµÐ¿": 3603,
      "ĠÐĵÐµÐ¾ÑĢÐ³": 3604,
      "ĠÐĴÐ¸ÐºÑĤÐ¾ÑĢ": 3605,
      "ĠÐ¾Ð´Ð½Ð°": 3606,
      "ĠÐ´Ð¾Ð³": 3607,
      "Ð¸ÑĤÐµÐ»ÑĮÐ½ÑĭÑħ": 3608,
      "ĠÑĤÐ¾Ð½": 3609,
      "Ġ(),": 3610,
      "ĠÐ¾ÑĩÐµÑĢÐµÐ´": 3611,
      "ĠÐĴÑħÐ¾Ð´Ð¸ÑĤ": 3612,
      "Ð°Ð½ÑĤÑĭ": 3613,
      "Ð£ÑĩÐ°ÑģÑĤ": 3614,
      "Ð»ÐµÑĢ": 3615,
      "ĠÑģÐ¼Ð¾Ð³": 3616,
      "ĠÐ¿Ð¸ÑģÐ°ÑĤÐµÐ»ÑĮ": 3617,
      "ÑĥÑİÑīÐ¸Ð¹": 3618,
      "Ð¾ÑĨÐ¸": 3619,
      "Ð¿Ð¿": 3620,
      "85": 3621,
      "Ġ1930": 3622,
      "ĠÑĩÐ¸ÑģÐ»Ð¾": 3623,
      "ĠÐ²Ð¾Ð¹Ð½Ðµ": 3624,
      "ĠÐ¸ÑĤÐ°Ð»ÑĮÑıÐ½": 3625,
      "ĠÐ¿ÑĢÐ°Ð²Ð°": 3626,
      "ĠÐŃÑĢ": 3627,
      "ĠÐĴÑĤÐ¾ÑĢÐ¾Ð¹": 3628,
      "Ð¾Ð¿Ð¾Ð»ÑĮ": 3629,
      "ĠÐ¿ÐµÐ´Ð°Ð³Ð¾Ð³": 3630,
      "ĠÐ´Ð²Ð¸Ð³": 3631,
      "Ð½Ð¸ÑĨÑĭ": 3632,
      "ĠâĪĴ": 3633,
      "ĠÑħÑĥÐ´Ð¾Ð¶ÐµÑģÑĤÐ²ÐµÐ½": 3634,
      "ĠÐ¶ÐµÐ»ÐµÐ·Ð½Ð¾Ð´Ð¾ÑĢÐ¾Ð¶": 3635,
      "ĠÑįÐ¿Ð¸Ð·": 3636,
      "Ð²ÐµÑĢÐ´": 3637,
      "ĠÐ¿Ð¾Ð»ÑĥÑĩÐ¸Ð»Ð°": 3638,
      "ÐŁÑĢÐ¾": 3639,
      "ĠÐ¿ÑĢÐ¸ÐºÐ°Ð·": 3640,
      "06": 3641,
      "ĠÐ¸Ð·Ð±ÑĢÐ°Ð½": 3642,
      "ÑĩÐ°ÑĤ": 3643,
      "ÑĭÐ³": 3644,
      "ĠÐ°ÐºÑĤÑĳÑĢ": 3645,
      "Ð°Ð»ÑĮÐ½Ð¾Ð¼": 3646,
      "ĠÐ¿Ð¸ÑģÑĮ": 3647,
      "ĠÐ²ÐµÑĢ": 3648,
      "ÑĳÑĤÑģÑı": 3649,
      "Ð¸Ð½ÑģÐºÐ°Ñı": 3650,
      "ĠÐ½ÐµÑĤ": 3651,
      "ĠÑįÑĤÐ°Ð¿": 3652,
      "ĠÑįÐ½ÐµÑĢÐ³": 3653,
      "ÐļÐ»Ð¸Ð¼Ð°ÑĤ": 3654,
      "ĠÐºÑĢÐ°Ñı": 3655,
      "ib": 3656,
      "ÐºÐ¾Ð½Ñĩ": 3657,
      "ĠÐļÐ°Ð·Ð°ÑħÑģÑĤ": 3658,
      "ĠÑģÑĩÑĳÑĤ": 3659,
      "ĠÐ¾ÑĢÑĥÐ¶": 3660,
      "ĠÑģÐ»ÑĥÑĩÐ°Ðµ": 3661,
      "Ð³Ð¾ÑĢ": 3662,
      "ĠÐ¿ÑĢÐ¸Ð·ÑĳÑĢ": 3663,
      "ĠÐºÑĢÑĥÐ³": 3664,
      "Ġ1920": 3665,
      "ĠÑĥÐ½Ð¸ÑĩÑĤ": 3666,
      "ight": 3667,
      "ĠÐ²ÑĭÑĪÐµÐ»": 3668,
      "ĠÐ¾Ð³ÑĢÐ°Ð½Ð¸Ñĩ": 3669,
      "ĠÐ±Ð°ÑĢ": 3670,
      "ĠÐºÑĥÐ¿": 3671,
      "ĠÑıÐ·ÑĭÐºÐ°": 3672,
      "ĠÑĥÐµÐ·Ð´Ð°": 3673,
      "31": 3674,
      "ĠÑĢÐµÑģÐ¿ÑĥÐ±Ð»": 3675,
      "ĠÐ¿Ð¾Ð»Ð½Ð¾ÑģÑĤÑĮÑİ": 3676,
      "Ð¾ÑĢÐ°Ñħ": 3677,
      "ĠÐĳÐ°Ð»": 3678,
      "ĠÑħÐ¸Ð¼": 3679,
      "Ð¾ÑħÐ¾ÑĢÐ¾Ð½": 3680,
      "ĠÐļÐ°": 3681,
      "ĠÐĴÐ°ÑģÐ¸Ð»ÑĮ": 3682,
      "ĠÑģÐ±": 3683,
      "ÐµÐºÐ¸": 3684,
      "ĠÑĨÐµÑĢÐºÐ¾Ð²ÑĮ": 3685,
      "ĠÐłÐ¸Ð¼": 3686,
      "ĠÐĿÐµ": 3687,
      "ĠÐ¿ÑĢÐ¾Ð¸Ð·Ð¾ÑĪ": 3688,
      "08": 3689,
      "ÑģÐºÐ¸": 3690,
      "ĠÑģÐ¾ÑİÐ·": 3691,
      "ĠÐĹÐ°Ðº": 3692,
      "ÐŁÑĢÐµ": 3693,
      "ĠÐ¸Ð¼ÐµÐ»": 3694,
      "ÐĻÐ¾ÑĢ": 3695,
      "ĠÐ±Ð¸ÑĤ": 3696,
      "ĠÐ´ÐµÑģÑıÑĤ": 3697,
      "Ð¸Ð¿Ð»Ð¾Ð¼": 3698,
      "ĠÐ´Ð½Ñı": 3699,
      "ĠÐ°Ð±": 3700,
      "Ð¿Ð°ÑĢÑħ": 3701,
      "ĠÐ½Ð¾Ñĩ": 3702,
      "ĠUn": 3703,
      "ĠÐ¼ÑĥÐ¶ÑĩÐ¸Ð½": 3704,
      "ĠÐ¿ÑĢÐ°Ð²Ð¾ÑģÐ»Ð°Ð²": 3705,
      "ĠÐ²Ð¾Ð·ÑĢÐ°ÑģÑĤÐµ": 3706,
      "ÑĦÐµÑĢÐµÐ½": 3707,
      "ĠÐºÐ¾ÑĤÐ¾ÑĢÑĥÑİ": 3708,
      "ĠÐ¼Ð½Ð¾Ð¶": 3709,
      "ÐµÐ½ÐµÐ¼": 3710,
      "ĠÐ¿Ð¾Ð³Ð¸Ð±": 3711,
      "ĠÐ¤Ð¸Ð½": 3712,
      "ĠÑģÑĥÐ¿": 3713,
      "ĠÐ¡Ð¾Ð²ÐµÑĤÑģÐºÐ¾Ð³Ð¾": 3714,
      "up": 3715,
      "ĠÐ²Ð°ÑĢÐ¸": 3716,
      "ĠÐ¾ÑģÐ½Ð¾Ð²Ðµ": 3717,
      "ĠÐ¿Ð¾Ð¼Ð¾ÑīÑĮÑİ": 3718,
      "Ð¾Ð½Ñģ": 3719,
      "ÑĭÐ´": 3720,
      "ĠÐ½Ð°Ð¿ÑĢÐ¸Ð¼ÐµÑĢ": 3721,
      "ĠÑĤÑĢÐµÑĤÑĮ": 3722,
      "ĠÐ´Ð¾ÐºÑĤÐ¾ÑĢ": 3723,
      "ĠÑģÑĢÐ°Ð¶": 3724,
      "Ð¸Ð°ÑĤ": 3725,
      "ĠÐ¾Ð±ÑĢÐ°ÑĤ": 3726,
      "ĠÑıÐ¿Ð¾Ð½": 3727,
      "ĠÐ¿ÐµÑħ": 3728,
      "Ð¾ÑħÑĢÐ°Ð½": 3729,
      "ĠÑĦÐ¾ÑĢ": 3730,
      "Ð¸ÑģÑĤÐ°Ð½": 3731,
      "Ð½Ð°Ñħ": 3732,
      "36": 3733,
      "ÐŃÐº": 3734,
      "ĠÑĦÐ°Ð¼": 3735,
      "ĠÑĤÑĳ": 3736,
      "Ð¡Ð¾Ð³Ð»Ð°ÑģÐ½Ð¾": 3737,
      "Ð¸Ð»ÐµÑĤ": 3738,
      "Ð¸ÑıÐ¼Ð¸": 3739,
      "ĠÑĢÐµÑĪÐµÐ½Ð¸Ðµ": 3740,
      "Ġg": 3741,
      "ÑĳÐ³": 3742,
      "ĠÐĲÑĢÑħ": 3743,
      "ÐŁÐ¾Ð»": 3744,
      "ÑĨÐ¸ÐºÐ»Ð¾Ð¿ÐµÐ´": 3745,
      "ĠÐ¿Ð¾Ð»ÑĮ": 3746,
      "37": 3747,
      "ĠÐ´Ð°Ð»ÑĮÐ½ÐµÐ¹": 3748,
      "ĠÐ´ÐµÑĢÐµÐ²Ð½Ð¸": 3749,
      "ĠÐ°Ð»ÑĮÐ±Ð¾Ð¼Ð°": 3750,
      "Ð¸ÑĨÐµÐ¹": 3751,
      "ĠÐ¿ÑĢÐ¸Ð½ÑıÐ»": 3752,
      "Ð¼Ð°Ð¹": 3753,
      "Ð¸Ð²Ð°": 3754,
      "Ð°ÑĢÐº": 3755,
      "ĠÐ¾ÑĦÐ¸ÑĨ": 3756,
      "Ð°ÑĩÐ¸": 3757,
      "ĠÐ³Ð»ÑĥÐ±": 3758,
      "ĠÐŁÐµÑĤÑĢÐ¾Ð²": 3759,
      "ĠÐ¾ÑģÐ²Ð¾Ð±": 3760,
      "ÑĥÐ»Ð°": 3761,
      "ĠÐ½ÐµÐºÐ¾ÑĤÐ¾ÑĢÑĭÑħ": 3762,
      "ÑıÐµÑĤÑģÑı": 3763,
      "ĠÐ¿Ð¾Ð·Ð¶Ðµ": 3764,
      "ĠÐ½Ð°Ð»": 3765,
      "ĠÐ±Ð¾Ð»ÑĮ": 3766,
      "ĠÐĲÐºÐ°Ð´ÐµÐ¼": 3767,
      "38": 3768,
      "ĠÑĥÑĩÑĢÐµÐ¶Ð´": 3769,
      "07": 3770,
      "Ð¸ÑĤÐ¾Ð²": 3771,
      "ĠÐ¿ÑĢÐ¸Ð´": 3772,
      "ÑĢÑĥÑģ": 3773,
      "09": 3774,
      "ĠÑĤÐ¾Ð¿": 3775,
      "ĠÐ»Ð¸ÑĤÐµÑĢÐ°ÑĤÑĥÑĢ": 3776,
      "ĠÐ±Ð°ÑĤÐ°Ð»ÑĮ": 3777,
      "Ð§Ð»ÐµÐ½Ñĭ": 3778,
      "ĠÐ³Ð³": 3779,
      "ÑĩÐ¸ÑģÐ»ÐµÐ½": 3780,
      "ĠÐ·Ð°Ð¼ÐµÐ½": 3781,
      "ÐºÐ°Ð½": 3782,
      "ĠÐ´Ð¸ÑģÐº": 3783,
      "ĠÐ¼Ð°Ñģ": 3784,
      "ex": 3785,
      "ĠÐ¡Ð¸Ð¼": 3786,
      "ĠÑİÐ¶": 3787,
      "ÐµÐ»Ñİ": 3788,
      "Ð°Ð´Ð°ÐµÑĤ": 3789,
      "ĠÐ¼Ð°ÑģÑĤÐµÑĢ": 3790,
      "ĠÑıÐ·ÑĭÐº": 3791,
      "Ġ1950": 3792,
      "ĠÐ¼Ð¸Ð»Ð»Ð¸": 3793,
      "ĠÐľÐ¸ÑħÐ°Ð¸Ð»": 3794,
      "ĠÐ·Ð°ÑĤ": 3795,
      "ĠÐºÐ¾ÑĢÐ¾ÑĤ": 3796,
      "ĠÐ·Ð°Ð²ÐµÐ´": 3797,
      "ĠÐ¶Ð¸Ð²Ð¾ÑĤ": 3798,
      "ww": 3799,
      "ĠÐ£Ñĩ": 3800,
      "ĠÑĤÐ¾Ð³Ð´Ð°": 3801,
      "Ð°ÑģÐ°": 3802,
      "39": 3803,
      "Ð¾Ð»Ñİ": 3804,
      "ĠÐ·Ð°Ð²Ð¾ÐµÐ²": 3805,
      "ĠÐ½Ð°ÑĨÐ¸Ð¾Ð½Ð°Ð»ÑĮÐ½Ð¾Ð¹": 3806,
      "ĠÐ®Ð¶": 3807,
      "Ð¾Ð²Ð°Ð½Ð¸Ð¹": 3808,
      "ĠÐ¿Ð¾Ð¼ÐµÑī": 3809,
      "ĠÑĥÐ½Ð¸ÑĩÑĤÐ¾Ð¶": 3810,
      "Ð±ÐµÑĢ": 3811,
      "ĠÐ£Ð½": 3812,
      "ĠÑģÐµÐ±Ðµ": 3813,
      "ĠÑĨÐ°ÑĢ": 3814,
      "ĠÑģÐµÑĢÐ¸": 3815,
      "ÐºÑĥÐ¿": 3816,
      "ĠÐ·Ð½": 3817,
      "ĠÐ½Ð°ÑģÑĤÑĥÐ¿": 3818,
      "ĠEn": 3819,
      "ĠÐ´ÑĢÐ°Ð¼": 3820,
      "ĠÑĤÑĢ": 3821,
      "ÐºÐ°ÑĤÐµÑĢ": 3822,
      "ĠÐĵÑĢÐ¸Ð³": 3823,
      "ĠÐľÐ¸ÑħÐ°Ð¹Ð»Ð¾Ð²": 3824,
      "ÑĢÐµÐ¼ÐµÐ½Ð½Ð¾": 3825,
      "Ð¾ÑĨ": 3826,
      "ĠÐ´Ð°Ð»": 3827,
      "ĠCom": 3828,
      "ĠÐ¿Ð¾ÑĤÐµÑĢ": 3829,
      "ĠÑĦÐ°ÐºÑĤ": 3830,
      "ĠÑģÐ¿Ð¾ÑĢÑĤÐ¸Ð²": 3831,
      "ĠÐ¼Ð¾Ð»": 3832,
      "Ð¸Ð½ÑģÐºÐ¾Ð¼": 3833,
      "Ġ1940": 3834,
      "ĠÑħÐ¾Ð»Ð¾Ð´": 3835,
      "ĠÑĤÐµÑĢÐ¼": 3836,
      "ĠÐ²ÐµÐ»Ð¸Ðº": 3837,
      "ĠÑĤÑĳÐ¿Ð»": 3838,
      "ÑıÐ³": 3839,
      "ĠÑĤÐ¸ÑĤÑĥÐ»": 3840,
      "ÑħÐ°": 3841,
      "ĠÐ¸ÑģÐºÑĥÑģÑģÑĤÐ²": 3842,
      "64": 3843,
      "ĠÐ¼Ð°ÑĢÑĪ": 3844,
      "ÑıÑĢ": 3845,
      "ĠÐ²ÐµÑĢÑģÐ¸Ð¸": 3846,
      "ÑĢÑĥÑĩ": 3847,
      "ĠÐ²ÐµÐºÐµ": 3848,
      "ĠÑĥÐ±Ð¸Ð¹": 3849,
      "ĠÐ±ÑĥÐ´ÑĥÑī": 3850,
      "ĠÐĺÐ²Ð°Ð½Ð¾Ð²Ð¸Ñĩ": 3851,
      "ĠÐ±ÐµÐ·Ð¾Ð¿Ð°Ñģ": 3852,
      "ĠÐĵÐ°Ð»": 3853,
      "ĠÐŃÑĤ": 3854,
      "Ð°Ð²ÐºÐ°Ð·": 3855,
      "Ð¸Ð»Ð¸Ð¹": 3856,
      "Ġ().": 3857,
      "ÑĢÐµÑĩÐµÑģÐº": 3858,
      "Ġ35": 3859,
      "ÑĨÑĥ": 3860,
      "ich": 3861,
      "ĠÐ²ÐµÑĢÐ½ÑĥÐ»ÑģÑı": 3862,
      "ĠÐºÐ¾Ð´": 3863,
      "ĠÐ´ÑĥÑħÐ¾Ð²": 3864,
      "Ð¸Ð²Ð°ÐµÑĤÑģÑı": 3865,
      "ĠÐºÐ¾Ð¼Ð°Ð½Ð´Ð¸ÑĢ": 3866,
      "ĠÐļÐ°ÑĤ": 3867,
      "Ð°Ð½Ð¾Ð¼": 3868,
      "ĠÐ³Ð¾ÑģÑĥÐ´Ð°ÑĢÑģÑĤÐ²ÐµÐ½Ð½ÑĭÐ¹": 3869,
      "Ð°Ð±Ð¾ÑĤ": 3870,
      "ĠÐ³Ð¾Ð»Ð¾Ñģ": 3871,
      "ĠÐ¾Ð±ÑĢÐ°Ð·Ð¾Ð²Ð°Ð½Ð¸Ðµ": 3872,
      "ĠÐ¸ÑģÑģÐ»ÐµÐ´Ð¾Ð²Ð°Ð½Ð¸Ñı": 3873,
      "ĠÐ½Ð°Ð±Ð»ÑİÐ´": 3874,
      "ĠÑĤÑĭÑģ": 3875,
      "ĠÐ¼Ð»Ð°Ð´": 3876,
      "ĠÐ½Ð°Ð¹": 3877,
      "ĠSp": 3878,
      "Ð»ÐµÐ½Ð¸Ñİ": 3879,
      "ĠÑģÑĢÐ°Ð²Ð½": 3880,
      "ĠÑĢÐ°Ð½ÐµÐµ": 3881,
      "ÐµÐºÐ¾Ð¼": 3882,
      "ĠÐĲÐ»ÐµÐºÑģÐ°Ð½Ð´ÑĢÐ°": 3883,
      "ĠÐ²Ð½ÐµÑĪ": 3884,
      "Ġ1987": 3885,
      "ĠÐ½ÐµÐºÐ¾ÑĤÐ¾ÑĢÑĭÐµ": 3886,
      "Ð¸Ð²ÑĪÐ¸Ð¹": 3887,
      "ĠÐ¸Ð½Ð¾ÑģÑĤÑĢÐ°Ð½": 3888,
      "ĠÐ½ÐµÐ¾Ð±ÑħÐ¾Ð´Ð¸Ð¼": 3889,
      "ĠÐŀÐ½Ð¸": 3890,
      "Ð¾Ð²Ð°ÑĢ": 3891,
      "ĠÑįÐºÐ·": 3892,
      "ĠÑĢÑĥÐºÐ¾Ð²Ð¾Ð´ÑģÑĤÐ²Ð¾Ð¼": 3893,
      "Â»),": 3894,
      "ĠÐ¿Ð¾ÑģÐº": 3895,
      "ĠÐłÐ¤": 3896,
      "Ð°ÑĨÐ¸Ñı": 3897,
      "ÑĩÑĳÑĤ": 3898,
      "ĠÐ¿ÐµÑĢÐ²ÑĭÑħ": 3899,
      "ÐµÐ½Ð¸ÑıÐ¼Ð¸": 3900,
      "ĠÐ¼ÐµÐ»": 3901,
      "ÑĥÐºÐ¾Ð²": 3902,
      "ĠÑģÐ¾Ð·Ð´Ð°Ð½": 3903,
      "ive": 3904,
      "ÐĲÐĿ": 3905,
      "ĠÐ¿ÑĢÐ¾Ð¸ÑģÑħ": 3906,
      "ÐµÐ½ÑģÐºÐ¾Ð¹": 3907,
      "Ð½Ð¸Ñİ": 3908,
      "Ġ1986": 3909,
      "ĠÐĵÐ¾Ð»": 3910,
      "ity": 3911,
      "ĠÐłÐ¾Ð¼": 3912,
      "ĠÐºÐ¾Ð¼Ð¿Ð°Ð½Ð¸Ñı": 3913,
      "ĠÐĴÐ°ÑĢ": 3914,
      "Ð°Ð¼Ð°": 3915,
      "Ġ1985": 3916,
      "Ġ1939": 3917,
      "ĠÐ³Ð°Ð»": 3918,
      "ÑĭÐ²Ð°": 3919,
      "ÑĳÑĢÑĭ": 3920,
      "ĠÐ°Ð»ÑĦÐ°Ð²Ð¸ÑĤÑĥ": 3921,
      "ĠÐ¿ÑĢÐ¾Ð²ÑĳÐ»": 3922,
      "75": 3923,
      "ĠÐ¿Ð¾ÑĢÑıÐ´": 3924,
      "ÐļÐĲ": 3925,
      "ĠÐļÐ°Ðº": 3926,
      "ĠÐ¼Ð¸Ð½ÑĥÑĤ": 3927,
      "ĠÑĥÑģÐ¿ÐµÑĪ": 3928,
      "ĠÑĦÐµÐ´ÐµÑĢÐ°": 3929,
      "Ð±Ð¸Ð½": 3930,
      "ĠÐ²Ð¸Ð´Ð¾Ð²": 3931,
      "ĠÐĺÐ½ÑģÑĤÐ¸ÑĤÑĥÑĤ": 3932,
      "ÐŁÑĢÐµÐ´": 3933,
      "ĠÐ¿Ð¾ÑĢÐ°Ð¶": 3934,
      "Ð¼Ð¾ÑĢ": 3935,
      "ĠÐľÐ°Ð½": 3936,
      "ĠÐ¿Ð¾ÑģÐºÐ¾Ð»ÑĮÐºÑĥ": 3937,
      "ÐµÐ»ÐµÐ½": 3938,
      "ĠÐ¼Ð¸Ðº": 3939,
      "ĠÐ¿Ð¾ÑģÑĳÐ»Ð¾Ðº": 3940,
      "Ð°Ð´Ð¶": 3941,
      "ĠÐ¸Ð¼Ð¿ÐµÑĢÐ°ÑĤÐ¾ÑĢ": 3942,
      "ĠÑĢÐ°ÑģÑģÑĤÐ¾ÑıÐ½Ð¸Ð¸": 3943,
      "ĠÑĤÑĢÐ°Ð²": 3944,
      "Ġ+": 3945,
      "ĠÑģÑĤÐ°Ð´": 3946,
      "ĠÐ½Ð¾Ð²ÑĭÐ¹": 3947,
      "ĠÑĥÑģÑĤÑĢÐ¾Ð¹": 3948,
      "ĠÑĢÐ°ÑģÐº": 3949,
      "ĠÐĹÐµÐ¼": 3950,
      "end": 3951,
      "45": 3952,
      "ry": 3953,
      "ĠÐļÐ°ÑĢÐ°": 3954,
      "ĠÑĥÐ¿Ð¾Ð¼Ð¸Ð½": 3955,
      "ĠÐ¿ÑĢÐ¾Ð³ÑĢÐ°Ð¼Ð¼": 3956,
      "Ð¤ÑĥÑĤ": 3957,
      "Ð¾Ð¿ÑĢ": 3958,
      "ĠÑģÐµÐ»ÑĮÑģÐ¾Ð²ÐµÑĤÐ°": 3959,
      "ĠÐĽÐ¾Ð½Ð´": 3960,
      "ÐĺÑģÑĤ": 3961,
      "ÑįÐ¼": 3962,
      "ĠÐ¶ÑĥÑĢÐ½Ð°Ð»Ð¸ÑģÑĤ": 3963,
      "ĠÐºÑĢÐ°Ð¹": 3964,
      "ĠÐ¼Ð½Ð¾Ð³Ð¸Ðµ": 3965,
      "ĠÐ´Ð²Ð¸Ð¶ÐµÐ½Ð¸Ñı": 3966,
      "ÑĥÐ°": 3967,
      "Ð»ÑĥÐ¶ÐµÐ½Ð½ÑĭÐ¹": 3968,
      "ĠÑģÐ¾Ð»Ð´": 3969,
      "Ġ1984": 3970,
      "ĠÐĶÐ¾": 3971,
      "ĠÐľÐ¾ÑģÐºÐ²Ñĭ": 3972,
      "ĠÑģÐµÐ·Ð¾Ð½": 3973,
      "ÑĥÐ»ÑĮÐ¿": 3974,
      "ĠÐ¿Ð¾ÑģÑĤÐ°Ð½Ð¾Ð²": 3975,
      "ĠÐ¿ÐµÑĢÐµÐ¼": 3976,
      "ĠÐĽÐµÐ½Ð¸Ð½Ð³ÑĢÐ°Ð´": 3977,
      "ĠÑģÐ¾Ð¾ÑĢÑĥÐ¶": 3978,
      "ĠÑĪÐ°Ñħ": 3979,
      "ĠÐ±Ð¾Ð»ÑĮÑĪÐ¾Ð¹": 3980,
      "ĠÐ¸Ð¼ÐµÑİÑĤ": 3981,
      "ĠÐ¡ÐµÑĢÐ³ÐµÐ¹": 3982,
      "Ð¾Ð²Ð°Ð½Ð°": 3983,
      "ĠÑĩÐµÑĤÑĭÑĢÑĳÑħ": 3984,
      "ĠÐ½Ð°ÑģÐµÐ»ÐµÐ½Ð¸Ðµ": 3985,
      "ĠÐ¤ÑĳÐ´": 3986,
      "ĠÐĵÐ°ÑĢ": 3987,
      "ĠĠĊ": 3988,
      "Ð°Ð»ÑĮÐ½ÑĭÐ¼": 3989,
      "Ð¼Ð°ÑĤÑĢÐ¸Ð²": 3990,
      "ĠÑģÐ°Ð¼Ð¾": 3991,
      "Ġ179": 3992,
      "ÐŁÐ¾Ð´": 3993,
      "ÑİÐ½": 3994,
      "ĠÐºÐ¾ÑģÐ¼": 3995,
      "Ð¿Ð°ÑĢÐ°ÑĤ": 3996,
      "ĠÑģÐ¿Ð¾ÑĢÑĤÐ°": 3997,
      "ĠÐ¡ÐµÑĢ": 3998,
      "ĠÑĢÐµÐºÐ°": 3999,
      "ĠÐºÐ¾Ð½ÑĨÐ°": 4000,
      "ĠÐºÐ¾ÑĢÐ¾Ð»ÑĮ": 4001,
      "ĠÑĢÐ°Ðº": 4002,
      "ĠÐŀÑģÑĤ": 4003,
      "ĠÐ¿ÑĢÐ¸Ð¾Ð±": 4004,
      "ÐĵÐ¾ÑĢÐ¾Ð´": 4005,
      "Ð¼Ð¸Ð½": 4006,
      "ÐµÐ»Ð»": 4007,
      "ĠÑĢÐ°Ð·Ð¼ÐµÑĢ": 4008,
      "ĠÐ´Ð²ÑĥÐ¼": 4009,
      "ĠÐ´ÑĢÑĥÐ³Ð¾Ð¹": 4010,
      "ÐºÐ¸Ð½Ð°": 4011,
      "Ġ1918": 4012,
      "ĠÑĪÐºÐ¾Ð»Ð°": 4013,
      "ĠÐ¿ÑĢÐ¾Ð²Ð¸Ð½ÑĨÐ¸Ð¸": 4014,
      "ÑĥÑİÑīÐ¸Ñħ": 4015,
      "ÑĳÐ¶": 4016,
      "ÑĥÐºÑĤ": 4017,
      "ĠÑģÐ°Ð¼ÑĭÑħ": 4018,
      "ĠÐľÐ¾ÑģÐºÐ¾Ð²ÑģÐºÐ¾Ð¹": 4019,
      "ĠÑģÐ°Ð¼Ð¾Ð»ÑĳÑĤ": 4020,
      "ÑĥÑİÑīÐ¸Ðµ": 4021,
      "ĠÐ²Ð¾Ð¹ÑģÐºÐ°": 4022,
      "ĠÐ°ÑĢÐµÑģÑĤ": 4023,
      "ĠÐ¿ÑĢÐµÐ¿Ð¾Ð´Ð°Ð²": 4024,
      "Ð»ÑıÐµÑĤ": 4025,
      "ĠÑģÑĨÐµÐ½Ð°ÑĢ": 4026,
      "ÑĢÐ¾Ð³": 4027,
      "ĠÐ´ÐµÑĢÐµÐ²Ð½Ðµ": 4028,
      "ÐµÐ½Ð½Ð¾Ð¼": 4029,
      "ÑħÐ¾Ð·": 4030,
      "ĠÐ¾Ð±Ð²Ð¸Ð½": 4031,
      "ĠÐĵÐµÑĢÐ¾Ð¹": 4032,
      "áĥ": 4033,
      "ĠÑģÑĤÐ°ÑĤÑĥÑģ": 4034,
      "ÑģÑĤÐ²ÐµÐ½Ð½ÑĭÑħ": 4035,
      "ÑĭÐ²Ð°ÑİÑĤ": 4036,
      "ÑĥÑı": 4037,
      "32": 4038,
      "Ð´ÐµÑĢ": 4039,
      "ĠÐºÐ¾ÑĢÐ¿ÑĥÑģ": 4040,
      "ĠÐ°Ð²Ð¸Ð°ÑĨÐ¸Ð¾Ð½": 4041,
      "tp": 4042,
      "ĠIV": 4043,
      "ÐµÐ½Ð½ÑĥÑİ": 4044,
      "ies": 4045,
      "ÑĭÐ²Ð°Ð»": 4046,
      "ĠÐ¼Ð¾ÑģÑĤ": 4047,
      "ast": 4048,
      "ĠÑģÐ»Ð°Ð²": 4049,
      "ĠÐ½ÑĳÐ¼": 4050,
      "ĠÐ²Ð½Ð¸Ð¼": 4051,
      "ĠÐ´Ð¾ÑģÑĤÑĥÐ¿": 4052,
      "ĠÐ¼ÐµÑģÑıÑĨÐ°": 4053,
      "ÐļÐ¾Ð½": 4054,
      "ĠÐ´Ð¾Ð»Ð»": 4055,
      "Ð°ÑĤÐ¸": 4056,
      "ÑĢÑĥÐ±": 4057,
      "Ð½ÐµÑĢ": 4058,
      "Ð»Ð°Ð½Ð´Ð¸Ð¸": 4059,
      "ÑĪÐ°": 4060,
      "ĠÐ·Ð°ÑħÐ²Ð°ÑĤ": 4061,
      ">Â«": 4062,
      "ÐµÐ²ÑģÐºÐ¾Ð³Ð¾": 4063,
      "Ð¾ÑģÑĤÑĢÐ¾": 4064,
      "ĠÐĶÐ¾Ð¼": 4065,
      "ĠÑĥÐ´Ð°Ð»Ð¾ÑģÑĮ": 4066,
      "ĠÐ¿ÑĢÐ¾Ñĩ": 4067,
      "Ð¸ÑĩÐ½Ð¾": 4068,
      "65": 4069,
      "ÑĤÐ°Ñħ": 4070,
      "Ð²ÐµÑĢÐ³": 4071,
      "ĠÐĶÑį": 4072,
      "ÑĤÐ¸Ð½Ð³": 4073,
      "ĠÐĿÐ¸ÐºÐ¾Ð»Ð°": 4074,
      "ĠÐ¾ÑĤÐ²": 4075,
      "ĠÐ¯Ð¿Ð¾Ð½Ð¸Ð¸": 4076,
      "Ġ1917": 4077,
      "ĠÐºÐ¾Ð¼Ð¿Ð»ÐµÐºÑģ": 4078,
      "ĠÐ·Ð°Ð½ÑıÐ»": 4079,
      "âĢĵ": 4080,
      "ĠÐ¿ÑĢÐµÐ´ÐµÐ»": 4081,
      "Ð°ÑĤÐ°ÑĢ": 4082,
      "ĠÐºÐ¾Ð»Ð¾Ð½": 4083,
      "ĠÐ¿ÑĢÐµÐ·Ð¸Ð´ÐµÐ½ÑĤ": 4084,
      "ĠÐĴÐ¸Ð»ÑĮ": 4085,
      "ĠÐ¿ÑĢÐ¸ÑģÑĥÑĤÑģÑĤÐ²": 4086,
      "Ð½Ð¾Ð²ÑĢÐµÐ¼ÐµÐ½Ð½Ð¾": 4087,
      "ĠÑĤÐ°ÐºÐ¸Ðµ": 4088,
      "Ð¾ÑĢÑĥÐ´": 4089,
      "ÑģÐ¾Ð²": 4090,
      "ĠÐºÑĢÐµÑģÑĤÑĮÑıÐ½": 4091,
      "ÑĥÑĢÐ³Ð°": 4092,
      "ain": 4093,
      "Ð°ÑĨ": 4094,
      "ĠÐ½Ð°Ð¿Ð°Ð´": 4095,
      "ĠÐ¿ÑĢÐ°Ð²Ð¾": 4096,
      "ÑıÑĤÐ¾": 4097,
      "Ð¿Ð¾Ð·": 4098,
      "ĠÐµÐ²ÑĢÐ¾Ð¿ÐµÐ¹": 4099,
      "ĠÐ¿ÐµÑĢÐµÑħÐ¾Ð´": 4100,
      "ĠÐĲÐ·ÐµÑĢÐ±Ð°Ð¹Ð´Ð¶": 4101,
      "ĠÐ¤Ð¸Ð»Ð¸": 4102,
      "Ð¸Ð¶ÐµÐ½Ð¸Ñı": 4103,
      "ĠÐķÐºÐ°ÑĤÐµÑĢ": 4104,
      "ĠÐ¾Ð±Ð¾Ð·Ð½Ð°Ñĩ": 4105,
      "ĠÐ³ÑĢÑĥÐ·": 4106,
      "ĠÑĤÐµÐ¾ÑĢ": 4107,
      "ĠÐĳÐ¾ÑĢÐ¸Ñģ": 4108,
      "Ð¸ÑģÑĤÐ¸ÐºÐ°": 4109,
      "Ð°ÑİÑīÐµÐ¹": 4110,
      "Ð´Ð¾Ð²": 4111,
      "Ð¸Ð½Ð¸Ð¼": 4112,
      "ĠÐ¼Ð¸ÑĢÐµ": 4113,
      "Ð½Ð¸ÑĤ": 4114,
      "Ð¾ÑģÑı": 4115,
      "Ð·Ðµ": 4116,
      "ĠÐ¾ÐºÐ¾Ð½ÑĩÐ°Ð½Ð¸Ñı": 4117,
      "http": 4118,
      "ÐĵÐ£": 4119,
      "Ð°Ð¼ÑıÑĤÑĮ": 4120,
      "ĠÐºÐ¾Ð½ÑĤÑĢÐ°ÐºÑĤ": 4121,
      "ĠÐ¿ÑĢÐ¸ÑģÐ²Ð¾": 4122,
      "://": 4123,
      "ĠÐ½Ð°ÑģÑĤ": 4124,
      "ĠÑĥÐµÐ·Ð´": 4125,
      "ĠÐ´ÐµÐ¹ÑģÑĤÐ²Ð¸Ñı": 4126,
      "ĠÐµÐ¹": 4127,
      "ĠÐ²ÑģÐµÐ¼": 4128,
      "Ð²Ð¾Ð¹": 4129,
      "Ð°Ð²Ð»Ð¸Ð²": 4130,
      "ÐµÐ½ÑģÐºÐ¸Ð¹": 4131,
      "ĠÐºÐ½Ð¸Ð³Ð¸": 4132,
      "ĠÑĢÐ°Ð±Ð¾ÑĤÐµ": 4133,
      "ĠÐ¼ÐµÐ½ÑĮ": 4134,
      "ĠÑĦÐ¸Ð»ÑĮÐ¼Ðµ": 4135,
      "Ð»ÑıÐµÑĤÑģÑı": 4136,
      "ĠÐ¿ÑĢÐ¾Ð¸Ð·Ð²Ð¾Ð´ÑģÑĤÐ²Ð°": 4137,
      "ÑģÐ¾Ð¼": 4138,
      "Ð¸Ð²ÑĪÐ¸ÐµÑģÑı": 4139,
      "ĠÐŀÐ±Ñī": 4140,
      "ĠÐĺÑģÐ¿Ð°Ð½Ð¸Ð¸": 4141,
      "Ġ1979": 4142,
      "88": 4143,
      "ĠÐĿÐ°Ð¿": 4144,
      "Ð°Ð½Ð¸Ð¼": 4145,
      "Ð¿ÑĢÐµ": 4146,
      "ĠÑĥÐ´Ð°ÑĢ": 4147,
      "ÑĨÐ¸ÑĦ": 4148,
      "Ġ60": 4149,
      "ĠÐ·ÐµÐ¼Ð»Ð¸": 4150,
      "ĠÐ¿Ð¾ÑĤÐ¾Ð¼": 4151,
      "ÑĢÐµÐ½Ð¸Ñı": 4152,
      "ĠMar": 4153,
      "ĠÑĪÐºÐ¾Ð»Ðµ": 4154,
      "ĠÐ¿Ð»ÐµÐ¼": 4155,
      "ĠÐĺÐ»ÑĮ": 4156,
      "--": 4157,
      "ĠÐ±Ð»Ð°Ð³Ð¾Ð´Ð°ÑĢÑı": 4158,
      "sp": 4159,
      "ĠÐ½Ð¾Ð²Ð¾Ð³Ð¾": 4160,
      "ĠÐºÐ¾ÑĤÐ¾ÑĢÑĭÐ¼": 4161,
      "ĠÐ´Ð¾Ð»Ð¶ÐµÐ½": 4162,
      "ĠÐ¿Ð¾ÑįÑĤÐ¾Ð¼Ñĥ": 4163,
      "ĠÐ¼Ñĭ": 4164,
      "ĠÐ½Ð¾ÑıÐ±": 4165,
      "Ġ1982": 4166,
      "ÐŀÑģÐ½Ð¾Ð²": 4167,
      "ĠÐ¿Ð°Ð»": 4168,
      "ÑĨÐµÐ½ÑĤ": 4169,
      "ĠÑģÐµÑĢÐµÐ±ÑĢÑı": 4170,
      "ont": 4171,
      "Ð¿Ð¾Ð»Ð°Ð³": 4172,
      "The": 4173,
      "ĠÑĥÐ¿ÑĢÐ°Ð·Ð´Ð½": 4174,
      "ĠÑĥÐ½Ð¸Ð²ÐµÑĢÑģÐ¸ÑĤÐµÑĤÐµ": 4175,
      "Ġ1976": 4176,
      "Ġ1983": 4177,
      "ĠÐ´Ð¾ÑĩÑĮ": 4178,
      "ÑįÐ»ÑĮ": 4179,
      "Ð¸Ð´Ñĭ": 4180,
      "33": 4181,
      "ĠÐ²Ð·Ð°": 4182,
      "ĠÐ¾Ð±ÑĭÑĩÐ½Ð¾": 4183,
      "ĠÐºÐ¾Ð»Ð»ÐµÐºÑĤ": 4184,
      "Ð¾Ð²Ð°Ð½Ñĭ": 4185,
      "ĠÐ³Ð¾ÑģÑĥÐ´Ð°ÑĢÑģÑĤÐ²Ð°": 4186,
      "Ð¿ÐµÑĢ": 4187,
      "ĠÑįÐ¿Ð¸Ð·Ð¾Ð´": 4188,
      "Ð²Ð°ÑĢÐµ": 4189,
      "ĠÑģÐ¸Ð½Ð³": 4190,
      "ĠÐ¾ÑĢÐ³Ð°Ð½Ð¸Ð·Ð°": 4191,
      "ind": 4192,
      "ĠÐ¿Ð¾Ð²ÐµÑĢÑħ": 4193,
      "ĠÑĤÐ°Ð¹": 4194,
      "ĠÑĢÐµÐ¼": 4195,
      "ÑĮÐµÐ²": 4196,
      "Ġ1975": 4197,
      "ĠÐĹÐ²": 4198,
      "ÑĳÑģ": 4199,
      "ĠÑĢÐ°ÑģÑĪÐ¸ÑĢ": 4200,
      "Ð¾Ð°Ð½": 4201,
      "ĠÐ¨ÑĤ": 4202,
      "Ð°Ð²ÑĪÐ¸Ñħ": 4203,
      "ĠÐ¾ÑģÐ°Ð´": 4204,
      "Ð°ÑıÑģÑĮ": 4205,
      "ÐĶÐ¾ÑģÑĤ": 4206,
      "ĠÐļÐŁÐ¡Ð¡": 4207,
      "ĠÑĢÐµÑĩ": 4208,
      "ĠÐ»Ð¸Ð±Ð¾": 4209,
      "ĠÐ²ÐºÐ»ÑİÑĩÐ°Ñı": 4210,
      "Â»;": 4211,
      "ÑĥÑĢÑĥ": 4212,
      "Ġ1968": 4213,
      "ĠÐ¦ÐµÑĢ": 4214,
      "sk": 4215,
      "ĠÐĿÐ¸Ð¶": 4216,
      "ĠÐ¾Ð±Ð»Ð°Ð´": 4217,
      "ĠÐ¿ÑĢÐ¾ÑĤÑıÐ¶": 4218,
      "ĠÐ¾Ð±ÑĢÐ°Ñī": 4219,
      "ĠÐ½ÐµÐ¿ÑĢ": 4220,
      "Ġ1972": 4221,
      "ĠÐ·Ð°ÑĢ": 4222,
      "ĠÐļÐ¾Ð½ÑģÑĤÐ°Ð½ÑĤÐ¸Ð½": 4223,
      "ĠÑĥÑĢÐ¾Ð²Ð½ÐµÐ¼": 4224,
      "ĠÐ¿ÑĢÐ¾ÐµÐºÑĤÐ°": 4225,
      "ÑĢÐ¸ÑģÐ°": 4226,
      "Ġ1981": 4227,
      "ÑĥÑģÑĤÑı": 4228,
      "ĠÑģÑĥÐ±": 4229,
      "ĠÐ±Ð°ÑģÑģÐµÐ¹": 4230,
      "ass": 4231,
      "ĠÑģÐ²Ð¸Ð´": 4232,
      "ĠÐºÐ¾Ð¼Ð°Ð½Ð´Ð°": 4233,
      "Ð¾ÑİÐ·": 4234,
      "ĠÐľÐ¸Ð½Ð¸ÑģÑĤÐµÑĢ": 4235,
      "ĠÐ¿ÑĢÐµÑģÑĤÑĥÐ¿": 4236,
      "ĠÑĤÑĢÐ°Ð½ÑģÐ¿Ð¾ÑĢÑĤ": 4237,
      "ĠÐĽÐµÐ¾Ð½": 4238,
      "ĠÐ¿ÑĢÐ¾Ð¸ÑģÑħÐ¾Ð´Ð¸ÑĤ": 4239,
      "ĠÐ²Ð»Ð¸ÑıÐ½Ð¸Ðµ": 4240,
      "ĠÐ½Ñĭ": 4241,
      "ĠÐ»Ð¸Ð³": 4242,
      "Ġh": 4243,
      "Ð»Ð¾ÑĤÐ°": 4244,
      "Ð»ÐµÑĩ": 4245,
      "ĠÑģÐ¾ÑĤÑĢÑĥÐ´Ð½Ð¸Ñĩ": 4246,
      "ÐľÑĥÐ·": 4247,
      "Ð¸Ð¹ÑģÐºÐ°Ñı": 4248,
      "ĠÐ²Ð¾Ð·Ð´ÑĥÑħÐ°": 4249,
      "ĠÐĽÑĮ": 4250,
      "44": 4251,
      "ĠÐ²ÐµÐ´ÑĥÑī": 4252,
      "Ð¸ÑģÑĤÐ°": 4253,
      "Ð¸ÑĢÑĥÐµÑĤ": 4254,
      "ĠÑģÐ¾Ð·Ð´Ð°Ð½Ð¸Ñı": 4255,
      "ĠÐ¿Ð¾Ñį": 4256,
      "ĠÐ¿ÐµÑĢÐµÑĪÑĳÐ»": 4257,
      "ÑĥÐ½Ð°": 4258,
      "ĠÐ½Ð¾Ð²ÑĭÑħ": 4259,
      "ĠÐºÐ¾Ð½ÑĨÐµÑĢÑĤ": 4260,
      "ĠÐºÐ½Ð¸Ð³": 4261,
      "ĠÐŁÐ¾Ð±ÐµÐ´": 4262,
      "Ġ1973": 4263,
      "Ð»Ð°Ð±": 4264,
      "ĠÑģÐ°Ð¼ÑĭÐ¼": 4265,
      "ĠÑħÑĥÐ´Ð¾Ð¶Ð½Ð¸Ðº": 4266,
      "ĠÐ±ÑĢÐ¾Ð½Ð·": 4267,
      "ĠÑĪÑĤÐ°ÑĤ": 4268,
      "ĠÐ¿ÑĢÐ¾Ðº": 4269,
      "Ð¸ÐºÐ¾Ð¼": 4270,
      "ÐµÑĢÐ¾ÑıÑĤ": 4271,
      "ĠÐ¯Ð½": 4272,
      "ĠÐ¾ÑĤÑĢÑıÐ´": 4273,
      "ĠÑĦÐµÑģÑĤÐ¸Ð²": 4274,
      "ĠÑĩÑĳÑĢ": 4275,
      "Ð¿Ð¸ÑģÐ°Ð½Ð¸Ðµ": 4276,
      "ĠÐĿÐ°ÑģÐµÐ»": 4277,
      "Ð°Ð»Ñı": 4278,
      "ĠÑıÐ²": 4279,
      "ĠÐ¿Ð°": 4280,
      "ĠÐĲÐ¹": 4281,
      "ĠÐ²ÑĭÑģÑĤÑĥÐ¿Ð°Ð»": 4282,
      "ĠÐºÐ¾ÑĢÐ¾Ð»Ñı": 4283,
      "Ġ1978": 4284,
      "ĠÐ¡Ð²ÑıÑĤÐ¾Ð³Ð¾": 4285,
      "ĠÑģÐ¾Ð³Ð»Ð°Ñģ": 4286,
      "Ð½ÑİÑİ": 4287,
      "ĠÐ¼Ð°Ð½": 4288,
      "Ð²ÐµÐ¹ÑĨ": 4289,
      "ĠÐ³Ð¸Ð¼": 4290,
      "ĠÐĽÐµÐ½Ð¸Ð½Ð°": 4291,
      "ĠÐ¿Ð¾Ð´ÑĤ": 4292,
      "ĠÐ´ÑĢÑĥÐ³Ð¸Ð¼Ð¸": 4293,
      "ĠÑģÐ²ÑıÑī": 4294,
      "ĠÐ±Ð»Ð°Ð³": 4295,
      "Ð¸ÑĩÐµÑģÐºÐ¸Ð¼Ð¸": 4296,
      "ĠÐ´Ð¸Ð¿Ð»Ð¾Ð¼": 4297,
      "ĠÐ¡ÐŁ": 4298,
      "ĠÐľÐ°ÑĢÑĤ": 4299,
      "Ð¸Ð·Ð²ÐµÑģÑĤ": 4300,
      "ĠÐĺÑģ": 4301,
      "Ð³Ð»Ñı": 4302,
      "ĠÑģÑħ": 4303,
      "ĠÐºÐ¾ÑĢÐ¿ÑĥÑģÐ°": 4304,
      "ĠÐºÑĥÐ»ÑĮ": 4305,
      "ĠÑĢÑĥÑģÑģÐºÐ¸Ð¹": 4306,
      "Ð¸ÑĢÐ¾Ð²Ð°Ð½Ð°": 4307,
      "Ġ1965": 4308,
      "1945": 4309,
      "89": 4310,
      "ÑĢÐ°Ð¼Ð°": 4311,
      "Ã¼": 4312,
      "ĠÑĤÑĢÐµÐ½ÐµÑĢ": 4313,
      "Ð°Ð½ÑģÐºÐ°Ñı": 4314,
      "ĠÐ¼ÐµÑĩ": 4315,
      "ĠÐŁÐ°Ð»": 4316,
      "86": 4317,
      "Ð¸Ð¹ÑģÐºÐ¾Ð¼": 4318,
      "ĠÐ·Ð²Ð°Ð½Ð¸Ðµ": 4319,
      ".).": 4320,
      "Ð¾Ð½Ñĥ": 4321,
      "ĠÐĴÐ¾Ð·": 4322,
      "ÑĮÑİÑĤÐµÑĢ": 4323,
      "ert": 4324,
      "ĠÐºÑĢÐ¾Ð²": 4325,
      "ÑıÑģÑĮ": 4326,
      "Ð¾Ð»Ð½Ñı": 4327,
      "ĠÑħÐ¾Ðº": 4328,
      "ĠÐ³Ð¾ÑĤÐ¾Ð²": 4329,
      "ĠÑĪÐºÐ¾Ð»Ñĥ": 4330,
      "ĠÐºÐ»Ð°ÑģÑģÐ°": 4331,
      "ĠÐ½ÐµÑĳ": 4332,
      "ĠÐŁÑĢÐµÐ¼": 4333,
      "Ð¸Ð´ÐµÑĢÐ»Ð°Ð½Ð´": 4334,
      "Ð»Ð°Ð¼ÐµÐ½ÑĤ": 4335,
      "ĠÑģÐ¿ÐµÐºÑĤ": 4336,
      "ĠÐºÐ°ÑĢÑĮÐµÑĢÑĥ": 4337,
      "ĠÐºÐ°Ð²Ð°Ð»": 4338,
      "ĠÐµÐ¿Ð°ÑĢÑħ": 4339,
      "ĠÐľÑĥÐ·": 4340,
      "ĠÐ´Ð¸ÑģÑģ": 4341,
      "ĠÐ°ÑģÑĤ": 4342,
      "ĠÐ´Ð¾ÑĢÐ¾Ð³Ð¸": 4343,
      "ĠÐ¿ÐµÑĢÐµÐ½": 4344,
      "ĠÐ¿ÐµÑĢÐµÐ¸Ð¼ÐµÐ½": 4345,
      "ust": 4346,
      "Ð¾ÑģÑĤÐ°Ð½": 4347,
      "Ð£Ð¼ÐµÑĢ": 4348,
      "ĠÐ±ÐµÑģÐ¿": 4349,
      "Ð¾Ð»Ðµ": 4350,
      "ĠÐ¿Ð¾ÑĤÑĢÐµÐ±": 4351,
      "ĠÐ¾ÑĤÐ½Ð¾ÑĪÐµÐ½Ð¸Ñı": 4352,
      "Ð¸Ð½ÑĮ": 4353,
      "76": 4354,
      "ĠÐ²ÑĢÐ°Ñĩ": 4355,
      "ĠÐºÑĥÑĢÑģ": 4356,
      "Ð°ÑĤÐµÐ»ÑĮÐ½Ð¾": 4357,
      "ĠÐĳÑĢÐ°Ð·": 4358,
      "Ð±Ð¸ÑĤ": 4359,
      "Ð¡ÐµÐ¼": 4360,
      "ĠÑģÐ»ÑĥÐ¶Ð±Ñĭ": 4361,
      "ĠÐ¸Ð½ÑģÑĤÑĢÑĥ": 4362,
      "Ð»ÑĥÐ³Ð¸": 4363,
      "ĠÐ±Ñİ": 4364,
      "ĠÐ¼Ð°ÐºÑģÐ¸Ð¼": 4365,
      "ĠÐ´Ð¾Ð»Ð¶Ð½Ð¾ÑģÑĤÐ¸": 4366,
      "ÑĤÐ¾Ñĩ": 4367,
      "ÑĢÐ¾ÑĤ": 4368,
      "ĠÐ²ÑĭÐ´ÐµÐ»": 4369,
      "Ġ1974": 4370,
      "ÐºÐ¸Ð¼Ð¸": 4371,
      "ĠÐ¿Ð¾Ð¼Ð¾Ð³": 4372,
      "ĠÐ¾ÑĤÐµÑĨ": 4373,
      "ÑĳÐ½Ð½Ð°Ñı": 4374,
      "Ð»Ð¸Ð½Ð³": 4375,
      "ang": 4376,
      "ĠÑĤÐ°Ð½ÐºÐ¾Ð²": 4377,
      "ĠÐĽÐ¸ÑĤ": 4378,
      "ĠÐ¾ÑģÑĤÑĢÐ¾Ð²Ð°": 4379,
      "ĠÑĦÑĥÑĤÐ±Ð¾Ð»Ñĥ": 4380,
      "ÑĩÐ¸Ð½Ñĭ": 4381,
      "ĠÑģÐ¸Ð»Ñĭ": 4382,
      "ĠÐ½Ð°ÑĥÐºÐ¸": 4383,
      "ĠÑįÑĤÐ¸Ð¼": 4384,
      "ĠÑĢÐ°Ð·ÑĢÑĥÑĪ": 4385,
      "ĠÐ¿ÐµÑĢÐ²Ð¾Ð¼": 4386,
      "ĠÑĥÑĩÐ°ÑģÑĤÐ½Ð¸Ðº": 4387,
      "ÑĢÑĥÑĤ": 4388,
      "Ġ000": 4389,
      "Ð°Ð·Ð²": 4390,
      "84": 4391,
      "ÑĢÐ°Ð·Ñĥ": 4392,
      "ĠÑĦÐ¸Ð³": 4393,
      "ĠÐ²ÑģÐµÐ¹": 4394,
      "Ð°ÑĢÐ°Ð½": 4395,
      "ĠÐ´Ð°Ð½Ð½ÑĭÑħ": 4396,
      "ĠÑĢÐ°Ð·Ð²ÐµÐ´": 4397,
      "ĠÐķÐ²Ð³": 4398,
      "Ð£ÑĩÐ°ÑģÑĤÐ½Ð¸ÐºÐ¸": 4399,
      "ĠÑĨÐµÐ»ÑĮÑİ": 4400,
      "ĠÐ±Ð¾Ð¹": 4401,
      "ĠÑģÐµÐ¼ÑĮÐ¸": 4402,
      "ĠÐ¿Ð¾Ð´Ð¾Ð±": 4403,
      "ÑĥÑĢÐ½Ð¸ÑĢ": 4404,
      "ĠÐĲÐ½Ð³Ð»Ð¸Ð¸": 4405,
      "ĠÐ³Ð»Ð°Ð²Ð½ÑĭÐ¼": 4406,
      "ĠÐ¼Ð½ÐµÐ½Ð¸Ñİ": 4407,
      "ÐµÐ´Ð¸Ð½Ðµ": 4408,
      "Ð°ÑģÑģÐ°Ð¶": 4409,
      "Ð¾Ð½Ð¾Ñģ": 4410,
      "Ð¸Ð²Ð°Ð»": 4411,
      "ĠÐ§ÐµÑħ": 4412,
      "ÐŁÐµÑĢÑģÐ¾Ð½": 4413,
      "ĠÐ¾ÑĤÐ¼ÐµÑĤ": 4414,
      "ÑĢÑĥÐ¿Ð¿Ð°": 4415,
      "ĠÐŁÑĢÐ¾ÑĦ": 4416,
      "ĠÐĽÐ°ÑĤ": 4417,
      "ĠÑģÐµÐ½ÑĤÑıÐ±ÑĢÐµ": 4418,
      "ÐºÑĥÑĤ": 4419,
      "ĠÑıÐ½Ð²Ð°ÑĢÐµ": 4420,
      "Ġ1977": 4421,
      "ĠÐ·Ð°ÐºÐ¾Ð½Ñĩ": 4422,
      "ĠÐĲÑĤ": 4423,
      "ÐºÐ¾Ð¿": 4424,
      "ĠÐ¿Ð»Ð°Ð²": 4425,
      "Ð»ÑıÐ½Ð´": 4426,
      "ĠÑĢÑı": 4427,
      "ĠTh": 4428,
      "ÐµÑģÑģÐ°": 4429,
      "Ð¸ÐºÐ¾Ð¹": 4430,
      "ĠÐĹÐ°ÑĤÐµÐ¼": 4431,
      "Ð°Ð»ÑĮÐ½ÑĥÑİ": 4432,
      "ÐºÐ¾Ð²ÑģÐºÐ¾Ð³Ð¾": 4433,
      "Ġ1938": 4434,
      "ĠÑħÑĢÐ°Ð½": 4435,
      "90": 4436,
      "Ġ1966": 4437,
      "Ð¸Ð³Ð¸Ð¾Ð·": 4438,
      "ĠÐ¿ÑĢÐ¸Ð²Ð¾Ð´": 4439,
      "Ġ1971": 4440,
      "ÑĨÐµÐ¼": 4441,
      "ĠÑĩÐµÐ¼Ð¿Ð¸Ð¾Ð½Ð°ÑĤ": 4442,
      "ĠÐ°ÑĢÑħÐ¸ÑĤÐµÐºÑĤ": 4443,
      "ĠÐ¾Ð±Ð¾ÑĢÐ¾Ð½Ñĭ": 4444,
      "ÑĢÐ°Ð½Ð°": 4445,
      "Ð¸ÑģÑĤÐ¸ÐºÐ¸": 4446,
      "Ð¾Ð·Ð²": 4447,
      "ĠÐ¿ÑĢÐµÐ´Ð¾ÑģÑĤÐ°Ð²": 4448,
      "ÑĢÐ¾ÑģÐ»Ð°Ð²": 4449,
      "ĠÑĩÐ°ÑģÑĤÑĮÑİ": 4450,
      "Ġ1937": 4451,
      "ÑĢÐ°Ð·Ð´ÐµÐ»": 4452,
      "ĠÐ¼Ð°Ðµ": 4453,
      "ĠÐ¼Ð¸Ð½Ð¸Ð¼": 4454,
      "ĠÐĴÐ¸ÑĤ": 4455,
      "ĠÐ´Ð°ÑĤ": 4456,
      "ĠÑģÐ¾ÑģÑĤÐ¾Ð¸ÑĤ": 4457,
      "ĠÐ¸ÑģÐ¿ÑĭÑĤ": 4458,
      "ĠÐĿÐ°ÑĢÐ¾Ð´": 4459,
      "ĠÐ´Ð¸Ñģ": 4460,
      "ĠÑĢÐ°ÑģÐ¿Ð¾Ð»Ð¾Ð¶ÐµÐ½": 4461,
      "ĠÑģÐ²Ð¸Ð´ÐµÑĤ": 4462,
      "Ð½ÑĭÐ½Ðµ": 4463,
      "Ð¸Ð²Ð°ÑĤÑĮ": 4464,
      "ÑģÑĤÐ¸ÑĤÑĥ": 4465,
      "ĠÐ´Ð¾Ð»Ð»Ð°ÑĢÐ¾Ð²": 4466,
      "ĠÐĲÐ²ÑģÑĤÑĢÐ°Ð»": 4467,
      "ĠÑĦÑĥÑĤÐ±Ð¾Ð»ÑĮ": 4468,
      "ica": 4469,
      "ĠÐ¥Ð°ÑĢ": 4470,
      "ĠÑģÑĭÐ³ÑĢÐ°Ð»": 4471,
      "ÐºÐ¸Ð¿": 4472,
      "ĠÐ·Ð´Ð°Ð½Ð¸Ñı": 4473,
      "Ð°ÑĤÐ¾ÑĢÐ°": 4474,
      "ĠÐ½ÐµÑĦ": 4475,
      "ÐĺÑģÑĤÐ¾Ñĩ": 4476,
      "ĠÐ´ÐµÑĢÐ¶": 4477,
      "ĠÑĩÑĥÐ²": 4478,
      "Ð¸ÑĢÐ°ÑĤ": 4479,
      "Ð²Ñĥ": 4480,
      "ĠÑĢÐ°Ð·ÑĢÐµÑĪ": 4481,
      "ĠÐĲÐ½ÑĤÐ¾Ð½": 4482,
      "ÐºÐ¾Ð»ÑĮ": 4483,
      "Ð¸Ð¾Ð½Ñĭ": 4484,
      "ĠÐ¼Ð°ÑĢÑĤÐµ": 4485,
      "ÑĭÐ²Ð°ÑĤÑĮ": 4486,
      "Ġ1967": 4487,
      "ĠÐ¿ÑĢÐ¸ÑĤ": 4488,
      "ĠÐ²ÑĤÐ¾ÑĢÐ¾Ð³Ð¾": 4489,
      "ĠÑģÐ¾ÑĢÐµÐ²Ð½Ð¾Ð²Ð°Ð½Ð¸Ñı": 4490,
      "Ð»ÑĮÐ½Ð¾Ð³Ð¾": 4491,
      "Ð°Ð´ÑĮ": 4492,
      "Ð°Ð½Ð¸ÐµÐ¹": 4493,
      "55": 4494,
      "ĠÑģÐ¸ÑģÑĤÐµÐ¼Ð°": 4495,
      "Ð¸ÑĤÐ¸": 4496,
      "ĠÐ¾Ð¿ÐµÑĢÐ°ÑĨÐ¸Ð¸": 4497,
      "ĠÑģÐ½Ð¾Ð²Ð°": 4498,
      "ĠÐ²Ð¾Ð»Ð¾ÑģÑĤÐ¸": 4499,
      "ĠÑįÑģÑĤ": 4500,
      "Ġ1964": 4501,
      "ÑĳÐ·Ð´": 4502,
      "ÐµÐ³Ð´Ð°": 4503,
      "Ð¸Ð½ÐµÐ½ÑĤ": 4504,
      "ĠÐ¿ÐµÑĢÐµÐµÑħ": 4505,
      "ĠÑĤÐ°Ð±": 4506,
      "ĠÐ²Ð¾Ð·Ð¼Ð¾Ð¶Ð½Ð¾ÑģÑĤÑĮ": 4507,
      "ĠÐ½Ð°ÑĪ": 4508,
      "ĠÐºÑĤÐ¾": 4509,
      "ĠÐºÐ²Ð°ÑĢÑĤ": 4510,
      "Ð¼Ð°ÑĢ": 4511,
      "ĠÑıÑĢ": 4512,
      "ĠÐĽÐµÐ²": 4513,
      "ĠÐ´Ð¾ÐºÑĥÐ¼ÐµÐ½ÑĤ": 4514,
      "ĠÐ´Ð²ÑĥÐ¼Ñı": 4515,
      "ÐµÐ³Ð¾ÑģÑı": 4516,
      "ÑĦÐ¸Ð»ÑĮÐ¼": 4517,
      "Ð³Ð¸Ð¿": 4518,
      "ĠÐ¡ÐµÐ½": 4519,
      "ĠSh": 4520,
      "ĠÐºÐ¾Ð¼Ð¼ÑĥÐ½Ñĭ": 4521,
      "ĠÐ³Ð¸Ð´": 4522,
      "ĠÐ¾ÑĤÑĨÐ°": 4523,
      "ĠÐ¢ÐµÐ¼": 4524,
      "ÐµÑĢÐµÐ²Ð½Ñı": 4525,
      "ĠÐĺÐ¼Ð¿": 4526,
      "Ġ1959": 4527,
      "Ð¾ÑģÐ»Ð¾Ð²": 4528,
      "ĠÑģÐ¾Ð³Ð»Ð°ÑģÐ½Ð¾": 4529,
      "ĠÐĿÐ°ÑģÐµÐ»ÐµÐ½Ð¸Ðµ": 4530,
      "74": 4531,
      "ĠÐ´Ð¾Ð±Ð°Ð²": 4532,
      "ÑĢÐ°Ð½Ñĭ": 4533,
      "ĠÑģÐ»ÑĥÐ¶Ð±Ñĥ": 4534,
      "ÑĤÐ¾ÑĢÑĭ": 4535,
      "ÐµÑĢÐ°Ð¼Ð¸": 4536,
      "ĠÑĢÐµÐ·ÑĥÐ»ÑĮÑĤÐ°ÑĤÐ°Ð¼": 4537,
      "ÑĤÐµÐ½Ð°Ð½ÑĤ": 4538,
      "ÑĤÐ¸Ð²": 4539,
      "ÐºÐ²": 4540,
      "ĠÐ¿Ð¾ÑıÐ²Ð»Ñı": 4541,
      "ÐµÐºÐ°Ð½": 4542,
      "ĠÐŀÐ¿": 4543,
      "ÑģÑĤÐµÑĢ": 4544,
      "Ð¸ÐºÐ°ÑĨÐ¸Ñı": 4545,
      "Ð¾ÑĩÐ½ÑĭÐ¹": 4546,
      "Ð¸ÑĤÐµÐ»ÑıÐ¼Ð¸": 4547,
      "ĠÐ²ÐµÑģÑĮ": 4548,
      "ĠÐ¡ÐµÐ²ÐµÑĢÐ½Ð¾Ð¹": 4549,
      "ĠÐ¿ÑĢÐ¾Ð¸Ð·Ð²ÐµÐ´ÐµÐ½Ð¸Ñı": 4550,
      "ĠÐ¾ÑĤÐ½Ð¾ÑģÐ¸ÑĤÑģÑı": 4551,
      "ĠÐ²ÐµÑĩ": 4552,
      "ÐłÑĥÑģ": 4553,
      "ĠÑĩÐ°ÑģÐ¾Ð²": 4554,
      "ĠÐŁÐµÑĢÐ²Ð¾Ð¹": 4555,
      "Ġ1963": 4556,
      "ĠÐºÑĢÑĥÐ¿Ð½ÐµÐ¹": 4557,
      "ĠÐºÐ½ÑıÐ¶": 4558,
      "ÐºÐ¾Ðµ": 4559,
      "ĠÐ¿ÑĢÑıÐ¼Ð¾Ð¹": 4560,
      "Ð¾ÑģÑĤÑĮÑİ": 4561,
      "ĠÐ²Ð¾ÐµÐ²": 4562,
      "ĠÐ·Ð½Ð°Ð¼": 4563,
      "ĠÐ²Ð¸Ð·": 4564,
      "ÑģÐ¸Ð¸": 4565,
      "Ð¼Ð»Ð½": 4566,
      "Ð¸ÑĤÐµÐ»ÑĮÐ½Ð¾Ðµ": 4567,
      "Ġ1969": 4568,
      "ÑģÑĤÐ°Ð½": 4569,
      "ĠÐ¿ÑĢÐ¸ÑĢÐ¾Ð´": 4570,
      "man": 4571,
      "ĠÐŃÐ´": 4572,
      "ÐµÐ»Ñĳ": 4573,
      "ĠÐĲÐ·Ð¸Ð¸": 4574,
      "ĠÑĤÐ¾Ð¼Ñĥ": 4575,
      "ĠÐĵÑĢÐµ": 4576,
      "ĠÐ¸Ð¼ÐµÐ½Ð½Ð¾": 4577,
      "ĠÐ´Ð»": 4578,
      "ore": 4579,
      "ĠÐ¿ÑĢÐµÐ´ÑģÑĤÐ°Ð²Ð»ÑıÐµÑĤ": 4580,
      "ĠÐ¼ÑĥÐ·ÐµÐ¹": 4581,
      "ĠÐ°Ð²Ð³ÑĥÑģÑĤÐµ": 4582,
      "Ð²ÐµÑĤÐ°": 4583,
      "ĠÐ»Ð¸Ð´": 4584,
      "ĠÐ´ÐµÐºÐ°Ð±ÑĢÐµ": 4585,
      "ĠÑģÐ±Ð¾ÑĢÐ½ÑĥÑİ": 4586,
      "ĠÐ¸ÑģÐ¿Ð¾Ð»ÑĮÐ·Ð¾Ð²Ð°Ð»": 4587,
      "ĠÐ¾ÐºÑĤÑıÐ±ÑĢÐµ": 4588,
      "ĠÐ³Ð²Ð°ÑĢÐ´ÐµÐ¹": 4589,
      "ĠÑģÐ¾ÑģÑĤÐ°Ð²Ð»ÑıÐ»Ð¸": 4590,
      "Ð¸ÑĢÐ¾Ð²Ð°Ð½Ð½ÑĭÐµ": 4591,
      "ĠÐµÐ´Ð¸Ð½ÑģÑĤÐ²ÐµÐ½": 4592,
      "ĠÐłÐ¾ÑģÑģÐ¸Ñı": 4593,
      "ĠÐ·Ð°Ð³": 4594,
      "ond": 4595,
      "ĠÐ£Ð¸Ð»ÑĮ": 4596,
      "ĠÑĥÐ»Ð¸ÑĨÑĭ": 4597,
      "ĠÐ¿ÑĢÐ¾ÑĤÐ¸Ð²Ð½Ð¸ÐºÐ°": 4598,
      "ÐŀÑĢ": 4599,
      "ĠAm": 4600,
      "Ð°Ð½Ð´Ð°": 4601,
      "ĠÑĤÐ²Ð¾ÑĢÑĩ": 4602,
      "ĠÐºÐ¾Ð¿": 4603,
      "ĠÐ¼Ð°ÑĤÑĩÐµÐ¹": 4604,
      "ĠÐ¿ÐµÑĢÐ²ÑĭÐµ": 4605,
      "ĠÐ½Ð°Ð½": 4606,
      "ĠÐ¿ÑĢÐ¾ÑģÑĤÑĢÐ°Ð½": 4607,
      "ĠÐľÐ¾ÑģÐºÐ¾Ð²ÑģÐºÐ¾Ð³Ð¾": 4608,
      "Ð¸ÑĨÐ¸Ð¹": 4609,
      "ĠÑĢÐ°Ð·Ð½ÑĭÑħ": 4610,
      "ĠÐ¿Ð¾ÑģÐµÐ»ÐµÐ½Ð¸Ðµ": 4611,
      "ÑĥÑİÑĤÑģÑı": 4612,
      "ĠÑĤÑİ": 4613,
      "ĠÑĢÐ°Ð·Ð²Ð¸ÑĤÐ¸Ðµ": 4614,
      "Ð°Ð½Ð´Ð°ÑĢÑĤ": 4615,
      "Ġ978": 4616,
      "Ð¾Ð¼Ð±Ð°ÑĢÐ´": 4617,
      "ĠÐ¾Ð²": 4618,
      "ĠÐ²Ð²ÐµÐ´": 4619,
      "bo": 4620,
      "ĠÐ²ÑģÐºÐ¾ÑĢÐµ": 4621,
      "ĠÐ²Ð·Ð°Ð¸Ð¼": 4622,
      "Ġ1946": 4623,
      "ĠÐ°ÑĢÑĤÐ¸ÑģÑĤ": 4624,
      "ĠBl": 4625,
      "ĠÐºÐ¾Ð¼Ð¸ÑĤÐµÑĤÐ°": 4626,
      "ĠÐ¿Ð¾Ð²ÑĭÑĪ": 4627,
      "ĠÐ·Ð´Ð°Ð½Ð¸Ðµ": 4628,
      "ĠÐ²Ð¿Ð¾ÑģÐ»ÐµÐ´ÑģÑĤÐ²Ð¸Ð¸": 4629,
      "ĠÐ°ÑĢÑĤÐ¸Ð»Ð»ÐµÑĢ": 4630,
      "ĠÐ±Ð°Ð½": 4631,
      "Ð¸Ð³Ð¸Ð½": 4632,
      "ĠÑģÐ¸ÑĤÑĥ": 4633,
      "Ġ45": 4634,
      "ey": 4635,
      "ÐŁÐµÑĢÑģÐ¾Ð½Ð°Ð»Ð¸Ð¸": 4636,
      "ĠÐļÐ¾Ð³Ð´Ð°": 4637,
      "ÐºÐ¾Ð¼Ð°": 4638,
      "ÑĤÐ°Ð½": 4639,
      "ĠÐŁÐ°ÑĢÐ¸Ð¶": 4640,
      "ÐµÑĢÐ¸Ð¼": 4641,
      "ĠÐ¿ÑĥÑĤÐ¸": 4642,
      "ĠÐºÐ¾Ð¼Ð°Ð½Ð´Ñĥ": 4643,
      "Ð³ÐµÐ½ÑĤ": 4644,
      "ÑĤÐµÑĢÐ½": 4645,
      "ĠÐ¸ÑģÐ¿Ð¾Ð»ÑĮÐ·ÑĥÐµÑĤÑģÑı": 4646,
      "ĠÐĳÑĭ": 4647,
      "ĠÐ¿ÑĤ": 4648,
      "Ð½ÑĥÐ¶Ð´": 4649,
      "ung": 4650,
      "Ð°Ð»Ð¸ÑĦ": 4651,
      "ÐµÑĤÐ¾Ð¼": 4652,
      "ĠÐ¾ÑĤÐ»Ð¸ÑĩÐ¸Ðµ": 4653,
      "ÐµÐ½Ð½ÑĭÐ¼Ð¸": 4654,
      "ĠÐ²ÑĭÑĢÐ°Ð¶": 4655,
      "Ġ1958": 4656,
      "ĠÐŁÐ°ÑĤ": 4657,
      "79": 4658,
      "Ġ1956": 4659,
      "ĠÐ¿Ð¾Ð´ÑĩÐ¸Ð½": 4660,
      "ĠÐĲÑĦÑĢ": 4661,
      "ÑĢÐ°Ð»Ð¸": 4662,
      "ĠÑģÐ¿ÑĢÐ°Ð²": 4663,
      "ĠÐ´ÐµÐ¿Ð°ÑĢÑĤÐ°Ð¼": 4664,
      "ĠÐ¼Ð¸ÑĤ": 4665,
      "ĠÐ¾Ð´Ð½Ð¾Ð¼": 4666,
      "ÐŀÐ´": 4667,
      "ĠÐļÐ¾ÑģÑĤ": 4668,
      "46": 4669,
      "ĠÐºÐ¸ÑĤÐ°Ð¹": 4670,
      "ĠÐ¿Ð¾Ð¼Ð¾ÑīÐ¸": 4671,
      "ĠÑįÐ¿Ð¾Ñħ": 4672,
      "ĠÐ²ÑĭÐ¿ÑĥÑģÑĤ": 4673,
      "ĠÐ»ÑĳÐ³": 4674,
      "ĠÐ¼Ð°ÑĤÐµÐ¼Ð°ÑĤ": 4675,
      "ĠÐ²Ð¸Ð½": 4676,
      "ĠÐ²Ð¾ÑģÑĤÐ¾Ñĩ": 4677,
      "Ð°ÑĤÐ¾Ð»": 4678,
      "ÑĢÐ¾Ð¶": 4679,
      "Ð°Ð»Ð¸Ñı": 4680,
      "ÑĤÐ°Ð¹": 4681,
      "ĠÐ¶ÐµÐ½ÑīÐ¸Ð½Ñĭ": 4682,
      "ĠÑģÐ°Ð´": 4683,
      "ĠÑģÐ¿Ð¸Ñģ": 4684,
      "ĠÑĩÐ¸ÑģÐ»ÐµÐ½": 4685,
      "ĠÑĤÐ¾Ð»": 4686,
      "ld": 4687,
      "Ð¾ÐºÐ¸": 4688,
      "ĠÐ½Ð°ÑħÐ¾Ð´Ð¸Ð»ÑģÑı": 4689,
      "ÐµÐ»ÑĮÐ³": 4690,
      "Ġ1962": 4691,
      "ÑĭÐ´ÑĥÑī": 4692,
      "ĠÐłÐ¾ÑģÑĤ": 4693,
      "Ġ1919": 4694,
      "ĠÐ¶Ð¸Ð²Ð¾Ð¿": 4695,
      "ĠÐŀÑģÐ½Ð¾Ð²": 4696,
      "ĠÐ´Ð¾Ð»Ð¶Ð½Ñĭ": 4697,
      "48": 4698,
      "ĠÐ²ÑĭÐ½ÑĥÐ¶Ð´": 4699,
      "ĠÑĢÐ¾Ð¼Ð°Ð½": 4700,
      "ĠÐ¿ÐµÑĢÑģÐ¾Ð½Ð°Ð¶": 4701,
      "Ð¾ÐºÐ¾Ð»": 4702,
      "ĠÐĲÐ²ÑģÑĤÑĢ": 4703,
      "Ð¾ÑĢÐ´Ð¶": 4704,
      "ÐµÑģÑĤÐ²Ð¾Ð¼": 4705,
      "ÐµÑģÐ¼Ð¾ÑĤÑĢÑı": 4706,
      "ĠÐ¶ÑĥÑĢÐ½Ð°Ð»Ð°": 4707,
      "ect": 4708,
      "Ð¸Ð½ÑģÐºÐ¸Ñħ": 4709,
      "ĠÑģÐ¾ÑģÑĤÐ°Ð²Ð»ÑıÐ»Ð¾": 4710,
      "ĠÑĤÑĥÑĢÐ½Ð¸ÑĢÐ°": 4711,
      "Ġ1961": 4712,
      "ĠÐłÐ°Ð´": 4713,
      "ĠÑģÐ¿Ð¸ÑģÐº": 4714,
      "Ð¸Ð·Ð´": 4715,
      "ĠÐ¿Ð»Ð¾ÑĤ": 4716,
      "ÑĪÐ¸Ð¼Ð¸": 4717,
      "ĠÐ½Ð¾ÑĢÐ¼": 4718,
      "Ġ;": 4719,
      "Ð°Ð½Ð½Ð°Ñı": 4720,
      "ĠÐŁÐ¾Ð¼": 4721,
      "ĠÐ¿Ð¾Ð»Ð¾Ð¶ÐµÐ½Ð¸Ðµ": 4722,
      "ĠÑģÐ²Ð¾ÑĳÐ¼": 4723,
      "ĠÐ¿ÑĢÐ¸Ð»": 4724,
      "ĠÑģÐ»Ð¾Ð²Ð°": 4725,
      "ĠÐ¿ÑĢÐµÐ¸Ð¼": 4726,
      "ÑĥÑīÐµÑģÑĤÐ²ÐµÐ½Ð½Ð¾": 4727,
      "ĠÐ¸ÑİÐ»Ðµ": 4728,
      "Ð°Ð¼Ð¿": 4729,
      "ĠÐ´ÑĥÑĪ": 4730,
      "ĠÑģÑĤÐ°Ð½Ð¾Ð²Ð¸ÑĤÑģÑı": 4731,
      "ĠNew": 4732,
      "ÑĢÑĥÐ½": 4733,
      "Ð¾Ð²ÑģÐºÐ¾Ð¼": 4734,
      "Ð¸Ð·Ð²Ð¾Ð´": 4735,
      "ĠÐ¿ÑĢÐ°Ð²Ð¸ÑĤÐµÐ»ÑĮÑģÑĤÐ²Ð°": 4736,
      "Ð°Ð¼ÐµÑĢ": 4737,
      "ĠÐ¿ÐµÑĢÐ¸Ð¾Ð´Ð°": 4738,
      "ĠÐ¾ÑģÐ¾Ð±ÐµÐ½Ð½Ð¾": 4739,
      "ĠÐ±ÐµÐ·Ð¾Ð¿Ð°ÑģÐ½Ð¾ÑģÑĤÐ¸": 4740,
      "ĠÑģÐµÑĢÐµÐ´Ð¸Ð½Ðµ": 4741,
      "ĠÐ²ÑĭÐ·Ð²": 4742,
      "Ġ1948": 4743,
      "Ð´Ð¸Ð¸": 4744,
      "66": 4745,
      "ĠÑģÑĤÐ°Ð½ÑĨÐ¸Ñı": 4746,
      "ÑĢÐµÐ´ÐµÐ»Ñı": 4747,
      "ĠÑģÐ¿ÐµÑĨÐ¸Ð°Ð»Ð¸ÑģÑĤ": 4748,
      "ĠÐ»Ð°ÑĤ": 4749,
      "Ð½Ð¸ÐºÐµ": 4750,
      "Ð¾Ð³Ð»Ð°ÑĪ": 4751,
      "ĠÐ¿ÐµÑħÐ¾ÑĤ": 4752,
      "ĠÐ´ÐµÐ±ÑİÑĤÐ¸ÑĢÐ¾Ð²Ð°Ð»": 4753,
      "ĠÐĲÑħ": 4754,
      "ĠÐ¿Ð»Ð¾": 4755,
      "ĠÐ½Ð¸Ð¶": 4756,
      "Ð±Ð¸Ð»": 4757,
      "ÑĢÐµÑī": 4758,
      "ĠÐ¡Ð¾Ð±": 4759,
      "ÐľÐ°ÑĢ": 4760,
      "ĠÐ¿ÑĢÐ¾Ð³": 4761,
      "ĠÑģÑĦÐ¾ÑĢÐ¼": 4762,
      "ÑĭÐ¶": 4763,
      "ĠÑĩÐµÑĤÐ²ÑĳÑĢ": 4764,
      "ĠÐ´Ð¸ÑģÑģÐµÑĢÑĤÐ°": 4765,
      "ÐµÐ²ÑģÐºÐ¸Ð¹": 4766,
      "77": 4767,
      "ĠÐ¿ÑĢÐµÐ¾Ð±ÑĢÐ°Ð·": 4768,
      "ĠÐºÐ¸Ð»Ð¾Ð¼ÐµÑĤÑĢÐ¾Ð²": 4769,
      "ÐµÐµÐ²Ð¸Ñĩ": 4770,
      "Ð¸ÑĥÐ¼Ð°": 4771,
      "ue": 4772,
      "ĠÐ¿ÑĢÐ¸Ð½ÑĨÐ¸Ð¿": 4773,
      "Ð¿Ð°Ð½Ð¸Ð¸": 4774,
      "ĠÐ¿ÐµÑģÐ½Ñı": 4775,
      "ĠÐŁÐ¾Ð·": 4776,
      "ĠÑģÐ¾ÑģÑĤÐ¾ÑıÐ½Ð¸Ñİ": 4777,
      "ĠÐĲÐ½ÑĤ": 4778,
      "az": 4779,
      "ĠÐ±Ð»Ð¾Ðº": 4780,
      "ĠÑįÑĤÑĥ": 4781,
      "Ġ1926": 4782,
      "ĠÑħÑĢÐ¸ÑģÑĤÐ¸Ð°Ð½": 4783,
      "ĠÐ¿ÐµÑĢÐ²ÑĥÑİ": 4784,
      "ĠÐ²Ð¾Ð´Ñĭ": 4785,
      "ĠÐ½Ð¾Ð²Ð¾Ð¹": 4786,
      "ÑĢÐ¾ÑĪ": 4787,
      "ĠÐ¡Ð°Ð»": 4788,
      "ĠÐ²ÑĭÑĪÐ»Ð°": 4789,
      "Ġst": 4790,
      "ĠBo": 4791,
      "ĠÑģÐºÑĥÐ»ÑĮÐ¿": 4792,
      "ĠÐ¿ÑĢÐ¾Ð´ÑİÑģ": 4793,
      "olog": 4794,
      "Ġ1957": 4795,
      "Ð°Ð½Ð¾Ð²Ð°": 4796,
      "ĠÐ´Ð¾ÑģÑĤÐ°ÑĤÐ¾Ñĩ": 4797,
      "ĠÐ´ÑĢÑĥÐ³Ð¸Ð¼": 4798,
      "ĠÐºÐ°ÑĤÐµÐ³Ð¾ÑĢÐ¸Ð¸": 4799,
      "ĠÑĤÑĢÐ°Ð´Ð¸ÑĨÐ¸Ð¾Ð½": 4800,
      "ÑĢÐ°Ð´Ð°": 4801,
      "ĠÐºÐ°Ð´": 4802,
      "ÐµÑĢÐ°Ð»ÑĮ": 4803,
      "ĠXVIII": 4804,
      "ĠÐ»ÑİÐ´Ð¸": 4805,
      "ĠÐ¿ÑıÑĤÑĮ": 4806,
      "ĠÐ¼ÐµÑĢ": 4807,
      "ÐļÐ¾ÑĢ": 4808,
      "ĠÑģÑĢÐµÐ´ÑģÑĤÐ²": 4809,
      "ĠÐļÐ°ÑĢÐ»": 4810,
      "ÑĥÑİÑīÐµÐ³Ð¾": 4811,
      "ĠÐ¿Ð¾Ð»Ðµ": 4812,
      "Ð½Ð°ÑĩÐ°Ð»Ð°": 4813,
      "ÐµÐ»ÐµÑģ": 4814,
      "ĠÐ¾ÑģÑĤÐ°Ð½Ð¾Ð²": 4815,
      "ÑģÐµÐ½": 4816,
      "Ð¼Ð¾Ñģ": 4817,
      "ĠÐ·Ð°Ð¼ÐµÑĤ": 4818,
      "ĠÐĴÐ»Ð°Ð´Ð¸Ð¼Ð¸": 4819,
      "Ð¤ÑĢÐ°Ð½": 4820,
      "ĠÐ¿Ð¾ÑħÐ¾Ð´": 4821,
      "ĠÑĢÐµÐ¿": 4822,
      "Ð¾ÑģÑĢÐµÐ´": 4823,
      "Ð°Ð²Ð°": 4824,
      "ĠÐ¸Ð³ÑĢÐ°Ð»": 4825,
      "ĠÐ¸ÑİÐ½Ðµ": 4826,
      "ÑıÑīÐ¸Ñħ": 4827,
      "ĠÐºÐ½ÑıÐ·ÑĮ": 4828,
      "ĠÐ½Ð°ÑĩÐ°Ð»Ð¾": 4829,
      "ĠÐ¿ÑĢÐµÑģ": 4830,
      ".),": 4831,
      "ĠÐ°Ð´Ð¼Ð¸Ð½Ð¸ÑģÑĤ": 4832,
      "ĠÐĺÐ·ÑĢÐ°": 4833,
      "ĠÐ¿ÑĢÐ¾Ð³ÑĢÐ°Ð¼Ð¼Ñĭ": 4834,
      "ĠÐŀÐŀ": 4835,
      "Ð¶ÐµÐ½Ð¸Ñı": 4836,
      "ĠÑģÐ¾Ðº": 4837,
      "ĠÐ¼ÐµÐ´Ð°Ð»Ð¸": 4838,
      "ĠÐ´Ð¾Ð¼Ð°ÑĪ": 4839,
      "ĠÐ±ÑĥÐº": 4840,
      "ĠÐ¿ÑĢÐµÐ´ÑĭÐ´ÑĥÑī": 4841,
      "iz": 4842,
      "ĠÐ²ÐµÐ»": 4843,
      "ĠÑįÑģÐº": 4844,
      "ĠÑĤÐ°ÐºÐ¸Ð¼": 4845,
      "ĠÑģÐ¾Ð»Ð´Ð°ÑĤ": 4846,
      "ĠÐ½Ð°Ð·ÑĭÐ²Ð°ÐµÐ¼": 4847,
      "ĠÐļÐ¸ÑĤ": 4848,
      "ĠÐ°Ð¿ÑĢÐµÐ»Ðµ": 4849,
      "ĠÐ²Ð¾ÐµÐ½Ð½Ð¾Ð³Ð¾": 4850,
      "Ã¤": 4851,
      "ĠÐ½Ð°ÑĢÑĥÑĪ": 4852,
      "ĠÐ½Ð¾ÑıÐ±ÑĢÐµ": 4853,
      "82": 4854,
      "ĠÑĢÑĭÐ½": 4855,
      "ĠÑģÐ¾Ð·ÑĭÐ²Ð°": 4856,
      "Ð¸Ð½Ð¾Ð¼": 4857,
      "ĠÐ¿ÑĢÐ¾Ð¸Ð³": 4858,
      "Ġ70": 4859,
      "ĠÐ³ÑĢÐ°Ð¼": 4860,
      "Ð±Ð¾Ð¹": 4861,
      "ĠÐºÐ¾Ð»Ð»ÐµÐº": 4862,
      "ĠÐ¾Ð±Ð¾ÑĢÑĥÐ´": 4863,
      "ĠÐĿÐ¾Ð²Ð³Ð¾ÑĢÐ¾Ð´": 4864,
      "ĠÐ»Ð°Ð³": 4865,
      "ĠÐĵÑĢÑĥÐ·": 4866,
      "Ð¾Ð½Ð¸Ñı": 4867,
      "ĠÐ¸Ð·Ð´Ð°ÑĤÐµÐ»ÑĮ": 4868,
      "Ð¸ÑĢÐ¾Ð²Ð°Ð»Ð¸": 4869,
      "99": 4870,
      "ĠÑĢÐ¸Ð¼": 4871,
      "ĠÐ¿ÑĢÐ¾Ð´ÑĥÐºÑĤ": 4872,
      "ĠÐ½Ð°Ð·Ð²Ð°Ð½Ð¸Ñı": 4873,
      "ĠÑĢÑĥÑģÑģÐºÐ¸Ðµ": 4874,
      "Ð¾ÑģÑĤÐ°Ð½Ð¾Ð²": 4875,
      "ĠÐ¸Ð½Ð¸": 4876,
      "ĠÑĪÐµÑģÑĤ": 4877,
      "ĠÐ¡Ð¸Ð½": 4878,
      "ĠRec": 4879,
      "185": 4880,
      "ĠÐ¡Ð¿Ð¸ÑģÐ¾Ðº": 4881,
      "ĠÐ¾Ð¿ÑĭÑĤ": 4882,
      "ĠÐ¸Ð½ÑĦ": 4883,
      "ĠÐ³Ð»Ð°Ð²Ð½ÑĭÐ¹": 4884,
      "ĠÐ°Ð´Ð¼Ð¸Ð½Ð¸ÑģÑĤÑĢÐ°ÑĤÐ¸Ð²Ð½Ð¾Ð³Ð¾": 4885,
      "ĠÐ£Ð½Ð¸Ð²ÐµÑĢÑģÐ¸ÑĤ": 4886,
      "ĠÐ¾ÑĢÐ¸Ð³Ð¸Ð½": 4887,
      "ĠÑĥÐ¿ÑĢÐ°Ð²Ð»Ñı": 4888,
      "ĠÐ£Ð·": 4889,
      "Ġhttp": 4890,
      "ĠÐ¼Ð¾ÑģÐº": 4891,
      "ĠÑģÐ»ÑĥÐ¶Ð¸Ð»": 4892,
      "ÑĩÐµÐ½ÐºÐ¾": 4893,
      "ĠÐ·Ð°Ð½ÑıÑĤ": 4894,
      "47": 4895,
      "ĠÑĢÐ¾ÑģÑĤ": 4896,
      "Ð¾ÑĤÐ°Ð½": 4897,
      ")<": 4898,
      "ĠÐ²ÑģÐ¿": 4899,
      "Ð¸Ð²ÑĪÐ¸Ñħ": 4900,
      "ĠÐ·Ð°Ð´Ð°Ñĩ": 4901,
      "ĠÐĽÐ°": 4902,
      "ĠÑĪÑĤÐ°ÑĤÐ°": 4903,
      "Ð¾Ð³Ð¾Ñģ": 4904,
      "ĠÐºÐ¾Ð»Ð»ÐµÐºÑĤÐ¸Ð²": 4905,
      "Ð»Ð¸ÑĨÐ°": 4906,
      "ĠÐ¸ÑĤÐ¾Ð³Ðµ": 4907,
      "ĠÐ½Ð°ÑĥÑĩÐ½Ð¾": 4908,
      "ĠÐŃÑģÑĤ": 4909,
      "Ð½ÑĮ": 4910,
      "ĠÐºÐ¾Ð½ÐºÑĥÑĢ": 4911,
      "ory": 4912,
      "ĠÐ¸Ð»": 4913,
      "Ð¡Ð¿Ð¾ÑĢÑĤ": 4914,
      "ĠÐ¿ÑĢÐ¸ÑģÑĤ": 4915,
      "Ð¾ÑĢÑĦ": 4916,
      "ĠÐ´Ð¸Ð²Ð¸Ð·Ð¸Ñı": 4917,
      "ĠÐļÑĢÐ°ÑģÐ½Ð¾Ð¹": 4918,
      "ĠÐĴÐ¸Ð½": 4919,
      "ÑģÐµÐ¼": 4920,
      "ĠÐļÐ¾ÑĢÐ¾Ð»ÐµÐ²": 4921,
      "ĠÐ¶Ð°Ð½": 4922,
      "ĠÑĤÐµÑħÐ½Ð¾Ð»Ð¾Ð³": 4923,
      "ÐŁÑĢÐ¸": 4924,
      "ber": 4925,
      "ĠÐ»Ð¸ÑĤÐµÑĢÐ°ÑĤÑĥÑĢÑĭ": 4926,
      "ÑĢÐ³": 4927,
      "ĠÐ¿Ð¾Ð»Ñĥ": 4928,
      "ÐŀÐ¿Ð¸ÑģÐ°Ð½Ð¸Ðµ": 4929,
      "ÐĴÑĭ": 4930,
      "ĠÐ¡ÑĤÐ°Ð»": 4931,
      "Ð¸ÑĢÑĭ": 4932,
      "ÑĥÐ¼Ñĭ": 4933,
      "ĠÐ¿ÑĭÑĤ": 4934,
      "ĠÐ¶ÑĥÑĢÐ½Ð°Ð»": 4935,
      "ÑıÑģÐ½": 4936,
      "Ð¾ÑģÑģÐ¸Ð¹ÑģÐºÐ¾Ð¹": 4937,
      "Ġ1954": 4938,
      "Ġto": 4939,
      "ĠÐ¸ÑģÐ¿Ð¾Ð»Ð½Ñı": 4940,
      "ĠÐºÐ°Ð±": 4941,
      "ÑĤÐ¾ÑĢÐ¾Ð¼": 4942,
      "ĠÐľÐ°Ð³": 4943,
      "Ð°ÐºÑĤÐ¸Ð²": 4944,
      "ĠÐ°Ð·": 4945,
      "ĠÑĦÐµÐ²ÑĢÐ°Ð»Ðµ": 4946,
      "ÂŃ": 4947,
      "ĠÐ¸Ð½Ð¶ÐµÐ½ÐµÑĢ": 4948,
      "49": 4949,
      "ÑģÑĤÑĢÑĥÐºÑĤ": 4950,
      "ĠÐĴÐ¿": 4951,
      "ĠÑħÐ°ÑĢÐ°ÐºÑĤÐµÑĢÐ¸Ð·": 4952,
      "ĠÐ´ÑĢÐ°Ð¼Ð°ÑĤ": 4953,
      "ĠÐ¿Ð¾Ð·Ð¸ÑĨÐ¸Ð¸": 4954,
      "ĠÑĥÐºÑĢÐµÐ¿": 4955,
      "ÑĢÐ¾Ð»": 4956,
      "ĠÐºÐ°ÑĢÑĮÐµÑĢÐ°": 4957,
      "Ð¾ÑĩÐ½ÑĭÑħ": 4958,
      "ĠÐ½ÐµÐ´Ð¾ÑģÑĤ": 4959,
      "ĠÐĳÑĭÐ»": 4960,
      "Ð¾Ð½Ð¸": 4961,
      "ft": 4962,
      "ĠÐ¢Ðµ": 4963,
      "ĠÐĶÐµÐ¼": 4964,
      "ĠÐ»ÐµÑĤÐ¾Ð¼": 4965,
      "ĠÐ¼ÑĥÐ»ÑĮÑĤ": 4966,
      "ÐŁÐ¾ÑħÐ¾ÑĢÐ¾Ð½": 4967,
      "ĠÐ¿ÑĢÐ¸Ð±Ñĭ": 4968,
      "ÑĥÐ¼Ð°Ð½": 4969,
      "Ġ1936": 4970,
      "ish": 4971,
      "Ð½ÐµÐ³Ð¾Ð´": 4972,
      "87": 4973,
      "ÐĺÑģÑĤÐ¾ÑĩÐ½Ð¸ÐºÐ¸": 4974,
      "ĠÐ¡ÑĢÐµÐ´Ð¸": 4975,
      "ĠÑĦÐ»Ð¾ÑĤÐ°": 4976,
      "ĠÐ·Ð°Ð²Ð¾Ð´Ð°": 4977,
      "Ð°Ð·Ð°": 4978,
      "ĠÐ²Ð¾ÑģÐ¿Ð¸ÑĤ": 4979,
      "%.": 4980,
      "ong": 4981,
      "ĠÎ": 4982,
      "ĠÐ±Ð°ÑĪ": 4983,
      "ĠÐ¿Ð¾ÑģÑĤÑĥÐ¿Ð¸Ð»": 4984,
      "ĠÐºÑĢÐ°ÑĤ": 4985,
      "Ġ36": 4986,
      "ĠÐĴÑģÐµ": 4987,
      "Ð¸ÑĢÐ¾Ð²Ð°Ð½Ð½ÑĭÑħ": 4988,
      "ĠÑĥÑĩÐ¸Ð»Ð¸ÑīÐµ": 4989,
      "ĠÑĨÐµÐ½ÑĤÑĢÐ¾Ð¼": 4990,
      "ÐµÐ¶Ð¸ÑģÑģ": 4991,
      "ÐĶÐ¸Ð½Ð°Ð¼": 4992,
      "Ð¸Ð²Ð°Ð½Ð¸Ñı": 4993,
      "Ð¸Ð½Ð°ÑĨÐ¸Ð¸": 4994,
      "ÑĢÐ¸ÑĨ": 4995,
      "Ð¸Ð²Ð°ÑİÑĤ": 4996,
      "ÐµÐ·Ð´Ñĭ": 4997,
      "ĠÐ¿Ð°ÑģÑģÐ°Ð¶": 4998,
      "ĠÐĲÐºÐ°Ð´ÐµÐ¼Ð¸Ð¸": 4999,
      "ĠÐľÐ°ÐºÑģÐ¸Ð¼": 5000,
      "ÑĩÐ°Ñģ": 5001,
      "ĠÐ½Ð¾Ð²ÑĭÐµ": 5002,
      "ĠÐºÑĥÐ±": 5003,
      "ÐµÐ³Ð¾Ð´": 5004,
      "ĠÐ¥Ð°ÑĢÑĮ": 5005,
      "ĠÐ¾Ð¶": 5006,
      "Ð¾Ð³ÑĢÐ°Ð´": 5007,
      "ÑĥÑĪÐºÐ°": 5008,
      "ÐµÐ²Ð¾": 5009,
      "ĠDe": 5010,
      "ĠÐĹÐ´": 5011,
      "ĠÐ¿ÐµÑģÐµÐ½": 5012,
      "ĠÑĢÐµÐ±": 5013,
      "ĠÐ¿ÑĢÐµÐ´ÑģÐµÐ´Ð°ÑĤÐµÐ»ÑĮ": 5014,
      "ĠÐ¿ÑĢÐµÐ·Ð¸Ð´ÐµÐ½ÑĤÐ°": 5015,
      "ĠÑģÐ¿Ð¸ÑģÐ¾Ðº": 5016,
      "ĠÐŃÐ»": 5017,
      "ĠÐ½Ð°Ð³ÑĢÐ°Ð¶Ð´ÑĳÐ½": 5018,
      "ĠÐ¾Ð·Ð½Ð°Ñĩ": 5019,
      "ÑģÑĤÑĢÐµÐ»": 5020,
      "ĠÐ´Ð¾ÑħÐ¾Ð´": 5021,
      "ĠÑģÑĭÐ½Ð°": 5022,
      "ĠÑģÐ¾ÑĩÐ¸Ð½": 5023,
      "ĠÐ·Ð°Ð¼ÐµÑģÑĤÐ¸ÑĤÐµÐ»ÑĮ": 5024,
      "ĠÐ¼Ð½Ð¾Ð³Ð¾ÑĩÐ¸ÑģÐ»ÐµÐ½": 5025,
      "ÑĥÐ³Ð¾Ð»ÑĮ": 5026,
      "ĠÐŀÐ»ÑĮ": 5027,
      "ach": 5028,
      "ĠÐ¾ÑĢÑĥÐ´": 5029,
      "Ð¾Ð²ÑģÐºÐ°Ñı": 5030,
      "ĠÐ½Ð°ÑĩÐ°Ð»ÑĮÐ½Ð¸Ðº": 5031,
      "Ð¾Ð²ÑĥÑİ": 5032,
      "Ð¤ÑĥÑĤÐ±Ð¾Ð»": 5033,
      "ĠÑĥÐ¼ÐµÑĢÐµÐ½Ð½Ð¾": 5034,
      "ĠÑĩÐµÑĢ": 5035,
      "ĠÐ·Ð°Ð±Ð¸Ð»": 5036,
      "ĠÑĥÐ´Ð¾ÑģÑĤÐ¾": 5037,
      "ĠÐ¡Ð¾Ð³Ð»Ð°ÑģÐ½Ð¾": 5038,
      "ĠÐ¿ÐµÑĢÐµÐ³": 5039,
      "ff": 5040,
      "ith": 5041,
      "ire": 5042,
      "ÑĢÐ¸Ð·": 5043,
      "Ġ80": 5044,
      "ĠÐ¼Ð°ÑĪÐ¸Ð½": 5045,
      "ĠÐ²Ð¼ÐµÑģÑĤÐ¾": 5046,
      "ĠÐ¼Ð¸ÑģÑģ": 5047,
      "ĠÑĥÑģÑĤÐ°Ð½Ð¾Ð²Ð»ÐµÐ½": 5048,
      "ĠÐĺÐ·Ð´": 5049,
      "ÐĴÐ¡": 5050,
      "ĠÑģÐ»Ð¾Ð²Ð°Ð¼": 5051,
      "ĠÐ¿ÑĢÐ¾ÑĤÑıÐ¶ÐµÐ½Ð¸Ð¸": 5052,
      "ĠÐ¾Ð¿Ð°Ñģ": 5053,
      "ĠÐ¡Ð¾ÑĨÐ¸Ð°Ð»Ð¸ÑģÑĤ": 5054,
      "||": 5055,
      "ĠÐ·Ð°Ñī": 5056,
      "ĠÐ¸Ð¼Ð¿ÐµÑĢÐ°": 5057,
      "uc": 5058,
      "Ð°ÑĢÑĥÑģ": 5059,
      "ĠÑĦÑĢÐ¾Ð½ÑĤÐ°": 5060,
      "83": 5061,
      "ÐºÑĢÐ°ÑĤ": 5062,
      "ĠÑģÑĤÑĢÐ°Ð½Ðµ": 5063,
      "ÐµÐ¾Ð»Ð¾Ð³": 5064,
      "Ð¸Ð´Ð¾Ð²": 5065,
      "ĠÐ¾ÑĤÑģÑĤÐ°Ð²": 5066,
      "ÐĺÐ·Ð²ÐµÑģÑĤ": 5067,
      "ĠÐ±Ð¾": 5068,
      "ÑİÑīÐ°Ñı": 5069,
      "ÐµÑĢÑĤÐ²": 5070,
      "ork": 5071,
      "ĠÑģÑĢÐ°Ð·Ñĥ": 5072,
      "Ð¢Ð°Ðº": 5073,
      "Ð¾ÑĩÐ½Ð¾Ð¹": 5074,
      "ÑĢÐ¾Ð²Ð°": 5075,
      "ĠÐ³ÐµÑĢÐ±": 5076,
      "ĠÐ¢Ð¸Ð¼": 5077,
      "ĠÐ¥Ð¾ÑĢ": 5078,
      "Ġ1929": 5079,
      "ĠÐ¿ÑĮ": 5080,
      "ĠÐ²Ð¾Ð·Ð´ÑĥÑĪ": 5081,
      "Ð°ÑħÐ°": 5082,
      "Ð°ÑİÑīÐ°Ñı": 5083,
      "ÐµÐ¿ÑĥÑĤ": 5084,
      "ĠÐ¾ÑĢÐº": 5085,
      "ĠÐºÐ¾Ð½ÑĦÐ»Ð¸Ðº": 5086,
      "ĠÑįÐ»ÐµÐºÑĤÑĢÐ¾Ð½": 5087,
      "ÑĢÐµÐº": 5088,
      "ÑĢÐ°ÑĨÐ¸Ñı": 5089,
      "ĠÑĩÐµÑĤÐ²ÐµÑĢ": 5090,
      "ial": 5091,
      "Ð¾Ð¶Ðµ": 5092,
      "ÐµÑĢÐµÑı": 5093,
      "ÐŀÐ±Ñī": 5094,
      "ĠÐ´Ð²Ð¾ÑĢÐ¾Ð²": 5095,
      "ĠÑĢÐ¸Ñģ": 5096,
      "ĠÐ³Ð»Ð°Ð²Ð½Ð¾Ð³Ð¾": 5097,
      "Ð¸ÑĢÐ¾Ð²Ð°Ð½Ñĭ": 5098,
      "ĠÐ¡ÑĤÐµÐ¿": 5099,
      "Ð²ÑıÑĤ": 5100,
      "ĠÐºÐ¾ÑģÑĤ": 5101,
      "ÐľÐ¾ÑģÐº": 5102,
      "Ð¾Ð¿ÑĢÐ¸ÑıÑĤ": 5103,
      "ĠÐ²ÐµÑĢÐ¾ÑıÑĤ": 5104,
      "ĠÑĢÐ°Ð·Ð¼ÐµÑī": 5105,
      "Ð¾Ð²Ð°Ð»Ð¾": 5106,
      "ss": 5107,
      "ĠÑģÐ¿Ð°Ñģ": 5108,
      "ĠÑįÑĤÐ¾Ð¼Ñĥ": 5109,
      "ĠÐĲÐ½Ð´ÑĢÐµÐ¹": 5110,
      "ĠÐ¿Ð»ÐµÐ½": 5111,
      "ĠÑįÐ»ÐµÐºÑĤÑĢ": 5112,
      "ĠÐľÐ¸ÑĢ": 5113,
      "Ġ1949": 5114,
      "Ð¼ÐµÐ´": 5115,
      "ĠÐ¢Ð°Ð¼": 5116,
      "ĠÐ½Ð°ÑģÐµÐ»ÑĳÐ½Ð½ÑĭÑħ": 5117,
      "ĠÑĩÐ»ÐµÐ½Ð¾Ð²": 5118,
      "ĠÑĢÐµÐ»Ð¸Ð³Ð¸Ð¾Ð·": 5119,
      "ĠÐ¿Ð°ÑĢÑĤÐ¸Ð¹": 5120,
      "ĠÐ®Ð¶Ð½Ð¾Ð¹": 5121,
      "ĠÑĢÑıÐ´Ð¾Ð¼": 5122,
      "Ð¾Ð½Ð°ÑĩÐ°Ð»ÑĮÐ½Ð¾": 5123,
      "Ð±Ð¾Ð²": 5124,
      "42": 5125,
      "ÑĢÐµÐ¶": 5126,
      "2010": 5127,
      "Ð³ÐµÐ»ÑĮ": 5128,
      "ĠÐĿÐ¸ÐºÐ¾Ð»Ð°ÐµÐ²Ð¸Ñĩ": 5129,
      "95": 5130,
      "ÐºÐ¸Ð¿Ð°Ð¶": 5131,
      "ĠÑįÐºÑģÐ¿ÐµÐ´": 5132,
      "ÑģÑĤÐ²Ð¸Ðµ": 5133,
      "Ð¾Ð²Ð°Ð½Ð¸Ð¸": 5134,
      "ĠÑģÐ¾ÑģÑĤÐ°Ð²Ð°": 5135,
      "ĠÐĵÑĢÐ°Ð½": 5136,
      "ĠÑĤÑıÐ¶ÑĳÐ»": 5137,
      "Ð»Ð°Ð¹": 5138,
      "ĠÐ¿ÑĢÐµÐºÑĢÐ°": 5139,
      ".-": 5140,
      "Ð°Ð¹Ð´": 5141,
      "Ð¶ÐµÐ³Ð¾Ð´": 5142,
      "ĠÐ¸Ð½Ð¾Ð³Ð´Ð°": 5143,
      "ÐµÐºÐ¾": 5144,
      "ĠÐ±Ð¾Ð»ÐµÐ·": 5145,
      "Ð°ÑĢÐ´Ð°": 5146,
      "ĠÐ¿Ð¾Ð´ÑĢÐ°Ð·Ð´ÐµÐ»": 5147,
      "ĠÐ»Ð¸": 5148,
      "ĠÐ¿ÑĢÐ°ÐºÑĤÐ¸ÑĩÐµÑģÐºÐ¸": 5149,
      "Ġ1947": 5150,
      "ĠÐ¿ÑĢÐ¾Ð¸ÑģÑħÐ¾Ð´": 5151,
      "ÑĥÐ»Ñĭ": 5152,
      "ĠÐ³ÑĢÐµÑĩÐµÑģÐº": 5153,
      "ĠÐ·Ð½Ð°ÑĩÐµÐ½Ð¸Ñı": 5154,
      "Ð¸Ð½Ð³Ð°": 5155,
      "ĠÑĩÐ¸ÑĤ": 5156,
      "ĠÐ²ÑĭÐ´Ð°": 5157,
      "ĠÐĵÐµÐ½ÐµÑĢÐ°": 5158,
      "ĠÑģÐ¾Ð³Ð»Ð°ÑĪ": 5159,
      "ate": 5160,
      "Ð°Ð½ÑĤÐ¾Ð²": 5161,
      "ĠÐľÐ°ÑĢÐ¸Ñı": 5162,
      "ĠÑĤÐµÐ»Ð°": 5163,
      "2008": 5164,
      "ĠÐĲÐ»ÑĮÐ±": 5165,
      "ĠÐ´Ð²Ð¾ÑĢÑıÐ½": 5166,
      "ĠÐ¾ÐºÐºÑĥÐ¿": 5167,
      "Ð¾ÑĢÐ°ÑĤÐ¾ÑĢ": 5168,
      "ĠÐ·Ð°Ð±Ð¾Ð»": 5169,
      "ĠÐĴÐ¾ÑģÑĤÐ¾Ñĩ": 5170,
      "ĠÐ¸Ð³ÑĢÐµ": 5171,
      "72": 5172,
      "ĠÑĤÑĥÑĢÐµ": 5173,
      "ÑĮÐµÑĢÐ°": 5174,
      "ÐµÐ¼Ð¿Ð¸Ð¾Ð½Ñĭ": 5175,
      "ĠÐļÑĢÑĭÐ¼": 5176,
      "ĠÐºÐ¾Ð½ÑĦÐµÑĢÐµÐ½": 5177,
      "ĠÐĲÐ»ÐµÐºÑģÐµÐ¹": 5178,
      "ÑĥÐµÐ¼": 5179,
      "te": 5180,
      "Ð¸ÑĨÑĥ": 5181,
      "ĠÐĳÑĥÑĢ": 5182,
      "ĠÐ¿Ð¸ÑĤ": 5183,
      "ÑĢÐ¾Ð½Ð¾Ð¼": 5184,
      "ĠÐ¾Ð´Ð½Ð¾Ð¸Ð¼": 5185,
      "ĠÑģÑĤÑĢÐ¾Ð¸ÑĤÐµÐ»ÑĮÑģÑĤÐ²Ð¾": 5186,
      "ĠÑģÑĦ": 5187,
      "ĠÐļÐ»": 5188,
      "ĠÑģÐµÐ¼ÐµÐ¹ÑģÑĤÐ²Ð°": 5189,
      "ÑĥÑİÑīÐ¸Ð¼": 5190,
      "ĠÐ°Ð½Ð°Ð»Ð¾Ð³": 5191,
      "ĠÐ¿Ð»Ð¾ÑīÐ°Ð´Ð¸": 5192,
      "ĠÐ²Ð¾Ð·Ð²": 5193,
      "Ġ1935": 5194,
      "ĠÐ¿Ð¾Ð¸ÑģÐº": 5195,
      "ĠÐ¼Ð°Ð¹": 5196,
      "tern": 5197,
      "ĠÐĲÐ³": 5198,
      "%,": 5199,
      "Ð»Ð°Ð´Ð°": 5200,
      "ĠÐ¡Ð¸Ð±Ð¸ÑĢ": 5201,
      "ĠÑĥÑģÑĤÑĥÐ¿": 5202,
      "ĠÐ¡ÑĤÐ°Ð½": 5203,
      "ĠÑĩÐµÐ»Ð¾Ð²ÐµÑĩ": 5204,
      "ĠÐ·Ð²Ð°Ð½Ð¸Ñı": 5205,
      "ĠÑĦÐ»Ð¾ÑĤ": 5206,
      "ly": 5207,
      "ĠÐºÐ¾Ð¼Ð¼ÑĥÐ½": 5208,
      "ĠÐ²ÑĭÑĪÐµ": 5209,
      "ĠÑĢÐµÐ²Ð¾Ð»ÑİÑĨÐ¸Ð¸": 5210,
      "Ð°Ð½Ð°Ð²Ð»Ð¸Ð²": 5211,
      "ĠÐ¢ÐµÑĢ": 5212,
      "ÐłÐ°Ð·": 5213,
      "ĠÐ½Ð°ÑĥÑĩÐ½ÑĭÑħ": 5214,
      "ĠÐ²Ð¾Ð·Ð³Ð»Ð°Ð²Ð»Ñı": 5215,
      "ĠLe": 5216,
      "ĠÐ²ÐºÐ»Ð°Ð´": 5217,
      "Ð¸Ð´Ñĥ": 5218,
      "ÑĩÐ¸ÐºÐ¾Ð²": 5219,
      "ure": 5220,
      "ĠÐĲÐ¼ÐµÑĢÐ¸ÐºÐ¸": 5221,
      "ĠÑģÑĢÐ¾Ðº": 5222,
      "2007": 5223,
      "ÑīÐµ": 5224,
      "ĠÐ¨Ð²Ðµ": 5225,
      "ĠÐ¿Ð¾Ð»Ð½Ð¾Ð¼": 5226,
      "Ð°ÑĢÐ°Ð±": 5227,
      "ĠÑĨÐµÐ½ÑĤÑĢÐµ": 5228,
      "ĠÑĤÐµÐ¾ÑĢÐ¸Ð¸": 5229,
      "ĠÐļÐ°Ð¿": 5230,
      "2000": 5231,
      "ĠÑģÑĤÐ°ÑĢÑĪÐ¸Ð¹": 5232,
      "ĠÐ¸Ð½ÑĦÐ¾ÑĢÐ¼Ð°ÑĨÐ¸Ð¸": 5233,
      "ĠÐ°ÑĤÐ¼Ð¾Ñģ": 5234,
      "Ð°ÑĥÑĢÐµÐ°ÑĤ": 5235,
      "Ð½Ð°Ð´ÑĨ": 5236,
      "ĠÐµÐ²ÑĢÐµÐ¹": 5237,
      "ĠÐ¿ÑĢÐ°Ð·Ð´": 5238,
      "ĠÐ³Ð¾ÑĢÐ¾Ð´ÑģÐºÐ¾Ð¹": 5239,
      "ĠÐ°Ð²ÑĤÐ¾Ð¼Ð¾Ð±Ð¸Ð»ÑĮ": 5240,
      "ĠÐ¸Ð½ÑģÑĤÑĢÑĥÐ¼ÐµÐ½ÑĤ": 5241,
      "ĠÐ·Ð°Ð¼ÑĥÐ¶": 5242,
      "ÐĲÐ¢": 5243,
      "ĠÐ¿ÑĢÐµÑģÑĤ": 5244,
      "ĠÐĹÐ°Ð½Ð¸Ð¼": 5245,
      "ÐµÐºÐ¾ÑĤÐ¾ÑĢÑĭÐµ": 5246,
      "ĠPro": 5247,
      "ĠÑģÑĤÑĢÐ¾Ð¸ÑĤÐµÐ»ÑĮÑģÑĤÐ²Ð°": 5248,
      "Ġk": 5249,
      "ĠÐ¸ÑģÑģÐ»ÐµÐ´Ð¾Ð²Ð°Ð½Ð¸Ð¹": 5250,
      "ĠÐ¯ÑĢÐ¾ÑģÐ»Ð°Ð²": 5251,
      "ĠÐ¾Ð¿ÑĢÐµÐ´ÐµÐ»Ñı": 5252,
      "ĠÐĳÐµÐ»Ð¾ÑĢÑĥÑģÑģÐ¸Ð¸": 5253,
      "Ð¸ÑĤÐµÐ»ÑĮÐ½Ð°Ñı": 5254,
      "ĠÐĶÐ¶Ð¾ÑĢÐ´Ð¶": 5255,
      "Ð»ÑĥÑĩ": 5256,
      "ÐµÐºÐ°ÐµÑĤ": 5257,
      "ÐļÐ°ÑĢ": 5258,
      "Ð¾Ð²Ð¾Ð¼": 5259,
      "Ð°ÐºÐ¾Ð½": 5260,
      "ĠÐ¿Ð¾Ð»ÑĥÑĩÐ¸Ð»Ð¸": 5261,
      "ĠÑĢÐ°Ð±Ð¾ÑĤÐ°ÑĤÑĮ": 5262,
      "ÐµÐ³Ð¾Ð´Ð½Ñı": 5263,
      "ide": 5264,
      "ÐĶÐµÑĢÐµÐ²Ð½Ñı": 5265,
      "ĠÑĢÐ°ÑģÐ¿Ð¾Ð»Ð¾Ð¶ÐµÐ½Ð°": 5266,
      "ÑĥÐ¼Ð±": 5267,
      "Ð°ÑĤÐ¾": 5268,
      "ÑģÑĤÑĢÐ¾Ð¹": 5269,
      "ĠÐ³Ð¸Ð¿": 5270,
      "ĠÐ¾ÑĩÐµÑĢÐµÐ´ÑĮ": 5271,
      "ĠÑģÐ½ÑıÑĤ": 5272,
      "Ð¾Ð²Ð°Ð»ÑģÑı": 5273,
      "org": 5274,
      "ĠÐºÐ¾Ð½ÑĤÐ¸Ð½ÐµÐ½ÑĤ": 5275,
      "ĠÐ³Ð»Ð°Ð²Ðµ": 5276,
      "ĠÐ°ÑįÑĢÐ¾Ð¿": 5277,
      "ug": 5278,
      "ĠÐ²ÐµÐ»Ð¸Ñĩ": 5279,
      "Ð¼Ð¸Ð½Ð¸ÑģÑĤ": 5280,
      "ĠÐ½Ð°Ð¿Ð¸ÑģÐ°Ð»": 5281,
      "ĠÑģÐ¾Ð¾ÑĤÐ²ÐµÑĤÑģÑĤÐ²Ð¸Ð¸": 5282,
      "ĠÐľÐ°ÑĢÐº": 5283,
      "ĠÐ¿Ð»Ð°ÑģÑĤ": 5284,
      "ĠÑģÐ²Ð¸Ð´ÐµÑĤÐµÐ»ÑĮ": 5285,
      "ĠÐ¿Ð¾Ð±ÐµÐ´Ñĥ": 5286,
      "ĠÐ½ÐµÐ¸Ð·Ð²ÐµÑģÑĤ": 5287,
      "ĠÐ¿ÑĢÐ¾Ð¼ÑĭÑĪÐ»ÐµÐ½Ð½Ð¾ÑģÑĤÐ¸": 5288,
      "ĠÑģÐ¾ÑģÐµÐ´": 5289,
      "ĠÑĢÐ¾Ð·": 5290,
      "ĠÐ¾ÑĤÐ½Ð¾ÑģÐ¸ÑĤÐµÐ»ÑĮÐ½Ð¾": 5291,
      "Ð°Ð½Ð½Ð¾Ð¹": 5292,
      "ÑģÐ¾Ð»ÑİÑĤÐ½ÑĭÐ¹": 5293,
      "ĠÐ°Ð²ÑĤÐ¾Ð´": 5294,
      "ĠÐ²Ð¾ÐµÐ½Ð½ÑĭÑħ": 5295,
      "Ð¾Ð´Ð½": 5296,
      "ĠÐ²Ð½Ð¸Ð¼Ð°Ð½Ð¸Ðµ": 5297,
      "ĠÐĵÐ¾ÑĢÐ¾Ð´": 5298,
      "ĠÑĥÐ´Ð°": 5299,
      "Ð¸Ð¹ÑģÐºÐ¸Ñħ": 5300,
      "ĠÑĢÐµÑĦÐ¾ÑĢÐ¼": 5301,
      "ĠÑĤÐµÑĩ": 5302,
      "ĠÐĳÑĥÐ´": 5303,
      "Ð»Ð¸Ð¶Ð°Ð¹": 5304,
      "ost": 5305,
      "Ġ1955": 5306,
      "ĠÐĳÐµÐ½": 5307,
      "ĠÐ¾Ð±ÑīÐµÐ¹": 5308,
      "sc": 5309,
      "62": 5310,
      "ĠÑģÐ¿ÑĥÑģÑĤÑı": 5311,
      "Ð´Ð¾Ð¼": 5312,
      "ÐŁÑĢÐ°Ð²": 5313,
      "ĠÐľÐ¸Ð»": 5314,
      "ĠÑĢÐ°ÑģÑģÐ¼Ð°ÑĤÑĢÐ¸Ð²": 5315,
      "Ð²ÐµÐ½": 5316,
      "ĠÐ¼ÑĥÐ·ÑĭÐºÐ¸": 5317,
      "ĠÐ¢Ð¾ÑĢ": 5318,
      "ĠÐ½Ð°Ð³ÑĢÐ°Ð´": 5319,
      "ĠÐĴÐ»Ð°Ð´Ð¸Ð¼Ð¸ÑĢÐ°": 5320,
      "ĠSc": 5321,
      "ĠÑģÐ²ÑıÑīÐµÐ½": 5322,
      "81": 5323,
      "Ð¸ÑĢÑĥÐµÑĤÑģÑı": 5324,
      "69": 5325,
      "ÐĲÐŀ": 5326,
      "Ġ500": 5327,
      "Ġr": 5328,
      "ĠÑĦÐ°ÐºÑĥÐ»ÑĮÑĤÐµÑĤ": 5329,
      "ĠÐ´Ð¸Ð·": 5330,
      "Ð½Ð¾Ðº": 5331,
      "ĠÐ¿Ð¾ÑıÑģ": 5332,
      "Ð°ÑĤÑĮÑı": 5333,
      "ĠÐ¿Ð¾Ð²ÑĤÐ¾ÑĢ": 5334,
      "ĠÐ²ÑģÐµÐ³Ð´Ð°": 5335,
      "ĠRecord": 5336,
      "Ð»Ð¸ÑĨ": 5337,
      "ĠÐ±Ð¾ÐµÐ²ÑĭÑħ": 5338,
      "aw": 5339,
      "ĠÐ¿ÑĢÐ¸Ð³Ð»Ð°ÑĪ": 5340,
      "ĠÐ¿Ð¾Ð»ÐºÐ¾Ð²Ð½Ð¸Ðº": 5341,
      "ĠÐĴÐµÐ½Ð³": 5342,
      "ĠÐĹÐ°Ñģ": 5343,
      "ĠÑĢÐ°Ð·Ð´": 5344,
      "ÑĨÐ¸Ð¾Ð½Ð½ÑĭÑħ": 5345,
      "ĠÐ¾Ð±Ð¾ÑĢÐ¾Ð½": 5346,
      "Ð°Ð´Ð¸": 5347,
      "Ð¸ÑĢÐ¾Ð²Ð°Ð»Ð°": 5348,
      "Ð¾Ð´ÐµÐ¹ÑģÑĤÐ²": 5349,
      "ĠÐ·Ð°ÑıÐ²Ð¸Ð»": 5350,
      "ĠÑĤÐµÐ°ÑĤÑĢ": 5351,
      "Ð°Ð¼ÐµÑĤ": 5352,
      "ĠÑģÑĤÑĢÑĥÐºÑĤÑĥÑĢÐµ": 5353,
      "ix": 5354,
      "Ð¸ÑģÑĤÐ°Ð½Ð°": 5355,
      "ÑĢÐ°Ð±Ð°ÑĤ": 5356,
      "ÑĨÐ¸Ð¾Ð½Ð½Ð¾Ð¹": 5357,
      "Ð»Ð¾Ð²Ð°": 5358,
      "ĠÑģÐµÑĢÑĮ": 5359,
      "ÐĴÐĶ": 5360,
      "43": 5361,
      "ĠÐŁÐ¾Ñģ": 5362,
      "ĠÐŃÐ¼": 5363,
      "ĠÐ¾ÑĢÐ´ÐµÐ½Ð¾Ð¼": 5364,
      "Ð¾ÑĤÑı": 5365,
      "Ð»Ð¾Ð±": 5366,
      "ĠÑĢÐµÐ³ÑĥÐ»ÑıÑĢ": 5367,
      "ĠÐ¾Ð´Ð½Ð¾Ð²ÑĢÐµÐ¼ÐµÐ½Ð½Ð¾": 5368,
      "ÐµÑĢÐ²Ð°ÑĤÐ¾ÑĢ": 5369,
      "ĠÐºÐ¾Ð½ÑģÑĤÑĢÑĥÐº": 5370,
      "ĠÑĩÐ¸ÑģÐ»Ð°": 5371,
      "ĠÐľÐµÐ´Ð°Ð»ÑĮ": 5372,
      "ÐĳÐµÐ»": 5373,
      "ĠÑĤÐµÐ°ÑĤÑĢÐ°Ð»ÑĮ": 5374,
      "ĠÐ¿Ð¾ÐºÐ¸Ð½": 5375,
      "ĠÐ°Ð²ÑĤÐ¾Ð½Ð¾Ð¼": 5376,
      "ĠÐ¿ÑĥÐ½ÐºÑĤÐ¾Ð²": 5377,
      "ĠÐ½Ð°Ð¿ÑĢÐ°Ð²Ð»ÐµÐ½": 5378,
      "ĠÐ³ÐµÑĢÐ¾": 5379,
      "Ð¾Ð»ÑĮÑĦ": 5380,
      "ĠÐ´Ð¸Ð½": 5381,
      "ĠÐ²ÑĭÑģÐ¾ÑĤ": 5382,
      "ĠÐ¼ÑıÑĩ": 5383,
      "ĠÐ°ÐºÑĤÑĢÐ¸ÑģÐ°": 5384,
      "ĠÐºÐ°Ð½ÑĤ": 5385,
      "Ð°Ð»Ð¸ÑĤ": 5386,
      "ÑģÑĤÐ¾": 5387,
      "ÑĢÐ¾Ð¿Ð¾Ð»Ð¸ÑĤ": 5388,
      "ĠÐ°ÑģÑģÐ¾ÑĨÐ¸": 5389,
      "ĠÑĢÐ°Ð·Ð³": 5390,
      "ĠÐ»Ð¸Ð³Ð¸": 5391,
      "Ð¸ÑģÐ»": 5392,
      "ock": 5393,
      "Ð¶Ð½ÑĭÐ¹": 5394,
      "Ð°Ð²ÑĢ": 5395,
      "Ð¾Ð³Ð¾ÑĢ": 5396,
      "Ð¸ÐºÐ°Ð¼Ð¸": 5397,
      "Ð»ÐµÐ±": 5398,
      "ĠÐľÐ°": 5399,
      "Ġ1953": 5400,
      "ĠÐķÐ²ÑĢÐ¾Ð¿Ðµ": 5401,
      "Ð¾Ð²ÐºÐ°": 5402,
      "ĠÐ¡Ð»Ð°Ð²": 5403,
      "ĠÐĵÑĥ": 5404,
      "ĠÑĢÑĥÑģÑģÐºÐ¾Ð¹": 5405,
      "Ð¾ÑģÑĤÐ¾ÑıÑĤÐµÐ»ÑĮ": 5406,
      "Ð¾Ð»Ð¾Ð¼": 5407,
      "ĠÐ¸ÑģÑĤÐ¾ÑĢÐ¸Ñı": 5408,
      "ÑĤÐ¾ÑĢÐ°Ñı": 5409,
      "Ġ1952": 5410,
      "ĠÐ¶ÐµÐ½Ð°": 5411,
      "ĠÐ²Ð¾ÐµÐ½Ð½Ð¾": 5412,
      "ĠÐºÑĢÐ¾Ð¼Ðµ": 5413,
      "Ð¸ÐµÐ¿Ð¸ÑģÐºÐ¾Ð¿": 5414,
      "ÑĢÐ¸ÑĤÐ¾ÑĢÐ¸": 5415,
      "ÐµÑĢÐ²ÑĮÑİ": 5416,
      "2006": 5417,
      "ier": 5418,
      "ĠÐºÐ»Ð¸": 5419,
      "Ð¡Ð°Ð¼": 5420,
      "ĠÑįÐºÑģÐ¿Ð»Ñĥ": 5421,
      "ĠÑĢÐµÐ°Ðº": 5422,
      "Ð¼Ð¾": 5423,
      "ÑģÐ¼ÐµÐ½": 5424,
      "41": 5425,
      "iss": 5426,
      "ĠÐ·Ð½Ð°ÑĩÐµÐ½Ð¸Ðµ": 5427,
      "ĠÑĪÑĤÐ°Ð±Ð°": 5428,
      "ĠÐ¡ÑĢÐµÐ´Ð½ÐµÐ³Ð¾Ð´": 5429,
      "ÐºÐ¾Ð²ÑģÐºÐ¸Ð¹": 5430,
      "ĠÑģÐ¼ÐµÐ½": 5431,
      "ĠÐ¼Ð¼": 5432,
      "ĠÑģÐ¾Ð¿ÑĢÐ¾Ð²": 5433,
      "71": 5434,
      "ÐºÐ»": 5435,
      "ÑĥÑĩÐ¸": 5436,
      "ĠÐ´Ð¾Ð³Ð¾Ð²Ð¾ÑĢ": 5437,
      "ĠÐļÑĥÐ·": 5438,
      "ĠÑģÑĤÐµÐ¿ÐµÐ½ÑĮ": 5439,
      "ĠÑĦÐ¾ÑĢÐ¼Ñĭ": 5440,
      "ĠÐ©": 5441,
      "ĠÑħÐ¾Ð·ÑıÐ¹ÑģÑĤÐ²Ð°": 5442,
      "ĠÐ¢Ð°Ð¹": 5443,
      "ĠÑħÐ¾ÑĢÐ¾ÑĪÐ¾": 5444,
      "ĠÑģÐµÑĢÐ´": 5445,
      "ĠÐ·Ð°ÐºÑĢÑĭÑĤ": 5446,
      "Ġ1924": 5447,
      "ĠÐĳÐµÑĢÐ»Ð¸Ð½": 5448,
      "ÑĩÐ°Ð¹": 5449,
      "ĠÐ¿ÑĢÐµÐ´Ð¿Ð¾Ð»Ð°Ð³": 5450,
      "ĠÑĤÑĥÑĢÐ½Ð¸ÑĢÐµ": 5451,
      "orld": 5452,
      "ĠÐŁÑĢÐµÐ·Ð¸Ð´Ð¸ÑĥÐ¼Ð°": 5453,
      "St": 5454,
      "ĠÐºÐ¾Ð½ÐµÑĩ": 5455,
      "Ġ1928": 5456,
      "ĠÐĺÐ¾Ð°Ð½": 5457,
      "ĠÐ¸ÑģÐ¿Ð¾Ð»ÑĮÐ·Ð¾Ð²Ð°ÑĤÑĮ": 5458,
      "ĠÑĥÑĢÐ¾Ð²Ð½Ñı": 5459,
      "ĠÐºÐ»ÐµÑĤ": 5460,
      "Ð¾ÑĤÑĢÐµÐ±": 5461,
      "68": 5462,
      "ÐµÐ½Ð¾Ð¼": 5463,
      "ĠÐ·Ð°Ð²Ð¸ÑģÐ¸Ð¼": 5464,
      "ĠÑĥÑģÐ»Ð¾Ð²Ð¸ÑıÑħ": 5465,
      "ĠÐ¡ÐŁÐ±": 5466,
      "ĠQ": 5467,
      "ÐĻÐ¾ÑĢÐº": 5468,
      "ĠÐ¥Ð¾Ð»": 5469,
      "Ð¾ÑģÑģÐ¸Ñı": 5470,
      "ÑĢÐµÐ¼Ñı": 5471,
      "Ð¾ÑĢÐ¾Ð¼": 5472,
      "ĠÐ±ÐµÐ¶": 5473,
      "ĠÐĴÐ°ÑģÐ¸Ð»ÑĮÐµÐ²Ð¸Ñĩ": 5474,
      "Ð¿ÑĢÐ¸": 5475,
      "Ð¸Ð¼Ðµ": 5476,
      "ĠÐ¾ÐºÑĢÑĥÐ³Ðµ": 5477,
      "ĠÐŁÐ¾Ð»ÑĮÑĪÐ¸": 5478,
      "ĠÐ¿ÑĢÐ°Ð²Ð¸ÑĤÐµÐ»ÑĮÑģÑĤÐ²Ð¾": 5479,
      "ĠÐĽÐ¸": 5480,
      "ĠÐ¿Ð¾ÐµÐ·Ð´": 5481,
      "Ð¸ÑĤÐ°ÑĢÐ°": 5482,
      "ÐŁÐ¾Ñģ": 5483,
      "ÐļÑĢÐ°Ñģ": 5484,
      "ĠÐłÐ¸Ñĩ": 5485,
      "Ġfor": 5486,
      "Ġ65": 5487,
      "ÑĭÑĤÐ°": 5488,
      "73": 5489,
      "ĠÐ¦Ðļ": 5490,
      "ĠÐ¸ÑģÑĤÑĢÐµÐ±": 5491,
      "Ð°Ð±Ð¾ÑĢÐ°ÑĤÐ¾ÑĢ": 5492,
      "ÑĨÐ¸Ð¾Ð½Ð½Ð¾Ð³Ð¾": 5493,
      "ÑģÑĤÐ²ÐµÐ½Ð½Ð¾Ð¹": 5494,
      "ath": 5495,
      "ÑĢÐ´": 5496,
      "ĠÐ¿ÑĥÑĤÐµÑĪ": 5497,
      "ĠÑĤÐ¾Ð²Ð°ÑĢ": 5498,
      "ĠÑįÐºÑģÐ¿ÐµÑĢÐ¸Ð¼": 5499,
      "ĠÐ¿ÐµÑĢÐµÑģÑĤ": 5500,
      "ĠÐ¿Ð°Ð¿": 5501,
      "Ð¾ÑĦÑĦ": 5502,
      "ĠÑıÐ·ÑĭÐºÐ¾Ð²": 5503,
      "ĠÐ±Ð¸Ð·Ð½": 5504,
      "ĠÐ¿ÐµÑĩÐ°ÑĤ": 5505,
      "ĠÑģÑĤÐ¾": 5506,
      "ĠÐĿÐ°Ñĩ": 5507,
      "ĠÐ¿Ð¾ÐºÐ°": 5508,
      "ĠÐĿÐ¾Ð²Ð¾Ñģ": 5509,
      "ĠÐ¶ÐµÐ»ÐµÐ·Ð½Ð¾Ð¹": 5510,
      "ĠMus": 5511,
      "ĠÐ°ÑĢÑħÐ¸ÑĤÐµÐºÑĤÐ¾ÑĢ": 5512,
      "ĠÑįÐ½ÑĨÐ¸ÐºÐ»Ð¾Ð¿ÐµÐ´": 5513,
      "ĠÐºÐ°Ð½Ð´Ð¸Ð´Ð°ÑĤ": 5514,
      "ina": 5515,
      "ĠÐŀÐºÑĤ": 5516,
      "ĠÑĢÑĥÑģÑģÐºÐ¾Ð³Ð¾": 5517,
      "ĠÐ¸Ð½Ð¸ÑĨÐ¸": 5518,
      "2009": 5519,
      "ĠÐ¢Ð°": 5520,
      "ĠÐĽÑĥÑĩ": 5521,
      "ĠÑģÐ¾Ð¾ÑĤÐ²ÐµÑĤÑģÑĤÐ²ÐµÐ½Ð½Ð¾": 5522,
      "ĠÐºÐ°ÑĤÐ¾Ð»": 5523,
      "Ð°Ð²Ð¾Ð´": 5524,
      "ĠÑĥÑģÐ¸Ð»": 5525,
      "ÐĽÑĥÑĩ": 5526,
      "Ã¡": 5527,
      "ĠÐĿÐ¸Ð´ÐµÑĢÐ»Ð°Ð½Ð´": 5528,
      "2005": 5529,
      "ĠÐĳÐ¾Ð»Ð³Ð°ÑĢ": 5530,
      "ĠÐ°Ð²ÑĤÐ¾Ð´Ð¾ÑĢÐ¾Ð³": 5531,
      "ĠÐ¤ÑĢÐ¸Ð´": 5532,
      "Ð²Ð¾Ðº": 5533,
      "ĠÐĲÐ²ÑģÑĤÑĢÐ°Ð»Ð¸Ð¸": 5534,
      "ĠÑģÐ¾ÑģÑĤÐ¾ÑıÐ»Ð°ÑģÑĮ": 5535,
      "ĠÐ½ÐµÐ¿Ð¾ÑģÑĢÐµÐ´": 5536,
      "ien": 5537,
      "ĠÐ³Ð¾ÑģÑĥÐ´Ð°ÑĢÑģÑĤÐ²ÐµÐ½Ð½Ð¾Ð¹": 5538,
      "ational": 5539,
      "ĠÐ¿Ð¾Ð´Ð²ÐµÑĢÐ³": 5540,
      "ÐŁÐ¾Ñĩ": 5541,
      "ĠÑĥÑĪ": 5542,
      "Ð°ÑĢÑĮÐµÑĢÐ°": 5543,
      "ĠÐ¡Ð°Ð²": 5544,
      "ĠÐ¿Ð¾Ð·Ð´Ð½ÐµÐµ": 5545,
      "ĠÐŁÐµÑĢÐ²ÑĭÐ¹": 5546,
      "Ġ32": 5547,
      "ÐµÑĢÐ¸Ð¹": 5548,
      "Ð°Ð»Ñĥ": 5549,
      "ĠÐ¼Ð°ÑĤÑĮ": 5550,
      "ĠÐľÐ°Ð´": 5551,
      "ĠÐĶÐ°Ð²": 5552,
      "ivers": 5553,
      "Ġ1934": 5554,
      "ĠÐ½Ð°ÑĩÐ°Ð»Ð¸": 5555,
      "Ð¾ÐºÐ¾": 5556,
      "ĠÑĢÐµÐºÐ¾ÑĢÐ´": 5557,
      "ĠÑģÐ¾Ð²Ð¼ÐµÑģÑĤÐ½Ð¾": 5558,
      "idae": 5559,
      "ĠBr": 5560,
      "ĠÐ¿ÑĢÐ¾ÑħÐ¾Ð´Ð¸ÑĤ": 5561,
      "ĠÐ·Ð°Ð¿Ð¸ÑģÐ¸": 5562,
      "Ð¸ÑĤÐµÐ»ÑĮÐ½ÑĭÐ¼": 5563,
      "Ð¾Ð·Ð½": 5564,
      "ĠÐ¼Ð½Ð¾Ð¶ÐµÑģÑĤÐ²Ð¾": 5565,
      "Ð¾ÑĩÐ½ÑĭÐµ": 5566,
      "ÐµÐ²ÑĭÑħ": 5567,
      "ĠÐ¾ÑĤÑĢÐ°Ð¶": 5568,
      "ĠÐ¢Ð¸Ñħ": 5569,
      "63": 5570,
      "ĠÑĨÐ²ÐµÑĤÐ°": 5571,
      "ĠÑĤÑĥÑĢÐ½Ð¸ÑĢ": 5572,
      "ĠÐŁÐ°": 5573,
      "ĠÐ°Ð¼": 5574,
      "ĠÐŃÑĤÐ¾ÑĤ": 5575,
      "2012": 5576,
      "Ð¸ÑĩÐ½Ð°Ñı": 5577,
      "ĠÐ·Ð°ÐºÐ°Ð·": 5578,
      "ÐĶÐ¾": 5579,
      "ÐĲÐ»ÑĮÐ±Ð¾Ð¼": 5580,
      "Ð°Ð¼ÐµÑĢÐ¸ÐºÐ°Ð½": 5581,
      "ĠÐ¼ÐµÑĤÐ°Ð»Ð»": 5582,
      "ĠÐ½Ð°Ð»Ð¸Ñĩ": 5583,
      "ÑİÑīÐµÐ¹": 5584,
      "67": 5585,
      "ĠÐ¿ÑĢÐ°Ð²Ð»ÐµÐ½Ð¸Ñı": 5586,
      "ĠÐ¿ÑĢÐ¾ÑıÐ²": 5587,
      ".;": 5588,
      "ĠÐ²Ð¾ÐµÐ½Ð½ÑĭÐ¹": 5589,
      "ĠÐ½ÐµÐº": 5590,
      "ĠÐ³Ð¾ÑģÑĤ": 5591,
      "Ð¸ÑģÑĤÑĢ": 5592,
      "ÑĤÐ°Ð±": 5593,
      "ĠÐ²ÑĭÐ¸Ð³ÑĢÐ°Ð»": 5594,
      "ĠÐ·Ð¾Ð½Ðµ": 5595,
      "ÐĲÑĢÑħ": 5596,
      "ĠÑĦÐ°ÐºÑĥÐ»ÑĮÑĤÐµÑĤÐ°": 5597,
      "ace": 5598,
      "Ð½ÐµÑĤ": 5599,
      "ĠÑĢÐ¾Ð¶Ð´ÐµÐ½Ð¸Ñı": 5600,
      "Â»:": 5601,
      "ĠÐ°ÑĤÐ°Ðº": 5602,
      "ys": 5603,
      "ĠÐ¡Ð¼Ð¾Ð»": 5604,
      "ĠÐ²Ð¾ÐµÐ½Ð½Ð¾Ð¹": 5605,
      "ĠÐ²ÑĭÑģÐ¾ÑĤÐ°": 5606,
      "ĠÑģÐ´": 5607,
      "ÐµÐ½ÑĮÑĪ": 5608,
      "ĠÑĢÐ°ÐºÐµÑĤ": 5609,
      "ĠÐŃÐº": 5610,
      "ĠÐ±Ð°Ð·Ðµ": 5611,
      "Ð»Ð¸Ð±Ð¾": 5612,
      "Ð¾Ð²Ð°Ð½Ð¾": 5613,
      "ĠÐ½Ð°ÑģÑĩÐ¸ÑĤ": 5614,
      "ment": 5615,
      "ÑĢÐ°ÑĪ": 5616,
      "Ð»Ð¾Ð³": 5617,
      "ĠÐļÐ°Ð·Ð°ÑħÑģÑĤÐ°Ð½Ð°": 5618,
      "2011": 5619,
      "ÐµÐ½ÑĤÐµ": 5620,
      "ĠÐ¿Ð¸ÑģÐ°Ð»": 5621,
      "ÑģÐºÐ¾ÑħÐ¾Ð·ÑıÐ¹": 5622,
      "Ð°Ð½ÑģÐºÐ¸Ñħ": 5623,
      "ah": 5624,
      "ÐµÐ»ÐµÐ·": 5625,
      "Ġ1932": 5626,
      "ĠPar": 5627,
      "ĠÐ¸Ð·Ð²ÐµÑģÑĤÐ½ÑĭÐ¹": 5628,
      "ÑĢÐ°Ð½ÑģÐ¿Ð¾ÑĢÑĤ": 5629,
      "ĠÐ½Ð°ÑĩÐ°Ð»ÑĮÐ½Ð¸ÐºÐ°": 5630,
      "ĠÐļÑĢÐ¸ÑģÑĤ": 5631,
      "ĠÐĵÐ¾ÑģÑĥÐ´Ð°ÑĢÑģÑĤÐ²ÐµÐ½Ð½Ð¾Ð¹": 5632,
      "ÐĹÐ¾Ð»Ð¾ÑĤ": 5633,
      "ĠÐ»ÐµÐº": 5634,
      "ÐµÐ·Ð´Ðµ": 5635,
      "ĠÑĥÐ±Ð¸ÑĤ": 5636,
      "Ð°ÑģÐ¿": 5637,
      "ĠÐ²Ð¾Ð¹Ð½Ð°": 5638,
      "ĠÐ¾Ð·ÐµÑĢÐ°": 5639,
      "ĠÐłÐĲÐĿ": 5640,
      "ĠÐ¢ÑĢÐ¾": 5641,
      "ĠÐĲÐĿ": 5642,
      "ĠÐ´Ð¾Ð¼Ðµ": 5643,
      "ĠÐ¿ÐµÑĢÐ²Ð°Ñı": 5644,
      "ĠÐ¿Ð¾ÑģÑĳÐ»ÐºÐ°": 5645,
      "ĠÐ½ÐµÐ¼ÐµÑĨÐºÐ¸Ð¹": 5646,
      "Ð½Ð°Ð·Ð½Ð°Ñĩ": 5647,
      "ĠÐŁÐ°Ð²Ð»Ð¾Ð²": 5648,
      "ĠÐ°ÑĢÐ¼Ð¸Ñı": 5649,
      "Ð³Ð¾Ð»": 5650,
      "ĠÐ¿ÑĢÐµÐ´ÑģÑĤÐ°Ð²Ð¸ÑĤÐµÐ»ÐµÐ¹": 5651,
      "ĠÐ¾ÑģÐ°Ð´ÐºÐ¾Ð²": 5652,
      "ĠÑģÑĤÑĢÐµÐ¼": 5653,
      "ĠÐ¾ÑģÐ½Ð¾Ð²Ð½Ð¾Ð¹": 5654,
      "ÑĥÑĪÐºÐ¸": 5655,
      "Ð¸Ð½Ð°Ð»": 5656,
      "ÐļÐŁ": 5657,
      "ÑĩÐ°": 5658,
      "ĠÐ¾Ð´Ð½Ñĥ": 5659,
      "ĠÑĢÐµÐºÐµ": 5660,
      "ĠÐ¿ÑĢÐ¾ÑĤÐµÑģÑĤ": 5661,
      "ÐµÑĤÐ¸": 5662,
      "ĠÐ·Ð°ÑģÐ»ÑĥÐ³Ð¸": 5663,
      "ĠÐ¿ÑĢÐ¾Ð¸ÑģÑħÐ¾Ð¶Ð´ÐµÐ½Ð¸Ñı": 5664,
      "Ġ90": 5665,
      "ĠÐ½ÐµÑĥÐ´": 5666,
      "ĠÑĢÐ°Ð±Ð¾ÑĤÐ°": 5667,
      "ĠÑģÐµÐ»ÑĮÑģÐºÐ¾Ðµ": 5668,
      "ÑĥÐ·Ð°": 5669,
      "ÑĳÐ½Ð½ÑĭÐ¼": 5670,
      "ĠÐ¾ÑģÐ²Ð¾Ð±Ð¾Ð¶Ð´": 5671,
      "ÐŁÑĢÐµÐ¿Ð¾Ð´Ð°Ð²": 5672,
      "Ð¾Ð´Ð°ÑĤÐµÐ»ÑĮ": 5673,
      "ĠÐ±Ð¾Ð¼Ð±Ð°ÑĢÐ´": 5674,
      "ĠÐ½Ð°ÑħÐ¾Ð´ÑıÑĤÑģÑı": 5675,
      "ÑİÑīÐ¸Ð¼": 5676,
      "ĠÑĥÑĢÐ¾Ð²Ð½Ðµ": 5677,
      "Ð¸Ð¼Ð¾ÑģÑĤÑĮ": 5678,
      "ĠÑĤÑĢÐ°Ð½Ñģ": 5679,
      "ĠÐĶÐ°Ð½": 5680,
      "ĠÑĦÑĢÐ°Ð½ÑĨÑĥÐ·ÑģÐºÐ¸Ð¹": 5681,
      "ĠÑĢÐ°Ð·Ð»Ð¸ÑĩÐ½ÑĭÐµ": 5682,
      "ĠÐķÑģÐ»Ð¸": 5683,
      "ĠÐ¿Ð¸Ð»": 5684,
      "Ð¶ÐµÐ½Ð¸Ðµ": 5685,
      "ĠÐ°Ð²ÑĤÐ¾Ð±": 5686,
      "ĠÑģÑĤÐ°Ð½Ð´Ð°ÑĢÑĤ": 5687,
      "ĠÐ¿ÐµÑĢÐµÐ²ÐµÐ´": 5688,
      "Ð¾ÑģÐ¿Ð¸ÑĤ": 5689,
      "ĠÐ´ÐµÑĢÐµÐ²ÑıÐ½": 5690,
      "ĠÐĽÑĮÐ²": 5691,
      "Ð¼ÐµÑĢÑĩÐµÑģÐº": 5692,
      "ĠÑĥÐ»Ð¸ÑĨÐµ": 5693,
      "ĠÐŁÐ¾Ð¿": 5694,
      "ĠÐ¢ÑĢÑĥÐ´Ð°": 5695,
      "ĠÑģÑĩÐ¸ÑĤÐ°ÐµÑĤÑģÑı": 5696,
      "ÑĦÐ¸Ð»": 5697,
      "Ð½Ð¾Ð·": 5698,
      "Ġ1921": 5699,
      "Ð»Ð¸ÑĪ": 5700,
      "ĠÐ¿Ð¾Ð½Ð¸Ð¼": 5701,
      "ĠÐ½Ð¸Ñĩ": 5702,
      "ĠÐºÐ¾Ð½ÐºÑĥÑĢÑģ": 5703,
      "ern": 5704,
      "ÑĨÐ¸ÑıÑħ": 5705,
      "Ã³": 5706,
      "Ð¾Ð¿Ð¾Ð»Ð¾Ð¶": 5707,
      "ĠÑĪÑĤÑĥÑĢ": 5708,
      "ĠÐ´Ð¸Ð²Ð¸Ð·Ð¸Ð¾Ð½": 5709,
      "ÑĪÐ¸Ð±": 5710,
      "Ġ1933": 5711,
      "Ð²Ð°Ð»": 5712,
      "Ð¾Ð²ÐµÑĢ": 5713,
      "ĠÐ»Ð¸ÑĤ": 5714,
      "ĠÑıÐ²Ð»ÑıÐ»ÑģÑı": 5715,
      "ĠÐĿÐ°Ð³": 5716,
      "ÐºÐ°ÑĢ": 5717,
      "ĠÐĳÑĢÐ¸ÑĤ": 5718,
      "ÑįÐ»": 5719,
      "ÑĨÐ°Ð¼": 5720,
      "ĠÐ¾ÑĢÐ³": 5721,
      "ÑĨÐ¸Ð¾Ð½Ð½ÑĭÐ¹": 5722,
      "ĠÐ¿Ð¾Ð´ÑħÐ¾Ð´": 5723,
      "ĠÐŁÐ¾ÑģÐ»ÐµÐ´": 5724,
      "ÐºÐ»ÑİÑĩ": 5725,
      "ĠÐ¾ÑĢÐ³Ð°Ð½Ð¸Ð·Ð°ÑĨÐ¸Ñı": 5726,
      "ÑĢÐ°ÑģÑģ": 5727,
      "ĠÑĪÐ²ÐµÐ´": 5728,
      "ĠÐĶÐ¶ÐµÐ¹Ð¼": 5729,
      "ĠÑĤÐ¾ÑĩÐºÐ¸": 5730,
      "100": 5731,
      "ĠÐ¼ÑĥÐ·ÐµÑı": 5732,
      "ĠÐ»ÑĥÑĩÑĪÐ¸Ñħ": 5733,
      "ĠÑİÑĢÐ¸Ð´": 5734,
      "ÐŁÐ¾ÑħÐ¾ÑĢÐ¾Ð½ÐµÐ½Ð½ÑĭÐµ": 5735,
      "Ġ1931": 5736,
      "ĠÐ±ÑĭÑģÑĤÑĢÐ¾": 5737,
      "ĠÐ¡ÑĥÐ´": 5738,
      "ÑĥÑĤÐ°": 5739,
      "ical": 5740,
      "ĠÐ¿ÑĥÑģÑĤ": 5741,
      "ĠÑĢÐ°ÑģÑĤÐµÐ½Ð¸Ð¹": 5742,
      "ĠÐºÐ¾ÑĤÐ¾ÑĢÐ¾Ð¼Ñĥ": 5743,
      "ĠÐ·Ð½Ð°ÐºÐ¾Ð¼": 5744,
      "ĠÐĳÐ°ÑĪÐº": 5745,
      "ĠÐ¼ÐµÑģÑıÑĨÐµÐ²": 5746,
      "ĠÐ¤Ð¸Ð»Ð¸Ð¿Ð¿": 5747,
      "ĠÐ¿Ð°Ð¼ÑıÑĤÐ½Ð¸Ðº": 5748,
      "Ð¸ÑħÐ°": 5749,
      "ĠÐ¤Ð¸Ð½Ð»ÑıÐ½Ð´": 5750,
      "ĠÐ²Ð¾ÑģÑĮ": 5751,
      "ÑĢÐ°ÑĤÐµÐ³": 5752,
      "ĠÐ°Ð²ÑĤÐ¾Ð¼Ð°ÑĤ": 5753,
      "Ã¶": 5754,
      "ĠÑģÐ°Ð¼Ð¾ÑģÑĤÐ¾ÑıÑĤÐµÐ»ÑĮ": 5755,
      "ĠÐĲÐ»ÐµÐºÑģÐ°Ð½Ð´ÑĢÐ¾Ð²Ð¸Ñĩ": 5756,
      "ĠÐµÑģÑĤ": 5757,
      "ĠÐ¼Ð°Ð³Ð°Ð·": 5758,
      "Ġ1951": 5759,
      "ĠÑģÐ½Ð¸Ð¼": 5760,
      "ĠÑģÐ°Ð¼Ð¾Ð¹": 5761,
      "2004": 5762,
      "ĠÐ¼Ð°ÑĢÐº": 5763,
      "ÐµÐ·ÑĥÐ»ÑĮÑĤ": 5764,
      "ĠÐ¿ÐµÑĢÐ²ÐµÐ½": 5765,
      "ĠÐĽÐ¸Ð½": 5766,
      "Ð¶Ð´Ðµ": 5767,
      "ĠÐŃÐ¹": 5768,
      "ÐµÐ½Ð½Ð¾ÑģÑĤÑĮ": 5769,
      "ĠÐ²ÐºÐ»ÑİÑĩÐ°ÐµÑĤ": 5770,
      "ĠBe": 5771,
      "ĠÐłÐ°Ð±Ð¾ÑĤ": 5772,
      "Ġ1922": 5773,
      "ĠÐ±Ð¾Ð»ÑĮÑĪÐ¸Ð½ÑģÑĤÐ²Ð¾": 5774,
      "ĠÐ²ÑĢÑĥÑĩ": 5775,
      "ĠÐ²Ð¾ÐºÑĢÑĥÐ³": 5776,
      "ĠÐ¼Ð¾ÑĢÐµ": 5777,
      "ĠÑģÐµÐ¹": 5778,
      "ĠÐ¸Ð·Ð´Ð°Ð½Ð¸Ñı": 5779,
      "ĠÐ²ÑģÑĤÑĢÐµÑĤ": 5780,
      "ÐķÐ²": 5781,
      "ÐµÐ»Ð»Ð¸": 5782,
      "ĠÑĨÐµÐ»Ð¾Ð¼": 5783,
      "ĠÐ¸Ð·Ð²ÐµÑģÑĤÐ½Ð¾": 5784,
      "Ġ1914": 5785,
      "ĠÐ²ÐµÑĢÑĪ": 5786,
      "ĠÑģÐ¸Ð»ÑĮÐ½Ð¾": 5787,
      "ÐļÐ°ÑĢÑĮÐµÑĢÐ°": 5788,
      "ÑĤÐµÑĢÑĢÐ¸ÑĤÐ¾ÑĢÐ¸": 5789,
      "Ð°ÑģÐºÐµÑĤ": 5790,
      "ĠÑģÑĤÐµÐ½": 5791,
      "ĠÐ¼Ð¾Ð³Ð»Ð¸": 5792,
      "ĠÑįÐºÐ¸Ð¿Ð°Ð¶": 5793,
      "ĠPh": 5794,
      "ÑģÑĤÐ²ÐµÐ½Ð½Ð¾Ð³Ð¾": 5795,
      "ĠÐ´ÐµÐ½": 5796,
      "ÐļÐ°Ð·": 5797,
      "ÑĢÐ¾Ð²Ð¾Ð¹": 5798,
      "ĠÑģÐ¼ÐµÑĪ": 5799,
      "1944": 5800,
      "ÑĤÑĢ": 5801,
      "Ð°Ð·Ð²Ð°Ð½Ð¸Ðµ": 5802,
      "Ð¸ÑĤÐµÐ»ÑĮÐ½Ð¾ÑģÑĤÑĮ": 5803,
      "ÐµÑĢÐµÐ¹": 5804,
      "ĠÐŁÐ¾ÑĤ": 5805,
      "se": 5806,
      "Ð³Ð¾Ðµ": 5807,
      "ĠÐĽÐ°ÑĤÐ²": 5808,
      "ĠÐºÐ»ÑİÑĩ": 5809,
      "ĠÐºÐ¾Ð¼Ð¿Ð¾Ð·Ð¸ÑĤÐ¾ÑĢ": 5810,
      "ĠÑģÐ¸ÑģÑĤÐµÐ¼Ðµ": 5811,
      "ĠÐ¿ÑĢÐ¾Ð¸Ð·Ð²Ð¾Ð´ÑģÑĤÐ²Ð¾": 5812,
      "ĠÐ³ÑĢÑĥÐ¿Ð¿Ðµ": 5813,
      "ĠÐĹÐ½Ð°Ð¼": 5814,
      "ĠÑĢÐµÐ¹ÑĤÐ¸Ð½Ð³": 5815,
      "ĠÐ¼ÑĥÐ½Ð¸ÑĨÐ¸Ð¿Ð°Ð»ÑĮÐ½Ð¾Ð³Ð¾": 5816,
      "ÐµÐ²Ð¸Ð·": 5817,
      "Ð¸ÑĢÐ¾Ð²ÐºÐ¸": 5818,
      "ĠÐ¸Ð·Ð³Ð¾ÑĤÐ¾Ð²": 5819,
      "2013": 5820,
      "Ġe": 5821,
      "ÑĪÐ¸Ð½": 5822,
      "Â»<": 5823,
      "ĠÐ¾ÐºÐµ": 5824,
      "ĠÐ¿Ð¾ÑĤÐ¾Ð¼Ñĥ": 5825,
      "Ð¸ÑĨÐ¸Ñİ": 5826,
      "Ð¡ÑİÐ¶ÐµÑĤ": 5827,
      "ĠÐŃÑĤÐ°": 5828,
      "ĠÐºÐ½Ð¸Ð³Ðµ": 5829,
      "ĠÐ²Ð¾Ð·Ð¼Ð¾Ð¶Ð½Ð¾": 5830,
      "ĠÐ¡Ð¾ÑĦ": 5831,
      "ÑĩÐµÐ·": 5832,
      "ĠÑĦÐ¸ÑĢ": 5833,
      "ĠÐĶÐ¼Ð¸ÑĤÑĢÐ¸Ð¹": 5834,
      "ĠÑĢÑıÐ´Ð°": 5835,
      "Ð¾Ð»ÑĮÑģÐºÐ¾Ð³Ð¾": 5836,
      "ĠÑĤÐµÐ»ÐµÐ²Ð¸Ð´": 5837,
      "ĠÐ¿Ð¾ÑģÐµÑī": 5838,
      "ĠRecords": 5839,
      "Ð»ÐµÐ½Ð½ÑĭÐµ": 5840,
      "Ð¾Ð·Ð¼Ð¾Ð¶": 5841,
      "ĠÂ°": 5842,
      "Ð¿Ð¾Ð»Ð¸ÑĤ": 5843,
      "ÑıÑĤÑĮÑģÑı": 5844,
      "ĠÐ¸Ð¼ÐµÐ»Ð¸": 5845,
      "ĠÐ½ÐµÑģÐ¼Ð¾ÑĤÑĢÑı": 5846,
      "ĠÐ±ÐµÐ³": 5847,
      "Ġ1923": 5848,
      "Ð¼Ð°Ð½Ð°": 5849,
      "Ð½Ð°Ð¹": 5850,
      "Ð°ÑīÐ¸Ñħ": 5851,
      "ÑĭÐ²Ð°Ð»Ð¸": 5852,
      "ĠÐ¡ÑĢÐµÐ´Ð½ÑıÑı": 5853,
      "ÑĨÐ¾Ð¼": 5854,
      "age": 5855,
      "ĠÐ´Ð¾ÑģÑĤÐ°ÑĤÐ¾ÑĩÐ½Ð¾": 5856,
      "ĠÐ¿Ð°ÑĢÐ»Ð°Ð¼ÐµÐ½ÑĤ": 5857,
      "ĠÑįÑĦÑĦÐµÐºÑĤÐ¸Ð²": 5858,
      "ĠÐ»Ð¾Ð´": 5859,
      "ÐŁÐµÑģ": 5860,
      "Ð¸Ð½ÑģÐºÐ¸Ðµ": 5861,
      "ÐµÐ´Ð¶": 5862,
      "Ð»ÑĮÑı": 5863,
      "ĠÐ¼ÐµÐ¶": 5864,
      "Ð¤ÑĥÑĤÐ±Ð¾Ð»Ð¸ÑģÑĤÑĭ": 5865,
      "ĠÐ´Ð¾ÑĩÐµÑĢÐ¸": 5866,
      "Ð¸ÑĢÐ°Ð½": 5867,
      "ĠÐ¾ÑĤÐ´ÐµÐ»Ð°": 5868,
      "2014": 5869,
      "ite": 5870,
      "ĠÑĤÐ°ÐºÐ¾Ð¹": 5871,
      "ĠÐ¡Ð»Ð¾Ð²": 5872,
      "ĠÐ±Ð¾ÑĢÑĮÐ±Ðµ": 5873,
      "ĠÐ¾Ð½Ð¾": 5874,
      "ĠÐ¨Ð°ÑĢ": 5875,
      "Ġ1927": 5876,
      "ĠÐ£Ð¸Ð»ÑĮÑıÐ¼": 5877,
      "Ð°Ð»ÑĮÐ´": 5878,
      "ĠÐ¿ÑĢÐ°Ð²Ð¸Ð»Ð¾": 5879,
      "ĠÐ¿ÑıÑĤÐ¸": 5880,
      "ÐŁÑĢÐµÐ¿Ð¾Ð´Ð°Ð²Ð°ÑĤÐµÐ»Ð¸": 5881,
      "ÐĲÐ»": 5882,
      "ĠÐ¿ÑĢÐ¾Ð¸Ð·Ð²ÐµÐ´ÐµÐ½Ð¸Ð¹": 5883,
      "ĠÐ¿Ð¾Ð»ÑĥÑĩÐ¸Ð²": 5884,
      "ÐµÐ¼Ð¾ÑĢÐ¸": 5885,
      "Ġalign": 5886,
      "ĠÐºÐ°Ð¿Ð¸ÑĤÐ°Ð½": 5887,
      "ĠÐ¿Ð¾ÑħÐ¾ÑĢÐ¾Ð½": 5888,
      "ĠÑģÐ²ÐµÐ´ÐµÐ½Ð¸Ñı": 5889,
      "ÑĨÐ¾": 5890,
      "ÐºÐ¾Ð²Ð¾": 5891,
      "ĠÐ²Ð¾Ð´Ð½Ð¾Ð³Ð¾": 5892,
      "ĠÐ±Ð¾Ð»ÑĮÑĪÐ°Ñı": 5893,
      "ÐµÑĢÐ°Ð½": 5894,
      "ĠXVII": 5895,
      "Ð¾ÑĢÐ¾ÑĤÐ°": 5896,
      "ĠÐłÐ°Ð¹": 5897,
      "ÑĳÑĤÑĢ": 5898,
      "Ġi": 5899,
      "ĠÐŁÑĢÐ¾ÑĦÐ¸Ð»ÑĮ": 5900,
      "ĠÑģÐ¾ÑģÑĤÐ¾ÑıÐ»ÑģÑı": 5901,
      "ĠÐłÑĥÐ¼": 5902,
      "ĠÐŁÐ¸ÑĤ": 5903,
      "ĠÐ§Ð°ÑĢ": 5904,
      "ĠÐĲÐº": 5905,
      "Ð¾ÑĢÐ¾Ð²Ð¸Ñĩ": 5906,
      "ĠÐļÐ¸ÑĢÐ¾Ð²": 5907,
      "Ð°Ð³Ð°": 5908,
      "61": 5909,
      "ĠÐ»Ð¸ÑģÑĤ": 5910,
      "Ð½Ð°ÐºÐ¾Ð¼": 5911,
      "Ð°Ð±ÑĢ": 5912,
      "ĠÐ´Ð¸ÑģÑĤÐ°Ð½": 5913,
      "ĠÐ·Ð°ÑīÐ¸Ñī": 5914,
      "ĠÐļÐ°Ð»Ð¸": 5915,
      "ĠÑģÐ¾Ð»Ð½": 5916,
      "ĠÐ¿Ð¾Ð±ÐµÑĢÐµÐ¶": 5917,
      "ĠÐ¿ÑĢÐ¸Ð±Ð»Ð¸Ð·": 5918,
      "ĠÐ¾Ð±ÑıÐ·Ð°Ð½": 5919,
      "ÑįÐ´": 5920,
      "Ð¸Ð³Ð½": 5921,
      "ĠÑĢÐ°Ð±Ð¾ÑĤÐ°ÐµÑĤ": 5922,
      "ĠÐ²ÑĭÐ±Ð¾ÑĢÐ°Ñħ": 5923,
      "Ð°ÑĤÑĥ": 5924,
      "lin": 5925,
      "ÑĢÐ¸Ð°ÑĢÑħ": 5926,
      "ĠÐĴÐ¾ÑģÑĤÐ¾Ðº": 5927,
      "ĠÐ¤Ð¸Ð»": 5928,
      "Ġla": 5929,
      "ĠÐ±Ð¾Ð³Ð°ÑĤ": 5930,
      "ĠÐ¨Ð²ÐµÐ¹ÑĨ": 5931,
      "Ð°ÑģÑĤÑĮ": 5932,
      "ĠÑģÑĤÑĢÐ°Ð½Ð°Ñħ": 5933,
      "ĠÐ»ÐµÑĩ": 5934,
      "ĠÑħÐ¾ÐºÐºÐµ": 5935,
      "ĠÐĴÐ°ÑģÐ¸Ð»Ð¸Ð¹": 5936,
      "ĠÐ²Ð·ÑıÑĤ": 5937,
      "Ð¾Ð²ÑĢÐµÐ¼": 5938,
      "ĠÃ": 5939,
      "ĠÐ¿ÐµÑĢÐµÐº": 5940,
      "ÑĬÑĳÐ¼": 5941,
      "Ð¿ÐµÐ´": 5942,
      "ÐµÑĩÐ½Ð¾Ð¹": 5943,
      "ĠÐ¿ÑĢÐ¾Ð´ÑĥÐº": 5944,
      "Ð°ÑģÐ¾Ð²": 5945,
      "ĠÐĿÐ°Ð´": 5946,
      "ĠÐĹÐ°Ð¿": 5947,
      "ĠÐ¿Ð¾ÑĢÑĥÑĩ": 5948,
      "ĠÐºÐ¾Ð¼Ð°Ð½Ð´Ðµ": 5949,
      "ĠÐ¿ÑĥÑĤÑĮ": 5950,
      "ĠÐ¸Ð·Ð²ÐµÑģÑĤÐµÐ½": 5951,
      "ÑĢÐ¾ÑĢ": 5952,
      "ĠÐ¡ÐµÐ²": 5953,
      "ĠÐĿÐ¸ÐºÐ¾Ð»Ð°ÐµÐ²": 5954,
      "ĠÐ±ÑĢÐ¸Ð³Ð°Ð´Ñĭ": 5955,
      "ĠÐ®ÑĢÐ¸Ð¹": 5956,
      "Ð°Ð±ÑģÐ¾Ð»ÑİÑĤÐ½ÑĭÐ¹": 5957,
      "ick": 5958,
      "ĠÐ´Ð°Ð»ÑĮÐ½ÐµÐ¹ÑĪÐµÐ¼": 5959,
      "Ð¼Ð°Ð¹Ð¾ÑĢ": 5960,
      "ĠÐ¿ÐµÑĢÐ²Ð¾Ðµ": 5961,
      "ĠÐ²Ð¸Ð´Ð°": 5962,
      "Ġ1925": 5963,
      "ÑĤÐ¸Ð¼": 5964,
      "ĠÐŁÐ¾Ð·Ð¶Ðµ": 5965,
      "ĠÐ¡Ð¾ÑĨÐ¸Ð°Ð»Ð¸ÑģÑĤÐ¸ÑĩÐµÑģÐºÐ¾Ð³Ð¾": 5966,
      "ĠÐ¢Ð²ÐµÑĢ": 5967,
      "Ð¾Ð²Ð°Ð½Ð¸Ñİ": 5968,
      "ĠÐ±ÐµÐ´": 5969,
      "Ð°ÑĢÐ¸Ñı": 5970,
      "ĠÑĩÐµÑĢÑĤ": 5971,
      "ĠÐ³ÑĢÑĥÐ¿Ð¿Ñĥ": 5972,
      "Ġder": 5973,
      "ĠÐ¿Ð¾Ð·Ð²Ð¾Ð»ÑıÐµÑĤ": 5974,
      "ĠÐ³Ð°Ð·ÐµÑĤÑĭ": 5975,
      "ĠÐ²Ð¸ÑĨÐµ": 5976,
      "ÑĹ": 5977,
      "ĠÐ°Ð¿Ð¿Ð°ÑĢÐ°ÑĤ": 5978,
      "ĠÐŀÐº": 5979,
      "ĠÑī": 5980,
      "ĠÐ¼ÑĭÑģ": 5981,
      "ĠÐ´ÐµÐ¼Ð¾Ð½": 5982,
      "ĠÐ´ÐµÐ¹ÑģÑĤÐ²Ð¸Ð¹": 5983,
      "ĠÐ§Ð»ÐµÐ½": 5984,
      "ĠÐ¸Ð½Ð¾ÑģÑĤÑĢÐ°Ð½Ð½ÑĭÑħ": 5985,
      "ĠÐ½ÑĥÐ¶": 5986,
      "ĠÐ¼Ð°ÑĤÑĩÐ°": 5987,
      "Ð¾Ð»Ð¾Ð³Ð¸ÑĩÐµÑģÐºÐ¸Ñħ": 5988,
      "ĠÐ³Ð¾ÑĢÐ¾Ð´Ð¾Ð²": 5989,
      "ĠÐµÐ²ÑĢÐµ": 5990,
      "ĠÐłÐ¾Ð±ÐµÑĢÑĤ": 5991,
      "ÑĪÐµÐ¼Ñĥ": 5992,
      "Ð¾ÑģÐ¿Ð¾Ð´": 5993,
      "ÐĿÐ°ÑĨÐ¸Ð¾Ð½Ð°Ð»ÑĮ": 5994,
      "ĠÐĺÐ·Ð²ÐµÑģÑĤ": 5995,
      "ĠÐ´Ð²Ð¸Ð¶ÐµÐ½Ð¸Ðµ": 5996,
      "ĠÐ²ÐµÑĢÑĤ": 5997,
      "ÐĲÐ»ÐµÐºÑģ": 5998,
      "ÐºÐ¾Ð½ÑĩÐ¸Ð»": 5999,
      "ĠÑģÑĤÐ¾ÑĢÐ¾Ð½Ñĥ": 6000,
      "ĠÐ¿ÑĢÐ¸Ðµ": 6001,
      "Ð¸ÑĩÐ½ÑĭÐ¹": 6002,
      "ÑĢÐµÑħ": 6003,
      "ĠÐ·ÑĢÐµÐ½Ð¸Ñı": 6004,
      "Ð¾ÑģÐµ": 6005,
      "ĠÐ·Ð°Ð½Ð¸Ð¼Ð°Ð»ÑģÑı": 6006,
      "ĠÑįÑģÐºÐ°Ð´": 6007,
      "ĠÐ±Ð¾ÑıÑħ": 6008,
      "ĠÐ°ÑĦ": 6009,
      "ĠÑģÐ»ÑĥÑĩÐ°Ð¹": 6010,
      "Ð»ÐµÐºÑģÐ°": 6011,
      "ĠÐ¤ÐµÑĢ": 6012,
      "ĠÐ²ÐµÑĢÑģÐ¸Ñı": 6013,
      "ĠÐĳÐµÐ»Ð°ÑĢÑĥÑģ": 6014,
      "ĠÐĿÐ°ÑĢ": 6015,
      "ĠÑģÑĢÐµÐ´Ð½ÐµÐ¼": 6016,
      "ĠÑģÑĥÐ´Ð°": 6017,
      "ÑĨÐ¸Ð°Ð»Ð¸Ð·": 6018,
      "Ð¡Ð¿Ð¸ÑģÐ¾Ðº": 6019,
      "ĠÐµÐ¶ÐµÐ³Ð¾Ð´": 6020,
      "ĠÑģÐµÐ»ÑĮÑģÐºÐ¾ÑħÐ¾Ð·ÑıÐ¹": 6021,
      "ĠÐ´Ð¾ÐºÐ°Ð·": 6022,
      "ÐµÐºÑģÑĥ": 6023,
      "ĠÑģÐµÐ¼ÑĮ": 6024,
      "ÐĿÐ°Ñĩ": 6025,
      "ÐļÐ¾Ð»": 6026,
      "Ð¸Ð½ÐºÐ¸": 6027,
      "ĠÐ¾Ð´ÐµÑĢÐ¶": 6028,
      "ĠÐĿÐ¸ÐºÐ¾Ð»Ð°Ñı": 6029,
      "ĠÑĢÐµÑģ": 6030,
      "2003": 6031,
      "ĠÐĴÐµÑĢ": 6032,
      "Ð½Ð°Ð¿": 6033,
      "Ġ39": 6034,
      "ÐĶÐ»Ñı": 6035,
      "Ð£Ñĩ": 6036,
      "Ð°Ð»Ð¸Ð·Ð°ÑĨÐ¸Ð¸": 6037,
      "ĠÐ¾ÑĤÐ´ÐµÐ»ÐµÐ½Ð¸Ñı": 6038,
      "ĠÑĦÐ¸Ð»ÑĮÐ¼Ñĭ": 6039,
      "ĠÑĩÐ¸ÑģÑĤ": 6040,
      "ĠÐ¼ÑĥÐ½Ð¸ÑĨÐ¸Ð¿Ð°Ð»": 6041,
      "Ð·ÑĭÐ²": 6042,
      "Ð¼ÐµÑģÑĤÐµ": 6043,
      "ĠÐĴÐµÐ½": 6044,
      "ĠÐ²Ð¾Ð¹ÑģÐºÐ°Ð¼Ð¸": 6045,
      "ĠÑģÐ»ÐµÐ´ÑĥÑİÑīÐ¸Ðµ": 6046,
      "ĠÐ³Ð¸Ð±": 6047,
      "ĠÐ´ÐµÐ»Ð¾": 6048,
      "ÐµÐºÑĤÑĭ": 6049,
      "ÐļÐ°Ðº": 6050,
      "Ð½Ð°Ð±": 6051,
      "ĠÐ¿Ð¾Ð»Ñı": 6052,
      "ĠÐĵÐµÐ½ÑĢÐ¸Ñħ": 6053,
      "Ð»Ð¾Ð´": 6054,
      "ĠÐ°Ð´Ð¼Ð¸Ð½Ð¸ÑģÑĤÑĢÐ°ÑĤÐ¸Ð²Ð½Ð¾": 6055,
      "ÐµÑĢÐ¸Ð°Ð»Ñĭ": 6056,
      "ĠÐĳÐµÐ·": 6057,
      "ĠÑģÐ½Ñı": 6058,
      "oh": 6059,
      "rom": 6060,
      "ĠÐĶÐ¾Ðº": 6061,
      "ÐĿÐ¸Ðº": 6062,
      "ĠÑĢÐ°Ð´Ð¸Ð¾": 6063,
      "Ð¿Ð°ÑĢÐ°": 6064,
      "ĠÑĦÐ°Ð¼Ð¸Ð»Ð¸Ñı": 6065,
      "ĠÐ¾ÑħÑĢÐ°Ð½": 6066,
      "ÐŃÐ½": 6067,
      "ÐĽÑİ": 6068,
      "ĠÑĢÐ°Ð¹Ð¾Ð½Ð½Ð¾Ð³Ð¾": 6069,
      "Ð¸Ð½ÑģÐºÐ¾Ðµ": 6070,
      "ÑĤÐ°Ðº": 6071,
      "ÑĭÐºÐ°": 6072,
      "ĠÐŁÐ°ÑĢÐ°": 6073,
      "ÐĶÐµÐ¿ÑĥÑĤ": 6074,
      "Ġund": 6075,
      "ĠCl": 6076,
      "ĠÐļÐ°Ð²ÐºÐ°Ð·": 6077,
      "ĠÑģÐ¼ÐµÑĢÑĤ": 6078,
      "ĠÐºÐ°Ð¶Ð´ÑĭÐ¹": 6079,
      "Ð¸ÑĩÐ½ÑĭÐµ": 6080,
      "ĠÑģÐµÑĢÑĮÑĳÐ·": 6081,
      "ĠÐ½ÑĭÐ½Ðµ": 6082,
      "ek": 6083,
      "ĠÑĦÐ¸Ð»ÑĮÐ¼Ð¾Ð²": 6084,
      "ĠÐ»ÑİÐ±Ð¾Ð²": 6085,
      "ĠÐ¿Ð°ÑĢÑĤÐ¸Ñı": 6086,
      "ĠÐ½Ð¸ÐºÐ°Ðº": 6087,
      "Ð°ÑİÑīÐµÐ³Ð¾": 6088,
      "ĠÐ¿Ð¾ÑģÐµÑĤ": 6089,
      "ĠÐ¿ÑĢÐ¾Ð±Ð»ÐµÐ¼Ñĭ": 6090,
      "ÑĢÐµÑģÐ¿": 6091,
      "ĠÐ²ÑĭÐ¿Ð¾Ð»Ð½Ñı": 6092,
      "ĠÐ¿ÑĢÐµÐ¼ÑĮÐµÑĢ": 6093,
      "ĠÐ¿ÑĢÐµÐ¿Ð¾Ð´": 6094,
      "ÑĤÐ¾ÑĢÐ¾Ð²": 6095,
      "ĠÐ½Ð¸Ð¶Ðµ": 6096,
      "ĠÐ·Ð²ÑĳÐ·Ð´": 6097,
      "ĠÐ²Ð¸Ð´ÐµÐ¾": 6098,
      "Ð°ÑĢÑģÐºÐ¾Ð³Ð¾": 6099,
      "ĠÑģÐµÑģÑĤ": 6100,
      "ĠÐ·Ð½Ð°Ð¼ÐµÐ½Ð¸ÑĤ": 6101,
      "ary": 6102,
      "Ð°Ð½Ð³ÐµÐ»ÑĮ": 6103,
      "ĠÐ¿ÑĢÐµÐ¼Ð¸Ñı": 6104,
      "Ð³Ð¾ÑģÐ»Ð°Ð²": 6105,
      "Ð°ÑĤÐ¸ÑģÑĤÐ¸ÐºÐ°": 6106,
      "ĠÐ¸ÑģÑĤÐ¾ÑĢÐ¸Ñİ": 6107,
      "ions": 6108,
      "ĠÐĽÐµÐ¹": 6109,
      "ÐĳÐ¾Ð»ÑĮÑĪ": 6110,
      "ÐµÐ¼Ð°": 6111,
      "ĠÐ²ÑģÑİ": 6112,
      "ult": 6113,
      "Ð¢ÑĢÐµÐ½": 6114,
      "ĠÐ¿ÑĢÐ¾ÑģÑĤÐ¾": 6115,
      "ĠÐ·Ð°ÑīÐ¸ÑĤÑĭ": 6116,
      "ĠÐ¡Ð¸Ð»": 6117,
      "ĠÐ¿ÑĢÐµÐ´Ð½Ð°Ð·Ð½Ð°Ñĩ": 6118,
      "ĠÑĢÐµÐ³Ð¸Ð¾Ð½Ðµ": 6119,
      "ĠÑĤÑİÑĢÑĮ": 6120,
      "ÑģÑĥ": 6121,
      "Ð±ÑĭÐ²": 6122,
      "ÐĿÐµ": 6123,
      "2001": 6124,
      "ĠÐ´Ð¶": 6125,
      "ĠÑģÑĬÑĳÐ¼": 6126,
      "ĠÐ¿ÑĢÐ¾Ð´Ð°Ð¶": 6127,
      "Ð°Ð½Ð½": 6128,
      "ĠÐ¿Ð¾ÑģÐ»ÐµÐ´Ð½Ð¸Ð¹": 6129,
      "2002": 6130,
      "ÑĢÑĥÐ¿Ð¿Ñĭ": 6131,
      "ĠÑĢÐ°Ð´": 6132,
      "ÑĮÑıÐ¼Ð¸": 6133,
      "ĠÑģÑĤÐ¾ÑĢÐ¾Ð½Ðµ": 6134,
      "ĠÐºÐ¾Ð»ÑħÐ¾Ð·": 6135,
      "ĠÑĥÑĩÐ°ÑģÑĤÐ¾Ðº": 6136,
      "ĠÐ¥ÑĢÐ¸ÑģÑĤ": 6137,
      "Ð¸ÑĦÐ¸ÐºÐ°ÑĨÐ¸Ð¸": 6138,
      "ĠÐ°ÑģÐ¿": 6139,
      "ĠÐĴÐ¸Ð´": 6140,
      "ÑĪÐ¸": 6141,
      "ĠÐ¿ÑĢÐµÐ´Ð¿Ð¾Ð»Ð¾Ð¶": 6142,
      "ÐºÑĤÐ¾ÑĢÐ°": 6143,
      "ĠÐ½Ð°ÑĢÐ¾Ð´Ð¾Ð²": 6144,
      "ÑģÑĤÐ°": 6145,
      "ĠÐ¾Ð³ÑĢÐ¾Ð¼": 6146,
      "ĠÐ¿ÑĢÐ¾ÑĢ": 6147,
      "ÐĺÑģÑĤÐ¾ÑĢ": 6148,
      "ĠÐļÑĢÐ°ÑģÐ½Ð¾Ð³Ð¾": 6149,
      "ĠÑģÐ²Ð¾Ð¸Ð¼Ð¸": 6150,
      "ĠÐ¼ÑĥÑģ": 6151,
      "ĠÐ²Ð°ÑĢÐ¸Ð°Ð½ÑĤ": 6152,
      "ĠÐ¼ÐµÐ¶Ð´ÑĥÐ½Ð°ÑĢÐ¾Ð´Ð½ÑĭÑħ": 6153,
      "ĠÐ¿ÑĢÐ¸Ð·Ð²": 6154,
      "ĠÐ±ÑĥÐ´ÑĥÑĤ": 6155,
      "ĠÐ¼ÐµÑģÑĤÐ½Ð¾Ð³Ð¾": 6156,
      "ĠÐ¯ÐºÐ¾Ð²": 6157,
      "ĠÐºÐ¾Ð»Ð»ÐµÐ´": 6158,
      "ĠÐ³ÑĢÐ°Ð½Ð¸ÑĨÑĭ": 6159,
      "Ġ1915": 6160,
      "ĠÐ°ÑĢÑħÐ¸ÐµÐ¿Ð¸ÑģÐºÐ¾Ð¿": 6161,
      "ĠÐ¡Ñĥ": 6162,
      "ĠÐ²Ð»Ð°ÑģÑĤÑĮ": 6163,
      "ĠÐ¿Ð¾ÐºÑĢÐ¾Ð²": 6164,
      "ĠÐ¾ÑĪÐ¸Ð±": 6165,
      "Ð¸Ð½Ñı": 6166,
      "Ð°Ð½ÐºÐ°": 6167,
      "ĠÐ¿ÑĢÐµÐ´Ð»Ð°Ð³": 6168,
      "ĠÑĤÐµÑĢÐ¼Ð¸Ð½": 6169,
      "ĠÐ´ÐµÑıÑĤ": 6170,
      "isc": 6171,
      "ĠÐ¿Ð°Ð´": 6172,
      "ÑĮÐ¼": 6173,
      "Ð½Ð°ÑĩÐ°Ð»ÑĮÐ½Ð¾": 6174,
      "ice": 6175,
      "ĠÑħÑĥÐ´Ð¾Ð¶Ð½Ð¸ÐºÐ¾Ð²": 6176,
      "ÑĢÐ°Ð¿": 6177,
      "Ð±ÑĢÐ°Ð½": 6178,
      "Ð¸Ð¼Ð¾ÑģÑĤÐ¸": 6179,
      "ics": 6180,
      "ĠÐºÐ¾Ð½ÑĤÑĢÐ¾Ð»": 6181,
      "ĠÐºÐ½Ð¸Ð³Ð°": 6182,
      "ĠÐºÐ¾Ð¼Ð°Ð½Ð´Ð¸ÑĢÐ°": 6183,
      "ward": 6184,
      "ĠÐķÑĳ": 6185,
      "ÑĨÐµÐ¿": 6186,
      "ĠÑģÑĤÐ¸Ð»Ðµ": 6187,
      "ĠÐļÑĥ": 6188,
      "ÑĩÐ¸ÐºÐ¸": 6189,
      "ĠÑģÑĢÐµÐ´ÑģÑĤÐ²Ð°": 6190,
      "ĠÐ±Ð¾Ð»ÑĮÑĪÐ¾Ðµ": 6191,
      "one": 6192,
      "Ð°ÐºÐ¾Ð¼": 6193,
      "Ð¾ÑĢÐ³Ð°Ð½": 6194,
      "Ġdes": 6195,
      "Ð¸ÑĢÐ¾Ð²Ð°Ð½Ð¾": 6196,
      "Ġet": 6197,
      "ĠÐ½Ð¾Ð³": 6198,
      "ÑĳÐ¹": 6199,
      "ĠÑĢÑĥÑģÑģÐºÐ¸Ñħ": 6200,
      "ĠÑģÑĢÐµÐ´Ð½ÐµÐ¹": 6201,
      "Ð°ÐµÐ¼ÑĭÑħ": 6202,
      "ÐµÑģÑĤÐ²Ñĥ": 6203,
      "ĠÐ½Ð°ÑĨÐ¸Ð¾Ð½Ð°Ð»ÑĮÐ½Ð¾Ð³Ð¾": 6204,
      "ÐµÐ½Ð¸ÑıÐ¼": 6205,
      "ĠÑĥÐ»Ð¸ÑĨ": 6206,
      "ĠÐ¿Ð»Ð°ÑĤÑĦÐ¾ÑĢÐ¼": 6207,
      "Ð¾ÐºÐ¾Ð²": 6208,
      "Ð¼ÐµÑĢÑĤ": 6209,
      "ĠÐ¢Ð°ÐºÐ¸Ð¼": 6210,
      "ĠÐ½ÐµÐ¾Ð´Ð½": 6211,
      "ĠÐ¼Ð¾Ð½Ð°ÑģÑĤÑĭÑĢÑı": 6212,
      "ĠÐ¾ÑĤÐ½Ð¾ÑĪÐµÐ½Ð¸Ð¸": 6213,
      "Ġ300": 6214,
      "ĠÐ¶Ð¸Ð²Ð¾ÑĤÐ½ÑĭÑħ": 6215,
      "ĠÑģÐ½Ð°ÑĩÐ°Ð»Ð°": 6216,
      "ĠÑĤÐµÑħÐ½Ð¸ÐºÐ¸": 6217,
      "ĠÐľÐ¸ÑħÐ°Ð¹Ð»Ð¾Ð²Ð¸Ñĩ": 6218,
      "Ð½Ð¸ÐºÑĥ": 6219,
      "ĠÐ°ÑĢÐ¼ÑıÐ½": 6220,
      "ĠÐ¼Ð¾Ð´ÐµÐ»Ð¸": 6221,
      "ÐĶÐ¸Ð½Ð°Ð¼Ð¾": 6222,
      "ĠÐ°Ð³ÐµÐ½ÑĤ": 6223,
      "ĠÐ´Ð¾ÐºÑĤÐ¾ÑĢÐ°": 6224,
      "ĠÐľÑĥÑħ": 6225,
      "ĠÑįÑĤÐ½": 6226,
      "Ð½Ð¸ÐºÐ°Ð¼": 6227,
      "Ð¼Ð¾Ð½": 6228,
      "Ð¿Ð¾Ñĩ": 6229,
      "ĠÑĥÐ¿ÑĢÐ°Ð²Ð»ÐµÐ½Ð¸Ðµ": 6230,
      "ĠÐ·ÐµÐ¼ÐµÐ»ÑĮ": 6231,
      "ĠÐ¾ÑģÑĥÑīÐµÑģÑĤÐ²Ð»Ñı": 6232,
      "ear": 6233,
      "Ð»Ð°Ñħ": 6234,
      "ĠÐ±ÑĥÑĢ": 6235,
      "ÐµÑĢÐ¿": 6236,
      "Ð¾ÑĢÑĤÑĥÐ³": 6237,
      "ĠÐ¾Ð±ÑĬÑĳÐ¼": 6238,
      "ĠÑģÐ¾Ð±Ð¸ÑĢÐ°": 6239,
      "ĠÐľÐµÐºÑģ": 6240,
      "ĠÑģÑĤÐ¾Ñı": 6241,
      "ĠÐĽÐ¸Ð²": 6242,
      "ĠÐºÐ½ÑıÐ·Ñı": 6243,
      "ĠÐ¿ÐµÑĢÐµÐ´Ð°Ñĩ": 6244,
      "ĠÐºÐ¾Ð¼Ð¸ÑģÑģÐ¸Ð¸": 6245,
      "sch": 6246,
      "ĠSch": 6247,
      "ĠÑĨÐ¸ÑĦ": 6248,
      "ÐľÐ¾Ð½": 6249,
      "ĠÐĶÐ°Ð»ÑĮ": 6250,
      "Ð¿Ð¾Ð»ÐºÐ¾Ð²": 6251,
      "ĠÐ¿Ð¾Ð»Ð¾Ð²Ð¸Ð½Ðµ": 6252,
      "59": 6253,
      "ÑĥÐ»ÑĮÐ¼Ð°Ð½": 6254,
      "ĠÐ´Ð¾Ð²Ð¾Ð»ÑĮ": 6255,
      "ĠÐĿÐµÑģÐ¼Ð¾ÑĤÑĢÑı": 6256,
      "ĠÐ¢Ð¾Ð»": 6257,
      "ĠÐ´Ð¸Ð½Ð°ÑģÑĤ": 6258,
      "2015": 6259,
      "ĠÐ³ÐµÐ½": 6260,
      "Ð°ÑĢÐ¸Ð¹": 6261,
      "ĠÐ¸Ð·Ð±Ð¸ÑĢÐ°ÑĤ": 6262,
      "ÑĥÐ»ÐµÐ¼": 6263,
      "ÑĢÐ°Ð´Ðµ": 6264,
      "Ð¸ÑĤÐµÐ»ÑĮÑģÑĤÐ²Ð¾": 6265,
      "ĠÐ»Ð¸Ðº": 6266,
      "les": 6267,
      "ÐµÐ¶Ð¸ÑģÑģÑĳÑĢ": 6268,
      "ĠÐĴÐ°Ð½": 6269,
      "ĠÐ´Ð¾Ð»Ð³": 6270,
      "Ð·Ð¸Ð¸": 6271,
      "ĠÐ·Ð½Ð°ÑĩÐ¸ÑĤÐµÐ»ÑĮÐ½Ð¾": 6272,
      "Ð¡ÑĢÐµÐ´": 6273,
      "Ð¿Ð°Ð½Ð¸Ñı": 6274,
      "ĠÐ¡ÐµÑĢÐ±": 6275,
      "ÑģÑĤÐ°Ð½Ð¾Ð²": 6276,
      "ann": 6277,
      "ĠÐ´ÐµÐ¿ÑĥÑĤÐ°ÑĤÐ¾Ð²": 6278,
      "ĠÐ¿ÑĢÐ¸Ð½Ð¸Ð¼Ð°Ð»": 6279,
      "ÑĥÑĩÑĪ": 6280,
      "ĠÐľÐ¸Ð½Ð¸ÑģÑĤÐµÑĢÑģÑĤÐ²Ð°": 6281,
      "ĠÐ¾Ð±Ð¸ÑĤ": 6282,
      "Ð·Ð¸": 6283,
      "ĠÐ°Ð½Ð³": 6284,
      "ĠÐ½Ð¸Ð¼Ð¸": 6285,
      "ĠÑģÑĥÐ»": 6286,
      "Ð¼ÐµÐ¹": 6287,
      "ĠÐĴÐ¾Ð¹": 6288,
      "ĠÐ·Ð¸Ð¼Ð¾Ð¹": 6289,
      "ĠÑģÐ½Ð¸": 6290,
      "Ġ33": 6291,
      "Ð¾ÑĩÐ½Ð¾Ð³Ð¾": 6292,
      "Ð²Ð¾ÑģÑĤÐ¾ÐºÑĥ": 6293,
      "ĠÑħÑĢÐ°Ð¼Ð°": 6294,
      "Ð¾ÑĩÑĮ": 6295,
      "ĠÑĢÐµÐ·ÐµÑĢÐ²": 6296,
      "Ð·Ð°Ð¿Ð°Ð´Ñĥ": 6297,
      "ĠÐ¿Ð¾ÐºÐ¾Ð»": 6298,
      "ĠÐ¿Ð°Ð¼ÑıÑĤÐ¸": 6299,
      "ĠÐ¿ÑĮÐµÑģ": 6300,
      "ĠÑĢÐ°Ð·Ð±": 6301,
      "ĠÑĨÐµÐ½ÑĤÑĢÐ°Ð»ÑĮÐ½Ð¾Ð¹": 6302,
      "ĠÐ²Ð½ÐµÑģ": 6303,
      "ĠÑĤÐ°": 6304,
      "ÑģÑĤÑĢÐ°": 6305,
      "ĠÑģÑĥÑīÐµÑģÑĤÐ²ÑĥÐµÑĤ": 6306,
      "ĠÐĺÐ¼": 6307,
      "ĠÐ¼Ð¾Ð´ÐµÐ»ÑĮ": 6308,
      "Ġ1905": 6309,
      "ĠÐ¿ÐµÐ½Ñģ": 6310,
      "pt": 6311,
      "Ð°ÑĢÐ½": 6312,
      "ĠÐ·ÐµÐ¼Ð»Ñı": 6313,
      "ÑĳÑĢÐ¾Ð²": 6314,
      "ÑĢÑıÐ´Ð°": 6315,
      "ĠÐ¸ÑĤÐ¾Ð³Ð°Ð¼": 6316,
      "Ð¾Ð½ÑĮ": 6317,
      "ĠÐ¿ÑĢÐµÐ´ÐµÐ»Ð°Ñħ": 6318,
      "ĠÐ¸ÑģÐ¿Ð¾Ð»ÑĮÐ·Ð¾Ð²Ð°Ð½Ð¸Ñı": 6319,
      "ĠÑĢÐµÐ³Ð¸": 6320,
      "ĠÑĤÐµÐ»ÐµÐºÐ°Ð½": 6321,
      "ĠÐ²ÑģÑı": 6322,
      "Ð´ÐµÐ»ÑĮ": 6323,
      "ĠÐ²ÑĤÐ¾ÑĢÐ¾Ð¼": 6324,
      "ĠÐĵÑĢÐ¸Ð³Ð¾ÑĢ": 6325,
      "ÑĢÐ¾ÑĤÐ¸Ð²": 6326,
      "Ð¸Ð»Ð¾Ð²": 6327,
      "ÐľÐµÐ´": 6328,
      "ĠÐ·Ð´Ð¾ÑĢÐ¾Ð²": 6329,
      "yle": 6330,
      "Ð¾Ð·Ñĭ": 6331,
      "ÐŃÐºÐ¾Ð½Ð¾Ð¼": 6332,
      "ĠÑĥÐ»ÑĥÑĩÑĪ": 6333,
      "ĠÐ»Ð°Ð±Ð¾ÑĢÐ°ÑĤÐ¾ÑĢ": 6334,
      "ron": 6335,
      "ÑĦÐ¾ÑĢÐ´": 6336,
      "ĠÐ³Ð¾ÑģÑĥÐ´Ð°ÑĢÑģÑĤÐ²": 6337,
      "Ð¥ÑĥÐ´Ð¾Ð¶": 6338,
      "58": 6339,
      "ĠÑģÐ¾Ð²ÑĢÐµÐ¼ÐµÐ½Ð½Ð¾Ð¹": 6340,
      "ĠVI": 6341,
      "ĠÐĴÑģÐµÑĢ": 6342,
      "ÑĤÐ°Ð¶": 6343,
      "ĠÐ¼Ð¸Ð½Ð¸Ð¼ÑĥÐ¼": 6344,
      "ĠÐŁÑĢÐ¸Ð¼": 6345,
      "ÑĳÐ½Ð½Ð¾Ðµ": 6346,
      "Ð¡ÐµÐ¼ÑĮÑı": 6347,
      "ĠÑĥÐ¼ÐµÐ½ÑĮÑĪ": 6348,
      "Ð¸ÑĢÐ¾Ð²Ð°Ð½Ð½ÑĭÐ¹": 6349,
      "Ġon": 6350,
      "ĠÐ§ÐµÑĢÐµÐ·": 6351,
      "ĠÑĢÑĥÐ±Ð»ÐµÐ¹": 6352,
      "ĠÐ±ÑĭÐ²ÑĪÐ¸Ð¹": 6353,
      "ĠÑĢÐµÐ¶Ð¸ÑģÑģÑĳÑĢÐ°": 6354,
      "ĠÑģÐ¾Ð·Ð´Ð°Ð²": 6355,
      "ĠÐ¼ÐµÐ´Ð¸": 6356,
      "ĠÐ¼ÑĥÐ¶ÑĩÐ¸Ð½Ñĭ": 6357,
      "ÑıÑīÐ¸Ðµ": 6358,
      "ĠÑģÑİÐ¶ÐµÑĤ": 6359,
      "ĠÑģÑĤÐ°ÑĢÑĤ": 6360,
      "ĠÐ³ÑĢÐ°ÑĦÐ°": 6361,
      "ÑģÐ¾": 6362,
      "ĠÐ»ÑİÐ´": 6363,
      "ĠÐ¿ÑĢÐ¸ÑģÐ²Ð¾ÐµÐ½Ð¾": 6364,
      "Ð´Ð¼Ð¸Ð½Ð¸ÑģÑĤÑĢÐ°ÑĤÐ¸Ð²Ð½ÑĭÐ¹": 6365,
      "ĠÑĢÐ¾Ðº": 6366,
      "2016": 6367,
      "Ð¾ÐºÑĢÐ°ÑĤÐ½Ð¾": 6368,
      "ÑıÑīÐ¸Ð¹": 6369,
      "ĠÑĪÐ¾Ñĥ": 6370,
      "ict": 6371,
      "ÑģÑĤÐ²Ð¸Ñı": 6372,
      "ĠÐŁÐ°Ð²ÐµÐ»": 6373,
      "ĠÐĵÐ¾Ð´": 6374,
      "ĠÑĪÑĤÐ°Ð±": 6375,
      "ÑģÑĤÐ²ÐµÐ½Ð½ÑĭÐµ": 6376,
      "Ð°ÑĤÐ¾ÑĢÐ¾Ð¼": 6377,
      "Ð½Ð°ÑģÑĤ": 6378,
      "ĠXVI": 6379,
      "ĠÐĿÐ°ÑĨÐ¸Ð¾Ð½Ð°Ð»ÑĮÐ½ÑĭÐ¹": 6380,
      "Ð¸Ð½Ð°Ñħ": 6381,
      "ĠÐ¿Ð¾Ð¼Ð¾ÑīÑĮ": 6382,
      "ĠÐ³Ð¸Ð¼Ð½Ð°Ð·": 6383,
      "ĠÐºÐ°Ð²Ð°Ð»ÐµÑĢ": 6384,
      "ĠÐ´Ð»Ð¸Ð½Ð¾Ð¹": 6385,
      "ĠÐĺÑģÑĤÐ¾ÑĢÐ¸Ñı": 6386,
      "Ð»ÑĮÐ½ÑĭÐ¹": 6387,
      "ĠÐ¼ÐµÐ½Ñı": 6388,
      "ÐĶÐµÐ¿ÑĥÑĤÐ°ÑĤÑĭ": 6389,
      "ÑĮÐµÑĤ": 6390,
      "ĠÐ¼Ð¾ÑĤÐ¸Ð²": 6391,
      "ĠÐ¨Ð²ÐµÑĨÐ¸Ð¸": 6392,
      "ĠÐ¿Ð¾Ð´Ð°Ð²": 6393,
      "ĠÐ¿Ð¾Ð½ÑıÑĤ": 6394,
      "ĠÑįÐºÑģÐ¿Ð»ÑĥÐ°ÑĤÐ°": 6395,
      "\"|": 6396,
      "ĠÐ±Ð¾ÑĢ": 6397,
      "ĠÐŁÐ°Ð½": 6398,
      "ĠÐ¾ÑĦÐ¸ÑĨÐ¸Ð°Ð»ÑĮÐ½Ð¾": 6399,
      "Ġ37": 6400,
      "ĠCo": 6401,
      "ĠÐŃÑĤÐ¸": 6402,
      "ĠÐ¿ÑĢÐµÐ´ÑģÐµÐ´Ð°ÑĤÐµÐ»Ñı": 6403,
      "ĠÐķÐ³Ð¸Ð¿": 6404,
      "ÐłÐ¾ÑģÑģÐ¸Ñı": 6405,
      "ÐĴÐ¾Ð»": 6406,
      "ĠÐ´Ð¾Ð»Ð¶Ð½Ð°": 6407,
      "ĠÐĶÐ¸": 6408,
      "54": 6409,
      "ÐľÐĺ": 6410,
      "ĠÐºÐ¾Ð¼Ð¿ÑĮÑİÑĤÐµÑĢ": 6411,
      "ĠÐ¿Ð¾ÑĩÑĳÑĤ": 6412,
      "ĠÐŁÐ¾Ðº": 6413,
      "ĠÐºÐ¾Ð¼Ð¼ÑĥÐ½Ð°": 6414,
      "ÐŁÐ¾Ð»Ð¸ÑĤ": 6415,
      "ĠÑİÐ¶Ð½Ð¾Ð¹": 6416,
      "Ð¸Ð²Ð°Ð»Ð¸": 6417,
      "ĠÑĤÑĢÐ°ÐºÑĤ": 6418,
      "ĠÐĹÐ¾Ð»Ð¾ÑĤ": 6419,
      "Ð°Ð½ÑģÐºÐ¾Ð¼": 6420,
      "ĠÐĿÐ¸": 6421,
      "ĠÐĺÐ½Ð´Ð¸Ð¸": 6422,
      "ĠÐ·Ð°Ð½Ð¸Ð¼Ð°Ð»": 6423,
      "ĠÐ¸Ð¼ÐµÐ½ÐµÐ¼": 6424,
      "ĠÑĦÐ¸Ð³ÑĥÑĢ": 6425,
      "ĠÑģÐµÑĤÐ¸": 6426,
      "Ð¿Ð¾Ð»Ð½": 6427,
      "ĠÑħÐ¾Ð»": 6428,
      "old": 6429,
      "ĠÑģÐ»ÐµÐ´ÑĥÑİÑīÐ¸Ð¹": 6430,
      "ĠÐ¾ÑģÐ½Ð¾Ð²Ð½ÑĭÑħ": 6431,
      "ĠÐĸÐ°Ð½": 6432,
      "ĠÑģÐ°Ð½": 6433,
      "ĠÐĳÐ°Ð¹": 6434,
      "yn": 6435,
      "ĠÐºÐ¾Ð½ÑĤÑĢÐ¾Ð»ÑĮ": 6436,
      "ĠÐ¡ÑĥÐ¿": 6437,
      "ĠÑģÐ°Ð¼Ð¾Ð¼": 6438,
      "ĠÑĩÐµÑĤÐ²ÑĳÑĢÑĤ": 6439,
      "ÐºÐ°Ð·Ð¾Ð¼": 6440,
      "Ġ38": 6441,
      "ĠÐºÐ¾ÑĢÐ°Ð±Ð»Ñı": 6442,
      "ĠÑĥÐ²Ð¸Ð´": 6443,
      "ÑĤÐµÐ·": 6444,
      "Ð²Ð¾ÑģÑĤ": 6445,
      "ĠÐ¢ÐµÐ»": 6446,
      "ÑĢÐ¸Ð¼ÐµÑĩÐ°ÑĤÐµÐ»ÑĮ": 6447,
      "ÑĢÐµÐ¹Ñģ": 6448,
      "ĠÑĢÐ°ÑĥÐ½": 6449,
      "ĠÐĽÑİÐ±": 6450,
      "ĠÐ½Ð°Ð¿ÑĢÐ°Ð²Ð»ÐµÐ½Ð¸Ñı": 6451,
      "ÐµÐ¼ÑĭÑħ": 6452,
      "ĠÐĲÑĢÐ¼Ð¸Ð¸": 6453,
      "ĠÐ½Ð°Ð¿ÑĢÑı": 6454,
      "ĠÐ°ÑĢÐ°Ð±": 6455,
      "ĠÑĥÑĩÐ¸Ð»ÑģÑı": 6456,
      "ÐºÐ¾Ð²ÑĮ": 6457,
      "ÑĳÐ²Ð°": 6458,
      "au": 6459,
      "ĠÐ¿ÑĢÐµÐ¸Ð¼ÑĥÑīÐµÑģÑĤÐ²ÐµÐ½Ð½Ð¾": 6460,
      "ĠÐ°ÐºÑĤÐ¸Ð²Ð½Ð¾": 6461,
      "ÑīÐ¸Ð½Ñĭ": 6462,
      "ĠÐ·Ð°ÑģÑĤÐ°Ð²": 6463,
      "ĠÐ¼Ð¸ÑĦ": 6464,
      "ÑĭÐ²Ð°Ñı": 6465,
      "Ð½Ð¾Ð¶": 6466,
      "ÐºÑĢÑĭÑĤ": 6467,
      "ĠÐ³Ð»Ð°Ð·": 6468,
      "ÐĹÐ´": 6469,
      "Ð¸Ð²Ð¸Ð´Ñĥ": 6470,
      "ĠÐ¾Ð±ÑģÐ»ÑĥÐ¶": 6471,
      "ĠÐ±Ð¾Ð³Ð¾Ñģ": 6472,
      "ĠÐĹÐ°Ð½Ð¸Ð¼Ð°ÐµÑĤ": 6473,
      "ĠÐŁÐ°ÑĢÐ¸": 6474,
      "ĠÑĢÐ°Ð·Ð°": 6475,
      "ĠÐłÑĭ": 6476,
      "ĠÐ¤ÐµÐ´": 6477,
      "Ð¾ÑĩÐºÐ¸": 6478,
      "Ð¾ÑģÐ½Ð¾Ð²": 6479,
      "land": 6480,
      "ĠÐ¼ÐµÑĢÐµ": 6481,
      "ĠÐ±ÐµÑģ": 6482,
      "ĠÐ·Ð°Ð±Ð¾Ð»ÐµÐ²": 6483,
      "ĠÐ£Ð·Ð±ÐµÐº": 6484,
      "ÐĲÐ»ÑĮÐ±Ð¾Ð¼Ñĭ": 6485,
      "ĠÐĲÑģÑĤ": 6486,
      "Ð¾Ð½Ð¸Ðº": 6487,
      "Ð¸Ð²ÑĪÐ¸ÑģÑĮ": 6488,
      "ÐłÐ¾Ð´Ð¸Ð²ÑĪÐ¸ÐµÑģÑı": 6489,
      "ÑĪÐµÐ¹ÑģÑı": 6490,
      "ĠRe": 6491,
      "ĠÑģÑĥÐ¿ÑĢÑĥÐ³": 6492,
      "ĠÑĢÐµÑģÐ¿ÑĥÐ±Ð»Ð¸ÐºÐ¸": 6493,
      "ÐµÑĦÐ¾Ð½": 6494,
      "1999": 6495,
      "Ð½ÐµÐ²ÐµÐº": 6496,
      "Ð¸ÑģÐ¿": 6497,
      "ĠYou": 6498,
      "ÑĢÐ¾Ð²Ð¾Ð´": 6499,
      "ĠÐĶÐ¼Ð¸ÑĤÑĢ": 6500,
      "ĠÑĢÐµÑĪÐµÐ½Ð¸Ñı": 6501,
      "ĠÑģÐ¾Ð¾ÑĢÑĥÐ¶ÐµÐ½Ð¸Ñı": 6502,
      "ĠWorld": 6503,
      "ĠÑĤÐ¾Ð½Ð½": 6504,
      "ĠÐ»ÐµÐ¹Ð±": 6505,
      "ĠÑĦÐ¾ÑĢÑĤ": 6506,
      "Ð³Ð½": 6507,
      "Ð°Ð²ÑĪÐ¸Ðµ": 6508,
      "ĠÑģÐ¿ÐµÐºÑĤÐ°Ðº": 6509,
      "orm": 6510,
      "ĠÑĦÑĢÐ¾Ð½ÑĤ": 6511,
      "ÐµÐ¸": 6512,
      "ÐµÐ¾Ð´": 6513,
      "ĠÐ»ÑĮ": 6514,
      "ĠÐ²ÑħÐ¾Ð´Ð¸Ð»Ð°": 6515,
      "ĠAir": 6516,
      "Ð°Ð»ÑĮÐ½ÑĭÐ¼Ð¸": 6517,
      "ĠÐ¿Ð°Ð¼ÑıÑĤÑĮ": 6518,
      "Ð½Ð¸ÑĨÐµÐ¹": 6519,
      "ĠÐĵÐµÑĢÐ¾Ñı": 6520,
      "ÐĵÐ°Ð»": 6521,
      "ĠÐ´Ð¸Ð¿Ð»Ð¾Ð¼Ð°ÑĤ": 6522,
      "Ð¸ÑĢÐ¾Ð²Ð°Ð½Ð½Ð¾Ð¹": 6523,
      "ĠÐĳÐ¾Ð±": 6524,
      "Ð½Ð¾ÑģÑĤÑıÑħ": 6525,
      "Ð»Ð¸ÑĤ": 6526,
      "ĠÐ³Ð¾Ð²Ð¾ÑĢÐ¸ÑĤ": 6527,
      "ĠĠĠ": 6528,
      "ĠÐ²ÑĭÐ²Ð¾Ð´": 6529,
      "ĠÑģÑĤÑĢÐ°ÑĤÐµÐ³": 6530,
      "Ð¿ÑĢÐ¾": 6531,
      "Ð¾Ð¿ÑĢÐ¸Ð¼ÐµÑĩÐ°ÑĤÐµÐ»ÑĮ": 6532,
      "ĠÐ¿ÑĢÐ¾Ð»": 6533,
      "Ð»ÐµÐ½Ð´": 6534,
      "Ð½Ð¸ÐºÐ°Ñħ": 6535,
      "ĠÑįÐ¼Ð¸Ð³": 6536,
      "Ð¾Ð»Ð´Ð°Ð²": 6537,
      "ĠÑģÐµÐ²ÐµÑĢÐµ": 6538,
      "ĠÐ°ÑĤÐ¼Ð¾ÑģÑĦÐµÑĢ": 6539,
      "ĠÐķÐ²ÑĢÐ¾Ð¿ÐµÐ¹": 6540,
      "ĠÑĤÐ¾Ð¹": 6541,
      "ĠÐĶÐ½Ðµ": 6542,
      "ĠÑĤÑĢÑĥÐ´Ð°": 6543,
      "ĠÑĩÐ°ÑģÑĤÐµÐ¹": 6544,
      "1991": 6545,
      "ĠÐ¾Ð´Ð½": 6546,
      "ĠÐ§ÐµÐ¼Ð¿Ð¸Ð¾Ð½Ð°ÑĤ": 6547,
      "ĠÑħÐ°ÑĢÐ°ÐºÑĤÐµÑĢÐ¸Ð·ÑĥÐµÑĤÑģÑı": 6548,
      "ĠÐºÐ¾Ð½ÑĨÐµÐ¿": 6549,
      "ĠÐ¿ÑĢÐ°Ð²Ð¾Ð¼": 6550,
      "ÐµÐ½ÑĤÐ°Ð¼Ð¸": 6551,
      "ĠÑĩÐ»ÐµÐ½Ñĭ": 6552,
      "96": 6553,
      "ÑĩÐ¸ÐºÐ°": 6554,
      "ĠÐ²Ð·ÑĢÐ¾Ñģ": 6555,
      "ĠEd": 6556,
      "ĠÐŀÐ¼": 6557,
      "Ð¾ÑĩÐºÐ°": 6558,
      "ĠÐ½Ð°ÑĢÐ¾Ð´Ð°": 6559,
      "ĠÐºÐ¸Ð½Ð¾ÑĦ": 6560,
      "Ð²Ð°Ð¹": 6561,
      "ĠÑĤÐµÐ»ÐµÑģ": 6562,
      "ĠÑģÑĥÐ´ÑĮ": 6563,
      "ĠÐļÐ°Ð»Ð¸ÑĦÐ¾ÑĢ": 6564,
      "ĠÐ²Ð·ÑĢÑĭÐ²": 6565,
      "Ð¾Ð½ÑģÐºÐ¾Ð³Ð¾": 6566,
      "ĠÑĥÐ¶": 6567,
      "ĠÐłÐļ": 6568,
      "ĠÐ¿ÑĢÐµÐ¶Ð´Ðµ": 6569,
      "ĠÐ¿Ð¸Ñī": 6570,
      "Ð¾ÑĩÐ½Ð°Ñı": 6571,
      "52": 6572,
      "ĠÐºÐ¾Ð¼ÐµÐ´": 6573,
      "ÑīÐ¸ÐºÐ¾Ð²": 6574,
      "ĠÐ²ÑĭÑħÐ¾Ð´Ð°": 6575,
      "ĠÐļÐ°Ð½Ð°Ð´Ñĭ": 6576,
      "ĠÐ¿Ð¾ÑģÑĤÑĢÐ¾Ð¹": 6577,
      "ĠÐ±Ð¾ÑĢÑĮÐ±Ñĭ": 6578,
      "ĠÑĢÑĥÑģÑģÐºÐ¾Ð¼": 6579,
      "ata": 6580,
      "ÐµÑĤÐ¾Ð²": 6581,
      "ĠÐ¾ÑģÑĤÑĢÐ¾Ð²Ðµ": 6582,
      "ĠÐ¾Ð¿ÐµÑĢ": 6583,
      "Ð°Ð´Ñĥ": 6584,
      "act": 6585,
      "Ð¸ÑģÑĤÐ¾Ð¼": 6586,
      "ĠÐ¿ÑĢÐ¸Ð±Ð»Ð¸Ð·Ð¸ÑĤÐµÐ»ÑĮÐ½Ð¾": 6587,
      "ĠÐ½Ð¾Ð¼Ð¸Ð½": 6588,
      "ĠÐ¿ÐµÑģÐ½Ñİ": 6589,
      "ÐµÑĢÑģÐºÐ¸Ð¹": 6590,
      "ĠÐŁÐ°ÑĢÐ¸Ð¶Ðµ": 6591,
      "ÐļÐ¾Ð¼Ð°Ð½Ð´": 6592,
      "ĠÑģÐµÐºÑĢÐµÑĤÐ°ÑĢÑĮ": 6593,
      "ĠÐ¤ÑĢ": 6594,
      "Ð°ÑİÑīÐ¸Ð¼": 6595,
      "ĠÐ¶ÐµÑģÑĤ": 6596,
      "ĠÐļÑĢÐ°ÑģÐ½Ð¾": 6597,
      "Ð°Ð»Ð¸Ð·Ð°": 6598,
      "ĠÑİÐ³Ðµ": 6599,
      "92": 6600,
      "Ð¸Ð·Ð¾Ð²Ð°Ð½": 6601,
      "Ð¾Ð²Ðµ": 6602,
      "ĠÑģÐ¾Ð»": 6603,
      "ĠÐĶÑįÐ²Ð¸Ð´": 6604,
      "Ð´Ñı": 6605,
      "Ð¾Ð·Ð³": 6606,
      "ĠÐĲÐ½Ð°ÑĤÐ¾Ð»": 6607,
      "ĠÐ´ÑĢÑĥÐ·": 6608,
      "ĠÐ¿Ð¾Ð´Ð¿Ð¸ÑģÐ°Ð»": 6609,
      "ĠÐĶÐ¾Ð±": 6610,
      "ver": 6611,
      "Ð¾ÑĩÐ½Ð¾": 6612,
      "Ð°ÑĤÐµÐ»ÑĮÐ½ÑĭÑħ": 6613,
      "ĠÐºÐ¾ÑĢÐ¾Ð»": 6614,
      "ĠÐ¿Ð¾Ð´Ð¿": 6615,
      "ĠÐ²Ð¿Ð°Ð´": 6616,
      "Ð°ÑĤÐµÐ»ÑĮÐ½Ð¾Ð¹": 6617,
      "56": 6618,
      "ĠÐľÑĥÑĢ": 6619,
      "Ð¾Ð»ÑıÑħ": 6620,
      "ÐĿÐł": 6621,
      "ĠÐ¿ÑĥÑĤÑĳÐ¼": 6622,
      "ĠWar": 6623,
      "ĠÐ·Ð°Ð¿Ð°Ñģ": 6624,
      "Ġ1912": 6625,
      "ĠÐĳÑĢÐ°Ð·Ð¸Ð»Ð¸Ð¸": 6626,
      "ĠÑģÐ»ÐµÐ´ÑĥÐµÑĤ": 6627,
      "ÐµÐ¾": 6628,
      "Ð¿Ð¾Ñģ": 6629,
      "Ð¾ÑĢÑģÐºÐ¾Ð³Ð¾": 6630,
      "amp": 6631,
      "ĠÐŁÐµÑĤÑĢÐ°": 6632,
      "Ð°ÑĢÐµ": 6633,
      "lay": 6634,
      "ĠÑģÐµÐ¼ÑĮÑı": 6635,
      "2017": 6636,
      "ĠÐ¾Ð±ÑīÐµÐ³Ð¾": 6637,
      "ĠÐĲÑĢÑĤ": 6638,
      "ÐµÐ²Ð´": 6639,
      "ĠÐļÐ¾Ð´": 6640,
      "ÐµÐ·ÑĥÐ»ÑĮÑĤÐ°ÑĤÑĭ": 6641,
      "ĠÐ´Ð²Ð°Ð¶Ð´Ñĭ": 6642,
      "98": 6643,
      "ood": 6644,
      ".Â»": 6645,
      "ÑĤÐµÑħÐ½": 6646,
      "ĠÐ¿ÑĥÑĤÐµÑĪÐµÑģÑĤÐ²": 6647,
      "Ð¸Ð±Ð¾Ð»ÑĮÑĪ": 6648,
      "ÐŃÐ¡": 6649,
      "Ð¾Ð»ÑĮÑģÐºÐ¸Ð¹": 6650,
      "ĠÑģÐ¾Ð·Ð´Ð°Ð½Ð¸Ðµ": 6651,
      "ÑħÐ°Ð½": 6652,
      "ĠÑĦÐ¾ÑĢÐ¼Ðµ": 6653,
      "ĠÐºÑĢÑĥÐ¿Ð½ÑĭÑħ": 6654,
      "Ð¾Ð¹ÑĩÐ¸Ð²": 6655,
      "ĠHe": 6656,
      "Ð°ÑģÑĤÑĢÐ¾ÑĦ": 6657,
      "ĠÐĶÐ¾Ð»": 6658,
      "ĠÑĨÐµÐ½": 6659,
      "ĠÑĪÐµÑģÑĤÑĮ": 6660,
      "ĠÐ²Ð¾ÑĪÑĳÐ»": 6661,
      "ĠÐŀÐ±Ð»Ð°Ð´": 6662,
      "ÐµÐ»ÐµÐ²": 6663,
      "ĠÐ¸Ð¼Ð¿ÐµÑĢÐ°ÑĤÐ¾ÑĢÐ°": 6664,
      "ĠÐºÐ°Ð»": 6665,
      "ĠÑĥÐ³Ð»": 6666,
      "ĠÑĤÐ¾Ð²Ð°ÑĢÐ¸Ñī": 6667,
      "ÐµÑĨÐºÐ¾Ð³Ð¾": 6668,
      "ÐĵÐ¾ÑĢÐ¾Ð´Ð°": 6669,
      "ĠÑįÐºÐ¾Ð½Ð¾Ð¼Ð¸ÐºÐ¸": 6670,
      "ĠÐ¿ÑĢÐ¾Ð²ÐµÐ´ÐµÐ½Ð¸Ñı": 6671,
      "ĠÐļÐ¸ÑĤÐ°Ð¹": 6672,
      "ĠÐ´Ð¾ÑģÑĤÐ°Ð²": 6673,
      "ĠÐ¸Ð·Ð¾Ð±": 6674,
      "ĠÐ·ÑĢÐ¸ÑĤ": 6675,
      "ĠÐ´Ð¸ÑĢÐµÐºÑĤÐ¾ÑĢÐ°": 6676,
      "ÑĩÐµ": 6677,
      "ĠÐĴÐ¾ÑĢÐ¾Ð½Ðµ": 6678,
      "ĠÐ·Ð°Ð²Ð¸ÑģÐ¸Ð¼Ð¾ÑģÑĤÐ¸": 6679,
      "ĠÐ¾Ð±ÑīÐµÑģÑĤÐ²Ð¾": 6680,
      "ĠUnivers": 6681,
      "ĠÐ²Ð¾Ð·Ð¼Ð¾Ð¶Ð½Ð¾ÑģÑĤÐ¸": 6682,
      "Ð»Ð¾ÑĤÑĮ": 6683,
      "ĠÐµÐ¿Ð°ÑĢÑħÐ¸Ð¸": 6684,
      "ĠÐ²ÑģÑĤÑĥÐ¿Ð¸Ð»": 6685,
      "Ð»Ð¾ÑīÐ°Ð´ÑĮ": 6686,
      "Ð¸ÑĢÐ¾Ð²Ð°Ð»ÑģÑı": 6687,
      "Ð¼Ð¾Ð²": 6688,
      "ĠÑĩÐµÐ»Ð¾Ð²ÐµÑĩÐµÑģÐº": 6689,
      "out": 6690,
      "97": 6691,
      "ĠÑĢÐµÐµÑģÑĤÑĢÐ°": 6692,
      "ĠÑģÐºÐ¾Ð½Ñĩ": 6693,
      "1998": 6694,
      "ĠÐ·ÐµÐ¼Ð»Ðµ": 6695,
      "ĠÐ¿Ð¾ÑģÐ»ÐµÐ´Ð½Ð¸Ðµ": 6696,
      "Ð°Ð½ÑĤÐ°ÑģÑĤ": 6697,
      "ĠÐ¼Ð¸Ð»Ð»Ð¸Ð¾Ð½Ð¾Ð²": 6698,
      "ĠÐ¿Ð¾ÑģÑĤÑĢÐ¾ÐµÐ½": 6699,
      "ĠÐ¡ÐµÐ²ÐµÑĢÐ¾": 6700,
      "1990": 6701,
      "ÐµÐ½ÑĮÑİ": 6702,
      "ĠÐ¿ÑĢÐµÑģÐ»ÐµÐ´": 6703,
      "ĠÐĲÐ¡Ð¡Ðł": 6704,
      "ĠÑģÑĥÐ´ÐµÐ±": 6705,
      "ĠÑĢÐµÐºÐ¾Ð½": 6706,
      "int": 6707,
      "ĠÐľÐ°ÑĢÐ¸Ð¸": 6708,
      "ÐłÐµÐºÐ¸": 6709,
      "ÐµÐ¹ÑĤ": 6710,
      "ÐĸÐµÐ½": 6711,
      "ĠÐºÐ²Ð°Ð»Ð¸ÑĦ": 6712,
      "ÐĿÐļ": 6713,
      "ĠÐ½Ð¸ÐºÐ¾Ð³Ð´Ð°": 6714,
      "ĠÑĥÑĩÐ°ÑģÑĤÐ½Ð¸ÐºÐ¾Ð²": 6715,
      "ĠÐŀÐºÑĤÑıÐ±ÑĢÑĮ": 6716,
      "Ð»ÑĥÐ³": 6717,
      "ÑĪÐ°Ð²": 6718,
      "ĠÐļÐ°Ð±": 6719,
      "ĠÐ¾ÑĤÐ¿": 6720,
      "ĠÐ¸Ð·Ð¼ÐµÐ½ÐµÐ½Ð¸Ñı": 6721,
      "ĠÐ¤ÑĢÐ¸Ð´ÑĢÐ¸Ñħ": 6722,
      "ÐĵÐ»Ð°Ð²": 6723,
      "ĠÐ»ÑĳÑĤ": 6724,
      "Ð¸ÑĩÐ½ÑĭÑħ": 6725,
      "ÐµÐ½Ð½Ð¸Ñģ": 6726,
      "son": 6727,
      "Ð»Ð¸Ñģ": 6728,
      "53": 6729,
      "ĠÐĴÐ»Ð°Ð´Ð¸Ð¼Ð¸ÑĢÐ¾Ð²": 6730,
      "ĠÐĹÐ°ÑģÐ»ÑĥÐ¶ÐµÐ½Ð½ÑĭÐ¹": 6731,
      "ĠÐ´Ð¾Ð²Ð¾Ð»ÑĮÐ½Ð¾": 6732,
      "Ġ1913": 6733,
      "Ð½ÐµÐ¼Ñĥ": 6734,
      "ĠÐ¿Ð¾ÑĢÐ¾Ð´": 6735,
      "ĠÐ³ÐµÑĢÐ¼": 6736,
      "ĠÐĴÑģÐµÐ³Ð¾": 6737,
      "ĠÐ¿ÑĢÐ¾ÑĦÐµÑģÑģÐ¾ÑĢÐ°": 6738,
      "ĠÐ³Ð°": 6739,
      "ĠÐŁÑĳÑĤÑĢ": 6740,
      "ĠÐ²ÐµÑĢÐ½ÑĥÑĤÑĮ": 6741,
      "ĠÐºÐ¾Ð¼Ð¿Ð°Ð½Ð¸ÐµÐ¹": 6742,
      "ÐľÑĥÐ·ÑĭÐº": 6743,
      "Ð§ÐµÐ¼Ð¿Ð¸Ð¾Ð½Ñĭ": 6744,
      "ĠĠĠĠĠĠĠĠĠĠĠĠĠĠĠĠ": 6745,
      "ĠÐļÐ¾": 6746,
      "ĠÐłÑĥ": 6747,
      "ĠÐĴÐ¾Ð»Ð¾Ð³": 6748,
      "Ð½Ð°Ð¿ÑĢÐ¸Ð¼ÐµÑĢ": 6749,
      "ÑĢÐµÑģÐ¿Ð¾Ð½Ð´": 6750,
      "Ð¸ÑĩÐ½Ð¾Ð¹": 6751,
      "ĠÐŁÐ¾ÑĢÑĤÑĥÐ³": 6752,
      "ÐļÐ¾Ð´": 6753,
      "Ð¿Ð°ÑĤ": 6754,
      "ĠÐľÐ¸ÑĤ": 6755,
      "Ð¡Ð¾ÑģÑĤÐ°Ð²": 6756,
      "ĠÐĺÐ¼Ð¿ÐµÑĢÐ°ÑĤÐ¾ÑĢ": 6757,
      "ĠÐ¾Ð¿ÑĥÐ±Ð»Ð¸ÐºÐ¾Ð²Ð°Ð½": 6758,
      "ĠÐ²ÑĭÑģÑĤÑĥÐ¿Ð¸Ð»": 6759,
      "ĠÐ¡Ð°ÑĢÐ°ÑĤ": 6760,
      "ÐµÑĢÐ¸Ð°Ð»": 6761,
      "ĠÐŁÐµÑĢÐ¼": 6762,
      "ÑĥÐ¼ÐµÐ½ÑĤ": 6763,
      "ĠÑģÐ¾Ð²ÑĢÐµÐ¼ÐµÐ½Ð½Ð¾Ð³Ð¾": 6764,
      "ĠÐĺÐ½ÑģÑĤÐ¸ÑĤÑĥÑĤÐ°": 6765,
      "ĠÐŀÐ´Ð¸Ð½": 6766,
      "ĠÐ²ÑĭÐ¿ÑĥÑīÐµÐ½": 6767,
      "ĠÐ²Ð·Ð³Ð»Ñı": 6768,
      "ÐµÐ»Ð°Ð½Ð´": 6769,
      "Ð¸ÑĢÐ¸Ð¶": 6770,
      "ĠÐĲÑģÑģ": 6771,
      "ĠÑĢÐ°ÑģÐ¿Ð¾Ð»Ð¾Ð¶ÐµÐ½Ñĭ": 6772,
      "ĠÑĦÐ¾Ð½Ð´": 6773,
      "ĠÐĳÑĢÑİ": 6774,
      "oll": 6775,
      "Ð¾ÑĢÑıÐ´": 6776,
      "ĠÐĿÐµÐ¼": 6777,
      "Ð¸ÑĩÐµÑģÐºÐ¾Ð¼Ñĥ": 6778,
      "ĠÑĥÑĩÐ°ÑģÑĤÐ¸Ñı": 6779,
      "ĠÐ¸Ð¼ÐµÐ½": 6780,
      "ĠÐ·Ð°Ð½Ð¸Ð¼Ð°ÐµÑĤ": 6781,
      "Ð¾ÑĤÐ¾": 6782,
      "ĠÐĳÑĢÐ°": 6783,
      "ĠÐ¼Ð°Ð»ÐµÐ½ÑĮ": 6784,
      "Ġ34": 6785,
      "Ð²Ð»ÑıÐµÑĤÑģÑı": 6786,
      "ĠCon": 6787,
      "ÐµÑĢÐ°Ð¼": 6788,
      "ĠÐ»Ð¸ÐºÐ²Ð¸Ð´": 6789,
      "ĠÑħÑĥÐ´Ð¾Ð¶Ð½Ð¸ÐºÐ°": 6790,
      "ĠÐ±Ð¾ÐºÑģ": 6791,
      "ĠÐŁÑģÐº": 6792,
      "ĠÐĵÑĢÐµÑĨÐ¸Ð¸": 6793,
      "ĠÐ¸Ð·Ð´Ð°Ð½Ð¸Ðµ": 6794,
      "ĠÑģÐ¸Ð»Ñĥ": 6795,
      "ÐľÐµÐ¶Ð´ÑĥÐ½Ð°ÑĢÐ¾Ð´": 6796,
      "ĠÐ¿ÑĢÐµÑģÑģ": 6797,
      "ĠÐ´Ð°Ð½Ð½ÑĭÐµ": 6798,
      "Ð¾ÑĤÐ¸Ð¿": 6799,
      "ÑĤÑĥÑĢÑĥ": 6800,
      "ĠÐ½ÐµÑĦÑĤ": 6801,
      "Ð»Ð¸ÑģÑĤ": 6802,
      "ĠLa": 6803,
      "ĠÐ²Ð¾ÑĪÐ»Ð¸": 6804,
      "ĠÑĦÐ¸Ð»Ð¾ÑģÐ¾ÑĦÐ¸Ð¸": 6805,
      "ĠÐ¿Ð¾Ð´ÑĤÐ²ÐµÑĢÐ¶Ð´": 6806,
      "Ð§ÐµÐ¼Ð¿Ð¸Ð¾Ð½": 6807,
      "ĠÐŃÐ»ÑĮ": 6808,
      "ĠÐ¾Ð±Ðµ": 6809,
      "ĠÐ´ÐµÐ»Ð°": 6810,
      "1943": 6811,
      "ĠÐ²ÑĢÐµÐ¼ÐµÐ½ÐµÐ¼": 6812,
      "ĠÐ¡Ð¸ÑĢ": 6813,
      "ÐµÐ¹Ñģ": 6814,
      "ĠÐļÐ°Ð»Ð¸Ð½": 6815,
      "ĠÐ¡ÑĤÐ¸Ð²": 6816,
      "ĠÑģÑĤÑĥÐ´Ð¸Ð¸": 6817,
      "ĠÐ¿Ð¾Ð´Ð´ÐµÑĢÐ¶ÐºÑĥ": 6818,
      "ĠÑģÐ´ÐµÐ»Ð°ÑĤÑĮ": 6819,
      "Ð»ÑĭÑħ": 6820,
      "ĠÑģÐ²ÐµÑĢÑħ": 6821,
      "ĠÐ¼ÐµÐ¶Ð´ÑĥÐ½Ð°ÑĢÐ¾Ð´Ð½Ð¾Ð³Ð¾": 6822,
      "ĠÑģÐ¿Ð¾ÑĢÑĤÑģÐ¼ÐµÐ½": 6823,
      "ĠÑĤÐ°Ð»": 6824,
      "ĠÐ¿ÑĢÐµÐ´ÑģÑĤÐ°Ð²Ð¸ÑĤÐµÐ»ÑĮ": 6825,
      "ÑĢÐ¸ÑĦ": 6826,
      "Ð³ÐµÐ½": 6827,
      "ĠÐ°ÑĢÑħÐ¸ÑĤÐµÐºÑĤÑĥÑĢÑĭ": 6828,
      "ĠÐºÐ¾Ð½ÑĤÐ¸Ð½ÐµÐ½ÑĤÐ°Ð»ÑĮÐ½ÑĭÐ¹": 6829,
      "ĠÑĪÐ°ÑħÐ¼Ð°ÑĤ": 6830,
      "ĠÑģÐ½Ðµ": 6831,
      "ÑĪÐµÐ³Ð¾ÑģÑı": 6832,
      "Ð¾Ð¼Ð½": 6833,
      "ĠÑĥÑĩÐ¸Ð»Ð¸ÑīÐ°": 6834,
      "ĠÐ¿ÑĢÐ¾Ð¶Ð¸Ð²Ð°Ð»Ð¾": 6835,
      "ĠÑĤÐµÐ¿ÐµÑĢÑĮ": 6836,
      "ĠÐĵÐ¾Ð¼": 6837,
      "ĠÑĥÑħÐ¾Ð´": 6838,
      "ĠÐ½Ð°Ð¿ÑĢÐ°Ð²Ð»ÐµÐ½Ð¸Ð¸": 6839,
      "ĠÐ¿ÑĢÐ¾Ð¸Ð·Ð¾ÑĪÐ»Ð¾": 6840,
      "ĠÐ°ÑĢÑħÐ¸ÑĤÐµÐº": 6841,
      "ÑıÑİÑĤ": 6842,
      "ĠÐ¿ÑĢÐµÐ´ÑģÑĤÐ°Ð²Ð»ÐµÐ½": 6843,
      "Ð³Ð¸Ð½": 6844,
      "Ð³Ð¸Ð·": 6845,
      "ĠÐĹÐ°Ð²": 6846,
      "ĠÑĢÐ°Ð±Ð¾ÑĩÐ¸Ñħ": 6847,
      "ĠÐ¨Ð¾ÑĤ": 6848,
      "ĠÑĤÑĥÑĢÐµÑĨ": 6849,
      "Ð°Ð½Ð¾Ð²Ð¸Ñĩ": 6850,
      "ÑĥÐ¿ÑĢÐ°Ð²": 6851,
      "ĠÐºÐ°ÑĢÑĮÐµÑĢÑĭ": 6852,
      "ÐµÐ½ÑĩÐµÑģÐº": 6853,
      "ĠÑĢÐµÑĪÐ¸Ð»": 6854,
      "Ð°Ð»ÐµÐ¹": 6855,
      "Ð¸ÑĤÐ¾Ð¼": 6856,
      "ÐºÐµÐ¹": 6857,
      "ĠÐ¼ÐµÑĢÐ¾Ð¿ÑĢÐ¸ÑıÑĤ": 6858,
      "ĠÐ±Ð¾Ð»ÑĮÑĪÑĥÑİ": 6859,
      "ax": 6860,
      "ium": 6861,
      "Ġ1910": 6862,
      "ĠÐ¿ÐµÑĢÐµÐ±": 6863,
      "ĠÐĲÐ½Ð³": 6864,
      "ĠÐºÐ¾Ð»ÑĮ": 6865,
      "ĠÐ±Ð¸Ð·Ð½ÐµÑģ": 6866,
      "ĠÑĢÐµÐ±ÑĳÐ½": 6867,
      "ĠÑģÐ¸Ð³Ð½": 6868,
      "ĠÐ°ÑĢÐµÐ½Ð´": 6869,
      "94": 6870,
      "ĠEx": 6871,
      "ĠÐłÑĥÐ¼ÑĭÐ½": 6872,
      "ĠÐ¿ÑĢÐµÐ´Ð¼ÐµÑĤ": 6873,
      "ĠÐ¿Ð»Ð°": 6874,
      "ÑĳÐº": 6875,
      "ĠÐ³ÐµÐ½ÐµÑĢÐ°Ð»Ð°": 6876,
      "ÐµÑģÐ»Ð°Ð²": 6877,
      "ĠÐľÐ°Ñħ": 6878,
      "ĠÐºÐ½Ð¸Ð³Ñĥ": 6879,
      "ĠÐļÐ¸ÑĤÐ°Ñı": 6880,
      "Ð¸ÐµÐ²Ð¸Ñĩ": 6881,
      "ÐļÐŀ": 6882,
      "ĠÐ½Ð°ÑĢ": 6883,
      "ĠÑģÐ¾Ð²ÐµÑĤÑģÐºÐ¸Ñħ": 6884,
      "ĠÐ¼Ð°ÑĤÑĩÐ°Ñħ": 6885,
      "ĠÐĹÐ´ÐµÑģÑĮ": 6886,
      "ĠÐ´ÐµÐ¼Ð¾ÐºÑĢÐ°ÑĤ": 6887,
      "ĠÐ¿Ð¾Ð»Ð¸ÑĤÐ¸ÐºÐ¸": 6888,
      "ĠÐ¿ÑĢÐµÐ¼Ð¸Ñİ": 6889,
      "ÑĥÑİÑīÐµÐ¹": 6890,
      "ĠÐ½Ð°Ð²": 6891,
      "1997": 6892,
      "ĠÑģÐ»ÑĥÑĩÐ°Ñı": 6893,
      "ĠÐ¿Ð°ÑĢÑĤÐ¸Ð·": 6894,
      "ĠÐ¡ÐµÐ¼ÑĳÐ½": 6895,
      "per": 6896,
      "ĠÐ¿Ð¾Ð»ÑĥÑĩÐ¸ÑĤÑĮ": 6897,
      "ÑĢÐ¾Ð²Ð¾Ð»ÑĮ": 6898,
      "Ð³ÑĢÐµÑģÑģ": 6899,
      "Ð»Ð¸Ð¼Ð¿Ð¸": 6900,
      "ĠÐ±ÐµÐ»Ð¾ÑĢÑĥÑģ": 6901,
      "51": 6902,
      "ĠÑĥÑĩÑĳÐ½ÑĭÐ¹": 6903,
      "ÑĢÐ°ÑģÑĤÑĢÑĥÐºÑĤ": 6904,
      "ĠÐ¿ÐµÑĩ": 6905,
      "ĠÑĤÐµÐ°ÑĤÑĢÐµ": 6906,
      "ĠÐĲÐ²ÑģÑĤÑĢÐ¸Ð¸": 6907,
      "ÐµÐ»Ð»Ð°": 6908,
      "Ð¾Ð¼Ð°": 6909,
      "ĠÐºÐ»Ð¸Ð½": 6910,
      "1996": 6911,
      "ĠÑĪÐ¸ÑĢÐ¾ÐºÐ¾": 6912,
      "Ð°Ð½Ñĥ": 6913,
      "ĠÑĢÐµÐ³Ð¸Ð¾Ð½Ð°": 6914,
      "ĠÐ¸ÑģÑħÐ¾Ð´": 6915,
      "ĠÐ±Ð°ÑģÐºÐµÑĤ": 6916,
      "ĠÐ±Ð°Ñģ": 6917,
      "oy": 6918,
      "Ð»ÑİÐ±": 6919,
      "ĠÑĢÐ°ÑĥÐ½Ð´": 6920,
      "ĠÐ¥Ð°ÑĢÑĮÐºÐ¾Ð²": 6921,
      "ĠÐ½Ð°Ð¼": 6922,
      "ÑĦÐ¸Ð¼": 6923,
      "ÐºÐ°Ñģ": 6924,
      "ĠÐłÐ°Ð¼": 6925,
      "ĠÐ¾ÑĢÑĥÐ¶Ð¸Ñı": 6926,
      "Ġ120": 6927,
      "Ð¡Ð°Ð½": 6928,
      "Ð·ÐµÐ¼": 6929,
      "Ð¸Ð²Ð°Ñı": 6930,
      "93": 6931,
      "Ġ1916": 6932,
      "ĠÐ·Ð°ÑħÐ²": 6933,
      "ĠÑĥÐ¿Ð¾Ð¼Ð¸Ð½Ð°ÐµÑĤÑģÑı": 6934,
      "ĠÐ°ÑĢÑħÐ¸Ð²": 6935,
      "ĠÐĲÐ¿": 6936,
      "ĠÐ·Ð°Ð½ÑıÐ»Ð°": 6937,
      "ĠÑģÑĩÑĳÑĤÐ¾Ð¼": 6938,
      "Ð¸ÑıÐ¼": 6939,
      "ĠÐ¾ÑĩÐºÐ¾Ð²": 6940,
      "ÐµÐ½ÑģÐºÐ¾Ð¼": 6941,
      "ĠÐ¸Ð³ÑĢÑĥ": 6942,
      "ĠÐºÐ¾Ð¼Ð°Ð½Ð´Ð¾Ð²Ð°Ð½Ð¸ÐµÐ¼": 6943,
      "ĠÐ´ÑĢÑĥÐ¶": 6944,
      "ĠÐ£ÐºÑĢÐ°Ð¸Ð½Ðµ": 6945,
      "Ð¸ÑĦÐ¸ÐºÐ°ÑĨÐ¸Ñı": 6946,
      "ĠÐĿÐ¾ÑĢÐ²": 6947,
      "Ð»ÑĳÐ½": 6948,
      "Ð»Ð°Ð½ÑĤ": 6949,
      "ĠÐ¸Ð½Ð¸ÑĨÐ¸Ð°ÑĤÐ¸Ð²": 6950,
      "ĠÐ¡ÑĤÐ°Ð½Ð¸ÑģÐ»Ð°Ð²": 6951,
      "ĠÑģÐ¾Ð±ÑĭÑĤÐ¸Ð¹": 6952,
      "ĠÐ½Ð°Ð·Ð²Ð°Ð½": 6953,
      "57": 6954,
      "ÐļÐ»ÑĥÐ±": 6955,
      "ĠÐ¿Ð¾ÑģÐ»ÐµÐ´Ð¾Ð²Ð°ÑĤÐµÐ»ÑĮ": 6956,
      "ÐŁÐµÑĢÐ²ÑĭÐ¹": 6957,
      "Ð¾Ð·ÐµÑĦ": 6958,
      "Ð¸Ð¹ÑģÐºÐ¸Ðµ": 6959,
      "ĠÐ¶Ð¸ÑĤÐµÐ»Ð¸": 6960,
      "Ð°ÑĢÑģÐºÐ¸Ð¹": 6961,
      "ĠÐ¾ÑģÐ½Ð¾Ð²Ð°Ð½Ð¸Ñı": 6962,
      "ĠÐ²Ð·Ð°Ð¸Ð¼Ð¾Ð´ÐµÐ¹ÑģÑĤÐ²": 6963,
      "ĠÐ²Ð½ÑĥÑĤÑĢÐµÐ½Ð½Ð¸Ñħ": 6964,
      "oth": 6965,
      "ÑĢÐ¾ÑģÑĤ": 6966,
      "ĠÑģÐ¾Ð¿ÑĢÐ¾ÑĤÐ¸Ð²": 6967,
      "ĠÐ±ÑĭÐ²ÑĪÐµÐ³Ð¾": 6968,
      "ÑĩÐ°Ð½": 6969,
      "ĠÑĢÐ°ÑģÐ¿ÑĢÐµÐ´ÐµÐ»": 6970,
      "ĠÐĴÐĴÐ¡": 6971,
      "ĠÐºÐ¾Ð¼Ð¸ÑĤÐµÑĤ": 6972,
      "ĠÑĦÑĥÐ½ÐºÑĨÐ¸Ð¸": 6973,
      "Ð¸ÑĤÐµ": 6974,
      "ÐĺÐĺ": 6975,
      "ĠÐ¿ÑĢÐ°Ð²Ð¾ÑģÐ»Ð°Ð²Ð½Ð¾Ð¹": 6976,
      "ĠÑģÑĥÑĤ": 6977,
      "Ð¾Ð²Ð°ÑĤÑĮÑģÑı": 6978,
      "ĠÐ¼Ð¾Ð»Ð¾Ð´ÑĳÐ¶": 6979,
      "ĠÐ²Ð½ÑĥÑĤÑĢÐ¸": 6980,
      "ĠÐ¾ÑĤÑģÑĤÑĥÐ¿": 6981,
      "ÐºÐ°Ð´": 6982,
      "ĠÐ¿ÑĢÐµÐ´ÑģÑĤÐ°Ð²Ð¸ÑĤÐµÐ»Ð¸": 6983,
      "Ð»Ð»ÐµÐ»ÑĮ": 6984,
      "ĠÐ¼Ð°Ð³Ð¸ÑģÑĤ": 6985,
      "Ð»ÑĢÐ´": 6986,
      "ĠÐ¼Ð¸Ð½Ð¸ÑģÑĤÑĢÐ°": 6987,
      "ĠÐĶÑĥÐ±": 6988,
      "ĠÑĨÐ°ÑĢÑĮ": 6989,
      "ĠÐ´Ð¸Ð°Ð»": 6990,
      "Ð´Ð¶Ð°": 6991,
      "ĠÐ²Ð¾ÑģÐ¿ÑĢ": 6992,
      "ĠÐ·Ð°ÐºÐ¾Ð½Ð¾Ð´Ð°ÑĤÐµÐ»ÑĮ": 6993,
      "ĠÐĶÐ»Ð¸Ð½Ð°": 6994,
      "ĠÑĥÐ´Ð°Ð»": 6995,
      "oph": 6996,
      "ĠÐ£Ð¿ÑĢÐ°Ð²": 6997,
      "row": 6998,
      "ÐłÐ°ÑģÐ¿Ð¾Ð»Ð¾Ð¶": 6999,
      "Ð¸ÑĤÐµÐ»ÑĮÐ½ÑĥÑİ": 7000,
      "Ġ2023": 7001,
      "ĠÐ¸Ð·Ð²ÐµÑģÑĤÐ½ÑĭÑħ": 7002,
      "Ð°ÑĪÐ°": 7003,
      "ĠÑģÐ¾ÐºÑĢÐ°Ñī": 7004,
      "ĠÐ³ÑĢÐµÐ±": 7005,
      "ĠÐłÑĥÑģÑģÐºÐ¾Ð¹": 7006,
      "ĠÑģÑĭÐ½Ð¾Ð²": 7007,
      "ĠÐ¿ÑĢÐ¸Ð²Ð»ÐµÐº": 7008,
      "ĠÐ»Ð¸Ð³Ðµ": 7009,
      "ĠÐ¼ÑĭÑĪ": 7010,
      "ĠÐ¿Ð¸ÑĪ": 7011,
      "ĠÐŁÑĢÐ¾Ð´": 7012,
      "ĠÑģÐµÐ½": 7013,
      "ĠÐ¿ÑĢÐ¸ÑĳÐ¼": 7014,
      "ĠAward": 7015,
      "ĠÑĢÑĭÐ±": 7016,
      "Ð°ÑģÑģÐµÐ¹Ð½": 7017,
      "ĠÐ¾ÑĤÐ´ÐµÐ»ÐµÐ½Ð¸Ðµ": 7018,
      "ĠÐ¿Ð¾Ð»Ð¸ÑĤÐ¸ÑĩÐµÑģÐºÐ¾Ð¹": 7019,
      "ÐĶÐł": 7020,
      "ĠÐ»Ð¸ÑĨÐ°": 7021,
      "ĠÐ½Ð°Ð·Ð°Ð´": 7022,
      "ĠÐ´Ð¾ÑĢÐ¾Ð³Ð°": 7023,
      "Ġ150": 7024,
      "ĠÐļÐ¾ÑĤ": 7025,
      "ĠÐ²Ð»Ð°Ð´ÐµÐ»ÑĮ": 7026,
      "ĠÐ½ÐµÐ³": 7027,
      "Ð¸Ð²Ð°Ð½Ð¸Ðµ": 7028,
      "Ð°Ð½ÑĤÐ¾Ð¼": 7029,
      "ÑĳÐ»ÑĤ": 7030,
      "ĠÑģÐ¾Ð²ÐµÑĤÑģÐºÐ¾Ð¹": 7031,
      "ĠÐºÐ¸ÑĢ": 7032,
      "ĠÐĳÐµÐ»ÑĮÐ³": 7033,
      "ĠÑģÐ¾Ð°Ð²": 7034,
      "Ð¶ÐµÐ²": 7035,
      "1995": 7036,
      "ĠÐľÐµÐ»": 7037,
      "Ġ'": 7038,
      "ĠÐ¿ÑĢÐµÐ´ÑģÐµÐ´Ð°ÑĤÐµÐ»ÐµÐ¼": 7039,
      "ĠOr": 7040,
      "Ð½Ð¾Ð³Ð¸Ðµ": 7041,
      "ĠÐŁÐµÑĤÑĢÐ¾Ð²Ð¸Ñĩ": 7042,
      "ÑģÐºÐ¾ÑĢ": 7043,
      "ĠÐ´ÑĢÑĥÐ³Ð°": 7044,
      "Ð¸Ð»Ð»Ð°": 7045,
      "ÐľÐµÑĤ": 7046,
      "ĠÑģÐ¿Ð¾ÑģÐ¾Ð±ÑģÑĤÐ²": 7047,
      "ĠÐ¼ÐµÑĤÐ°Ð»": 7048,
      "ĠÑĦÐ¾ÑĢÐ¼Ñĥ": 7049,
      "ĠÑģÑĤÐ¸Ð»": 7050,
      "Ð¸ÑĤÐµÐ»ÑĮÐ½Ð¾ÑģÑĤÐ¸": 7051,
      "ĠÐ¸ÑģÑģÐ»ÐµÐ´Ð¾Ð²": 7052,
      "Ð¾Ð½Ð³": 7053,
      "ĠÐĺÑħ": 7054,
      "ÑĤÐµÑĢÐµÑģ": 7055,
      "1994": 7056,
      "ĠÐ¾ÑĤÐ¼ÐµÐ½": 7057,
      "Ð¡Ð²": 7058,
      "ĠÐĿÐ¾Ð²Ð¾ÑģÐ¸Ð±Ð¸ÑĢ": 7059,
      "ÑħÐ¾Ð·Ð°": 7060,
      "ĠÐ´Ð¾ÑģÑĤÐ¸Ð¶ÐµÐ½Ð¸Ñı": 7061,
      "Ġ1900": 7062,
      "ĠÐ²ÑĭÐ±Ð¾ÑĢÐ¾Ð²": 7063,
      "ĠÐ²ÑĭÐ´ÐµÐ»Ñı": 7064,
      "www": 7065,
      "ĠÐ¼ÐµÑģÑĤÐ½ÑĭÑħ": 7066,
      "ĠÑģÐ²Ð¾ÐµÐ¼Ñĥ": 7067,
      "ĠÐ½Ð¾Ð¼Ð¸Ð½Ð°ÑĨÐ¸Ð¸": 7068,
      "ÐµÑĨÐºÐ¸Ð¹": 7069,
      "ÐµÑĢÐ°Ð¿": 7070,
      "ĠÐ¿Ð¾Ð²ÐµÑĢÑħÐ½Ð¾ÑģÑĤÐ¸": 7071,
      "ĠÐ¾ÑĤÐ±": 7072,
      "ÐĴÐŀ": 7073,
      "ĠÐĲÐ½Ð½Ð°": 7074,
      "ÐµÑģÑģÑĭ": 7075,
      "ÐµÐ½Ð´Ð°": 7076,
      "ÐĿÐ°ÑĥÑĩ": 7077,
      "ĠÐ¼Ð°ÑĢÑĪÑĢÑĥ": 7078,
      "ÐĶÐ¾ÑģÑĤÐ¸Ð¶ÐµÐ½Ð¸Ñı": 7079,
      "col": 7080,
      "ÑĢÑĥÐ³Ð¸Ðµ": 7081,
      "ĠÑĤÐ²Ð¾ÑĢÑĩÐµÑģÐº": 7082,
      "ĠÐ¤Ð»Ð¾ÑĢ": 7083,
      "ĠÐ¼Ð¾Ð½Ð°ÑģÑĤÑĭÑĢÑĮ": 7084,
      "ĠÐ²Ð¾ÐµÐ½": 7085,
      "2018": 7086,
      "ĠÑģÐ´ÐµÐ»Ð°Ð»": 7087,
      "ĠÐļÐ²": 7088,
      "ĠÐ²ÑĭÑģÐ¾ÑĤÐµ": 7089,
      "ÑĭÑĪÐµ": 7090,
      "ĠÐ²ÑĭÐ¹": 7091,
      "ĠÐ¼Ð¸Ð½Ð¸ÑģÑĤÑĢ": 7092,
      "ĠÐľÐµÑĤ": 7093,
      "ÐºÐ¾Ð±": 7094,
      "Ð°ÑħÐ°ÑĢ": 7095,
      "ÐĹÐ°Ð¿Ð°Ð´": 7096,
      "ĠÐ½ÐµÐºÐ¾ÑĤÐ¾ÑĢÐ¾Ðµ": 7097,
      "uss": 7098,
      "ĠÐ°Ð½Ð°Ð»Ð¸Ð·": 7099,
      "ĠÐ¿ÑĢÐ¸Ð½ÑĨ": 7100,
      "ĠÑĩÐµÐ¼Ð¿Ð¸Ð¾Ð½Ð¾Ð¼": 7101,
      "ĠÐ¿ÑĢÐµÐ´Ð¿ÑĢÐ¸Ð½Ð¸Ð¼": 7102,
      "ĠÑĢÐµÐ°Ð»Ð¸Ð·": 7103,
      "ĠÐ¾Ð»Ð¸Ð¼Ð¿Ð¸Ð¹": 7104,
      "ĠÐ½Ð°ÑĩÐ°Ð»Ð¾ÑģÑĮ": 7105,
      "ĠÐ¿ÑĢÐ¾ÑĪÑĳÐ»": 7106,
      "ĠÑģÐµÐ³Ð¾Ð´Ð½Ñı": 7107,
      "ĠÐ½Ð°ÑĩÐ°Ð»Ð°ÑģÑĮ": 7108,
      "ĠÑģÑĥÑħ": 7109,
      "ÐĺÑģÐ¿": 7110,
      "ĠÐŁÐµÑĤÐµÑĢÐ±ÑĥÑĢÐ³": 7111,
      "Ð·Ñı": 7112,
      "ĠÐ¿Ð¾Ð´Ð²Ð¾Ð´": 7113,
      "Ð°ÑģÐ¾Ð²Ð¾Ð¹": 7114,
      "ĠÐ¾ÐºÐ¾Ð½ÑĩÐ°Ð½Ð¸Ð¸": 7115,
      "Ġz": 7116,
      "ĠÐ³Ð»Ð°Ð²Ð½ÑĭÑħ": 7117,
      "ÑİÑīÐµÐ³Ð¾": 7118,
      "ĠÑģÑĤÐ¾Ð»Ðº": 7119,
      "Ð¸Ð²Ð°ÑİÑĤÑģÑı": 7120,
      "ĠÐľÐ°ÑĢÐ¸": 7121,
      "ĠÐĲÐ·ÐµÑĢÐ±Ð°Ð¹Ð´Ð¶Ð°Ð½Ð°": 7122,
      "ĠÐĳÐ¾Ð»ÑĮÑĪÐ¾Ð¹": 7123,
      "ĠÐ¸Ð·Ð¼ÐµÑĢ": 7124,
      "ĠÐ±Ð»Ð°": 7125,
      "ĠÑģÐµÐ²ÐµÑĢÐ½Ð¾Ð¹": 7126,
      "Ð½Ð¸ÑĨÐµ": 7127,
      "ĠÐºÐ¸Ñģ": 7128,
      "ĠÐ·Ð°Ð¿ÑĢÐµÑī": 7129,
      "Ð°ÑĤÐ¾ÑĢÐ¾Ð²": 7130,
      "ÐµÑĤÑĥ": 7131,
      "ĠÐĴÑģÐºÐ¾ÑĢÐµ": 7132,
      "ĠÑĢÐ°Ð±Ð¾ÑĤÐ°Ð»Ð°": 7133,
      "ÑĨÐ¸Ð¾Ð½Ð½ÑĭÐµ": 7134,
      "Ð³ÐµÑĢ": 7135,
      "ĠÐ¿ÑĢÐ¸Ð½ÑıÑĤÐ¾": 7136,
      "ĠÐłÐµÐ¹": 7137,
      "ĠÐ¿ÑĢÐµÐ¶": 7138,
      "ĠÑģÐ»ÐµÐ´ÑĥÑİÑīÐµÐ¼": 7139,
      "ĠÑģÐ¼ÑĭÑģ": 7140,
      "ĠÐķÐ²Ð³ÐµÐ½Ð¸Ð¹": 7141,
      "ÑĮÐ¼Ð¸": 7142,
      "ĠÐ¿Ð¾Ð»Ð¸ÑĤÐ¸ÑĩÐµÑģÐºÐ¸Ð¹": 7143,
      "ÐµÐ·Ð¾Ð½": 7144,
      "ÐŀÐ¿": 7145,
      "ĠÐĵÑĢÐ°Ð¶Ð´": 7146,
      "ĠÐĲÑĢÐ³ÐµÐ½ÑĤ": 7147,
      "Ð¾ÑģÑĭ": 7148,
      "Ð¸Ð²Ð½ÑĭÐµ": 7149,
      "Ð»ÑĥÑĪ": 7150,
      "ĠÑĢÐ¾Ð»ÑıÑħ": 7151,
      "ÐµÐ¶Ð´Ñĥ": 7152,
      "ÐµÐ´Ð¸": 7153,
      "ĠÐļÐ°ÑģÑĤ": 7154,
      "ĠÐ³Ð»Ð°Ð²Ð½Ð¾Ð¹": 7155,
      "1992": 7156,
      "ĠÐ¢ÑĢÑĥÐ´": 7157,
      "ÐµÑģÑĤÐµÑĢ": 7158,
      "ai": 7159,
      "ĠÐ½Ð°Ð´Ðµ": 7160,
      "ĠÑĢÑĥÑĩ": 7161,
      "ÐµÐ»ÑĮÐ´": 7162,
      "ĠÐ¸ÑģÑĩÐµÐ·": 7163,
      "ÐºÐµÑĢ": 7164,
      "ĠÐ°Ð½Ð³Ð»Ð¸Ð¹ÑģÐºÐ¸Ð¹": 7165,
      "ĠÐºÐ¾Ð¼Ð¼ÐµÑĢÑĩÐµÑģÐº": 7166,
      "ĠÑģÐºÐ°Ð·Ð°Ð»": 7167,
      "ÐµÑĢÐ²Ð°ÑĤÐ¾ÑĢÐ¸Ð¸": 7168,
      "Ð¾Ð·Ð´Ð½ÐµÐµ": 7169,
      "ĠÐ»ÐµÐ³ÐºÐ¾": 7170,
      "ĠÐ²Ð¾Ð·Ð³Ð»Ð°Ð²Ð¸Ð»": 7171,
      "ĠVol": 7172,
      "ĠÐ±Ð°ÑĤÐ°Ð»ÑĮÐ¾Ð½": 7173,
      "Ð¾Ð»Ð¾Ð³Ð¸ÑĩÐµÑģÐºÐ¾Ð³Ð¾": 7174,
      "ĠÐ²Ð¾Ð¹Ð½Ñĥ": 7175,
      "ĠÐ¿ÑĭÑĤÐ°": 7176,
      "ĠÐ²Ð¸Ð´Ñĭ": 7177,
      "ĠÑĥÐ¿Ð¾ÑĤÑĢÐµÐ±": 7178,
      "Ð°ÑĤÐ¾ÑĢÑĭ": 7179,
      "ĠÑĢÐ°Ð·Ð½Ð¾": 7180,
      "ĠÐ¸Ð½ÑĤÐµÑĢÐ²ÑĮÑİ": 7181,
      "ĠÐºÐ°ÑĢÑĤÐ¸Ð½Ñĭ": 7182,
      "Ð¾Ð²Ð¸ÑĩÐ°": 7183,
      "ĠÐ²ÑħÐ¾Ð´ÑıÑĤ": 7184,
      "ÐµÑĤÑĤ": 7185,
      "ĠÐĲÐ½Ð½Ñĭ": 7186,
      "ÐµÐ²Ð¸Ð·Ð¸Ð¾Ð½": 7187,
      "ĠÑĢÐµÐ·ÑĥÐ»ÑĮÑĤÐ°ÑĤÑĭ": 7188,
      "ĠÐ¾ÐºÑĢÐ°": 7189,
      "ĠÐ¾ÑĤÑĩ": 7190,
      "ĠComp": 7191,
      "ĠMe": 7192,
      "ĠÐ¿ÑĢÐµÐºÑĢÐ°Ñī": 7193,
      "ĠÐ¿ÐµÑĢÐµÑĥÐ»": 7194,
      "Ð¿ÑĢÐ¾ÑģÑĤÑĢÐ°Ð½": 7195,
      "ĠÑĥÑģÑĤÑĢÐ¾": 7196,
      "ĠÐ¿Ð¾ÑıÐ²Ð¸Ð»ÑģÑı": 7197,
      "Ð¾ÑģÐ¸ÑĦ": 7198,
      "ĠÐ¾Ð±ÑĥÑĩÐµÐ½Ð¸Ñı": 7199,
      "unt": 7200,
      "ĠÐ¿Ð¾ÐºÑĢÑĭÑĤ": 7201,
      "ĠÑħÑĢÐ¾Ð½": 7202,
      "ĠÐ¸ÑģÑĤÐ¾ÑĢÐ¸Ðº": 7203,
      "ĠÑĪÐ¾ÑģÑģ": 7204,
      "ÑĢÐ¸Ð±": 7205,
      "ĠÐ¿ÐµÑĢÑģÐ¾Ð½": 7206,
      "ÐµÑĤÑĢÐ¾Ð²": 7207,
      "ĠÑįÐ²": 7208,
      "ĠÐ¼Ð°ÑĤÐµÑĢÐ¸Ð°Ð»Ð¾Ð²": 7209,
      "ĠÐ¿Ð°Ð½": 7210,
      "ÃŃ": 7211,
      "ĠÐ´Ð¸ÑģÑģÐµÑĢÑĤÐ°ÑĨÐ¸Ñİ": 7212,
      "Ð½Ð°Ð²": 7213,
      "ĠÐ¿Ð¾ÑģÑĤÐµÐ¿": 7214,
      "ĠÐłÑĥÐ´": 7215,
      "ĠÐ¾Ð¶Ð¸Ð´": 7216,
      "ĠÐĶÐ°Ð»": 7217,
      "Ð°Ð±Ð¸Ð»": 7218,
      "ÐµÑģÐ¾ÑİÐ·": 7219,
      "ĠÐĳÐ°ÑĤ": 7220,
      "ÐµÑīÐµÐ½Ð¸Ñı": 7221,
      "Ð¢ÑĢÐµÐ½ÐµÑĢÑĭ": 7222,
      "ĠÑģÐ¾Ð·Ð´Ð°Ð½Ð¸Ð¸": 7223,
      "ĠÐ²ÑĢÐ°": 7224,
      "ĠÐ¿Ð¾ÑĢÑĤÑĢÐµÑĤ": 7225,
      "yc": 7226,
      "ĠÐŀÐ±Ð»Ð°Ð´Ð°ÑĤÐµÐ»ÑĮ": 7227,
      "Ð¸ÐµÐ²Ð°": 7228,
      "Ð¸ÑīÐ°": 7229,
      "ĠÑĥÑĢÐ¾Ð²ÐµÐ½ÑĮ": 7230,
      "ĠÑĢÐ°Ð½ÐµÐ½": 7231,
      "ĠÐºÐ¾Ð¶": 7232,
      "ĠÐŁÑĥÑĤ": 7233,
      "ĠÐµÐµ": 7234,
      "ĠÐĹÐ½Ð°Ð¼ÐµÐ½Ð¸": 7235,
      "ĠÐ¾ÐºÑĢÐµÑģÑĤ": 7236,
      "ĠÐ¸Ð½ÑĤÐµÑĢÐ½": 7237,
      "ĠÐ´Ð¸ÑĢÐµÐºÑĤÐ¾ÑĢÐ¾Ð¼": 7238,
      "ĠÐ¿Ð¾ÑģÑĤÐ¾ÑıÐ½Ð½Ð¾": 7239,
      "ÑĢÐµÑĤÐ°": 7240,
      "ĠÐ¾ÑĦÐ¾ÑĢÐ¼": 7241,
      "Ð³Ð¾Ð»ÑĮ": 7242,
      "Ð¾ÑĢÐ´Ð¸Ð½": 7243,
      "ĠÐ±ÑĢÐ°ÑĤÐ°": 7244,
      "ĠÐ¿ÑĢÐµÐºÑĢÐ°ÑĤ": 7245,
      "ĠÐ½Ð°Ð¸Ð¼ÐµÐ½": 7246,
      "ĠÑĦÐ°Ð±ÑĢ": 7247,
      "ĠÑģÐ¾Ñİ": 7248,
      "ĠÐ¿ÑĢÐµÐ´Ð¿ÑĢÐ¸ÑıÑĤÐ¸Ñı": 7249,
      "ĠÑĦÐ¸Ð½Ð°Ð»Ðµ": 7250,
      "Ġ44": 7251,
      "ĠÑģÐµÑĢÐ¸Ñı": 7252,
      "ĠÐ¾Ð·ÐµÑĢÐ¾": 7253,
      "ĠÐĿÐ°Ð¿ÑĢÐ¸Ð¼ÐµÑĢ": 7254,
      "Ð½Ð¸ÐºÐ¾Ð²Ð°": 7255,
      "ĠÐĿÐ°ÑĨÐ¸Ð¾Ð½Ð°Ð»ÑĮÐ½Ð¾Ð¹": 7256,
      "ĠÐ¾ÑĢÐ¸": 7257,
      "Ð±Ð½": 7258,
      "ĠÐ¿ÑĥÐ½Ðº": 7259,
      "ÐµÐ»ÐµÐ³": 7260,
      "ĠÐ²Ð´Ð¾Ð»ÑĮ": 7261,
      "ĠÐ¿ÑĢÐ¾ÑģÐ¿": 7262,
      "ÐºÐ¾ÑĤ": 7263,
      "ĠÐ°ÑĢÑħÐµÐ¾Ð»Ð¾Ð³": 7264,
      "Ð»Ð°Ð½Ð°": 7265,
      "ĠÐ¸Ð½ÑģÑĤÐ¸ÑĤÑĥÑĤÐµ": 7266,
      "Ð¸ÑĨÐºÐ¸Ð¹": 7267,
      "ĠÐĿÐ¾Ð²Ð¾Ð¹": 7268,
      "ĠÐ²Ð¿Ð»Ð¾ÑĤÑĮ": 7269,
      "ĠÐºÐ°Ð¶Ð´Ð¾Ð¹": 7270,
      "Ð°ÑĤÐµÐ»ÑĮÑģÑĤÐ²Ð¾": 7271,
      "Ġ75": 7272,
      "ĠÑĨÐ¸Ðº": 7273,
      "ÐµÑģÐ»Ð¸": 7274,
      "ĠÐłÑıÐ·": 7275,
      "Ð¾Ð¼Ð¸Ð½Ð°": 7276,
      "ÑĥÐ±ÐµÐ¶": 7277,
      "Ð°ÑĤÑĢ": 7278,
      "ame": 7279,
      "Ð½ÑĥÐ²": 7280,
      "ĠÑģÐ¿ÑĥÑĤ": 7281,
      "ĠÐ°ÑĢÐ¼Ð¸Ñİ": 7282,
      "ĠÑĦÐ¸Ð½Ð°Ð»Ð°": 7283,
      "ĠÐ¼Ð°ÑĤÐµÑĢ": 7284,
      "ĠÐ¿Ð¾Ð±ÐµÐ´Ñĭ": 7285,
      "ĠÐ¢ÑĢÐµÑĤ": 7286,
      "ĠÐ¼ÐµÑģÑĤÐ½Ð¾ÑģÑĤÐ¸": 7287,
      "ĠÐľÐ¾": 7288,
      "ĠCol": 7289,
      "ĠÐŁÐ¾ÑĩÑĳÑĤ": 7290,
      "yl": 7291,
      "ĠÐ¿ÑĢÐ°Ð²Ð¸Ð»": 7292,
      "ĠÐ¼Ð°Ðº": 7293,
      "ĠÑħÐ¾Ð»Ð¾Ð´Ð½Ð¾Ð³Ð¾": 7294,
      "ĠÐ´Ð¾Ð¼Ð¾Ð²": 7295,
      "Ð»ÑıÑĤÑĮ": 7296,
      "Ð¡Ð¾Ð±": 7297,
      "are": 7298,
      "ĠÑĪÐºÐ¾Ð»ÑĮ": 7299,
      "ĠÑģÐ¸ÑģÑĤÐµÐ¼Ñĥ": 7300,
      "ĠÐ¿ÑĤÐ¸ÑĨ": 7301,
      "Ð°ÑīÐµ": 7302,
      "ÐŁÐµÑĤÐµÑĢÐ±ÑĥÑĢÐ³Ðµ": 7303,
      "Ð¼ÐµÐ»ÑĮ": 7304,
      "Ġ1906": 7305,
      "ĠÐ±Ð»": 7306,
      "Ð¾Ð±Ð¸Ð»ÑĮ": 7307,
      "ĠÐĳÐµÑĢÐ½": 7308,
      "ĠÐĶÐ°": 7309,
      "ĠÐ¾Ð±ÑĬÐµÐºÑĤÐ¾Ð²": 7310,
      "ÐĺÐ·Ð²ÐµÑģÑĤÐ½ÑĭÐµ": 7311,
      "1993": 7312,
      "ĠÐĿÐµÐºÐ¾ÑĤÐ¾ÑĢÑĭÐµ": 7313,
      "ĠÐ³Ð²Ð°ÑĢÐ´Ð¸Ð¸": 7314,
      "Ð¼ÑĥÐ·": 7315,
      "ĠÐ±Ð¾Ñİ": 7316,
      "Ð¾ÑıÐ²": 7317,
      "ĠÐ¸ÑģÐ¿Ð¾Ð»ÑĮÐ·Ð¾Ð²Ð°Ð½Ð¸Ðµ": 7318,
      "ĠÐĲÐ¼ÐµÑĢÐ¸ÐºÐ°Ð½": 7319,
      "ĠÑĥÐºÑĢÐ°ÑĪ": 7320,
      "ÑĪÐµÑģÑĤÐ²": 7321,
      "ĠÐ¢ÑĥÑĢÑĨÐ¸Ð¸": 7322,
      "ĠÐ¢Ð°Ð»": 7323,
      "ĠÐ¾Ð±ÑĬÐµÐºÑĤÐ°": 7324,
      "Ð»Ð¾Ð¹": 7325,
      "Ð£Ð¼ÐµÑĢÑĪÐ¸Ðµ": 7326,
      "ĠÐľÐ¾Ð³": 7327,
      "ĠÐ¿ÑĢÐ¾ÑĤÐµÐºÐ°ÐµÑĤ": 7328,
      "ĠÑģÐ¾ÑģÑĤÐ°Ð²Ð»ÑıÐ»Ð°": 7329,
      "ÑĦÐ¸Ð½": 7330,
      "ÐµÑĢÑĭÐ²": 7331,
      "ĠÐ¼ÑĥÑģÑĥÐ»ÑĮÐ¼Ð°Ð½": 7332,
      "ĠÐ¡Ð¾Ð»Ð½": 7333,
      "Ġ1908": 7334,
      "orn": 7335,
      "ÑıÑģÐ½Ñı": 7336,
      "ĠÐ³ÑĢÑĥÐ¿Ð¿Ð¾Ð¹": 7337,
      "ĠÐĶÐµÐ²": 7338,
      "ĠÑģÐ¾Ð¿ÑĢÐ¾Ð²Ð¾Ð¶Ð´": 7339,
      "ĠÑĤÑĢÐ°Ð½ÑģÐ¿": 7340,
      "ĠÐ¾ÑĢÐºÐµÑģÑĤ": 7341,
      "ĠÐ¿Ð¾Ð»ÑĥÑĦ": 7342,
      "ÐĹÐ²": 7343,
      "Ð±Ð°ÑĤ": 7344,
      "ĠÐ·Ð°Ð»Ð¾Ð¶": 7345,
      "ubl": 7346,
      "ĠÐ£ÑĩÐ°ÑģÑĤ": 7347,
      "ĠÑģÐ¾ÑģÑĤÐ¾ÑıÐ½Ð¸Ðµ": 7348,
      "ĠÑĢÑĥÐºÐ¾Ð²Ð¾Ð´Ð¸ÑĤÐµÐ»ÑĮ": 7349,
      "ius": 7350,
      "ĠPress": 7351,
      "Ð»ÐµÐ½Ð½ÑĭÑħ": 7352,
      "Ġ64": 7353,
      "ĠÐĵÐ°Ð±": 7354,
      "Ð¾Ð¹ÑĤÐ¸": 7355,
      "ĠÐ²ÑĭÑģÑĤÑĥÐ¿Ð»ÐµÐ½Ð¸Ñı": 7356,
      "Ð¸ÑģÑĤÐºÐ°": 7357,
      "ĠÐĳÑĢ": 7358,
      "ĠÑĨÐµÑĢÐµÐ¼": 7359,
      "ogra": 7360,
      "ĠÐ¿ÐµÑĢÐµÐµÑħÐ°Ð»": 7361,
      "ÐĲÐł": 7362,
      "ĠAd": 7363,
      "ĠÐ¡Ð¾Ð»": 7364,
      "ĠÐ¾Ð±ÑĢÐ°Ð±Ð¾ÑĤ": 7365,
      "Ð¸Ð½ÑģÑĤÐ²Ð¾": 7366,
      "ĠÐ´ÑĥÐ±": 7367,
      "ĠÐķÐºÐ°ÑĤÐµÑĢÐ¸Ð½": 7368,
      "ros": 7369,
      "ĠÐĽÐ¾Ñģ": 7370,
      "ÐĲÐ»ÑĮ": 7371,
      "ĠÐĳÐ°Ð±": 7372,
      "ĠÐ¾ÑģÐ½Ð¾Ð²Ð°Ð½Ð¸Ð¸": 7373,
      "ĠÐ¿Ð¾ÑĪ": 7374,
      "Ð¾ÐºÐ¾Ð¹": 7375,
      "\",": 7376,
      "ĠÐµÑģÑĤÐµÑģÑĤÐ²ÐµÐ½": 7377,
      "ĠÐ°ÑĥÐ´": 7378,
      "Ġ400": 7379,
      "ous": 7380,
      "att": 7381,
      "ĠÐ°Ð²ÑģÑĤÑĢ": 7382,
      "ĠÑĢÑĥÐº": 7383,
      "91": 7384,
      "ĠÐ¸Ð½Ð´Ð¸Ð²Ð¸Ð´Ñĥ": 7385,
      "ĠÐ¿ÑĢÐ¸ÑĪÐ»Ð¾ÑģÑĮ": 7386,
      "ĠÐ¸Ð¼ÐµÐµÑĤÑģÑı": 7387,
      "ÐµÐ½ÑģÐºÐ°Ñı": 7388,
      "ĠÐºÐ°Ð¶Ð´Ð¾Ð³Ð¾": 7389,
      "Ð¾Ð¾Ð±ÑĢÐ°Ð·": 7390,
      "ĠÑĢÐ¾Ð´Ð¸Ð»Ð°ÑģÑĮ": 7391,
      "ĠÑįÐºÑĢÐ°Ð½": 7392,
      "ĠÐ½Ð°ÑĢÐ¾Ð´Ð½Ð¾Ð³Ð¾": 7393,
      "ĠÐ°Ð´Ð¼Ð¸Ð½Ð¸ÑģÑĤÑĢÐ°ÑĨÐ¸Ð¸": 7394,
      "ÑĳÑĢÑĤ": 7395,
      "ĠÐľÑį": 7396,
      "ĠÐ¿Ð¾ÑıÐ²Ð¸Ð»Ð°ÑģÑĮ": 7397,
      "ĠÐ¡Ð¾ÐµÐ´Ð¸Ð½": 7398,
      "ĠÐ¾ÐºÐ°Ð·Ð°Ð»ÑģÑı": 7399,
      "ĠÐľÐ¸ÑħÐ°Ð¸Ð»Ð°": 7400,
      "Ð¾Ð»ÑĳÑĤ": 7401,
      "ÐµÑĢÐ±ÑĥÑĢÐ³Ð°": 7402,
      "ĠÐ´ÐµÐ»Ðµ": 7403,
      "ĠÐ¿Ð¾ÑĤÐµÐ½": 7404,
      "ĠÐĲÐ±Ð´": 7405,
      "ÑĢÐµÐ½Ð¸Ðµ": 7406,
      "ÐµÐ¿Ð¸": 7407,
      "ĠÐļÐ¾Ð·": 7408,
      "Ð½ÐµÑĨ": 7409,
      "Ð³ÑĢÐ°ÑĦ": 7410,
      "ican": 7411,
      "ÐĲÐ½Ð´Ð¶": 7412,
      "Ð»Ð¸Ð½Ñĭ": 7413,
      "ĠÐ¥Ñĥ": 7414,
      "ĠÐ¾ÑĤÐºÑĢÑĭÐ²": 7415,
      "Ð»Ð°Ð¼ÐµÐ½ÑĤÐ°": 7416,
      "ĠÑģÐ¾ÑĨÐ¸": 7417,
      "ĠÐ»ÑĥÑĩÑĪÐ¸Ð¹": 7418,
      "Ð¸ÑĢÐ¾Ð²Ð°Ð½Ð¸Ð¸": 7419,
      "ĠÑģÑĤÑĢÐ°Ñħ": 7420,
      "ĠÑĦÐ¾ÑĢÐ¼Ð¸ÑĢÐ¾Ð²Ð°Ð½Ð¸Ñı": 7421,
      "Ð°Ð½ÑģÐºÐ¸Ðµ": 7422,
      "ĠÐ¿Ð¾ÑħÐ¾Ð¶": 7423,
      "ĠÐ½ÐµÑĥÐ´Ð°Ñĩ": 7424,
      "ĠÐĹÐ°Ð¿Ð°Ð´Ð½Ð¾Ð¹": 7425,
      "ĠÐ¼Ð°Ð»ÑĮ": 7426,
      "ĠÐĴÐ°Ð»ÐµÐ½ÑĤ": 7427,
      "ĠÐ¾Ð±ÐµÑģÐ¿ÐµÑĩÐµÐ½Ð¸Ñı": 7428,
      "ĠÐĵÑĢÐ¸Ð³Ð¾ÑĢÑĮ": 7429,
      "ÑĢÐ¸ÐºÐ°Ð½": 7430,
      "ĠÐ¸Ð³ÑĢÐ¾ÐºÐ¾Ð²": 7431,
      "ĠÐ¿ÑĢÑıÐ¼Ð¾": 7432,
      "ĠÑĤÑĢÐµÑĤÐ¸Ð¹": 7433,
      "ĠÐ°Ð½Ð³Ð»Ð¸Ð¹ÑģÐºÐ¾Ð¼": 7434,
      "ĠÐ±Ð°Ð½Ðº": 7435,
      "Ð±Ð»Ð¸Ð·": 7436,
      "Ð¸Ð½ÑĤ": 7437,
      "ĠÐĴÐ¸Ð»ÑĮÐ³ÐµÐ»ÑĮ": 7438,
      "ĠÐĽÐ¾Ð½Ð´Ð¾Ð½Ðµ": 7439,
      "Ð¼Ð¸ÑĢÐ°Ð»": 7440,
      "Ð¸Ð½ÐºÐ°": 7441,
      "ĠÐ¸Ð¼Ð¿ÐµÑĢÐ¸Ñı": 7442,
      "ĠÑĥÑĢÐ¾Ð¶": 7443,
      "ĠÐ¼Ð°Ð»Ð¾": 7444,
      "Ġre": 7445,
      "ĠÐºÐ°Ð½Ð°Ð´": 7446,
      "Ð³Ð¾Ð²Ð¾ÑĢ": 7447,
      "ĠÐ¢Ð°Ð½": 7448,
      "ĠÑģÐºÐ¾ÑĢÐ¾ÑģÑĤÑĮ": 7449,
      "ĠÐ½ÐµÐ¼Ñĥ": 7450,
      "ĠÐŁÐ¾Ð²": 7451,
      "Ð¾ÑıÑĤ": 7452,
      "Ġ1911": 7453,
      "Ð°ÑĥÑĢÐµÐ°ÑĤÑĭ": 7454,
      "ĠÑģÐ¾ÑģÑĤÐ¾ÑıÑī": 7455,
      "ĠÑĢÐµÐ²": 7456,
      "ĠÐ½Ð°ÑģÐµÐ»ÑĳÐ½Ð½ÑĭÐµ": 7457,
      "ĠÐ´ÐµÐ¿Ð°ÑĢÑĤÐ°Ð¼ÐµÐ½ÑĤÐ°": 7458,
      "ÐŀÐ±ÑĢÐ°Ð·": 7459,
      "ĠÐ½Ð°Ð»Ð¾Ð³": 7460,
      "ĠÐĴÐµÐ½Ðµ": 7461,
      "ÑģÐ¾Ð»ÑİÑĤÐ½Ð°Ñı": 7462,
      "ÑħÐ¾": 7463,
      "Ð¾ÐºÐµ": 7464,
      "ĠÐ¿Ð¾ÑıÐ²Ð¸Ð»Ð¸ÑģÑĮ": 7465,
      "ĠÐĲÐ²ÑĤÐ¾ÑĢ": 7466,
      "ĠÐ½Ð¾ÑĩÑĮ": 7467,
      "ĠÐ¢Ñİ": 7468,
      "1989": 7469,
      "Ġ48": 7470,
      "ÐµÐºÐµ": 7471,
      "ĠÐ½Ð°ÑĩÐ°Ð»Ð¾Ð¼": 7472,
      "ĠÐ¡Ð¸Ð´": 7473,
      "ĠÐ½Ð°ÑĩÐ¸Ð½Ð°ÐµÑĤ": 7474,
      "ĠÐ²ÑĭÑģÐºÐ°Ð·": 7475,
      "ĠÑĩÐµÑĪ": 7476,
      "ĠÐĳÐ°Ðº": 7477,
      "Ð°ÑĤÐµÐ»ÑĮÐ½ÑĭÐ¹": 7478,
      "ÑİÑīÐ¸ÐµÑģÑı": 7479,
      "ĠÐ¿ÑģÐµÐ²Ð´": 7480,
      "Ð»ÐµÐ¿": 7481,
      "ĠÐ½Ð°Ð·ÑĭÐ²Ð°ÑİÑĤ": 7482,
      "ĠÐ½Ð°ÑħÐ¾Ð´Ð¸Ð»Ð¸ÑģÑĮ": 7483,
      "ĠÐĳÐ°": 7484,
      "ĠÐ¿Ð°ÑĢÑĤÐ½": 7485,
      "ĠÐ³ÑĢÐ°Ð½Ð¸ÑĨ": 7486,
      "ĠÑĥÑģÐ¿ÐµÑĪÐ½Ð¾": 7487,
      "ÐºÑĥÑİ": 7488,
      "ĠÐĶÐµÐ½": 7489,
      "ÐľÑĥÐ½Ð¸ÑĨÐ¸Ð¿": 7490,
      "ĠÐ¥Ð°Ð½": 7491,
      "Ð¸Ð³Ð°": 7492,
      "ĠÐ¾Ð±ÑīÐ¸Ð½Ñĭ": 7493,
      "ÑĥÑĢÐ°Ð²": 7494,
      "Ð¾Ð»Ð¾Ð³Ð¸": 7495,
      "ĠÐºÐ°ÑĦÐµÐ´ÑĢÑĭ": 7496,
      "ĠÑĢÐ°ÑģÐ¿Ð¾Ð»Ð¾Ð¶ÐµÐ½Ð¾": 7497,
      "ĠÐ¢Ð°ÑĤÐ°ÑĢ": 7498,
      "Ð°Ð½Ð½Ð¾Ð³Ð¾": 7499,
      "Ð°ÐºÐ¾Ð²Ð°": 7500,
      "ĠÑģÑĤÐ°Ð´Ð¸Ð¾Ð½": 7501,
      "ĠÑģÐµÑĢÐ¸Ð°Ð»Ð°": 7502,
      "ĠÐ»Ð¸Ð½ÐµÐ¹": 7503,
      "ĠÐ»ÐµÐ¶": 7504,
      "ĠÐ²Ð¾Ð·Ð²ÐµÐ´": 7505,
      "ĠÐĿÐ¾ÑĢÐ²ÐµÐ³": 7506,
      "Ð§Ð°ÑģÐ¾Ð²Ð¾Ð¹": 7507,
      "ĠÐļÐ¾Ð¿": 7508,
      "ÑįÐ¿": 7509,
      "ĠÐ¡Ð²ÑıÑĤÐ¾Ð¹": 7510,
      "ĠÐļÑĥÐ±Ð¾Ðº": 7511,
      "ÐµÐ³Ð°": 7512,
      "ĠÐĿÐµÐ²": 7513,
      "Ð·ÑĭÑĩ": 7514,
      "ĠÑģÐ¾Ð´ÐµÑĢÐ¶Ð¸ÑĤ": 7515,
      "Ð»Ð¸Ð¿": 7516,
      "\".": 7517,
      "ĠÑĤÐ¾Ð¶Ðµ": 7518,
      "ĠÑģÑĥ": 7519,
      "ĠÐ¾ÑĢÐ³Ð°Ð½Ð¾Ð²": 7520,
      "ĠÐĴÐ°ÑĪ": 7521,
      "ĠÐ¸Ð¼ÐµÐ»Ð°": 7522,
      "ĠÐ·Ð°ÑģÐµÐ´": 7523,
      "ĠÐºÐ¾Ð½ÑĦÐµÑĢÐµÐ½ÑĨÐ¸Ð¸": 7524,
      "ÐŃÐºÐ¾Ð½Ð¾Ð¼Ð¸ÐºÐ°": 7525,
      "ĠÐ¿Ð¾ÐºÐ¸Ð½ÑĥÐ»": 7526,
      "ĠÑĤÐµÑĢÑĢÐ¸ÑĤÐ¾ÑĢÐ¸Ñı": 7527,
      "ĠÐ´ÑĢÑĥÐ³Ð¾Ð¼": 7528,
      "ĠÐĶÑİ": 7529,
      "Ð»ÑıÐ½": 7530,
      "ĠÐ¿ÑĢÐ¸Ð³Ð¾Ð²Ð¾ÑĢ": 7531,
      "ĠÑģÐ¾Ð±ÑĭÑĤÐ¸Ñı": 7532,
      "Ð·Ñİ": 7533,
      "ĠÑĢÐµÐ¶Ð¸Ð¼": 7534,
      "ĠÐĶÐ¶Ð¾Ð½Ð°": 7535,
      "ÐºÐ¾Ð²Ð¾Ð¹": 7536,
      "ĠÐ¾ÑĤÐ²ÐµÑĤÑģÑĤÐ²ÐµÐ½": 7537,
      "Ġ1000": 7538,
      "ĠÐŃÐ´Ñĥ": 7539,
      "2019": 7540,
      "ĠÐ§ÐµÑĢÐ½": 7541,
      "ĠÑĦÐ¸Ð»Ð¸": 7542,
      "ÐļÐ¾Ð¼Ð¿": 7543,
      "ĠÐ±Ð¾Ðº": 7544,
      "ĠÐĺÐ²Ð°Ð½Ð°": 7545,
      "ĠÐ²Ð¾Ð¿ÑĢÐ¾ÑģÐ°Ð¼": 7546,
      "ĠÐŁÑĢÐ¸Ð½": 7547,
      "ĠÐ´Ð¸ÑĢÐ¸Ð¶": 7548,
      "ĠÐŁÐ°Ð¼ÑıÑĤ": 7549,
      "Ð¾Ð¸": 7550,
      "ĠÐŁÐ°Ð¿": 7551,
      "ĠÐ¢Ð¾Ðº": 7552,
      "ĠÐ²ÑģÑĤÑĢÐµÑĩÐ°ÐµÑĤÑģÑı": 7553,
      "ĠÐ¿Ð¾ÑĩÑĤÐ¾Ð²": 7554,
      "ÐµÐºÑĤÑĥ": 7555,
      "ĠÐĴÐľ": 7556,
      "Ð½Ð¾ÑģÐ»ÑĥÐ¶": 7557,
      "Ð²ÐµÑĢÐ´Ð»Ð¾Ð²": 7558,
      "ĠÐ°ÑģÑĤÑĢÐ¾Ð½Ð¾Ð¼": 7559,
      "ĠÐ²Ð¾ÐµÐ²Ð¾Ð´": 7560,
      "ĠÑįÐ¿Ð¾ÑħÐ¸": 7561,
      "ĠMan": 7562,
      "ĠÑĢÐµÐºÐ¾Ð¼": 7563,
      "pr": 7564,
      "ĠÑģÐ¾Ð±ÑĢÐ°Ð½Ð¸Ñı": 7565,
      "ÑĥÑģÐ¾Ð²": 7566,
      "ĠÐŁÐ¾ÑĢÑĤ": 7567,
      "ĠÐ½Ð°Ð¹ÑĤÐ¸": 7568,
      "ime": 7569,
      "ĠÐ½Ð°Ð·Ð²Ð°Ð»": 7570,
      "Ð¾Ð¼Ð¸Ð½Ð°Ð½Ð¸Ñı": 7571,
      "Ð½Ð¾Ð²ÐµÐ½Ð¸Ñı": 7572,
      "Ð¾Ð±Ð¸Ð»": 7573,
      "Ð»ÐµÐ´Ð¾Ð²Ð°ÑĤÐµÐ»ÑĮ": 7574,
      "ĠÐºÐ°Ñģ": 7575,
      "ÑĦÐ¾Ð½": 7576,
      "ĠÐ·Ð°Ð¿Ð°Ð´Ð½Ð¾Ð¹": 7577,
      "ĠÐļÐ¾Ð»ÑĥÐ¼Ð±": 7578,
      "ĠÐ¡Ð²ÐµÑĤ": 7579,
      "ash": 7580,
      "Ð±ÐµÐ»": 7581,
      "ĠÐ¿ÑĢÐ¸Ð½ÑıÐ»Ð¸": 7582,
      "ĠÐĴÐ¾ÑĢÐ¾Ð½ÐµÐ¶": 7583,
      "ĠÐ²ÑĭÐ¿Ð°Ð´Ð°ÐµÑĤ": 7584,
      "ĠCar": 7585,
      "Ð¾Ð¸Ñħ": 7586,
      "ĠÐ¥ÑĥÐ´Ð¾Ð¶": 7587,
      "Ð·Ð¾ÑĢ": 7588,
      "ÐĺÐļ": 7589,
      "Ð»ÐµÐ½Ð½ÑĭÐ¹": 7590,
      "ĠÐ¡Ð¸Ð½Ð³": 7591,
      "ĠÑģÐ¾ÑİÐ·Ð°": 7592,
      "ÐŁÐ¾Ð±ÐµÐ´": 7593,
      "ĠÐ¾ÑĤÐ½Ð¾ÑĪÐµÐ½Ð¸Ð¹": 7594,
      "ĠÑģÐºÐ»Ð°Ð´": 7595,
      "ÑĢÑıÐ½": 7596,
      "ĠÐ¤Ð¸Ð½Ð»ÑıÐ½Ð´Ð¸Ð¸": 7597,
      "ĠÐ¿Ð¾Ð´Ð²": 7598,
      "ĠÐ²ÑĭÑĤ": 7599,
      "Ð¸ÑĤÐµÑĢÐ°ÑĤÑĥÑĢ": 7600,
      "ĠÑģÐ±Ð¾ÑĢÐ½Ð¸Ðº": 7601,
      "ĠGr": 7602,
      "1941": 7603,
      "ĠÑģÑĤÐ°ÑĤÑĮÐ¸": 7604,
      "ĠÐ¿Ð¾ÑģÑĤÑĢÐ¾ÐµÐ½Ð°": 7605,
      "ĠRD": 7606,
      "ĠÐ¿Ð¾Ð»Ð¸ÑĨÐ¸Ð¸": 7607,
      "ĠÐľÐĵÐ£": 7608,
      "ĠÑĢÐ°Ð¹Ð¾Ð½Ð¾Ð²": 7609,
      "ĠÑĸ": 7610,
      "de": 7611,
      "Ð¸ÑĩÐ½ÐµÐ²": 7612,
      "ĠÑĢÐ¾ÑģÑģÐ¸Ð¹ÑģÐºÐ¸Ñħ": 7613,
      "ĠÑģÐ¾ÑģÑĤÐ¾ÑıÐ½Ð¸Ð¸": 7614,
      "ĠÐ¼Ð¾Ð¼ÐµÐ½ÑĤÐ°": 7615,
      "ĠÐŁÐµÑĢÐµÐ´": 7616,
      "ĠÑįÐºÑģÐ¿ÐµÑĢÐ¸Ð¼ÐµÐ½ÑĤ": 7617,
      "Ð¡ÐµÐ»Ð¾": 7618,
      "ĠÐŁÐ¾ÑįÑĤ": 7619,
      "Ð¾Ð»Ð¾Ð³Ð¸ÑĩÐµÑģÐºÐ¾Ð¹": 7620,
      "Ð°ÑĢÑĤÐ°": 7621,
      "Ð¾Ð±ÑĭÑĩ": 7622,
      "ÐĿÐ¾Ð²": 7623,
      "ĠÐ¿ÑĢÐ¾ÑħÐ¾Ð´Ð¸Ð»": 7624,
      "ĠÐ¾ÑĤÐ·ÑĭÐ²": 7625,
      "ĠÐ¸ÑģÐ¿Ð¾Ð»ÑĮÐ·ÑĥÑİÑĤÑģÑı": 7626,
      "ĠÐľÐ¸Ðº": 7627,
      "ÐļÐ½Ð¸": 7628,
      "ĠÐ·Ð°Ð´ÐµÑĢÐ¶": 7629,
      "Ġ1907": 7630,
      "ĠÐĲÑĢÐ¼ÐµÐ½Ð¸Ð¸": 7631,
      "ĠPl": 7632,
      "ii": 7633,
      "ĠÐ¸Ð½Ð²ÐµÑģÑĤ": 7634,
      "ĠÐŀÐ³": 7635,
      "ÐµÐ¼Ð±": 7636,
      "ĠÑģÐµÑĢÐ¸Ð¹": 7637,
      "ĠÐĺÐ»": 7638,
      "ove": 7639,
      "ĠÐ½Ð°ÑĩÐ¸Ð½Ð°ÐµÑĤÑģÑı": 7640,
      "ĠÐĿÐ°ÑĨÐ¸Ð¾Ð½Ð°Ð»ÑĮÐ½Ð¾Ð³Ð¾": 7641,
      "ĠÐ½Ð¾Ð²ÑĥÑİ": 7642,
      "ĠÐ½Ð¾Ð²Ð¾Ðµ": 7643,
      "ĠÐĲÑģ": 7644,
      "ĠÐ¸Ð³ÑĢÐ°ÑĤÑĮ": 7645,
      "ĠÐĵÐ°": 7646,
      "ĠÐ°ÑģÑģÐ¾ÑĨÐ¸Ð°ÑĨÐ¸Ð¸": 7647,
      "ÑĩÐ¶": 7648,
      "1985": 7649,
      "ĠÑĩÑĥÐ²ÑģÑĤÐ²": 7650,
      "ĠÑģÐ»Ð¾Ð²Ð¾": 7651,
      "ĠÐºÐ²Ð°Ð´": 7652,
      "ĠÑİÐ³Ñĥ": 7653,
      "Ð°Ð¼ÐµÐ½": 7654,
      "ĠÐ¿Ð¸ÑģÐ°ÑĤÐµÐ»ÐµÐ¹": 7655,
      "ĠÐ´Ð¸ÑģÑĨÐ¸Ð¿": 7656,
      "Ð²ÐµÑĢÑħ": 7657,
      "ĠÑĢÐµÐ»Ð¸Ð³": 7658,
      "ĠÐļÐ½Ð¸": 7659,
      "Ð²Ð°ÑĢÐ´": 7660,
      "ĠÐ²ÑĢÐµÐ¼ÐµÐ½Ð°": 7661,
      "ĠÐ½Ð°ÑĨ": 7662,
      "Ð£ÐºÑĢÐ°": 7663,
      "Ð¾ÑģÑĤÐ¾ÑıÐ½": 7664,
      "Ð»Ð¸ÑĪÐºÐ¾Ð¼": 7665,
      "ÐµÐ¼Ð¸ÑĢ": 7666,
      "ÐĽÐµÐ½": 7667,
      "ĠÐ°ÑĤÐ»ÐµÑĤ": 7668,
      "Ð¾Ð´Ñĥ": 7669,
      "ÐµÐ²ÐµÐ´": 7670,
      "Ð°ÑĤÐµÐ¼Ð°ÑĤ": 7671,
      "ÃĹ": 7672,
      "ĠÑģÑĤÐ°ÑĤÐµÐ¹": 7673,
      "ĠÐ¿ÐµÑĢÐµÐ¸Ð¼ÐµÐ½Ð¾Ð²Ð°Ð½": 7674,
      "Ð°ÑĤÐµÐ»ÑıÐ¼Ð¸": 7675,
      "ĠÑģÐ¾Ð·Ð´Ð°Ð»": 7676,
      "ĠÐ²Ð¾ÑĪÐ»Ð°": 7677,
      "XV": 7678,
      "ĠÐ¾ÑĤÐ¿ÑĢÐ°Ð²Ð¸Ð»ÑģÑı": 7679,
      "ÑīÐ¸ÐºÐ¸": 7680,
      "ĠÐ¿Ð¾ÑģÐ°Ð´": 7681,
      "ĠÐ·Ð²ÑĥÑĩ": 7682,
      "ows": 7683,
      "ĠÐ°Ð²Ð¸Ð°ÑĨÐ¸Ð¸": 7684,
      "ĠÐ²Ð²": 7685,
      "ĠÐ±ÑĢÐ¾Ñģ": 7686,
      "isch": 7687,
      "ĠÑĤÑĳÐ¿Ð»Ð¾Ð³Ð¾": 7688,
      "ÐŁÐ¾ÑģÐ»ÐµÐ´": 7689,
      "Ð°ÑĤÐºÐ¸": 7690,
      "ĠÑĤÑĢÐµÑħ": 7691,
      "ĠÑģÐ¾Ð·Ð´Ð°Ð½Ð°": 7692,
      "ÐµÐ·Ð¶": 7693,
      "ĠÐ½Ð°ÐºÐ°Ð·": 7694,
      "ÐŀÑģÐ½Ð¾Ð²Ð½ÑĭÐµ": 7695,
      "ĠÐ£ÑģÑĤ": 7696,
      "Ġ$": 7697,
      "que": 7698,
      "ĠÑģÐ¾ÑĢÐµÐ²Ð½Ð¾Ð²Ð°Ð½Ð¸ÑıÑħ": 7699,
      "ĠÐ¾ÑĢÐ³Ð°Ð½Ð¸Ð·Ð°ÑĨÐ¸Ð¹": 7700,
      "Ġ42": 7701,
      "1980": 7702,
      "ĠÐºÐ¾Ð½ÑĨÑĥ": 7703,
      "ĠÐ´Ð²Ð¾Ð¹": 7704,
      "ĠÐĽÐµÐ½Ð¸Ð½Ð³": 7705,
      "ĠÐ¾Ð·Ð½Ð°ÑĩÐ°ÐµÑĤ": 7706,
      "ĠÐĲÑĢÑħÐ°Ð½Ð³ÐµÐ»ÑĮ": 7707,
      "ĠÐ¿Ð¾Ð´Ð³Ð¾ÑĤÐ¾Ð²ÐºÐ¸": 7708,
      "ÑĨÐ²ÐµÑĤ": 7709,
      "ĠÐ¸Ð³ÑĢÐ¾ÐºÐ°": 7710,
      "Ð¾ÑħÐ¾Ð´": 7711,
      "iet": 7712,
      "ĠIntern": 7713,
      "ÐĶÐµÐ¼": 7714,
      "ĠÐ½Ð°ÑĥÑĩÐ½Ð¾Ð¹": 7715,
      "ĠÐ¢ÑĢÐ¸": 7716,
      "ĠÐĽÐ¸Ð¿": 7717,
      "ÐĲÐºÑĤ": 7718,
      "ĠÐ¿ÑĥÐ»ÐµÐ¼": 7719,
      "Ð´Ð°Ð¼": 7720,
      "ĠÐ¸ÑģÑĤÐ¾ÑĢÐ¸ÑĩÐµÑģÐºÐ¸Ñħ": 7721,
      "ĠÐºÐ¾Ð¼Ð¿Ð¾Ð·Ð¸ÑĤ": 7722,
      "ĠTe": 7723,
      "ĠXXI": 7724,
      "Ð¤ÐĲ": 7725,
      "ÑĢÐ¾Ð¿Ð¾Ð»": 7726,
      "ĠÐ¸Ð»Ð»Ñİ": 7727,
      "ĠÐ½Ð°ÑħÐ¾Ð´Ð¸Ð»Ð°ÑģÑĮ": 7728,
      "ĠÑĤÑĳÐ¼": 7729,
      "ÑĭÐ²Ð°ÑİÑĤÑģÑı": 7730,
      "ĠÐĴÐ°ÑĢÑĪÐ°Ð²": 7731,
      "ÑĤÐ¾Ð½Ð°": 7732,
      "ĠÐŁÑĥÑĪ": 7733,
      "ĠÐºÐ³": 7734,
      "ĠÐ¾ÑĢÐ³Ð°Ð½Ð¸Ð·Ð¾Ð²Ð°Ð½": 7735,
      "ĠÐ²Ð°Ð»": 7736,
      "ĠÐĶÑĢÐµÐ²": 7737,
      "ĠÐľÐ¾ÑģÐºÐ²Ñĥ": 7738,
      "Ġ55": 7739,
      "ĠÐŀÐŀÐĿ": 7740,
      "ĠÐ³ÐµÐ¾Ð³ÑĢÐ°ÑĦ": 7741,
      "ĠÑģÐµÑĢÐ²": 7742,
      "ĠÐ½Ð°Ð¼ÐµÑĢ": 7743,
      "ĠÑģÐµÐ¼Ð¸Ð½": 7744,
      "ĠÐ»ÐµÐ¹ÑĤÐµÐ½Ð°Ð½ÑĤ": 7745,
      "Ð¸Ð½Ð³ÑĤÐ¾Ð½": 7746,
      "ĠÐĴÐµÑģÑĤ": 7747,
      "Ð¾Ð»Ð¾Ð³Ð¸ÑĩÐµÑģÐºÐ¸Ð¹": 7748,
      "ÐĸÐ¸Ð²": 7749,
      "ĠÐ¿Ð¾ÐµÐ´Ð¸Ð½": 7750,
      "ĠÐĳÑĢÐ¾Ð½": 7751,
      "ĠÐ¾ÑĤÐ´ÐµÐ»ÑĮÐ½ÑĭÑħ": 7752,
      "ĠÐ´ÐµÐ¿ÑĥÑĤÐ°ÑĤ": 7753,
      "ĠÐļÐ¾Ð¼Ð°Ð½Ð´": 7754,
      "Ð°ÑĤÐµÐ»ÑĮÐ½ÑĭÐµ": 7755,
      "ĠÐ´Ð¸Ð°Ð¼ÐµÑĤ": 7756,
      "Ð¾ÑıÐ·ÑĭÑĩ": 7757,
      "ĠÐ¿Ð¾Ð²ÑĢÐµÐ¶Ð´": 7758,
      "ĠÐ¿Ð°ÑģÑģÐ°Ð¶Ð¸ÑĢ": 7759,
      "ĠÑįÑĤÐ°Ð¿Ðµ": 7760,
      "ĠÑĤÐµÑĢÑĢÐ¸ÑĤÐ¾ÑĢÐ¸Ñİ": 7761,
      "ĠÐŁÐµÑģ": 7762,
      "ÐµÐ»ÑĮÑģ": 7763,
      "ĠÑģÐ¾ÑĢÐµÐ²Ð½Ð¾Ð²Ð°Ð½": 7764,
      "span": 7765,
      "ĠÐ¿ÑĢÐ¸Ð»Ð¾Ð¶": 7766,
      "ÑĢÐµÐ·Ð²Ñĭ": 7767,
      "ĠÐ±Ð¸Ð±Ð»Ð¸Ð¾ÑĤÐµÐºÐ°": 7768,
      "ĠÐ·Ð¸Ð¼Ð½Ð¸Ñħ": 7769,
      "ÐŁÐ¾ÑĩÑĳÑĤ": 7770,
      "ĠÐ¼Ð°ÑĤÐµÑĢÐ¸Ð°Ð»": 7771,
      "ÑĢÐµÐ·Ð²ÑĭÑĩÐ°Ð¹": 7772,
      "ĠÐºÐ¾ÑĢÐ°Ð±Ð»ÐµÐ¹": 7773,
      "ĠÐŀÑģÐ¾Ð±": 7774,
      "ÑĪÐ°ÑıÑģÑı": 7775,
      "ĠÐ¶ÐµÐ½Ð¸Ð»ÑģÑı": 7776,
      "ĠÐ¼Ð¸Ð»": 7777,
      "ĠÐ·Ð°Ð¼ÐµÑģÑĤÐ¸ÑĤÐµÐ»ÐµÐ¼": 7778,
      "ĠÐ²ÑģÐ»ÐµÐ´": 7779,
      "ĠÐ½Ð°Ð·ÑĭÐ²Ð°ÐµÑĤÑģÑı": 7780,
      "sh": 7781,
      "Ð¸ÑĢÑĥÑİÑĤ": 7782,
      "ĠÑĥÑģÑĤÐ°Ð½Ð°Ð²Ð»Ð¸Ð²": 7783,
      "ĠÐ¿Ð°ÑĢÐº": 7784,
      "ĠÐĳÑĥÐ»": 7785,
      "ĠÐ½ÐµÐ½": 7786,
      "ÑĥÑĢÐ¸": 7787,
      "ĠÐĳÐ¾Ð»Ð³Ð°ÑĢÐ¸Ð¸": 7788,
      "ÐĿÐ°ÑĨÐ¸Ð¾Ð½Ð°Ð»ÑĮÐ½ÑĭÐ¹": 7789,
      "ĠÑĢÐ¾Ð¼Ð°Ð½Ð°": 7790,
      "ĠÑģÐ¾ÑģÑĤÐ¾ÑıÐ»": 7791,
      "ÐµÑĨÐºÐ¾Ð¹": 7792,
      "ÑıÐ½ÑĥÑĤ": 7793,
      "Ð±Ð°Ð»": 7794,
      "ĠÑĤÐ¾Ð¿Ð»Ð¸Ð²": 7795,
      "ym": 7796,
      "ĠÑĦÑĥÐ½ÐºÑĨÐ¸Ð¾Ð½": 7797,
      "ÑĥÑĩÐµÐ½": 7798,
      "ĠÐĶÐ°Ð³": 7799,
      "ĠÐ¿ÑĢÐ¸Ð²ÐµÐ»Ð¾": 7800,
      "ark": 7801,
      "ĠÐ¨Ð²ÐµÐ¹ÑĨÐ°ÑĢÐ¸Ð¸": 7802,
      "ĠÑĢÐ°ÑģÑģÐ»ÐµÐ´": 7803,
      "ĠÐ·Ð°Ð²Ð¾Ð´Ðµ": 7804,
      "ĠÐºÐ¾Ð¼Ð½": 7805,
      "ence": 7806,
      "Ð¾Ð½ÑģÐºÐ¾Ð¹": 7807,
      "AS": 7808,
      "Ð½ÑĥÑĤÑĮ": 7809,
      "ĠÐ·Ð²ÑĥÐº": 7810,
      "ĠÑĢÑĥÐºÐ¾Ð¿": 7811,
      "itt": 7812,
      "ÑĬÐµÐ´Ð¸Ð½": 7813,
      "ĠÐ´Ð²Ð¾ÑĢÐ°": 7814,
      "Ð¡Ð¢": 7815,
      "Ð¸ÑĢÑĥÑĢÐ³": 7816,
      "ale": 7817,
      "ĠÐ±Ð°ÑĤÐ°": 7818,
      "ÐĲÑĤ": 7819,
      "ĠÐ®Ð³Ð¾ÑģÐ»Ð°Ð²": 7820,
      "ĠÐ¾ÐºÑĢÑĥÐ³Ñĥ": 7821,
      "ĠÐĵÑĢÑĥÐ·Ð¸Ð¸": 7822,
      "ĠÑħÑĥÑĤ": 7823,
      "ail": 7824,
      "pp": 7825,
      "ĠÐºÑĢÐµÐ¹Ñģ": 7826,
      "ĠÑĪÐµÑģÑĤÐ¸": 7827,
      "Ð½Ð¾Ð¿": 7828,
      "ĠÐ¸Ð½Ð´ÐµÐºÑģ": 7829,
      "ĠÑģÑĤÐ°": 7830,
      "ĠÑıÐ´ÐµÑĢ": 7831,
      "ĠÐ¿ÑĢÐµÐ´ÑĥÑģ": 7832,
      "ĠÑģÐ»Ð°Ð±": 7833,
      "ÐºÐ°Ð»": 7834,
      "ĠÑģÐ¾ÑĩÐµÑĤ": 7835,
      "ÑĥÑįÑĢ": 7836,
      "ÐľÐ¾ÑģÐºÐ²Ð°": 7837,
      "ĠÐ²Ð¾Ð·Ð²ÑĭÑĪ": 7838,
      "Ð¾Ð±Ð½Ð¾Ð²": 7839,
      "ĠÑģÐ»Ð¸ÑĪÐºÐ¾Ð¼": 7840,
      "Ð¾Ð¾ÑħÑĢÐ°Ð½": 7841,
      "ĠÐ¿Ð¾Ð»Ð¸ÑĤÐ¸Ðº": 7842,
      "ĠÐ±Ð¾Ð»ÑĮÑĪÐ¸Ð¼": 7843,
      "ĠÐ¼Ð½Ð¾Ð³Ð¾Ð»ÐµÑĤ": 7844,
      "ĠÐ²ÑĭÐ²": 7845,
      "ĠÐļÐ¾ÑĢÐµ": 7846,
      "Ð°Ð¼Ð¼": 7847,
      "Ð°ÐºÐ¸Ð¸": 7848,
      "ÑĥÐ»ÑĮÑĤÑĥÑĢ": 7849,
      "ĠÐ¿Ð¾Ð»ÑĥÑĩÐµÐ½Ð¸Ñı": 7850,
      "ÐĳÐ°ÑĢ": 7851,
      "ĠÐĳÐ¾Ð¶": 7852,
      "ĠÐłÐµÐ´": 7853,
      "ĠÐ¿Ð¾Ð¿Ð°Ð»": 7854,
      "ĠÐ±Ð°ÑĤÐ°Ð»ÑĮÐ¾Ð½Ð°": 7855,
      "ĠÐ¢Ð¾Ð³Ð´Ð°": 7856,
      "Ð°ÑĤÐµÐ»ÑĮÐ½Ð¾Ð³Ð¾": 7857,
      "ÐµÐ»Ð¸Ñı": 7858,
      "Ð¾ÑĢÑıÐ¶": 7859,
      "ĠÐļÐ°ÑĢÐ»Ð°": 7860,
      "Ð»Ð¾Ð¿": 7861,
      "ĠÐ¿Ð¾Ð´Ñģ": 7862,
      "ĠÐ²ÐµÐºÐ¾Ð²": 7863,
      "ÑĥÑĢÑĤ": 7864,
      "ĠÑģÐµÐ»ÑĮÑģÐºÐ¸Ð¹": 7865,
      "Ð¾ÑĩÐµÑĤ": 7866,
      "ĠÐ½Ð¾Ð²ÑĭÐ¼": 7867,
      "Ð¾Ð¿ÑĢÐ¸Ð¼ÐµÑĩÐ°ÑĤÐµÐ»ÑĮÐ½Ð¾ÑģÑĤÐ¸": 7868,
      "ÐºÐ¾Ð²ÑĭÑħ": 7869,
      "ĠÐ¥Ð¾ÑĤÑı": 7870,
      "ÑıÐ½Ð²Ð°ÑĢÑı": 7871,
      "âĦĸ": 7872,
      "ĠÐºÐ°ÑĤÐµÐ³Ð¾ÑĢ": 7873,
      "ĠÑĤÑĢÐµÐ½ÐµÑĢÐ¾Ð¼": 7874,
      "Ð°Ð»ÑĮÐ±": 7875,
      "Ð¾Ð²ÐµÑĢÑĪ": 7876,
      "Ð¸ÑĢÑĥÐµÐ¼": 7877,
      "Ð¿Ñģ": 7878,
      "ĠÐ²ÑħÐ¾Ð´Ð¸Ð»": 7879,
      "Î±": 7880,
      "ĠÐ¾ÑģÑĤÑĢÐ¾Ð²Ð¾Ð²": 7881,
      "ĠÑĢÐ°Ð·Ð½Ð¾Ð¾Ð±ÑĢÐ°Ð·": 7882,
      "ĠÑģÐ¿ÐµÑĨ": 7883,
      "ĠÐ°Ð²ÑĤÐ¾ÑĢÐ°": 7884,
      "ĠÑĥÐºÑĢÐ°Ð¸Ð½ÑģÐºÐ¸Ð¹": 7885,
      "ĠÐ°Ð´ÑĢÐµÑģ": 7886,
      "ĠÑİÐ½Ð¾ÑĪ": 7887,
      "ĠÑģÐ¾Ð²ÑĢÐµÐ¼ÐµÐ½Ð½ÑĭÑħ": 7888,
      "ĠÑħÐ¾Ð·ÑıÐ¹ÑģÑĤÐ²": 7889,
      "Ġ1904": 7890,
      "ĠÐ¿ÑĢÐ¾Ð²ÐµÑĢ": 7891,
      "Ð¾Ð»Ð¾Ð³Ð¸ÑĩÐµÑģÐºÐ¸Ðµ": 7892,
      "ĠÑģÐ¿ÐµÑĨÐ¸Ð°Ð»Ð¸Ð·": 7893,
      "ÑĢÐµÐ³Ð¸ÑģÑĤÑĢ": 7894,
      "ÑĤÐµÑĢÐ½Ð°ÑĤÐ¸Ð²": 7895,
      "Ð³Ð¾Ð´Ð°Ñħ": 7896,
      "ÐĲÐ¹": 7897,
      "ĠÑģÐ°Ð¼Ð¾Ð»ÑĳÑĤÐ°": 7898,
      "ĠÐ°Ð²ÑĤÐ¾Ð¼Ð¾Ð±Ð¸Ð»": 7899,
      "ĠÐ½Ð°Ð³ÑĢÐ°Ð´Ñĭ": 7900,
      "ĠÐ¿ÐµÑĢÐµÐ´Ð°ÑĩÐ¸": 7901,
      "Ð°ÑģÐ»ÐµÐ´": 7902,
      "ĠÐ½Ð¸ÑĩÐµÐ³Ð¾": 7903,
      "ĠÐ²Ð¾ÑģÑĤÐ¾ÑĩÐ½Ð¾Ð¹": 7904,
      "Ð»ÐµÐ¹ÑĤÐµÐ½Ð°Ð½ÑĤ": 7905,
      "ĠÐ°ÑĢÐµÑģÑĤÐ¾Ð²Ð°Ð½": 7906,
      "ÐºÑĢÐ°Ñģ": 7907,
      "Ð¡Ð¾": 7908,
      "Ð»Ð°Ð¶": 7909,
      "Ð¸ÑİÐ»Ñı": 7910,
      "ĠÐ²ÑĭÐ½ÑĥÐ¶Ð´ÐµÐ½": 7911,
      "ĠÑįÐºÑģÐ¿ÐµÑĢÑĤ": 7912,
      "ĠÐĺÐ³Ð¾ÑĢÑĮ": 7913,
      "ĠÐ°Ð¼ÐµÑĢÐ¸ÐºÐ°Ð½ÑģÐºÐ°Ñı": 7914,
      "----": 7915,
      "ĠÑĤÐµÑħÐ½Ð¾Ð»Ð¾Ð³Ð¸Ð¸": 7916,
      "ĠÐ±Ð°ÑģÑģÐµÐ¹Ð½Ð°": 7917,
      "Ð°ÑİÑīÐµÐµ": 7918,
      "ĠÐ¾ÑĤÑĢÐ¸ÑĨ": 7919,
      "ÑıÑİÑĤÑģÑı": 7920,
      "Ð¾ÑĢÐµÑĩ": 7921,
      "ĠÑģÐ°Ð¼ÑĭÐ¹": 7922,
      "ĠHist": 7923,
      "ĠÑģÐ²Ð¸Ð´ÐµÑĤÐµÐ»ÑĮÑģÑĤÐ²": 7924,
      "ĠÐ¾ÑĤÐ²ÐµÑĩ": 7925,
      "ĠÐ¼Ð¸ÐºÑĢÐ¾": 7926,
      "ĠÐ½ÐµÐ±Ð¾Ð»ÑĮÑĪÐ¾Ð¹": 7927,
      "ĠÐ¨Ð°Ñħ": 7928,
      "ÐľÐ°ÑĤ": 7929,
      "ĠÐ²Ð°Ð³": 7930,
      "ĠÐ»Ð¸ÑĤÐµÑĢÐ°ÑĤÑĥÑĢÐµ": 7931,
      "ÑĭÐ²Ð°Ð»Ð¾ÑģÑĮ": 7932,
      "ĠÐ±ÑĢÐ¸Ð³Ð°Ð´": 7933,
      "ĠÐĴÐµÐ½Ð³ÑĢÐ¸Ð¸": 7934,
      "ĠÐ¿ÑĢÐµÐ·Ð¸Ð´ÐµÐ½ÑĤÐ¾Ð¼": 7935,
      "ÐĺÑĤ": 7936,
      "ÐµÐ´Ð°": 7937,
      "Ð¸ÑģÑĤÐ¸ÑĩÐµÑģÐºÐ¾Ð¹": 7938,
      "na": 7939,
      "ĠÐ¿ÐµÑĢÐµÐ²Ð¾Ð·": 7940,
      "Ð¸ÑĩÐ¸": 7941,
      "ĠÐºÐ»ÑĥÐ±Ðµ": 7942,
      "ĠÑĤÐ¾Ð²": 7943,
      "ĠÐ¾Ð±ÑĬÑıÐ²Ð¸Ð»": 7944,
      "ÑĪÑĤÐ°Ð±": 7945,
      "Ð»ÐµÑĢÐ°": 7946,
      "Ð¢ÑĢÐ°Ð½ÑģÐ¿Ð¾ÑĢÑĤ": 7947,
      "ĠÑĦÐ»Ð°Ð³": 7948,
      "ĠÐĺÐµÑĢ": 7949,
      "ĠÑĢÐ°Ð±Ð¾ÑĤÐ°Ð»Ð¸": 7950,
      "Ð°ÑĳÑĤÑģÑı": 7951,
      "ÑĢÐ¾ÑģÑģ": 7952,
      "ĠÐłÐµÐ²": 7953,
      "ĠVII": 7954,
      "ĠÐ·ÑĥÐ±": 7955,
      "ĠÐĶÐ¶ÐµÐ¹": 7956,
      "ĠÐ½Ð°Ð´Ð¿": 7957,
      "ĠÐ¡ÑĢÐµÐ´Ð½ÐµÐ³Ð¾Ð´Ð¾Ð²Ð°Ñı": 7958,
      "ĠÐ²Ð¸Ðº": 7959,
      "ÑĥÐ½ÑĮ": 7960,
      "ĠÑĢÐµÑģÑĥÑĢÑģ": 7961,
      "ÑģÐ°Ð¼Ð±": 7962,
      "ĠÐĺÑģÑĤÐ¾ÑĢ": 7963,
      "ĠÐ³Ð¾ÑģÑĥÐ´Ð°ÑĢÑģÑĤÐ²ÐµÐ½Ð½Ð¾Ð¼": 7964,
      "ĠÐ¿Ð¾Ð»ÑĥÐ¾ÑģÑĤ": 7965,
      "ĠÑģÑĤÑĢÐµÐ»ÐºÐ¾Ð²Ð¾Ð¹": 7966,
      "ĠÐ¼ÐµÐ½ÑĮÑĪÐµ": 7967,
      "ĠÐ¼Ð»Ð½": 7968,
      "ĠÐĴÐ¾Ð»Ð¾Ð³Ð¾Ð´": 7969,
      "BC": 7970,
      "Ð¾ÑĤÑĥ": 7971,
      "ett": 7972,
      "ĠÐ´Ð¸Ð°Ð³": 7973,
      "ĠÐ¿ÑĢÐ¸ÑĢÐ¾Ð´Ñĭ": 7974,
      "ĠÑĥÐ³ÑĢÐ¾Ð·": 7975,
      "1942": 7976,
      "ĠÐ½ÐµÐ¾Ð´Ð½Ð¾ÐºÑĢÐ°ÑĤÐ½Ð¾": 7977,
      "ĠÑģÑĢÐ°Ð²Ð½ÐµÐ½Ð¸Ñİ": 7978,
      "ĠÐĲÐ±ÑģÐ¾Ð»ÑİÑĤÐ½Ð°Ñı": 7979,
      "ĠÐ¢Ñĥ": 7980,
      "ĠÐĺÑĢÐ»Ð°Ð½Ð´Ð¸Ð¸": 7981,
      "ĠÐŀÐ·": 7982,
[...]
