{
  "version": "1.0",
  "truncation": null,
  "padding": null,
  "added_tokens": [
    {
      "id": 0,
      "content": "<unk>",
      "single_word": false,
      "lstrip": false,
      "rstrip": false,
      "normalized": false,
      "special": true
    },
    {
      "id": 1,
      "content": "<eot>",
      "single_word": false,
      "lstrip": false,
      "rstrip": false,
      "normalized": false,
      "special": true
    }
  ],
  "normalizer": null,
  "pre_tokenizer": {
    "type": "ByteLevel",
    "add_prefix_space": false,
    "trim_offsets": true,
    "use_regex": true
  },
  "post_processor": {
    "type": "ByteLevel",
    "add_prefix_space": true,
    "trim_offsets": false,
    "use_regex": true
  },
  "decoder": {
    "type": "ByteLevel",
    "add_prefix_space": true,
    "trim_offsets": true,
    "use_regex": true
  },
  "model": {
    "type": "BPE",
    "dropout": null,
    "unk_token": null,
    "continuing_subword_prefix": null,
    "end_of_word_suffix": null,
    "fuse_unk": false,
    "byte_fallback": false,
    "ignore_merges": false,
    "vocab": {
      "<unk>": 0,
      "<eot>": 1,
      "!": 2,
      "\"": 3,
      "#": 4,
      "$": 5,
      "%": 6,
      "&": 7,
      "'": 8,
      "(": 9,
      ")": 10,
      "*": 11,
      "+": 12,
      ",": 13,
      "-": 14,
      ".": 15,
      "/": 16,
      "0": 17,
      "1": 18,
      "2": 19,
      "3": 20,
      "4": 21,
      "5": 22,
      "6": 23,
      "7": 24,
      "8": 25,
      "9": 26,
      ":": 27,
      ";": 28,
      "<": 29,
      "=": 30,
      ">": 31,
      "?": 32,
      "@": 33,
      "A": 34,
      "B": 35,
      "C": 36,
      "D": 37,
      "E": 38,
      "F": 39,
      "G": 40,
      "H": 41,
      "I": 42,
      "J": 43,
      "K": 44,
      "L": 45,
      "M": 46,
      "N": 47,
      "O": 48,
      "P": 49,
      "Q": 50,
      "R": 51,
      "S": 52,
      "T": 53,
      "U": 54,
      "V": 55,
      "W": 56,
      "X": 57,
      "Y": 58,
      "Z": 59,
      "[": 60,
      "\\": 61,
      "]": 62,
      "^": 63,
      "_": 64,
      "`": 65,
      "a": 66,
      "b": 67,
      "c": 68,
      "d": 69,
      "e": 70,
      "f": 71,
      "g": 72,
      "h": 73,
      "i": 74,
      "j": 75,
      "k": 76,
      "l": 77,
      "m": 78,
      "n": 79,
      "o": 80,
      "p": 81,
      "q": 82,
      "r": 83,
      "s": 84,
      "t": 85,
      "u": 86,
      "v": 87,
      "w": 88,
      "x": 89,
      "y": 90,
      "z": 91,
      "{": 92,
      "|": 93,
      "}": 94,
      "~": 95,
      "¡": 96,
      "¢": 97,
      "£": 98,
      "¤": 99,
      "¥": 100,
      "¦": 101,
      "§": 102,
      "¨": 103,
      "©": 104,
      "ª": 105,
      "«": 106,
      "¬": 107,
      "®": 108,
      "¯": 109,
      "°": 110,
      "±": 111,
      "²": 112,
      "³": 113,
      "´": 114,
      "µ": 115,
      "¶": 116,
      "·": 117,
      "¸": 118,
      "¹": 119,
      "º": 120,
      "»": 121,
      "¼": 122,
      "½": 123,
      "¾": 124,
      "¿": 125,
      "À": 126,
      "Á": 127,
      "Â": 128,
      "Ã": 129,
      "Ä": 130,
      "Å": 131,
      "Æ": 132,
      "Ç": 133,
      "È": 134,
      "É": 135,
      "Ê": 136,
      "Ë": 137,
      "Ì": 138,
      "Í": 139,
      "Î": 140,
      "Ï": 141,
      "Ð": 142,
      "Ñ": 143,
      "Ò": 144,
      "Ó": 145,
      "Ô": 146,
      "Õ": 147,
      "Ö": 148,
      "×": 149,
      "Ø": 150,
      "Ù": 151,
      "Ú": 152,
      "Û": 153,
      "Ü": 154,
      "Ý": 155,
      "Þ": 156,
      "ß": 157,
      "à": 158,
      "á": 159,
      "â": 160,
      "ã": 161,
      "ä": 162,
      "å": 163,
      "æ": 164,
      "ç": 165,
      "è": 166,
      "é": 167,
      "ê": 168,
      "ë": 169,
      "ì": 170,
      "í": 171,
      "î": 172,
      "ï": 173,
      "ð": 174,
      "ñ": 175,
      "ò": 176,
      "ó": 177,
      "ô": 178,
      "õ": 179,
      "ö": 180,
      "÷": 181,
      "ø": 182,
      "ù": 183,
      "ú": 184,
      "û": 185,
      "ü": 186,
      "ý": 187,
      "þ": 188,
      "ÿ": 189,
      "Ā": 190,
      "ā": 191,
      "Ă": 192,
      "ă": 193,
      "Ą": 194,
      "ą": 195,
      "Ć": 196,
      "ć": 197,
      "Ĉ": 198,
      "ĉ": 199,
      "Ċ": 200,
      "ċ": 201,
      "Č": 202,
      "č": 203,
      "Ď": 204,
      "ď": 205,
      "Đ": 206,
      "đ": 207,
      "Ē": 208,
      "ē": 209,
      "Ĕ": 210,
      "ĕ": 211,
      "Ė": 212,
      "ė": 213,
      "Ę": 214,
      "ę": 215,
      "Ě": 216,
      "ě": 217,
      "Ĝ": 218,
      "ĝ": 219,
      "Ğ": 220,
      "ğ": 221,
      "Ġ": 222,
      "ġ": 223,
      "Ģ": 224,
      "ģ": 225,
      "Ĥ": 226,
      "ĥ": 227,
      "Ħ": 228,
      "ħ": 229,
      "Ĩ": 230,
      "ĩ": 231,
      "Ī": 232,
      "ī": 233,
      "Ĭ": 234,
      "ĭ": 235,
      "Į": 236,
      "į": 237,
      "İ": 238,
      "ı": 239,
      "Ĳ": 240,
      "ĳ": 241,
      "Ĵ": 242,
      "ĵ": 243,
      "Ķ": 244,
      "ķ": 245,
      "ĸ": 246,
      "Ĺ": 247,
      "ĺ": 248,
      "Ļ": 249,
      "ļ": 250,
      "Ľ": 251,
      "ľ": 252,
      "Ŀ": 253,
      "ŀ": 254,
      "Ł": 255,
      "ł": 256,
      "Ń": 257,
      "ĠÐ": 258,
      "Ð¾": 259,
      "Ð°": 260,
      "Ðµ": 261,
      "Ð¸": 262,
      "Ð½": 263,
      "ÑĢ": 264,
      "Ñģ": 265,
      "ÑĤ": 266,
      "Ð¾Ð": 267,
      "Ð»": 268,
      "Ðº": 269,
      "Ñĥ": 270,
      "Ð²": 271,
      "Ñı": 272,
      "Ñĭ": 273,
      "Ð¼": 274,
      "Ð´": 275,
      "ÑģÑĤ": 276,
      "ĠÐ¿": 277,
      "ĠÐ²": 278,
      "ÑĮ": 279,
      "ÑĢÐ°": 280,
      "ÐµÐ½": 281,
      "Ñĩ": 282,
      "Ð¾Ð²": 283,
      "ĠÑģ": 284,
      "Ð¹": 285,
      "Ð·": 286,
      "Ñħ": 287,
      "ĠÐ¸": 288,
      "Ð¿": 289,
      "Ð°Ð½": 290,
      "ÑģÐº": 291,
      "ÐµÑĢ": 292,
      "Ð³": 293,
      "Ð±": 294,
      "Ð¾Ð´": 295,
      "ĠÐ½": 296,
      "ĠÐ¾": 297,
      "Ð¾ÑĢ": 298,
      "Ð¾Ð»": 299,
      "ĠÐº": 300,
      "Ð¾Ð¼": 301,
      "Ð°Ð»": 302,
      "ÐµÐ»": 303,
      "ÑĨ": 304,
      "Ð½Ñĭ": 305,
      "Ð¾Ð³": 306,
      "ÑĢÐµ": 307,
      "ĠÐ³": 308,
      "Ð¾Ð¹": 309,
      "Ñİ": 310,
      "Ð¾Ð½": 311,
      "ĠÐ´": 312,
      "Ð¶": 313,
      "Ð¸Ð½": 314,
      "ÐµÑĤ": 315,
      "ĠÐ½Ð°": 316,
      "ÑĪ": 317,
      "Ð¸ÑĤ": 318,
      "âĢ": 319,
      "Ð¸Ñı": 320,
      "Âł": 321,
      "Ġ1": 322,
      "âĢĶ": 323,
      "Ð°ÑĤ": 324,
      "ĠÐ¼": 325,
      "ÑĦ": 326,
      "ĠÐ±": 327,
      "ĠÑĤ": 328,
      "Ð°ÑĢ": 329,
      "Ð¸Ð»": 330,
      "Ð¸Ðµ": 331,
      "Ð¾Ð³Ð¾": 332,
      "Ð¸Ðº": 333,
      "Ġ(": 334,
      "Ð¸Ð¸": 335,
      "ĠÐ¿ÑĢ": 336,
      "Ð¾ÑĤ": 337,
      "Ð¾Ñģ": 338,
      "Ð¸Ð¹": 339,
      "Ð½Ð¾": 340,
      "Ð¸Ð¼": 341,
      "ĠÐ¡": 342,
      "ĠÐ·": 343,
      "ÑģÑĤÐ²": 344,
      "Ð»Ð°": 345,
      "Ñī": 346,
      "Ñĳ": 347,
      "ĠÐ³Ð¾Ð´": 348,
      "ĠÑĥ": 349,
      "ĠÐ°": 350,
      "Â«": 351,
      "Â»": 352,
      "ĠÐĴ": 353,
      "ÐµÐ¼": 354,
      "Ð°Ðº": 355,
      "ĠÂ«": 356,
      "ÐµÐ´": 357,
      "ÑģÑı": 358,
      "Ð¸Ñĩ": 359,
      "ĠÑĩ": 360,
      "ĠÑĢÐ°": 361,
      "Ð°Ð¼": 362,
      "ÐµÐ¹": 363,
      "Ġ2": 364,
      "Ð°Ñı": 365,
      "Ġ19": 366,
      "ĠÐļ": 367,
      "ÑĢÑĥ": 368,
      "ÐµÐ²": 369,
      "ĠĊ": 370,
      "Ð°Ð²": 371,
      "Ñį": 372,
      "ÐµÐº": 373,
      "Ð¾ÑģÑĤ": 374,
      "ĠÐŁ": 375,
      "Ð¸Ð²": 376,
      "Ð¸Ñģ": 377,
      "Ð¡": 378,
      "Ð¾Ðº": 379,
      "ÐµÐ»ÑĮ": 380,
      "ĠÐľ": 381,
      "Ð¾Ð±": 382,
      "Ð¸Ñħ": 383,
      "ĠÐ¾Ð±": 384,
      "Ð»Ñı": 385,
      "ĠÑģÑĤ": 386,
      "ĠÐĲ": 387,
      "ĠÐ¾ÑĤ": 388,
      "Ð¸Ð·": 389,
      "Ð½Ð¾Ð¹": 390,
      "ĠÐ±Ñĭ": 391,
      "ÐŁ": 392,
      "ĠÐ»": 393,
      "Ð°Ð»ÑĮ": 394,
      "Ð¾Ð·": 395,
      "Ġ20": 396,
      "ĠÐ¿Ð¾": 397,
      "Ð»Ð¸": 398,
      "Ð¾Ð»ÑĮ": 399,
      "ÐµÑģÐº": 400,
      "ĠÑĦ": 401,
      "Ð¸ÑĢ": 402,
      "ĠÐł": 403,
      "ÐµÐ½Ð¸Ñı": 404,
      "ĠÐ¸Ð·": 405,
      "ĠÐ³Ð¾Ð´Ð°": 406,
      "ĠÐĳ": 407,
      "Ð½ÑĭÐ¹": 408,
      "Ð½ÑĭÑħ": 409,
      "ÐºÐ°": 410,
      "Ð½Ð¾Ð³Ð¾": 411,
      "ĠÑį": 412,
      "Ð³Ð¾": 413,
      "Ð¾Ð¶": 414,
      "Ð°Ñģ": 415,
      "Ð¸ÑģÑĤ": 416,
      "ÐµÑģ": 417,
      "ÐĴ": 418,
      "Ð½ÑĭÐµ": 419,
      "Ð¾Ð¿": 420,
      "ĠÐĿ": 421,
      "ĠÐĵ": 422,
      "Ð°Ð´": 423,
      "ÐµÐ½Ð¸Ðµ": 424,
      "ĠÐµ": 425,
      "ÑĢÐµÐ´": 426,
      "ÐµÑģÑĤ": 427,
      "ĠÐĶ": 428,
      "ĠÐŀ": 429,
      "ĠÐ²Ñĭ": 430,
      "Ð½Ð¸Ðº": 431,
      "ĠÐ¿ÐµÑĢ": 432,
      "ÑĥÑĢ": 433,
      "ÑģÐºÐ¾Ð³Ð¾": 434,
      "Ð½Ð°": 435,
      "Ð»ÑĮ": 436,
      "Ð¸ÑĩÐµÑģÐº": 437,
      "ÐµÐ½ÑĤ": 438,
      "ÑĤÐ¾": 439,
      "ÑĨÐ¸": 440,
      "ĠÐ½Ðµ": 441,
      "ÑģÐºÐ¾Ð¹": 442,
      "ÑĥÑİ": 443,
      "ĠÑĢÐµ": 444,
      "Ð¸Ð´": 445,
      "ĠÐ¢": 446,
      "ÑĢÐ°Ð½": 447,
      "ÐºÐ¸": 448,
      "Ð¾Ð²Ð°Ð½": 449,
      "ÐµÑĢÐ°": 450,
      "ÑģÐºÐ¸Ð¹": 451,
      "ĠÐ·Ð°": 452,
      "ĠÐ¶": 453,
      "ÑĥÐ´": 454,
      "ÐµÑĩ": 455,
      "ÑģÐ¿": 456,
      "Ð½Ð¾ÑģÑĤ": 457,
      "Ðļ": 458,
      "ÑĥÑĤ": 459,
      "ĠÐĺ": 460,
      "ĠÐ³Ð¾Ð´Ñĥ": 461,
      "ĠÐĽ": 462,
      "ÐµÐ·": 463,
      "ĠâĢĶ": 464,
      "Ð½ÑĭÐ¼": 465,
      "Ð°ÑģÑĤ": 466,
      "19": 467,
      "ĠÐ±ÑĭÐ»": 468,
      "Ð½Ð¸": 469,
      "ĠÐ¿Ð¾Ð»": 470,
      "ÑıÑĤ": 471,
      "ĠÑĢ": 472,
      "ÑĢÐ°Ð²": 473,
      "ÐµÑģÑĤÐ²": 474,
      "ĠÑģÐ²": 475,
      "ÑĤÐ°": 476,
      "ÐĲ": 477,
      "ÑĨÐ¸Ð¸": 478,
      "Ð¾Ñĩ": 479,
      "ÐºÑĤ": 480,
      "Ðł": 481,
      "Ð°Ð¹": 482,
      "Ð°ÐµÑĤ": 483,
      "Ð¾ÑĤÐ¾ÑĢ": 484,
      "ÑħÐ¾Ð´": 485,
      "Ð½Ð°Ñı": 486,
      "ÑĥÑĩ": 487,
      "Ð»ÐµÐ½": 488,
      ").": 489,
      "Ð°Ð½Ð¸Ñı": 490,
      "Ð°Ð½Ð´": 491,
      "Ð»Ðµ": 492,
      "ĠÐ¤": 493,
      "ĠÐ¿Ð¾Ð´": 494,
      "ÑĥÐ±": 495,
      "Ð°Ñħ": 496,
      "Ð¶Ðµ": 497,
      "Ð°Ð·": 498,
      "ĠÐ¿ÑĢÐ¾": 499,
      "ÐĿ": 500,
      "ÑĢÐµÐ¼": 501,
      "ĠÑĢÐ°Ð·": 502,
      "ÐºÐ¾Ð²": 503,
      "ĠÑħ": 504,
      "Ð°ÑĤÑĮ": 505,
      "ĠÐºÐ¾Ð¼": 506,
      "Ð¾Ðµ": 507,
      "ĠÐºÐ¾ÑĤÐ¾ÑĢ": 508,
      "Ðĺ": 509,
      "ÑİÑĤ": 510,
      "Ð¶Ð´": 511,
      "er": 512,
      "ĠÐ¿Ð¾Ñģ": 513,
      "00": 514,
      "Ð¸ÑĤÐµÐ»ÑĮ": 515,
      "Ð½Ðµ": 516,
      "ĠÑĤÐ°Ðº": 517,
      "ĠÑı": 518,
      "Ð¸Ð³": 519,
      "),": 520,
      "Ð´Ð°": 521,
      "Ð½Ð¾Ð¼": 522,
      "Ð¸ÑĨ": 523,
      "ÑĢÐ¾": 524,
      "ÑĥÐ½": 525,
      "ÑĢÐ¾Ð²": 526,
      "Ð½Ñı": 527,
      "Ð°Ð¼Ð¸": 528,
      "ĠÑģÐ¾ÑģÑĤ": 529,
      "ÑĳÐ½": 530,
      "ÑĢÑı": 531,
      "Ð¸Ð»ÑĮ": 532,
      "ĠÑĨ": 533,
      "ĠÑĪ": 534,
      "ĠÐ£": 535,
      "ÑĭÑħ": 536,
      "ĠÐ¸Ð¼": 537,
      "ÑĭÐ¹": 538,
      "ÑĭÐµ": 539,
      "Ġ201": 540,
      "ÑĤÐ¾ÑĢ": 541,
      "Ðľ": 542,
      "ÑĥÑģ": 543,
      "ĠÑĩÑĤÐ¾": 544,
      "Ġ200": 545,
      "Ðŀ": 546,
      "ot": 547,
      "Ð¾Ð½Ð°": 548,
      "ĠÐ¿ÑĢÐµÐ´": 549,
      "ÑĭÐ²": 550,
      "Ð¸Ñİ": 551,
      "Â».": 552,
      "ÑĥÐ¿": 553,
      "Ð¾ÑĢÐ¾Ð´": 554,
      "Ð¾Ñı": 555,
      "ĠÐºÐ¾Ð½": 556,
      "ÐĶ": 557,
      "Ð°Ð»Ð°": 558,
      "ÑĢÐ°Ð·": 559,
      "Ð»ÐµÐ´": 560,
      "Ð¾ÑģÑģ": 561,
      "Ġ3": 562,
      "ÑĢÐ°ÑĤ": 563,
      "Ð½Ð¾Ðµ": 564,
      "ĠÐ¾Ñģ": 565,
      "ĠÑģÐ¾": 566,
      "Ġ18": 567,
      "ĠÐ´Ð»Ñı": 568,
      "Ðĳ": 569,
      "Ð½Ð¾Ð²": 570,
      "an": 571,
      "ÐµÐ¿": 572,
      "ĠÐºÐ°Ðº": 573,
      "ĠÑĥÑĩ": 574,
      "Ð¼Ð¸": 575,
      "Ð¸Ð½Ð°": 576,
      "ĠÐ²Ð¾": 577,
      "ĠÐ¾Ð´": 578,
      "Ð»Ð°Ð²": 579,
      "Ð°Ð»Ð¸": 580,
      "ÑĥÐ¶": 581,
      "ĠÐĹ": 582,
      "ĠÐ¥": 583,
      "Â»,": 584,
      "ÑĢÑĥÐ³": 585,
      "Ð±Ð¾ÑĤ": 586,
      "ĠÑįÑĤ": 587,
      "in": 588,
      "ÑĢÐ¸": 589,
      "Ð°Ð³": 590,
      "ÐµÑħ": 591,
      "eot": 592,
      "ĠÐ´Ð²": 593,
      "ÐºÐ¾": 594,
      "Ðĵ": 595,
      "ÐµÐ³": 596,
      "ĠÑģÐ¿": 597,
      "ĠÐµÐ³Ð¾": 598,
      "ÑĢÐ¸Ð¼": 599,
      "ÑĥÐ¼": 600,
      "on": 601,
      "ÑĢÑĭ": 602,
      "ĠÐŃ": 603,
      "ĠÑģÐ¾ÑģÑĤÐ°Ð²": 604,
      "ÑĢÐ°ÑĦ": 605,
      "ÑĥÐ»ÑĮ": 606,
      "ÑģÐºÐ¾Ð¼": 607,
      "ĠÐ¸Ð½": 608,
      "Ð°ÑĢÑĤ": 609,
      "ÐµÐµ": 610,
      "ÑģÐºÐ°Ñı": 611,
      "en": 612,
      "ÑģÑģ": 613,
      "Ð°Ð½Ð¸Ðµ": 614,
      "ÑģÑĤÐ²ÐµÐ½": 615,
      "Ð°Ð±": 616,
      "Ð¢": 617,
      "ĠÐ´Ð¾": 618,
      "Ð½Ð¾ÑģÑĤÐ¸": 619,
      "ĠÐ¾Ðº": 620,
      "Ð»Ð°ÑģÑĤ": 621,
      "Ð½Ð¾ÑģÑĤÑĮ": 622,
      "Ð»ÐµÐº": 623,
      "Ð¸ÑĤÑĮ": 624,
      "ĠÐ¿ÑĢÐ¸": 625,
      "ĠÑĢÐ°Ð¹": 626,
      "Ð¸ÑģÑĮ": 627,
      "Ð¾ÑĢÐ°": 628,
      "ĠI": 629,
      "ĠS": 630,
      "ĠÐķ": 631,
      "Ð¼ÐµÑĢ": 632,
      "ÑĥÐ·": 633,
      "Ð°Ð½Ð¾Ð²": 634,
      "ÑĨÐ¸Ð¾Ð½": 635,
      "Ð¸Ð¾Ð½": 636,
      "ĠÐ°Ð²": 637,
      "ÐĽ": 638,
      "Ð»Ð¾Ð²": 639,
      "ĠÐ§": 640,
      "ÑģÐºÐ¸Ñħ": 641,
      "Ð¸Ð»Ð¸": 642,
      "ÐµÐ±": 643,
      "ÑİÑī": 644,
      "ÐµÐ½Ð°": 645,
      "ĠÐ¾Ð¿": 646,
      "ÐµÐ»Ñı": 647,
      "Ð¾Ð²ÐµÑĤ": 648,
      "Ġ199": 649,
      "Ð°Ð¿": 650,
      "ĠÐ²ÑĢÐµÐ¼": 651,
      "ÑģÑĤÐ²Ð°": 652,
      "ĠÑĤÐ°ÐºÐ¶Ðµ": 653,
      "Ð»Ñİ": 654,
      "ar": 655,
      "Ð¸ÑĢÐ¾Ð²": 656,
      "ĠÐ¿ÑĢÐµ": 657,
      "ĠÐ³Ð¾ÑĢÐ¾Ð´": 658,
      "Ð°ÑĤÐµÐ»ÑĮ": 659,
      "or": 660,
      "ĠÐ²Ñģ": 661,
      "Ð»Ð°Ð´": 662,
      "ĠÐ¾Ð½": 663,
      "Ð¼Ð°": 664,
      "Ð¤": 665,
      "ĠÐ²Ð¾Ð·": 666,
      "ĠÐ½Ð°Ñĩ": 667,
      "ÑĥÑī": 668,
      "ĠÐ°ÑĢ": 669,
      "ÑĢÐ¸ÑĤ": 670,
      "ÐµÑĤÑģÑı": 671,
      "ĠÐ¨": 672,
      "ÐµÐ³Ð¾": 673,
      "ÑĢÐ¸Ð¼ÐµÑĩ": 674,
      "Ġ4": 675,
      "Ð°ÑĢÐ°": 676,
      "Ð¸Ð±": 677,
      "ÐºÐµ": 678,
      "Ð½ÑĥÑİ": 679,
      "ĠÑĩÐ°ÑģÑĤ": 680,
      "ÑģÑĤÐ°Ð²": 681,
      "ÑĤÑĥ": 682,
      "Ð»Ð¾": 683,
      "Ð¾Ð»ÑĮÑĪ": 684,
      "20": 685,
      "al": 686,
      "ĠÑĢÑĥ": 687,
      "ĠÐłÐ¾ÑģÑģ": 688,
      "es": 689,
      "ĠC": 690,
      "Ð¸ÐºÐ¸": 691,
      "ĠA": 692,
      "ĠÐ½Ð°Ð·": 693,
      "ÑģÑĤÐ¾ÑĢ": 694,
      "ÐŁÑĢÐ¸Ð¼ÐµÑĩ": 695,
      "ĠÑģÐ²Ð¾": 696,
      "ÐŁÑĢÐ¸Ð¼ÐµÑĩÐ°Ð½Ð¸Ñı": 697,
      "Ð´Ðµ": 698,
      "ÑĨÐ¸Ñı": 699,
      "ÐµÑĢÑģ": 700,
      "Ð¸ÐºÐ°": 701,
      "ÑĥÐ»": 702,
      "ĠM": 703,
      "Ð°Ð½Ð°": 704,
      "ĠÐ¿ÐµÑĢÐ²": 705,
      "Ð°Ð½ÑĤ": 706,
      "Ð¾Ð³ÑĢÐ°ÑĦ": 707,
      "ÑģÑĭ": 708,
      "ÑĢÑĥÐ¿": 709,
      "Ġ5": 710,
      "ĠÐ¾Ð±Ð»Ð°ÑģÑĤ": 711,
      "ĠÑĢÐ°Ð±Ð¾ÑĤ": 712,
      "Ð¿ÑĢ": 713,
      "ÑĭÐ¼": 714,
      "ÑģÑĤÐ²Ð¾": 715,
      "ÑĳÑĤ": 716,
      "ĠÐ¸ÑģÐ¿": 717,
      "18": 718,
      "ĠÐ¾ÑĢ": 719,
      "ÑĬ": 720,
      "ĠÐ¸Ð³": 721,
      "ÐµÑĨ": 722,
      "Ð½Ð°Ñĩ": 723,
      "Ð¾Ð»Ð¾Ð³": 724,
      "ÐµÐ¼Ð¿": 725,
      "ĠÐ¿ÑĢÐ°Ð²": 726,
      "ÑĥÐ»ÑĮÑĤ": 727,
      "Ð£": 728,
      "ĠÑģÐ°Ð¼": 729,
      "ÐµÑĢÐ²": 730,
      "Ð¸ÑĢÐ¾Ð²Ð°Ð½": 731,
      "ĠÐ²Ð¾Ð¹": 732,
      "Ð°Ñĩ": 733,
      "ÐµÐ»Ð¸": 734,
      "at": 735,
      "Ð³Ð¾Ð´": 736,
      "ÑıÐ½": 737,
      "Ð°ÐµÑĤÑģÑı": 738,
      "Ð¾ÑĢÑĤ": 739,
      "ĠT": 740,
      "Ġ194": 741,
      "Ð¸Ð½Ð³": 742,
      "ÑĥÑħ": 743,
      "Ð°ÑİÑĤ": 744,
      "ĠÑģÐ»": 745,
      "ĠP": 746,
      "ĠÐ¼ÐµÑģÑĤ": 747,
      "ÐºÑĥ": 748,
      "ÐµÐ½ÑĮ": 749,
      "ĠÐ±ÑĭÐ»Ð°": 750,
      "ÑĨÐ°": 751,
      "ĠÐ¿Ð¾ÑģÑĤ": 752,
      "ÑĥÑģÑĤ": 753,
      "Ð¡Ðł": 754,
      "Ð¾Ð½Ðµ": 755,
      "ĠĠ": 756,
      "Ð¸Ð¿": 757,
      "ĠÐ±ÑĭÐ»Ð¸": 758,
      "ÑĳÑĢ": 759,
      "ĠB": 760,
      "Ð¸Ð½Ñĭ": 761,
      "Ð±ÑĢÑı": 762,
      "Ð¸Ð»ÑģÑı": 763,
      "Ð¸Ð»Ð°": 764,
      "Ð¸Ð¼Ð¸": 765,
      "ic": 766,
      "Ġ198": 767,
      "Ð°Ð½Ð¸Ð¸": 768,
      "ĠÐ²ÑĢÐµÐ¼Ñı": 769,
      "Ð½ÑĭÐ¼Ð¸": 770,
      "Ð¾ÑģÑĮ": 771,
      "ĠÐºÐ¾ÑĢ": 772,
      "ÑģÐºÐ¸Ðµ": 773,
      "Ð²Ð»Ñı": 774,
      "ĠÐ±ÑĭÐ»Ð¾": 775,
      "ÐµÐºÑĤ": 776,
      "is": 777,
      "ÐµÑĢÐ½": 778,
      "ÐµÑĤÐ°": 779,
      "Ð¾ÑģÐº": 780,
      "Ð¿ÑĢÐ°Ð²": 781,
      "Ð°ÑĪ": 782,
      "ÐĹ": 783,
      "ÐµÐ»Ð¾Ð²": 784,
      "Ð¾ÑĢÐ¼": 785,
      "ÐºÐ°Ð·": 786,
      "he": 787,
      "ĠÐ¡ÑĤ": 788,
      "ÑģÑĤÑĥÐ¿": 789,
      "ÑĳÐ»": 790,
      "ĠÐ½Ð°Ñģ": 791,
      "ĠÐ´ÑĢÑĥÐ³": 792,
      "ÐµÐ½Ð¸Ð¸": 793,
      "Ð¨": 794,
      "ĠÐ¿ÑĢÐ¾ÑĤ": 795,
      "Ġ6": 796,
      "ĠÐĲÐ½": 797,
      "Ð´ÐµÐ»": 798,
      "ÑĮÑİ": 799,
      "ÐµÑģÑĤÐ²ÐµÐ½": 800,
      "ÑģÑĭÐ»": 801,
      "ÑĢÐ°Ð¼": 802,
      "ÐµÐ¶Ð´": 803,
      "ĠÑģÐ¾Ð±": 804,
      "ĠÐ´Ðµ": 805,
      "Ð°ÑģÑĮ": 806,
      "ĠÐ¾Ð±Ð»Ð°ÑģÑĤÐ¸": 807,
      "Ð¾Ð·Ð´": 808,
      "ÑĥÐº": 809,
      "Ð±Ð¾ÑĢ": 810,
      "ĠÐ¸Ð»Ð¸": 811,
      "ÐµÐ½Ñĭ": 812,
      "Ð½ÐµÐ¹": 813,
      "ĠÐºÐ¾Ð»": 814,
      "ĠÐ¿ÑĢÐ¸Ð½": 815,
      "ÑģÑĭÐ»ÐºÐ¸": 816,
      "ĠÐĶÐ¶": 817,
      "ÐµÐ½Ð¸": 818,
      "ÑĢÐ¾Ð½": 819,
      "ĠÐºÐ¾Ð¼Ð°Ð½Ð´": 820,
      "ÐµÑĢÐ¶": 821,
      "ĠÐ½Ð¾": 822,
      "Ġ197": 823,
      "Ð¾ÑģÑĥÐ´": 824,
      "Ð¡ÑģÑĭÐ»ÐºÐ¸": 825,
      "Ð»ÑİÑĩ": 826,
      "ĠÐ»ÐµÑĤ": 827,
      "Ð³Ð°Ð½": 828,
      "Ð¸Ð¶": 829,
      "ÑĢÐ¾Ð¼": 830,
      "ÑĤÐ¸": 831,
      "ÐµÑĢÐµÐ²": 832,
      "ÑģÐ°": 833,
      "Ð¾Ð»Ð¶": 834,
      "ĠÐĿÐ°": 835,
      "ÑıÐ·": 836,
      "ĠÐºÐ¾Ð¼Ð¿": 837,
      "ÑĢÐ°Ð´": 838,
      "ÑĢÐ¾Ð´": 839,
      "ĠÐ¾Ð±ÑĢÐ°Ð·": 840,
      "Ð¸Ð·Ð²": 841,
      "Ð½Ð¸ÐºÐ¸": 842,
      "ÑĢÑĥÐ¿Ð¿": 843,
      "ĠÐ¸Ñİ": 844,
      "ÑĥÑĪ": 845,
      "Ð¾Ð»ÑĮÐºÐ¾": 846,
      "ÐµÐ¶": 847,
      "ÑĢÐ¾Ð¿": 848,
      "ĠÑįÐº": 849,
      "Ð¾Ð»ÑĮÐ·": 850,
      "ĠR": 851,
      "ĠÐ¿Ð¾Ð»ÑĥÑĩ": 852,
      "ĠÑĢÐ°ÑģÐ¿": 853,
      "Ð¾ÑģÑĥÐ´Ð°ÑĢ": 854,
      "Ìģ": 855,
      "ÑĢÐ¾Ðº": 856,
      "ÑħÐ¾Ð´Ð¸ÑĤ": 857,
      "ĠÐ¾Ð±Ñī": 858,
      "Ð¿Ð¸Ñģ": 859,
      "Ġ196": 860,
      "Ð°Ð»ÑģÑı": 861,
      "Ð²ÐµÑĢ": 862,
      "ÑĥÑİÑī": 863,
      "ÑĢÐµÑĤ": 864,
      "it": 865,
      "Ð¾Ð²Ð°": 866,
      "ĠD": 867,
      "Ð¸Ð½Ð¸ÑģÑĤ": 868,
      "Ð¸ÑĢÐ°": 869,
      "ĠÐłÐ¾ÑģÑģÐ¸Ð¸": 870,
      "ĠÐ¿ÑĢÐ¾Ð²": 871,
      "ĠÑĩÐµÐ»Ð¾Ð²": 872,
      "ÐµÑĪ": 873,
      "Ġ/": 874,
      "Ð²Ð°ÑĢ": 875,
      "Ð»ÐµÐºÑģ": 876,
      "ÑĮÑı": 877,
      "Ð»ÐµÐ½Ð¸Ñı": 878,
      "ÐµÐºÐ°": 879,
      "ĠÐ¯": 880,
      "ĠÐ·Ð°Ð²": 881,
      "ĠÑģÐµÑĢ": 882,
      "Ð·Ð°": 883,
      "ĠL": 884,
      "ÑĨÐ¸Ð°Ð»ÑĮ": 885,
      "Ð¡Ð¡Ðł": 886,
      "ĠÐ¿ÑĢÐ¾Ð´": 887,
      "Ð°ÑİÑī": 888,
      "ĠÑģÑĢÐµÐ´": 889,
      "ÐµÐ½Ð¸Ð¹": 890,
      "ÐµÑģÑģ": 891,
      "ÐºÑĢÐ°": 892,
      "Ð¾Ð²Ð°Ð½Ð¸Ñı": 893,
      "ĠÐ¿Ð¾ÑģÐ»Ðµ": 894,
      "Ġ7": 895,
      "ÐµÐ¼Ð¿Ð¸Ð¾Ð½": 896,
      "Ð¿Ð¾Ð»": 897,
      "ĠÑıÐ²Ð»Ñı": 898,
      "ĠX": 899,
      "Ð¸Ð»ÑĮÐ¼": 900,
      "Ð½Ð°Ðº": 901,
      "Ġ17": 902,
      "ÑĥÐ±Ð»": 903,
      "ĠÑİ": 904,
      "ÑĳÐ¼": 905,
      "ĠÐ®": 906,
      "ĠÐ°Ð½": 907,
      "ĠÐ¼Ð°ÑĤ": 908,
      "ÑĢÐ°Ð¶": 909,
      "Ð¸Ð·Ð°": 910,
      "us": 911,
      "ĠÐ·Ð°Ðº": 912,
      "Ġâ": 913,
      "ÑģÐºÐ¾Ðµ": 914,
      "Ð¾Ð³Ð´Ð°": 915,
      "ĠÑĢÐ¾Ð´": 916,
      "Ð¸ÑģÑģ": 917,
      "Ð²ÐµÑĤ": 918,
      "Ð¾Ð»ÐµÐµ": 919,
      "ĠÐ¿Ð»": 920,
      "ÐµÐ²ÐµÑĢ": 921,
      "el": 922,
      "ĠÑģÐº": 923,
      "Ð¾Ð¼Ñĥ": 924,
      "Ð»Ð°Ñģ": 925,
      "ol": 926,
      "ĠÐ¿Ð¾Ðº": 927,
      "ĠÐ²Ð¸Ð´": 928,
      "Ġ193": 929,
      "ĠÐ¶Ðµ": 930,
      "Ġ8": 931,
      "ÐµÐ½Ð¸ÐµÐ¼": 932,
      "Ð¼ÐµÐ½": 933,
      "ĠÐ½Ð¾Ð²": 934,
      "Ð¾Ð³ÑĢÐ°ÑĦÐ¸Ñı": 935,
      "Ġ9": 936,
      "ÑĪÐ¸Ð¹": 937,
      "ĠÐ±Ð¾Ð»ÑĮÑĪ": 938,
      "ÐµÐ»ÐµÐ¹": 939,
      "ĠÑĥÑĩÐ°ÑģÑĤ": 940,
      "ĠÑģÐ¾Ð²ÐµÑĤ": 941,
      "Ġ195": 942,
      "ĠÐ¦": 943,
      "ÐµÑĢÐ¼": 944,
      "Ð¾Ð²Ð°Ð»": 945,
      "Ð°ÑĤÐ°": 946,
      "ÑĢÐ°Ñģ": 947,
      "Ð¸ÑģÐº": 948,
      "ÑĢÐµÐ½": 949,
      "Ð²Ð°": 950,
      "ĠG": 951,
      "ĠÐ´ÐµÑĢÐµÐ²": 952,
      "ÑĭÑĪ": 953,
      "ÑıÐ±ÑĢÑı": 954,
      "Ð¾Ñħ": 955,
      "Ð½Ð¸ÐºÐ¾Ð²": 956,
      "Ð¼Ñĥ": 957,
      "Ð¸ÑĤÐµÑĢÐ°": 958,
      "II": 959,
      "ĠÑģÐ¾Ð²": 960,
      "ÑĢÑĥÐ´": 961,
      "ÐµÑĢÐ±": 962,
      "Ð¾Ð¶Ð´": 963,
      "Ð³Ð°": 964,
      "ĠÐ³ÑĢÑĥÐ¿Ð¿": 965,
      "ĠÐ¾ÑģÑĤ": 966,
      "ĠF": 967,
      "Ð²ÐµÑģÑĤ": 968,
      "Ð§": 969,
      "ĠÑĥÐ½": 970,
      "17": 971,
      "ĠÐľÐ¾ÑģÐº": 972,
      "ÑĨÑĭ": 973,
      "ÐŃ": 974,
      "Ð¾Ð½Ñĩ": 975,
      "ĠÐ¡Ð¡Ð¡Ðł": 976,
      "ĠÐ¸ÑģÑĤÐ¾ÑĢ": 977,
      "ĠÑĨÐµÐ½ÑĤ": 978,
      "ĠÐ¾ÑģÐ½Ð¾Ð²": 979,
      "ÑĢÐ¾Ñģ": 980,
      "ÐµÑī": 981,
      "ĠH": 982,
      "Ð·Ñĭ": 983,
      "Ġ15": 984,
      "Ð»Ð¸Ñĩ": 985,
      "ÑĤÑĥÑĢÐ°": 986,
      "ĠÑģÑĤÐ°Ð»": 987,
      "ÐµÐ´Ð¸Ð½": 988,
      "Ð°ÑĢÑĮ": 989,
      "Ð¸ÑĪ": 990,
      "ĠÑĢÐ°Ð¹Ð¾Ð½Ð°": 991,
      "ĠÐ²ÑĭÑģ": 992,
      "ÑĭÑĤ": 993,
      "ÐµÐ¹ÑģÑĤÐ²": 994,
      "Ð½Ð¸ÐºÐ°": 995,
      "Ð¥": 996,
      "Ð¸ÑĩÐµÑģÐºÐ¾Ð¹": 997,
      "200": 998,
      "ĠÐ¿ÑĢÐ¾ÑĤÐ¸Ð²": 999,
      "ÐµÑĢÐ¸": 1000,
      "Ð»ÑĥÐ±": 1001,
      "ĠÐ½Ð°Ð·Ð²": 1002,
      "ĠÐ¸Ñħ": 1003,
      "ĠÐ·Ð°Ð½": 1004,
      "ĠÐĲÐ»ÐµÐºÑģ": 1005,
      "ÐµÐ»Ð¸Ðº": 1006,
      "Ð´Ð¸Ð½": 1007,
      "Ġ10": 1008,
      "ch": 1009,
      "ĠÐ¾Ð±ÑĬ": 1010,
      "ĠÐ¸ÑģÐ¿Ð¾Ð»ÑĮÐ·": 1011,
      "Ð¾ÑĦ": 1012,
      "ÑıÑī": 1013,
      "Ð¼ÐµÑģÑĤ": 1014,
      "ĠÐ¼Ð°ÑĢ": 1015,
      "Ð°Ð»Ðµ": 1016,
      "ĠÐ³Ð¾ÑģÑĥÐ´Ð°ÑĢ": 1017,
      "ĠÐ½Ð°ÑģÐµÐ»": 1018,
      "ĠÑģÐµÐ»ÑĮ": 1019,
      "Ð»Ð¸Ð½": 1020,
      "ĠE": 1021,
      "ĠÐµÑĳ": 1022,
      "Ð¸ÐµÐ¹": 1023,
      "ÐµÑģÐ¿": 1024,
      "ĠÐ¿Ð¾Ð¼": 1025,
      "ĠÑĥÑģÑĤ": 1026,
      "Ð¸Ð²ÐµÑĢÑģ": 1027,
      "ur": 1028,
      "om": 1029,
      "Ħĸ": 1030,
      ".,": 1031,
      "ĠÑģÐµÐ¼": 1032,
      "ÐµÑĢÐ³": 1033,
      "ĠÐĲÑĢ": 1034,
      "ÐºÐ¾Ð¼": 1035,
      "Ð¾Ð½Ð¾Ð¼": 1036,
      "ÐµÑĢÑĤ": 1037,
      "ÑĨÐ¸Ð¾Ð½Ð°Ð»ÑĮ": 1038,
      "Ð¸ÑĩÐµÑģÐºÐ¸Ñħ": 1039,
      "Ð¾Ð²Ð°Ð½Ð¸Ðµ": 1040,
      "ĠÐ¼ÐµÐ¶Ð´": 1041,
      "ĠÐ¿ÑĢÐ¾Ð¸Ð·Ð²": 1042,
      "10": 1043,
      "ĠÑĢÐ°Ñģ": 1044,
      "ĠÐ¿ÑĢÐµÐ´ÑģÑĤÐ°Ð²": 1045,
      "Ð¾Ð²Ð¾Ð¹": 1046,
      "ĠÐ¿Ð¾Ð²": 1047,
      "ĠÐºÐ¾ÑĤÐ¾ÑĢÑĭÐ¹": 1048,
      "ĠÐ¼ÑĥÐ·": 1049,
      "ĠÐ·Ð°Ð¿": 1050,
      "ĠN": 1051,
      "ĠW": 1052,
      "ĠÑģÐ¾Ð·Ð´": 1053,
      "as": 1054,
      "Ð¾ÑĪ": 1055,
      "ÐºÐ¾Ð»": 1056,
      "ÐºÐ¾Ð¹": 1057,
      "Ð¨ÐĲ": 1058,
      "ĠÑĢÐµÐ·": 1059,
      "ĠÐ³Ð´Ðµ": 1060,
      "ĠÑĩÐµÐ¼Ð¿Ð¸Ð¾Ð½": 1061,
      "et": 1062,
      "il": 1063,
      "Ð¸ÑĩÐµÑģÐºÐ¾Ð³Ð¾": 1064,
      "ÐµÐ½Ð½Ð¾": 1065,
      "ĠÑģÐµÐ»": 1066,
      "ĠÐ·Ð°Ð¼": 1067,
      "Ð°ÑģÐµÐ»": 1068,
      "Ð¸ÐºÐ°Ð½": 1069,
      "ÐµÐ½Ð¸Ñİ": 1070,
      "ÐµÐ½Ð¾": 1071,
      "ÑıÐ²": 1072,
      "ĠÐ¼Ð½": 1073,
      "ĠâĦĸ": 1074,
      "Ġ16": 1075,
      "ÑĥÑĢÐ³": 1076,
      "ÑĢÐ°Ð»": 1077,
      "ÑĨÐµÐ²": 1078,
      "Ġ()": 1079,
      "Ð¾ÑģÐ»Ðµ": 1080,
      "ĠÐĸ": 1081,
      "ÑĥÑģÐº": 1082,
      "ĠÐ¼ÐµÑĤ": 1083,
      "ÑģÐºÐ¸Ð¼": 1084,
      "Ð¸Ð²ÐµÑĢÑģÐ¸ÑĤ": 1085,
      "ĠÐ¡Ð¨ÐĲ": 1086,
      "ĠÐľÐ°ÑĢ": 1087,
      "ĠÑĩÐ¸Ñģ": 1088,
      "ĠÐ¾ÑĢÐ³Ð°Ð½": 1089,
      "ĠÐ»Ñİ": 1090,
      "Ġd": 1091,
      "Ð»Ð¸Ð¼": 1092,
      "ĠÐ³Ð»Ð°Ð²": 1093,
      "15": 1094,
      "ion": 1095,
      "Ð²Ð¾Ð»": 1096,
      "ÐµÑĢÑħ": 1097,
      "ÑĪÐ¸Ñħ": 1098,
      "ĠÐ°ÐºÑĤ": 1099,
      "12": 1100,
      "ÑĨÐ¸Ñİ": 1101,
      "ĠÑįÑĤÐ¾": 1102,
      "16": 1103,
      "Ð´Ð¶": 1104,
      "ÐµÑģÑĤÐ²Ð¾": 1105,
      "ĠÑĢÐ°Ð·Ð²": 1106,
      "Ð¾Ð»Ð½": 1107,
      "Ð±Ð¾Ð»": 1108,
      "Ð´Ð¸": 1109,
      "Ġ192": 1110,
      "ĠÐ´Ð¾Ð¼": 1111,
      "ĠÑģÐ¾ÑģÑĤÐ°Ð²Ð»Ñı": 1112,
      "ĠÐ´ÐµÐº": 1113,
      "ĠÐ±Ð¾Ð»ÐµÐµ": 1114,
      "ĠÐ¿Ð¾Ð¿": 1115,
      "Ð¾Ð½Ñĭ": 1116,
      "ĠÑĤÐµÑĢ": 1117,
      "ĠÐŀÑĤ": 1118,
      "Ð¾ÑģÑĤÐ¸": 1119,
      "Ð°ÑĢÐ¾Ð´": 1120,
      "ĠV": 1121,
      "Ð°ÑĤÑĭ": 1122,
      "ĠÐ¶ÐµÐ½": 1123,
      "ĠÑĩÐµÐ»Ð¾Ð²ÐµÐº": 1124,
      "Ð¸ÑĩÐµÑģÐºÐ¸Ð¹": 1125,
      "ÑıÑĤÐµÐ»ÑĮ": 1126,
      "Ġ12": 1127,
      "ĠÐ´ÐµÐ»": 1128,
      "Ð¾Ð±Ñĭ": 1129,
      "ĠÐ²Ð¾Ð¹Ð½Ñĭ": 1130,
      "ĠÑĤÐµ": 1131,
      "ÑĢÐµÐ±": 1132,
      "ĠÑĤÐ¾Ð¼": 1133,
      "ÐµÑĤÑĭ": 1134,
      "am": 1135,
      "ĠÐķÐ²": 1136,
      "ĠÐ¿Ð¾Ð·": 1137,
      "Ð°ÑģÑģ": 1138,
      "ÑĢÐ¸ÑĤÐ¾ÑĢ": 1139,
      "ÑĤÐµ": 1140,
      "ĠÐ´Ð¾ÑģÑĤ": 1141,
      "Ð»ÐµÐ½Ð¸Ðµ": 1142,
      "le": 1143,
      "Ġt": 1144,
      "ÑĤÑĮ": 1145,
      "ĠÑıÐ·Ñĭ": 1146,
      "Ð¾ÑĢÐ¾Ð²": 1147,
      "ÑıÐ´": 1148,
      "Ð¸Ñī": 1149,
      "ĠÑģÐ²ÑıÐ·": 1150,
      "ÑĥÑīÐµÑģÑĤÐ²": 1151,
      "ĠÐ´Ð°Ð½": 1152,
      "ÑĪÐ¸Ðµ": 1153,
      "ĠÐ¸ÑģÐº": 1154,
      "un": 1155,
      "ĠÐ¼ÐµÐ´": 1156,
      "Ð¸ÑĦ": 1157,
      "ĠÐ¼Ð¾Ð¶": 1158,
      "Ð¸ÑĩÐµÑģÐºÐ¸Ðµ": 1159,
      "Ð¸ÑĢÑĥ": 1160,
      "ĠÐ²ÑĤÐ¾ÑĢ": 1161,
      "ĠÐ²ÑĭÐ¿": 1162,
      "ÑĤÐµÑĢ": 1163,
      "ĠÐ²Ð¾Ð´": 1164,
      "Ð¸ÑģÑĤÐµÐ¼": 1165,
      "ÐµÑĢÑĪ": 1166,
      "ÑĭÑģ": 1167,
      "ÑĢÐ°Ð»ÑĮ": 1168,
      "ĠÐ·Ð²": 1169,
      "of": 1170,
      "ÐµÐ²Ð¸Ñĩ": 1171,
      "Ð³Ð¸": 1172,
      "Ð¸Ð·Ð½": 1173,
      "ĠÑĥÐ´": 1174,
      "ĠÐ¿ÐµÑĢÐµÐ´": 1175,
      "ĠÐ¿Ð¾ÑĤ": 1176,
      "ig": 1177,
      "Ð½Ð¸Ð¼": 1178,
      "ĠÑģÑĭ": 1179,
      "Ð³ÑĥÑģÑĤ": 1180,
      "Ġ14": 1181,
      "Ð½Ð¸Ðµ": 1182,
      "Ð½Ð°ÐºÐ¾": 1183,
      "ĠÑĢÑĥÑģ": 1184,
      "ÑĥÑĢÐ½": 1185,
      "Ð¾ÑĢÐ¾Ð½": 1186,
      "re": 1187,
      "ĠÐºÐ¾Ð½ÑĨ": 1188,
      "ĠÑĥÐ½Ð¸Ð²ÐµÑĢÑģÐ¸ÑĤ": 1189,
      "Ð¾Ñī": 1190,
      "ÑģÑĤÐ¸ÑĤ": 1191,
      "ĠÑĤÐµÐ»": 1192,
      "ĠÐ½Ð°Ð´": 1193,
      "ÑĨÐµÐ½": 1194,
      "ĠÑĤÐ¾": 1195,
      "ter": 1196,
      "ĠÑıÐ²Ð»ÑıÐµÑĤÑģÑı": 1197,
      "Ð»ÑĮÐ±": 1198,
      "Ġ13": 1199,
      "Ð¸ÑĤÑģÑı": 1200,
      "Ðķ": 1201,
      "ÑĢÐµÑģÑĤ": 1202,
      "Ð½ÐµÐµ": 1203,
      "ÑĥÐ´Ð¾Ð¶": 1204,
      "ÑĤÐ¾ÑĢÐ°": 1205,
      "Ð°Ð»Ð¸ÑģÑĮ": 1206,
      "Ð´ÐµÐ½": 1207,
      "ĠÐ¾ÑĤÐº": 1208,
      "ÑıÑĤÑĮ": 1209,
      "ÐĿÐ°ÑģÐµÐ»": 1210,
      "ÑĥÑĢÑĭ": 1211,
      "ĠÐĿÐ¸Ðº": 1212,
      "ĠÑģÐ¾ÑģÑĤÐ¾Ñı": 1213,
      "ĠÐ¿Ð¾Ð±": 1214,
      "ĠÐ²Ð¾Ñģ": 1215,
      "Ð²Ð¾ÑĢ": 1216,
      "ro": 1217,
      "Ð´Ð¼": 1218,
      "Ð»ÐµÑĤ": 1219,
      "Ð¸Ð¹ÑģÐºÐ¾Ð¹": 1220,
      "ĠÐ±ÐµÐ·": 1221,
      "ÑĮÐµ": 1222,
      "ĠÑĢÐ°ÑģÐ¿Ð¾Ð»": 1223,
      "ĠÐ°ÑĢÐ¼": 1224,
      "ĠÑģÐ±Ð¾ÑĢ": 1225,
      "ÐµÐ½ÐµÑĢÐ°": 1226,
      "ĠÐ´Ð¾Ð»Ð¶": 1227,
      "14": 1228,
      "Ð´ÐµÐ¼": 1229,
      "Ð³Ð»": 1230,
      "ĠÐ¿ÑĥÐ½": 1231,
      "Ġ,": 1232,
      "ĠÐ³Ð¾ÑĢÐ¾Ð´Ð°": 1233,
      "Ð±Ñĭ": 1234,
      "ĠÐ¸Ð·Ð²ÐµÑģÑĤ": 1235,
      "Ð°ÑĤÐµ": 1236,
      "ĠÐºÐ¾Ð½ÑĤ": 1237,
      "ĠÑıÐ½": 1238,
      "Ð¸Ð½Ðµ": 1239,
      "ĠÐ°Ð²ÑĤ": 1240,
      "13": 1241,
      "Ð°Ð»Ð¾": 1242,
      "ĠÐ²Ðº": 1243,
      "ÐµÐ½Ð½ÑĭÐ¹": 1244,
      "ÑģÑĤÐ¾ÑĢÐ¸Ñı": 1245,
      "Ð°Ð»Ð¸ÑģÑĤ": 1246,
      "ÐµÑĢÑĭ": 1247,
      "Ð»ÐµÐºÑĤ": 1248,
      "ÑĦÐ¸": 1249,
      "ĠÐĺÐ½": 1250,
      "Ð¾Ð»Ð¾Ð´": 1251,
      "ĠÑĪÐºÐ¾Ð»": 1252,
      "ĠÑĤÐ¾Ð³Ð¾": 1253,
      "ĠÑĢÐ°Ð¹Ð¾Ð½Ðµ": 1254,
      "ĠÐ¿Ð¾ÑģÐ»ÐµÐ´": 1255,
      "ĠÐ¡Ð¾Ð²ÐµÑĤ": 1256,
      "ĠÐ¾Ñĩ": 1257,
      "ĠÐ´ÐµÐºÐ°Ð±": 1258,
      "ĠÐºÐ¾ÑĤÐ¾ÑĢÑĭÐµ": 1259,
      "ÐµÑģÑĤÐ²Ð°": 1260,
      "ĠÐ¾ÐºÑĤ": 1261,
      "ĠÐŁÐ¾": 1262,
      "ÐµÐ½ÑĤÐ°": 1263,
      "ÑĢÐµÐ²": 1264,
      "ÑĢÐ°Ð¶Ð´": 1265,
      "and": 1266,
      "ĠÑģÐµÐ½ÑĤ": 1267,
      "Ð½Ð¾Ð¼Ñĥ": 1268,
      "199": 1269,
      "ĠÐ½ÐµÐ¼": 1270,
      "ĠÑģÑĩ": 1271,
      "ĠÐĲÐ»ÐµÐºÑģÐ°Ð½Ð´": 1272,
      "ĠÐ¿ÑĢÐ¸Ð¼": 1273,
      "ĠÐ¸Ð¼Ðµ": 1274,
      "ĠÑĦÐ¸Ð»ÑĮÐ¼": 1275,
      "ĠÑĤÐ¾Ð»ÑĮÐºÐ¾": 1276,
      "ĠÐĴÐµÐ»Ð¸Ðº": 1277,
      "ĠÑĤÐµÑĢÑĢÐ¸ÑĤÐ¾ÑĢ": 1278,
      "ĠÐ½ÐµÑģÐº": 1279,
      "ÑĢÐµÐ¹": 1280,
      "ĠÑĢÐµÑĪ": 1281,
      "ĠÑĤÐµÑħ": 1282,
      "ÑĳÐ½Ð½ÑĭÐµ": 1283,
      "ĠÐ¤ÑĢÐ°Ð½": 1284,
      "ÑĢÑĭÑĤ": 1285,
      "ĠÑģÐ¸ÑģÑĤÐµÐ¼": 1286,
      "ĠÐ£ÐºÑĢÐ°": 1287,
      "ĠÐ°Ð²Ð³ÑĥÑģÑĤ": 1288,
      "ĠÐ²ÑĭÑģÑĤÑĥÐ¿": 1289,
      "Ð¸ÐºÐ¾Ð²": 1290,
      "Ð°Ð¶": 1291,
      "ĠÐ¾ÐºÑĢÑĥÐ³": 1292,
      "ac": 1293,
      "Ð½Ð¾Ñģ": 1294,
      "ĠÑģÐ¼": 1295,
      "ÑĦÐ¾ÑĢ": 1296,
      "ĠÑģÐ»ÐµÐ´": 1297,
      "ĠÐ°Ð¿ÑĢ": 1298,
      "ÐĿÐ°": 1299,
      "ĠÐ¿Ð°ÑĢÑĤ": 1300,
      "ĠÐ·Ð´": 1301,
      "Ð°Ð»Ð¾ÑģÑĮ": 1302,
      "ĠÐ´ÐµÐ¹ÑģÑĤÐ²": 1303,
      "ÐµÑĢÐµÐ·": 1304,
      "Ð»ÐµÐ¼": 1305,
      "ĠÐĺÐ·": 1306,
      "ĠÐ³Ð¾Ð»": 1307,
      "ing": 1308,
      "ÑĢÐ¾Ð¹": 1309,
      "ĠÐ³Ð¾ÑģÑĥÐ´Ð°ÑĢÑģÑĤÐ²ÐµÐ½": 1310,
      "ĠÐºÐ»ÑĥÐ±": 1311,
      "ĠÐ¿ÑĥÐ½ÐºÑĤ": 1312,
      "Ð½Ð¸Ñħ": 1313,
      "ÐĺÐ³": 1314,
      "Ð¾ÑĤÐ¾Ð²": 1315,
      "ÑĢÑĥÐ¶": 1316,
      "ÑĢÐ°Ð±Ð¾ÑĤ": 1317,
      "ÑģÐºÑĥÑİ": 1318,
      "Ð¾ÑĤÐ°": 1319,
      "ĠÐ¾Ð½Ð°": 1320,
      "ĠÐ¸Ð¼Ð¿": 1321,
      "ÑĭÐº": 1322,
      "Ð¸Ð¾Ð´": 1323,
      "Ð¸Ð»Ð¸ÑģÑĮ": 1324,
      "ĠÐ¿Ð°ÑĢ": 1325,
      "ÑĢÐ°Ñħ": 1326,
      "ĠÑĩÐ»ÐµÐ½": 1327,
      "ÐµÐ·Ð´": 1328,
      "Ð¾Ñİ": 1329,
      "Ġof": 1330,
      "ĠÐļÐ¾Ð½": 1331,
      "Ð¸Ð»Ð°ÑģÑĮ": 1332,
      "ĠÐ¿Ð¾Ð»Ð¸ÑĤ": 1333,
      "ĠÑĨÐµÑĢ": 1334,
      "ĠÑĢÐµÐ·ÑĥÐ»ÑĮÑĤ": 1335,
      "ÐµÑĢÐµ": 1336,
      "ĠÐ´ÐµÑĤ": 1337,
      "Ð¾Ð»Ð¾": 1338,
      "ĠÐ´Ð¸": 1339,
      "ĠÑĥÑģ": 1340,
      "ĠÐ°ÑĢÑħ": 1341,
      "ÑĥÐµÑĤ": 1342,
      "ĠÐ¼Ð¾Ð½": 1343,
      "Ð¼Ð°Ð½": 1344,
      "Ð°ÑĤÐµÐ¼": 1345,
      "Ð½Ð¸Ð¹": 1346,
      "Ð°ÑĤÑĮÑģÑı": 1347,
      "Ð°Ð»Ð°ÑģÑĮ": 1348,
      "ÐµÐ½Ð½ÑĭÐµ": 1349,
      "ĠÐĿÐ¾Ð²": 1350,
      "ĠâĢ": 1351,
      "Ð¸Ð½Ð¾": 1352,
      "ĠÐ½Ð¾Ñı": 1353,
      "ÑįÑĤ": 1354,
      "ed": 1355,
      "id": 1356,
      "ÑĥÐ»Ñı": 1357,
      "Ð¾ÐµÐ²": 1358,
      "Ġ.": 1359,
      "ĠÐ¿ÐµÑĢÐ¸Ð¾Ð´": 1360,
      "Ð¾ÑĢÐµ": 1361,
      "st": 1362,
      "ĠÐļÐ°ÑĢ": 1363,
      "Ð¸ÑĤÐµÑĢÐ°ÑĤÑĥÑĢÐ°": 1364,
      "ĠÐ¿ÑĢÐ¸Ð²": 1365,
      "ĠÐ²ÐµÐºÐ°": 1366,
      "ÑİÑĤÑģÑı": 1367,
      "ÑĢÐ¾ÐºÐ¸": 1368,
      "Ð»Ð°ÑģÑģ": 1369,
      "ĠÑģÐ°Ð¹": 1370,
      "ĠÐºÐ°": 1371,
      "Ð´Ð¼Ð¸Ð½Ð¸ÑģÑĤ": 1372,
      "ÑĨÐ¸Ð¿": 1373,
      "ĠÑģÑĥÐ´": 1374,
      "ĠÑģÐµÐ²ÐµÑĢ": 1375,
      "Ð·Ð¸Ð´": 1376,
      "ĠÐ¿Ð¾ÑģÐµÐ»": 1377,
      "ĠÐ´Ð¾Ðº": 1378,
      "ÑĢÐµÑĩ": 1379,
      "ÑįÐ½": 1380,
      "ĠÐ²Ð¿": 1381,
      "Ð³Ð¾Ð²": 1382,
      "ÐĺÑģÑĤÐ¾ÑĢÐ¸Ñı": 1383,
      "Ġ0": 1384,
      "ĠÐ¿ÐµÑĢÐµ": 1385,
      "11": 1386,
      "ÐºÐ°Ð´ÐµÐ¼": 1387,
      "Ð²Ð°ÑĢÑı": 1388,
      "ĠÐŀÐ´": 1389,
      "ĠÑģÐ»ÑĥÐ¶": 1390,
      "ĠÐ¾Ð´Ð¸Ð½": 1391,
      "ĠÐ±ÑĥÐ´": 1392,
      "ĠÐ´ÐµÑıÑĤÐµÐ»ÑĮ": 1393,
      "ĠÑģÐµÐ·": 1394,
      "ÑģÑĤÐ¸ÑĤÑĥÑĤ": 1395,
      "Ð°ÐºÑĤ": 1396,
      "ÐºÐ°Ñħ": 1397,
      "ÐµÐ»ÐµÐ¼": 1398,
      "194": 1399,
      "ĠÑĢÐ°Ð¹Ð¾Ð½": 1400,
      "ĠK": 1401,
      "ĠÐ¼ÐµÐ¶Ð´Ñĥ": 1402,
      "ÐµÑģÑĤÐ²Ðµ": 1403,
      "ĠÑįÑĤÐ¾Ð³Ð¾": 1404,
      "ĠĠĠĠ": 1405,
      "ÑĢÐ°Ñī": 1406,
      "ÐµÐ½Ð½ÑĭÑħ": 1407,
      "ĠÐĺÐ²": 1408,
      "ĠÑĦÐµÐ²": 1409,
      "ĠÐ²Ð·": 1410,
      "ĠÐ¿ÑĢÐ¾ÑĦ": 1411,
      "ĠÑĩÑĤ": 1412,
      "Ð¸ÐºÐµ": 1413,
      "Ð½Ñĥ": 1414,
      "ĠÐ¼Ð°ÑĤÑĩ": 1415,
      "ĠÐ¼Ð¾Ð³": 1416,
      "Ð¸Ð¾Ð³ÑĢÐ°ÑĦÐ¸Ñı": 1417,
      "ĠÐºÐ¼": 1418,
      "ĠÑĦÐ¾ÑĢÐ¼": 1419,
      "ĠÐ¸Ð·Ð´": 1420,
      "ĠÐ¾Ð½Ð¸": 1421,
      "ĠÑĥÐ¿": 1422,
      "ÐºÐ¾Ð²Ð¾Ð´": 1423,
      "ĠÑĩÐ°ÑģÑĤÐ¸": 1424,
      "Ð¸ÐµÐ²": 1425,
      "ÑıÐ¼": 1426,
      "ĠÑįÑĤÐ¾Ð¼": 1427,
      "ĠÑģÑĤÐ°ÑĢ": 1428,
      "ÑĢÐ¸ÑģÑĤ": 1429,
      "ÑģÑĤÐ¾Ñı": 1430,
      "ÑģÑģÐ»ÐµÐ´": 1431,
      ");": 1432,
      "ĠÐ¢Ð°Ðº": 1433,
      "ĠO": 1434,
      "ÑĪÐµÐ¹": 1435,
      "Ð¸ÑĤÐµÐ»ÐµÐ¹": 1436,
      "Ð±Ð°": 1437,
      "Ð»ÑĮÐ±Ð¾Ð¼": 1438,
      "Ð¿Ð¾Ð´": 1439,
      "Ð¾Ð³Ð»Ð°Ñģ": 1440,
      "ÑĢÐ°ÑĤÐ¸Ð²": 1441,
      "ÑıÐ»": 1442,
      "ĠÑĦÐµÐ²ÑĢÐ°": 1443,
      "Ð°Ð½Ñĭ": 1444,
      "Ð¾ÑģÑģÐ¸Ð¹": 1445,
      "ĠÑħÑĥÐ´Ð¾Ð¶": 1446,
      "Ð»Ð°Ð½Ð´": 1447,
      "ÑĥÐ½Ð°ÑĢÐ¾Ð´": 1448,
      "Ð¾ÑģÑĤÑĮ": 1449,
      "ĠÐ¿Ð¾Ñĩ": 1450,
      "ĠÐ²ÐºÐ»ÑİÑĩ": 1451,
      "ĠÑģÐ¾ÑģÑĤÐ°Ð²Ðµ": 1452,
      "ĠÐĳÐµÐ»": 1453,
      "Ð¾Ð²Ð¸Ñĩ": 1454,
      "ÑĨÐ¸Ð¹": 1455,
      "Ð°ÑĢÐ¸": 1456,
      "Ð½ÐµÐ¼": 1457,
      "Ð¼ÐµÑĢÐ¸ÐºÐ°Ð½": 1458,
      "ĠÐ³Ð¾Ð´Ð°Ñħ": 1459,
      "ÐĽÐ¸ÑĤÐµÑĢÐ°ÑĤÑĥÑĢÐ°": 1460,
      "ĠÐ¡Ð²": 1461,
      "ĠÐ²Ð½": 1462,
      "Ð°ÑİÑĤÑģÑı": 1463,
      "ÐµÐºÐ¾ÑĤÐ¾ÑĢ": 1464,
      "ĠÑĢÐµÐ³": 1465,
      "ÐµÐ½Ð´": 1466,
      "ĠÐ¿ÑĢÐ¸Ñģ": 1467,
      "Ġ//": 1468,
      "ĠÐ·Ð½Ð°Ñĩ": 1469,
      "ĠÐĲÐ²": 1470,
      "ĠÐ¶ÐµÐ»": 1471,
      "Ð°Ð¿Ð°Ð´": 1472,
      "ĠÐŀÐ±": 1473,
      "ĠÐ¼Ð¸ÑĢÐ°": 1474,
      "ĠÐ¼Ð°Ñı": 1475,
      "ĠÐ¼ÐµÑģÑĤÐ¾": 1476,
      "Ġ-": 1477,
      "ra": 1478,
      "ĠÐºÐ¾ÑĤÐ¾ÑĢÑĭÑħ": 1479,
      "Ð³Ð¾Ð´Ð°": 1480,
      "ĠÐºÐ½Ð¸": 1481,
      "Ð°ÑĢÐ´": 1482,
      "ĠÑĢÐ°ÑģÐ¿Ð¾Ð»Ð¾Ð¶": 1483,
      "ÑĥÐ³": 1484,
      "Ð»Ð¸Ð²": 1485,
      "ÐµÐ´ÐµÑĢÐ°": 1486,
      "ĠÐŀÐ½": 1487,
      "ĠÐ½Ð°Ð¿": 1488,
      "ĠÐ·ÐµÐ¼": 1489,
      "ÑĢÐ¸Ð³": 1490,
      "22": 1491,
      "ĠÐ½Ð°ÑħÐ¾Ð´": 1492,
      "ÐºÐ¸Ð¹": 1493,
      "Ð°ÐµÐ¼": 1494,
      "ĠÑĦÑĥÑĤ": 1495,
      "Ð¸Ð·Ð°ÑĨÐ¸Ð¸": 1496,
      "ĠÑıÐ½Ð²Ð°ÑĢÑı": 1497,
      "ĠÐ¿ÐµÑģ": 1498,
      "ĠÐ¿ÑĢÐ¾Ð¸Ð·Ð²Ð¾Ð´": 1499,
      "Ð½Ð¾ÑģÑĤÑĮÑİ": 1500,
      "ia": 1501,
      "ĠÐ´ÐµÐºÐ°Ð±ÑĢÑı": 1502,
      "Ð²ÐµÐ´": 1503,
      "ÑĢÐ°ÐºÑĤ": 1504,
      "ĠÑĦÐ¸Ð½": 1505,
      "Ð²Ðµ": 1506,
      "Ð»Ð¸Ð¼Ð¿": 1507,
      "ÑĢÐµÐ»": 1508,
      "ÐµÐ½Ð½Ð¾Ð¹": 1509,
      "ĠÐ¼Ð½Ð¾Ð³": 1510,
      "ĠÐ¿Ð¾ÑĢ": 1511,
      "ĠÑĩÑĤÐ¾Ð±Ñĭ": 1512,
      "ÐĺÐ³ÑĢÐ¾ÐºÐ¸": 1513,
      "ĠÐºÐ¾Ð³Ð´Ð°": 1514,
      "ÑģÑĤÑĢÑĥ": 1515,
      "ĠÐ¿ÑĢÐµÐ¼": 1516,
      "ÑĢÑĮ": 1517,
      "ĠÐ¼Ð°ÑĢÑĤÐ°": 1518,
      "Ġ2010": 1519,
      "ÑīÑĳ": 1520,
      "Ð¼Ð¾Ð¶": 1521,
      "Ð¸ÑĤÐµÐ»ÑĮÐ½Ð¾": 1522,
      "Ð°ÑĤÐ¾ÑĢ": 1523,
      "Ð½Ð¾ÑĪ": 1524,
      "ĠÐ¼ÑĥÐ¶": 1525,
      "ÑĦÐ¸ÑĨÐ¸Ð°Ð»ÑĮ": 1526,
      "ĠÐºÐ°Ñĩ": 1527,
      "ĠÑĥÐ±": 1528,
      "ĠÐŁÐµÑĤ": 1529,
      "198": 1530,
      "ĠÐ¾ÐºÐ¾Ð½Ñĩ": 1531,
      "ĠÑģÐµÐ½ÑĤÑıÐ±ÑĢÑı": 1532,
      "Ð¸ÐµÐ¼": 1533,
      "ĠÐ½Ð°Ð·Ð²Ð°Ð½Ð¸Ðµ": 1534,
      "ĠÐ²ÑģÐµ": 1535,
      "Ð¸Ð²Ð¸Ð·": 1536,
      "ĠÐ¾ÐºÑĤÑıÐ±ÑĢÑı": 1537,
      "ĠÐĿÐ¸ÐºÐ¾Ð»": 1538,
      "ÑĦÐ¾ÑĢÐ¼": 1539,
      "ÐĳÐ¸Ð¾Ð³ÑĢÐ°ÑĦÐ¸Ñı": 1540,
      "ĠJ": 1541,
      "ĠÐ¸ÑİÐ»Ñı": 1542,
      "Ð»Ð¾Ñī": 1543,
      "Ġ190": 1544,
      "ĠÐŁÑĢ": 1545,
      "ĠÐ°Ð¿ÑĢÐµÐ»Ñı": 1546,
      "ĠÐ°Ð²Ð³ÑĥÑģÑĤÐ°": 1547,
      "Ð»ÑĥÐ¶": 1548,
      "ĠÐ³Ð¾Ð´Ñĭ": 1549,
      "21": 1550,
      "Ġ25": 1551,
      "Ð¸Ð½ÑģÐºÐ¾Ð³Ð¾": 1552,
      "ĠÑĥÐ»Ð¸": 1553,
      "Ðĸ": 1554,
      "Ð¾Ð·Ñı": 1555,
      "ÑĭÐ¼Ð¸": 1556,
      "ĠÐŁÐ¾ÑģÐ»Ðµ": 1557,
      "Ð¸Ð»Ð¾": 1558,
      "Ð¡ÑĤ": 1559,
      "ĠÐ¸ÑİÐ½Ñı": 1560,
      "ĠÐĴÐ»Ð°Ð´": 1561,
      "ÑĪÐµÐ³Ð¾": 1562,
      "Ð²Ð¸": 1563,
      "ĠÑĢÐµÐºÐ¸": 1564,
      "Ð¾Ð²Ð¾ÑĢ": 1565,
      "ÑģÑĤÐ²Ðµ": 1566,
      "Ð°Ð½Ð¾": 1567,
      "Ð¸ÑĨÑĭ": 1568,
      "ĠÑģÐµÐ±": 1569,
      "Ð¾Ð±Ñī": 1570,
      "Ð¾Ð½Ð´": 1571,
      "ÐµÑĢÐ¾Ð²": 1572,
      "ĠÐ²Ð¼ÐµÑģÑĤ": 1573,
      "um": 1574,
      "ĠÐļÑĢÐ°Ñģ": 1575,
      "ĠÐ¿Ð¸Ñģ": 1576,
      "ĠÑĤÐµÐ¼": 1577,
      "Ð¼Ñĭ": 1578,
      "ĠÐ³ÐµÐ½ÐµÑĢÐ°": 1579,
      "ÐµÐ²Ð°": 1580,
      "ĠÐ´ÐµÑĢÐµÐ²Ð½Ñı": 1581,
      "ĠÐºÐ¾ÑĤ": 1582,
      "ĠThe": 1583,
      "ĠÐ·Ð°Ð½Ð¸Ð¼": 1584,
      "ÐµÑĢÐ¾": 1585,
      "Ð»Ð¸Ð·": 1586,
      "ÐµÑĢÐ¾Ð¼": 1587,
      "ĠÑģÑĤÑĢÐ¾": 1588,
      "Ð¾ÑģÑĤÐ¾Ñĩ": 1589,
      "ÑģÑĤÐ²Ð¾Ð¼": 1590,
      "ĠÑĥÐ¿ÑĢÐ°Ð²": 1591,
      "Ð¾ÑĢÐ¾Ð³": 1592,
      "ĠÐ²ÑĭÑĪ": 1593,
      "ĠÑĢÑĥÐºÐ¾Ð²Ð¾Ð´": 1594,
      "ÑıÐ¶": 1595,
      "ĠÐ¿Ð¾Ð±ÐµÐ´": 1596,
      "Ð²Ñĭ": 1597,
      "ĠÐ´Ð²Ð°": 1598,
      "Ð¸ÑĨÐ°": 1599,
      "ÐµÑĦ": 1600,
      "ĠÐ¡Ð°Ð½": 1601,
      "ĠÐ¼Ð¸Ð½": 1602,
      "ĠÑģÐ»Ð¾Ð²": 1603,
      "ad": 1604,
      "Ð¾Ð³ÑĢÐ°Ð¼": 1605,
      "ĠÐ¿ÐµÑĢÐµÐ²": 1606,
      "Ð¸ÑĤÐ°": 1607,
      "Ð¾Ð»Ñı": 1608,
      "Ð¾Ð»Ð¾ÑĤ": 1609,
      "ÑıÑģ": 1610,
      "ĠÐŀÑĢ": 1611,
      "Ð¸ÑĩÐµÑģÐºÐ°Ñı": 1612,
      "ÑħÐ¾Ð´Ð¸ÑĤÑģÑı": 1613,
      "ĠÐ½Ð¾ÑıÐ±ÑĢÑı": 1614,
      "ĠÐ½Ð°ÑģÐµÐ»ÐµÐ½Ð¸Ñı": 1615,
      "Ð»ÐµÐ¹": 1616,
      "Ð¾ÑģÑĤÐ¾Ðº": 1617,
      "ÑĢÑĳ": 1618,
      "ĠÐ¿ÑĢÐ¾ÑĦÐµÑģÑģ": 1619,
      "Ð°Ð»ÑĮÐ½ÑĭÐ¹": 1620,
      "Ð¸Ð»Ð»": 1621,
      "Ð´ÐµÑĢÐ¶": 1622,
      "ĠÐ½Ð°ÑĢÐ¾Ð´": 1623,
      "ĠÐ¾ÐºÐ¾Ð»Ð¾": 1624,
      "Ð¸Ð½Ñĥ": 1625,
      "Ð¾Ð´Ð°": 1626,
      "ĠÑģÐ¿Ðµ": 1627,
      "ÐŁÐ¾": 1628,
      "ĠÑĩÐ°ÑģÑĤÑĮ": 1629,
      "ĠÐ´Ð²ÑĥÑħ": 1630,
      "ĠÐºÐ»Ð°ÑģÑģ": 1631,
      "ĠÑĪÑĤ": 1632,
      "ent": 1633,
      "ÑĤÐ¾Ð²": 1634,
      "ĠÐ°Ð¼ÐµÑĢÐ¸ÐºÐ°Ð½": 1635,
      "Ġp": 1636,
      "ĠÐŁÐµÑĢÐ²": 1637,
      "ĠÐķÐ²ÑĢÐ¾Ð¿": 1638,
      "ĠÐ¼Ð¾ÑĢ": 1639,
      "ĠÐ½Ð°ÑĥÑĩ": 1640,
      "Ð¸ÑĤÐµÐ»Ñı": 1641,
      "Ñĸ": 1642,
      "ĠÐºÐ°ÑĤ": 1643,
      "ĠÐ´Ð¸Ð²Ð¸Ð·": 1644,
      "op": 1645,
      "Ð°Ð½Ñģ": 1646,
      "ĠÐ¿ÑĥÑĤ": 1647,
      "ĠÑįÐºÑģÐ¿": 1648,
      "ÐµÐ½Ð½Ð¾Ð³Ð¾": 1649,
      "ĠÐºÑĢÐ°": 1650,
      "Ð½ÐµÐ²": 1651,
      "Ð»Ð¾Ð¶": 1652,
      "ĠÑģÐ¸Ð»": 1653,
      "Ð½Ð¸ÐºÐ¾Ð¼": 1654,
      "ĠÐ¶Ð¸Ð²": 1655,
      "ĠÐ²Ð¾Ð¹ÑģÐº": 1656,
      "Ð¾Ð½Ð¾Ð²": 1657,
      "ÑĥÑĢÐµ": 1658,
      "ĠÑģÑĤÐ°Ð½": 1659,
      "Ð¸ÑĤÐµÐ»Ð¸": 1660,
      "ÐµÑĤÐµ": 1661,
      "ĠÐ³Ð¾ÑĢ": 1662,
      "ĠÐ²Ð¾Ð»": 1663,
      "ĠÐ¾Ð³": 1664,
      "Ð¾Ð·ÑıÐ¹": 1665,
      "Ð´Ð¼Ð¸Ð½Ð¸ÑģÑĤÑĢÐ°ÑĤÐ¸Ð²": 1666,
      "ĠÑĤÐµÐ°ÑĤ": 1667,
      "ÑĥÑĢÐ°": 1668,
      "ÑıÐ±": 1669,
      "ĠÐĴÑģ": 1670,
      "ĠÑĤÑĥÑĢ": 1671,
      "ĠÐ¸ÑģÑģÐ»ÐµÐ´": 1672,
      "Ð»Ð¾ÑīÐ°Ð´": 1673,
      "ĠÑĦÐµÐ²ÑĢÐ°Ð»Ñı": 1674,
      "ĠÑĢÐµÐ¶": 1675,
      "ĠÑĩÐµÑĢÐµÐ·": 1676,
      "ĠU": 1677,
      "ĠÐ¸ÑģÐºÑĥÑģ": 1678,
      "197": 1679,
      "ĠÐ¶ÑĥÑĢÐ½": 1680,
      "Ð¾ÑģÑĤÑĢÐ°Ð½": 1681,
      "Ð°ÐºÑģ": 1682,
      "Ð½Ð¾Ð²Ð°Ð½": 1683,
      "Ð¾Ð¼Ð¸Ð½": 1684,
      "Ð¿Ð¾Ð½": 1685,
      "ĠÐ°Ð»ÑĮÐ±Ð¾Ð¼": 1686,
      "Ð¾ÑĢÐ°Ñı": 1687,
      "Ð¾ÑģÐ¾Ð±": 1688,
      "ÑīÐ¸ÑĤ": 1689,
      "ĠÐ°ÑĤ": 1690,
      "Ð´ÐµÐ¹": 1691,
      "Ð°Ð»ÑĮÐ½Ð¾Ð³Ð¾": 1692,
      "ĠÐ½ÐµÐ´": 1693,
      "Ð»Ñĥ": 1694,
      "im": 1695,
      "os": 1696,
      "ĠÐ½Ð°ÑĨÐ¸Ð¾Ð½Ð°Ð»ÑĮ": 1697,
      "ÐµÑģÐ¿ÑĥÐ±Ð»": 1698,
      "ĠÑĥÑģÑĤÐ°Ð½Ð¾Ð²": 1699,
      "Ð¼ÐµÑĤ": 1700,
      "ĠÐ¿ÑĢÐ¾Ð´Ð¾Ð»Ð¶": 1701,
      "ÐµÐºÑģ": 1702,
      "ĠÐ½ÐµÑģÐºÐ¾Ð»ÑĮÐºÐ¾": 1703,
      "ĠÐ·Ð°Ð´": 1704,
      "ĠÑģÑĤÐµÐ¿": 1705,
      "Ð°Ð»ÑĮÐ½Ð¾Ð¹": 1706,
      "ĠÐ¼Ð¾Ð¶ÐµÑĤ": 1707,
      "ĠÐ¿Ð¾Ð»ÑĥÑĩÐ¸Ð»": 1708,
      "ĠÐļÐ¾ÑĢ": 1709,
      "âĢĻ": 1710,
      "Ð½ÑıÑı": 1711,
      "ie": 1712,
      "ĠÐ±ÐµÑĢ": 1713,
      "ÐºÐ¼": 1714,
      "ut": 1715,
      "ĠÐºÐ¾ÑĤÐ¾ÑĢÐ°Ñı": 1716,
      "ĠÐµÑīÑĳ": 1717,
      "Ð¾Ð±ÑĢÐ°Ð·": 1718,
      "ÑĥÐ½Ð¸": 1719,
      "ĠÐºÐ¾ÑĤÐ¾ÑĢÐ¾Ð¹": 1720,
      "ÑĢÑĥÐ·": 1721,
      "la": 1722,
      "ÑģÑĤÑĮ": 1723,
      "ĠÑĢÐ¾ÑģÑģÐ¸Ð¹": 1724,
      "ĠÐ²ÑģÑĤ": 1725,
      "ĠÐºÑĥÐ»ÑĮÑĤ": 1726,
      "ÑĢÑĭÐ²": 1727,
      "Ð¾ÑĢÑĮ": 1728,
      "Ð¸ÑģÐ¸": 1729,
      "ĠÐ¡ÑĢÐµÐ´": 1730,
      "ĠÐ½ÐµÐºÐ¾ÑĤÐ¾ÑĢ": 1731,
      "ĠÑĤÐµÑĢÑĢÐ¸ÑĤÐ¾ÑĢÐ¸Ð¸": 1732,
      "ĠÐ½Ð°Ð·Ð½Ð°Ñĩ": 1733,
      "ĠÐłÐµÑģÐ¿ÑĥÐ±Ð»": 1734,
      "Ð¾Ð½ÑĤ": 1735,
      "Ð¡Ð¼": 1736,
      "Ġthe": 1737,
      "ĠÐ»ÑİÐ±": 1738,
      "Ð½ÐµÐ³Ð¾": 1739,
      "Ġ30": 1740,
      "Ð¾Ð²ÑģÐºÐ¾Ð³Ð¾": 1741,
      "ĠII": 1742,
      "ĠÑĥÑĤ": 1743,
      "ĠÐĲÐ»": 1744,
      "ĠÑģÑĤÑĢÐ°Ð½": 1745,
      "ĠÐ¿ÑĢÐ¸Ð·": 1746,
      "ĠÑĢÐ°Ð·Ð²Ð¸ÑĤ": 1747,
      "ĠÑģÐ²Ð¾ÐµÐ¹": 1748,
      "Ð»Ð°Ð³": 1749,
      "ĠÑĥÐ¶Ðµ": 1750,
      "Ð»ÐµÐ½Ñĭ": 1751,
      "ÑĥÐ±ÐµÑĢÐ½": 1752,
      "Ġ11": 1753,
      "Ð¼Ðµ": 1754,
      "ĠÐ¾ÑĤÐ´": 1755,
      "ĠÐ¿Ð¾Ð¼Ð¾Ñī": 1756,
      "ĠÐ¸Ð½ÑģÑĤÐ¸ÑĤÑĥÑĤ": 1757,
      "ÐµÐ½ÐºÐ¾": 1758,
      "Ð°ÑĢÐ°ÐºÑĤ": 1759,
      "ĠÐĵÐµÑĢÐ¼": 1760,
      "Ð»Ð¾Ð¼": 1761,
      "Ð¼ÐµÐ½ÑĤ": 1762,
      "ĠÑģÑĤÑĢÐ°": 1763,
      "ĠÑĢÐµÐ´": 1764,
      "ĠÐ´Ð¾Ð»": 1765,
      "ÐºÐ¸Ñħ": 1766,
      "ĠÐ½Ð°Ð³": 1767,
      "ÑĥÐ²": 1768,
      "ĠÐµÐ´Ð¸Ð½": 1769,
      "ĠÐ¿ÐµÑĢÐµÐ¿": 1770,
      "ĠÐ¸Ð¼ÐµÐ½Ð¸": 1771,
      "ÑĢÐµÐ¿": 1772,
      "ĠÐ´ÑĢÑĥÐ³Ð¸Ñħ": 1773,
      "ĠÐľÐ¸Ñħ": 1774,
      "ĠÐ¸ÑģÑĤ": 1775,
      "Ð°Ð¼ÑıÑĤ": 1776,
      "Ð°ÑĢÑħ": 1777,
      "Ð¸ÑıÑĤ": 1778,
      "ĠÐĽÐµÐ½": 1779,
      "ÑĩÐµÑģÐº": 1780,
      "Ð¾ÑĢÑĥÐ¶": 1781,
      "Ð»Ð¸Ð¼Ð¿Ð¸Ð¹": 1782,
      "ÐµÑģÑĤÐ²ÐµÐ½Ð½Ð¾Ð¹": 1783,
      "ĠÐ¾Ð·": 1784,
      "ĠÐŀÑģ": 1785,
      "ir": 1786,
      "iv": 1787,
      "ÐµÑģÑĮ": 1788,
      "ÑĢÐ¸Ð´": 1789,
      "ĠÑĤÑĢÐ¸": 1790,
      "Â°": 1791,
      "ĠÐ³ÑĢÐ°ÑĦ": 1792,
      "ĠÐ»ÑĥÑĩ": 1793,
      "ÐµÐ´ÐµÐ½Ð¸Ñı": 1794,
      "ĠÐ½Ð°Ð¿ÑĢÐ°Ð²": 1795,
      "ĠÐ½Ð°Ð·ÑĭÐ²": 1796,
      "ĠÐ½Ð¸Ñħ": 1797,
      "ÑĢÐµÐ´ÐµÐ»": 1798,
      "Ð°Ð»ÑĮÐ½ÑĭÐµ": 1799,
      "Ð°Ð»ÑĮÐ½ÑĭÑħ": 1800,
      "ec": 1801,
      "ĠÐļÐ¾Ð¼": 1802,
      "ÑĪÐ°Ñı": 1803,
      "ÑģÐºÐ¾Ð¼Ñĥ": 1804,
      "ĠÑģÐ»ÑĥÑĩ": 1805,
      "ĠÐĴÐ¾": 1806,
      "Ð°ÑĢÐ¾Ð²": 1807,
      "ĠÐºÐ°ÑĩÐµÑģÑĤÐ²Ðµ": 1808,
      "Ð¸Ð½ÑģÐºÐ¸Ð¹": 1809,
      "ĠÐ¾ÑģÐ¾Ð±": 1810,
      "ĠÑĥÐ½Ð¸Ð²ÐµÑĢÑģÐ¸ÑĤÐµÑĤÐ°": 1811,
      "Ġs": 1812,
      "ÑĭÐ½": 1813,
      "Ð³Ð¾Ð´Ñĥ": 1814,
      "Ġ189": 1815,
      "ĠÐ¿Ð¾Ð³": 1816,
      "ÑħÑĢÐ°Ð½": 1817,
      "Ð¸ÑģÐ°": 1818,
      "ĠÐ°ÐºÐ°Ð´ÐµÐ¼": 1819,
      "ÑĢÑĳÑħ": 1820,
      "ĠÐŁÐ¾Ð»": 1821,
      "ĠÐļÐ°Ð·": 1822,
      "ĠÐ½Ð°ÑħÐ¾Ð´Ð¸ÑĤÑģÑı": 1823,
      "Ð¼Ð°ÑĤ": 1824,
      "ÑĥÑİÑĤ": 1825,
      "000": 1826,
      "Ð°Ð½ÑģÐºÐ¾Ð¹": 1827,
      "ÐµÑĢÐµÐ´": 1828,
      "196": 1829,
      "ĠÑĢÐ°Ð·Ð»Ð¸Ñĩ": 1830,
      "Ð¸ÑĨÐ¸Ð¸": 1831,
      "ĠÐ¶ÐµÐ½Ñī": 1832,
      "ÑĳÐ²": 1833,
      "ÑĪÐ¸Ð¼": 1834,
      "Ġ(Â«": 1835,
      "ĠÐ¿ÑĥÐ½ÐºÑĤÑĭ": 1836,
      "ĠÐ´Ð¾Ð±": 1837,
      "ĠÑģÐ¾ÑģÑĤÐ°Ð²Ð»ÑıÐµÑĤ": 1838,
      "ĠÐ¤Ðļ": 1839,
      "ĠÐ·Ð°ÑĤÐµÐ¼": 1840,
      "ĠÑĤÐ¸Ð¿": 1841,
      "ÑĨÑĥÐ·": 1842,
      "ĠÐ³Ð¾Ð´Ð¾Ð²": 1843,
      "ĠÐ¸Ð·Ð±": 1844,
      "ĠSt": 1845,
      "30": 1846,
      "ÑģÑĤÑĢ": 1847,
      "ĠÐºÑĢÑĥÐ¿": 1848,
      "Ð»Ð°Ð½": 1849,
      "ÑĢÐ°ÑģÑĤ": 1850,
      "ĠÑģÑĤÐ°ÑĤ": 1851,
      "ĠÐ¸ÑģÑĤÐ¾ÑĢÐ¸Ð¸": 1852,
      "ĠÐ²Ð¾Ð·Ð¼Ð¾Ð¶": 1853,
      "ĠÐ³ÑĢÑĥÐ¿Ð¿Ñĭ": 1854,
      "ĠÐłÐ¾ÑģÑģÐ¸Ð¹ÑģÐºÐ¾Ð¹": 1855,
      "ÐºÐ¾Ð³Ð¾": 1856,
      "ĠÑģÑĥÑīÐµÑģÑĤÐ²": 1857,
      "ÐµÐ¼Ñĥ": 1858,
      "Ð°ÑģÑĤÐ²": 1859,
      "Ð¸Ð½Ð¾Ð²": 1860,
      "ĠÐ¾ÑĤÐ´ÐµÐ»": 1861,
      "ĠÑĥÑĢÐ¾Ð²": 1862,
      "ĠÐµÐ¼Ñĥ": 1863,
      "Ġc": 1864,
      "ĠÑĦÑĢÐ°Ð½": 1865,
      "Ð°ÑĤÐ¾Ð²": 1866,
      "ĠÐ¾ÑĤÐ½Ð¾Ñģ": 1867,
      "Ð¸ÑĩÐµÑģÐºÐ¸": 1868,
      "Ð¸ÑģÑĤÑĭ": 1869,
      "Ð°ÑĢÑı": 1870,
      "ĠÐ¿ÑĢÐ¾Ð¸Ñģ": 1871,
      "ĠÐ¸ÑĤ": 1872,
      "ÐµÑģÑı": 1873,
      "ÑĥÐ»ÑıÑĢ": 1874,
      "ĠÑĦÑĥÑĤÐ±Ð¾Ð»": 1875,
      "ĠÑģÐ¾Ð¾ÑĤ": 1876,
      "ĠÐºÐ°Ð¼": 1877,
      "ĠÑģÑĩÐ¸ÑĤ": 1878,
      "ĠÐ»Ð¸Ð½": 1879,
      "ÑĥÐ½Ð¸ÑĨÐ¸Ð¿": 1880,
      "ÑĳÐ½Ð½ÑĭÑħ": 1881,
      "ÐµÐ·Ð´Ð°": 1882,
      "ĠÐ°Ð»": 1883,
      "ĠÐµÐ²": 1884,
      "ĠÐ¿Ð¾ÑģÑĤÑĢÐ¾": 1885,
      "ĠÐ£ÐºÑĢÐ°Ð¸Ð½Ñĭ": 1886,
      "em": 1887,
      "Ġ2008": 1888,
      "Ð¾Ð³Ð»Ð°ÑģÐ½Ð¾": 1889,
      "ÐĿÐ°ÑģÐµÐ»ÐµÐ½Ð¸Ðµ": 1890,
      "ĠÐ¼ÐµÐ½": 1891,
      "ĠÐ¼Ð¾Ð´": 1892,
      "ÑģÐºÐ¾": 1893,
      "ĠÐ¿Ð¾Ð´Ð´ÐµÑĢÐ¶": 1894,
      "Ð¾Ð»Ð¾Ð³Ð¸Ð¸": 1895,
      "ÐµÑģÑĤÑĮ": 1896,
      "ĠÐĲÐ½Ð´": 1897,
      "ÑĢÐ¾ÑĦ": 1898,
      "ĠÑģÑĢÐµÐ´Ð¸": 1899,
      "ĠÐ´ÐµÐ¿": 1900,
      "50": 1901,
      "ĠÑģÐ»ÐµÐ´ÑĥÑİÑī": 1902,
      "ĠÑĢÐ°Ð½": 1903,
      "Ġ2012": 1904,
      "ĠÑģÐ²Ð¾Ðµ": 1905,
      "ÑĭÐ¿": 1906,
      "Ð±Ñĥ": 1907,
      "ÑĩÐ¸Ð½": 1908,
      "Ġ2011": 1909,
      "ĠÐºÐ½Ñı": 1910,
      "ĠÐ²Ð¼ÐµÑģÑĤÐµ": 1911,
      "Ð»Ð¾ÑĤ": 1912,
      "Ð¸ÑĤÑĥ": 1913,
      "Ð²Ð°ÑĤ": 1914,
      "ÑĤÐ¾Ð½": 1915,
      "Ð¼Ð¾ÑĤ": 1916,
      "ht": 1917,
      "ĠÐ¶Ð¸Ð·": 1918,
      "Ġ2009": 1919,
      "ĠÐ¾Ð¿ÐµÑĢÐ°": 1920,
      "ĠÐ¶ÐµÐ»ÐµÐ·": 1921,
      "ĠÐ²ÑģÐµÑħ": 1922,
      "Ð°ÑĤÐµÐ»Ñı": 1923,
      "ĠÐ²ÑħÐ¾Ð´": 1924,
      "Ð°ÑĢÐ°ÐºÑĤÐµÑĢ": 1925,
      "Ð¸Ð°Ð½": 1926,
      "ĠÐ¿Ð¾ÐºÐ°Ð·": 1927,
      "Ð°ÑĦ": 1928,
      "ĠÐ¿ÑĢÐ¾Ð³ÑĢÐ°Ð¼": 1929,
      "Ð°Ð»ÑĮÐ½Ð¾": 1930,
      "ĠÑģÐ¼ÐµÑĢ": 1931,
      "Ð¸Ð»Ð¾ÑģÑĮ": 1932,
      "ÑģÐ»Ð¸": 1933,
      "ĠÐ¿Ð»Ð¾ÑīÐ°Ð´": 1934,
      "ĠÐ¾ÑĤÐ»Ð¸Ñĩ": 1935,
      "ÐµÑĢÐ¸Ð¸": 1936,
      "Ð°Ð»Ð¸Ð·": 1937,
      "Ð½Ð°Ð¼": 1938,
      "Ð¦": 1939,
      "ĠÑįÐ»ÐµÐºÑĤ": 1940,
      "ĠÐ°ÐºÑĤÐ¸Ð²": 1941,
      "ĠÐ³ÑĢÐ°Ð½": 1942,
      "Ð¾ÑģÐ»Ð°Ð²": 1943,
      "Ð²Ð¸Ð½": 1944,
      "ĠÐ³ÑĥÐ±ÐµÑĢÐ½": 1945,
      "ÑĦÐ¾ÑĢÐ¼Ð°": 1946,
      "ĠÐºÐ¾Ð»Ð¸Ñĩ": 1947,
      "ĠÑģÐµÐº": 1948,
      "ÑĦÐµÑĢ": 1949,
      "Ð°Ð½ÑĮ": 1950,
      "ul": 1951,
      "ĠÐ¿ÑĢÐ¾ÑĨ": 1952,
      "Ð¯": 1953,
      "ĠÑģÐµÐ»Ð¾": 1954,
      "ĠÐ²ÑĭÑģÐ¾Ðº": 1955,
      "ĠÐ¶Ð¸Ð·Ð½Ð¸": 1956,
      "ĠÐĴÐµÑĢÑħ": 1957,
      "ÑĥÐ½Ð´": 1958,
      "ĠÐ¾ÑģÑĤÑĢÐ¾Ð²": 1959,
      "Ġ24": 1960,
      "Ð¾ÑĢÐ´": 1961,
      "Ġ2007": 1962,
      "ation": 1963,
      "Ġ2002": 1964,
      "Ð¸Ð½ÑģÐºÐ¾Ð¹": 1965,
      "Ð¾Ð»ÐµÐ²": 1966,
      "ĠÐ¡ÐµÐ²ÐµÑĢ": 1967,
      "ÐµÑĩÐµÐ½Ð¸Ðµ": 1968,
      "Ð°Ð½Ð³": 1969,
      "ĠÑĥÑĩÐ°ÑģÑĤÐ¸Ðµ": 1970,
      "Ð¾Ð²ÑĭÑħ": 1971,
      "Ð¾ÑĢÐ¾Ð½Ñĭ": 1972,
      "ĠÐ¼ÑĥÐ·ÑĭÐº": 1973,
      "Ð¾Ð²ÑģÐºÐ¾Ð¹": 1974,
      "Ð°Ð»Ð¸Ð¸": 1975,
      "Ġ2014": 1976,
      "ĠÑĩÐ¸ÑģÐ»Ðµ": 1977,
      "ÑģÐºÐ°Ð·": 1978,
      ".:": 1979,
      "ĠÐºÐ¾ÑĤÐ¾ÑĢÐ¾Ð³Ð¾": 1980,
      "Ġ|": 1981,
      "ĠÑĥÐ²": 1982,
      "ĠÑģÐ°Ð¹ÑĤÐµ": 1983,
      "ĠÐ¾Ð´Ð½Ð°ÐºÐ¾": 1984,
      "ĠÐ²Ð»Ð°ÑģÑĤ": 1985,
      "od": 1986,
      "Ð°ÑĨÐ¸Ð¸": 1987,
      "ÐµÐ¹Ð½": 1988,
      "23": 1989,
      "ĠÐ¾ÑĤÐ½Ð¾ÑĪ": 1990,
      "Ð°Ð½Ð¸Ð¹": 1991,
      "ĠÐ½ÐµÐ¼ÐµÑĨ": 1992,
      "ĠÑĥÑģÐ¿": 1993,
      "Ð½Ð¸ÑĨ": 1994,
      "ÑĢÐ°Ð·Ð´": 1995,
      "ĠÑģÐ¾Ð²ÑĢÐµÐ¼": 1996,
      "Ð¾Ð²Ð°ÑĤÑĮ": 1997,
      "Ġ:": 1998,
      "25": 1999,
      "ĠÐļÑĥÐ±": 2000,
      "ĠÐ³Ð°Ð·": 2001,
      "Ð°ÑĤÐµÐ»Ð¸": 2002,
      "Ġ2006": 2003,
      "ÑĭÑĩ": 2004,
      "Ð°Ð½Ðµ": 2005,
      "og": 2006,
      "ĠÐ°ÑĢÑĤ": 2007,
      "ÐºÐ¾Ð½": 2008,
      "ĠÑģÐ¾ÑĤ": 2009,
      "ÑĤÐµÐ½": 2010,
      "Ð¾ÑģÐ»ÐµÐ´": 2011,
      "ĠÐ±ÑĭÑĤÑĮ": 2012,
      "Ð¿Ð¸ÑģÐº": 2013,
      "ĠÐ¤ÐµÐ´ÐµÑĢÐ°": 2014,
      "Ð³Ðµ": 2015,
      "ÐŀÐ±": 2016,
      "ĠÑįÐ¿": 2017,
      "ÑģÐµÐ´": 2018,
      "ĠÐĲÐ·": 2019,
      "Ð¸ÑĩÐµÑģÐºÐ¾Ðµ": 2020,
      "Ð²Ð¾": 2021,
      "Ð°Ñī": 2022,
      "Ð¾Ð±Ð¾Ð´": 2023,
      "ĠÑĤÑĢÐ°Ð½": 2024,
      "ĠÐ°ÑĢÐ¼Ð¸Ð¸": 2025,
      "Ð¾ÑĢÐ¾Ð¶": 2026,
      "Ġ2013": 2027,
      "ÑĢÐ°Ð±": 2028,
      "Ð¸ÑĤÑĮÑģÑı": 2029,
      "ĠÑįÐºÐ¾Ð½Ð¾Ð¼": 2030,
      "ĠÑģÐ²Ð¾Ñİ": 2031,
      "ag": 2032,
      "ĠÑģÐµÐ±Ñı": 2033,
      "ÑĥÑĢÑģ": 2034,
      "Ġ2000": 2035,
      "ĠÑģÐ¾Ð¾ÑĤÐ²ÐµÑĤ": 2036,
      "ĠÐºÐ°ÑĢÑĤ": 2037,
      "Ð¸ÑıÑħ": 2038,
      "ÑĢÑıÐ´": 2039,
      "ĠÑĢÑıÐ´": 2040,
      "ĠÐ¾ÐºÐ°Ð·": 2041,
      "ĠÐ»Ð¸ÑĪ": 2042,
      "Ð°Ð»Ñĭ": 2043,
      "ĠÐºÐ°Ð½": 2044,
      "ĠÑģÐ¾Ð¾Ð±Ñī": 2045,
      "ÐµÐ»Ð°": 2046,
      "ĠÐºÐ°ÑĢÑĮ": 2047,
      "ÐłÐ¾Ð´": 2048,
      "ÑĤÑĥÑĢ": 2049,
      "ÐºÐ°Ð¼Ð¸": 2050,
      "Ġ2015": 2051,
      "ĠÐŁÑĢÐµ": 2052,
      "ĠIn": 2053,
      "ĠÐ´Ð¾ÑĢÐ¾Ð³": 2054,
      "ĠÐ³Ð¾ÑĢÐ¾Ð´Ðµ": 2055,
      "ĠÑĢÐ°Ð±Ð¾ÑĤÑĭ": 2056,
      "ĠÐ½Ð°ÑĥÐº": 2057,
      "ĠÑĩÐµÑĤÑĭ": 2058,
      "Ð³Ð¾ÑĤÐ¾Ð²": 2059,
      "ĠÐ±ÐµÑĢÐµÐ³": 2060,
      "Ð°Ð½Ð½ÑĭÐµ": 2061,
      "ĠÑįÑĤÐ¾Ð¹": 2062,
      "ÑıÑħ": 2063,
      "ĠÐ²ÑĢÐµÐ¼ÐµÐ½Ð¸": 2064,
      "Ð½Ð´": 2065,
      "ĠÑĤÐµÑħÐ½": 2066,
      "Ġ23": 2067,
      "ĠÐµÑģÑĤÑĮ": 2068,
      "ĠÐ²ÐµÐº": 2069,
      "ÐµÑĢÐ²ÑĭÐµ": 2070,
      "ĠÑįÑĤÐ°": 2071,
      "ÐµÑĢÑĥ": 2072,
      "Ð°Ð½Ð¸Ñİ": 2073,
      "ĠÐ»Ð¸ÑĤÐµÑĢÐ°": 2074,
      "ĠÑĢÐ°Ð·ÑĢÐ°Ð±Ð¾ÑĤ": 2075,
      "ĠÐ¸ÑģÐ¿Ð¾Ð»Ð½": 2076,
      "Ð¿Ð°": 2077,
      "ÑĢÑĥÑĪ": 2078,
      "ow": 2079,
      "Ð»ÑģÑı": 2080,
      "Ð¸ÑĢÐ¾Ð²Ð°Ð»": 2081,
      "ÑĦÑĦ": 2082,
      "ĠÐ²Ð¾Ð·Ð´": 2083,
      "Ġ2016": 2084,
      "ÐŁÐµÑĤ": 2085,
      "ĠÑħÐ¾Ð´": 2086,
      "ĠÑĩÐµÐ¼": 2087,
      "ĠÐŁÑĢÐ¸": 2088,
      "ĠÐĽÑİ": 2089,
      "Ð»Ð°ÑģÑĮ": 2090,
      "ĠÐ¼Ð¾Ð»Ð¾Ð´": 2091,
      "Ġ22": 2092,
      "ÑįÐ¹": 2093,
      "ĠÑģÐ²Ð¾ÐµÐ³Ð¾": 2094,
      "ĠÐ·Ð°Ð¿Ð°Ð´": 2095,
      "ĠÐ°Ð²ÑĤÐ¾ÑĢ": 2096,
      "ĠÑĥÑĩÐ°ÑģÑĤÐ²": 2097,
      "Ð¾Ð¶Ð´ÐµÐ½Ð¸Ñı": 2098,
      "ĠÐ°Ð´Ð¼Ð¸Ð½Ð¸ÑģÑĤÑĢÐ°ÑĤÐ¸Ð²": 2099,
      "ĠÐºÐ°Ð¶Ð´": 2100,
      "ĠÐ³ÐµÑĢ": 2101,
      "ĠÐŀÑĤÐµÑĩ": 2102,
      "Ġ188": 2103,
      "ĠÐ¼Ð¸ÑĢÐ¾Ð²": 2104,
      "ĠÑĦÑĢÐ°Ð½ÑĨÑĥÐ·": 2105,
      "ÐļÐ¾Ð¼": 2106,
      "Ð»Ñĭ": 2107,
      "Ġ2005": 2108,
      "ĠÐŀÐ´Ð½Ð°ÐºÐ¾": 2109,
      "Ġf": 2110,
      "ĠÐ°Ð²Ð¸": 2111,
      "ĠÑĤÑĢÑĥÐ´": 2112,
      "ÑĨÐ¸ÐµÐ¹": 2113,
      "ĠÑģÐ¾Ð´": 2114,
      "ÑĪÐµ": 2115,
      "ÐĵÐµ": 2116,
      "Ð²Ð¾Ð´": 2117,
      "ÑĥÑĤÑģÑĤÐ²": 2118,
      "Ð¾Ð±ÑĢÐ°Ð¶": 2119,
      "ÐµÑģÑĤÐ¸": 2120,
      "ÐŁÐ¾ÑģÐ»Ðµ": 2121,
      "Ð¾Ð²ÑĭÐµ": 2122,
      "Ġ2004": 2123,
      "ĠÐĴÐ°Ñģ": 2124,
      "ÑĢÐ¾Ð¼Ðµ": 2125,
      "ĠÑĩÐµÐ»Ð¾Ð²ÐµÐºÐ°": 2126,
      "ÐĺÐ·": 2127,
      "ĠÑģÑĤÑĥÐ´": 2128,
      "ĠÐ¿ÑĢÐ°Ð²Ð¸ÑĤÐµÐ»ÑĮ": 2129,
      "ÑĭÐ²Ð°ÐµÑĤ": 2130,
      "ĠÐ¿Ð¾ÑıÐ²": 2131,
      "ĠÐ°Ð²ÑĤÐ¾Ð¼": 2132,
      "oc": 2133,
      "ĠÐ¾ÑģÐ½Ð¾Ð²Ð°Ð½": 2134,
      "ÐµÑı": 2135,
      "ĠÑĤÑĢÐµÐ½": 2136,
      "ĠÐ½Ð°ÑĩÐ°Ð»Ðµ": 2137,
      "ĠÐļÐ¾Ð»": 2138,
      "ĠÐ´Ð°": 2139,
      "ĠÐ½Ð°ÑĩÐ°Ð»": 2140,
      "Ġ\"": 2141,
      "ĠÐ½Ð°Ð¿Ð¸Ñģ": 2142,
      "ÑĢÐ¸Ð¼ÐµÑĢ": 2143,
      "ĠÐ²ÐµÐ´": 2144,
      "Ð¸ÑģÐ¸Ð¼": 2145,
      "ĠÐ¾ÑģÑĤÐ°Ð²": 2146,
      "ĠÑģÐ²Ð¾Ð¹": 2147,
      "ĠÑģÑĤÐ¾Ð»": 2148,
      "ĠÑģÑĤÐ°Ð»Ð°": 2149,
      "Ġ26": 2150,
      "ĠÐ¼Ð½Ð¾Ð³Ð¾": 2151,
      "ÑĩÐ°ÑģÑĤ": 2152,
      "ĠÐ½Ð°Ð±": 2153,
      "Ð¸Ð±Ð»Ð¸": 2154,
      "ĠÐºÐ²": 2155,
      "ĠÐ¿ÑĢÐ¾ÑĪ": 2156,
      "Ð½Ð¸Ñĩ": 2157,
      "ÐµÑĢÐ±ÑĥÑĢÐ³": 2158,
      "ĠÐ¾Ð¿Ð¸Ñģ": 2159,
      "ĠÑħÐ°ÑĢÐ°ÐºÑĤÐµÑĢ": 2160,
      "ĠÐ¿ÐµÑĢÐ²ÑĭÐ¹": 2161,
      "ĠÑĤÐ¾ÑĢ": 2162,
      "Ð½Ñİ": 2163,
      "Ġand": 2164,
      "ĠÐ´Ð²Ð¸Ð¶": 2165,
      "ĠÐ¿Ð¾ÑģÐµÐ»ÐµÐ½Ð¸Ñı": 2166,
      "Ð¾ÑĢÑĤÐ°": 2167,
      "Ð»Ð¾Ð½": 2168,
      "ÑĥÑģÐ°": 2169,
      "ĠÑĥÐ¼ÐµÑĢ": 2170,
      "ĠÐºÐ¾Ð½ÑĨÐµ": 2171,
      "ist": 2172,
      "Ð¾ÑģÐ¿": 2173,
      "ĠÐ·Ð°ÑīÐ¸ÑĤ": 2174,
      "Ġ(;": 2175,
      "ĠÐ¾ÑĤÐºÑĢÑĭÑĤ": 2176,
      "ers": 2177,
      "Ġm": 2178,
      "ĠÐºÐ¸Ð½": 2179,
      "Ð°Ð»Ð¾Ð³": 2180,
      "ÑĢÐµÑģÑģ": 2181,
      "ĠÑĪÐ¸ÑĢ": 2182,
      "ĠÐ¼Ð°ÑĤÐµÑĢÐ¸": 2183,
      "ÐĿÐ°ÑģÐµÐ»ÑĳÐ½Ð½ÑĭÐµ": 2184,
      "Ð¾ÐºÑĢÐ°ÑĤ": 2185,
      "ĠÑģÐ±Ð¾ÑĢÐ½Ð¾Ð¹": 2186,
      "Ð¸Ð·Ð¼": 2187,
      "ĠÐ·Ð°Ñģ": 2188,
      "ĠÐ¼ÐµÐ¶Ð´ÑĥÐ½Ð°ÑĢÐ¾Ð´": 2189,
      "ĠÐ´ÐµÐ½ÑĮ": 2190,
      "ĠÐ¸Ð·Ð¼ÐµÐ½": 2191,
      "ĠÐ¿ÑĢÐ¾Ð±": 2192,
      "ĠÑģÐ²ÑıÐ·Ð¸": 2193,
      "Ð¾Ð»Ð¸": 2194,
      "ĠÐ¡Ð°Ð¼": 2195,
      "Ð¾Ð²Ð°ÑĤÐµÐ»ÑĮ": 2196,
      "ĠÐ¿ÑĢÐµÐ·Ð¸Ð´": 2197,
      "195": 2198,
      "Ð¾Ð»Ð´": 2199,
      "ĠÑģÐ´ÐµÐ»": 2200,
      "ĠÐ±ÑĭÐ²": 2201,
      "ÐµÐ½Ð½Ð°Ñı": 2202,
      "ĠÑĤÐ°Ð½": 2203,
      "ĠÐ¤ÑĢÐ°Ð½ÑĨÐ¸Ð¸": 2204,
      "ĠÑģÑĤÑĢÐ¾Ð¸ÑĤÐµÐ»ÑĮ": 2205,
      "ÐµÐ»Ð¸Ñĩ": 2206,
      "ÐµÐ»Ð¾": 2207,
      "ĠÐ²ÑģÐµÐ³Ð¾": 2208,
      "ĠÐ¡Ð¿": 2209,
      "ÑģÐºÐ°": 2210,
      "ĠÑģÐ¾ÑħÑĢÐ°Ð½": 2211,
      "ĠÐ¡Ð¾Ñİ": 2212,
      "ĠÑģÐ¾Ð±ÑģÑĤÐ²ÐµÐ½": 2213,
      "Ð¾ÑģÑĤÐ¾": 2214,
      "ĠÐŀÐ»Ð¸Ð¼Ð¿Ð¸Ð¹": 2215,
      "ĠXV": 2216,
      "ĠÐŁÐ¾Ð´": 2217,
      "ÑģÐ¾Ð²ÐµÑĤ": 2218,
      "ÐµÐ½ÑĤÐ¾Ð²": 2219,
      "ÐºÐ²Ð¸": 2220,
      "ĠÐ¼ÑĥÐ½Ð¸ÑĨÐ¸Ð¿": 2221,
      "Ð¾Ð¿ÑĢÐ¾Ñģ": 2222,
      "Ġ28": 2223,
      "Ð°Ð»Ð¾Ð²": 2224,
      "ĠÐłÐµÑģÐ¿ÑĥÐ±Ð»Ð¸ÐºÐ¸": 2225,
      "Ð¼Ð¸ÑĤ": 2226,
      "ĠÐ¿Ð¾Ð»Ð¾Ð¶": 2227,
      "ĠÐĲÐ±": 2228,
      "ĠÐĵÐµÑĢ": 2229,
      "ÑıÑĤÑģÑı": 2230,
      "ĠÐ¿ÑĢÐ¾Ð¼": 2231,
      "193": 2232,
      "ĠÐ¿ÑĢÐ¸Ñĩ": 2233,
      "ĠÐ²ÐµÑĢÐ½": 2234,
      "ĠÑĤÑĭ": 2235,
      "Ð¿Ð¸ÑģÐºÐ¾Ð¿": 2236,
      "ĠÐ¿Ð»Ð°Ð½": 2237,
      "ĠÐ¿Ð¾ÑģÑĳÐ»": 2238,
      "ÑģÐ¾Ð½": 2239,
      "ĠÑįÐ½": 2240,
      "ĠÐ²Ð¸Ð´Ðµ": 2241,
      "ĠÐºÐ¾ÑĢÐ¿": 2242,
      "Ð¸Ð³Ð¸": 2243,
      "Ġ21": 2244,
      "ĠÐºÐ°Ð¿": 2245,
      "ĠÐ¿Ð°Ð¼ÑıÑĤ": 2246,
      "Ġ27": 2247,
      "ĠÑģÐ¾Ð²ÐµÑĤÑģÐºÐ¸Ð¹": 2248,
      "ĠÐ±ÐµÐ»": 2249,
      "Ð°Ð´Ñĭ": 2250,
      "ĠÐ½ÐµÐ·": 2251,
      "ĠXX": 2252,
      "ĠÐ²ÑģÑĤÑĢÐµÑĩ": 2253,
      "ĠÐ»ÐµÑģ": 2254,
      "Ð²ÐµÑĢÐ¶Ð´": 2255,
      "Ð½Ð°ÑĢ": 2256,
      "Ð¾ÐºÐ°": 2257,
      "ĠÑģÐ¿Ð¾ÑģÐ¾Ð±": 2258,
      "ĠÐ·Ð°Ð±": 2259,
      "Ð°ÑĤÐ¸Ð²": 2260,
      "ÑĥÐµÑĤÑģÑı": 2261,
      "ÑĭÑĪÐ»ÐµÐ½": 2262,
      "ĠÐ¸Ð¼ÐµÐµÑĤ": 2263,
      "ĠÐ¿ÑıÑĤ": 2264,
      "ÑģÑĤÐ¾ÑıÑī": 2265,
      "ÐºÑĤÐ¾ÑĢ": 2266,
      "ÐºÐ¸Ð½": 2267,
      "ĠÐľÐ°Ðº": 2268,
      "ĠÐ´Ð°Ð½Ð½ÑĭÐ¼": 2269,
      "Ð±ÑĥÑĢÐ³": 2270,
      "ĠÐ³ÑĢÐ°Ð¶Ð´": 2271,
      "Ð°Ð´Ð°": 2272,
      "ĠÐ²ÑĭÐ¿Ð¾Ð»": 2273,
      "ÐŁÑĢ": 2274,
      "Ġ2017": 2275,
      "Ð¶ÐµÐ½": 2276,
      "ĠÑĥÐºÐ°Ð·": 2277,
      "ĠÐ½ÐµÐ±": 2278,
      "ĠÐ²ÑĤÐ¾ÑĢÐ¾Ð¹": 2279,
      "ĠÑĢÐ°Ð±Ð¾ÑĤÐ°Ð»": 2280,
      "ÑĤÑĭ": 2281,
      "Ð°Ð»ÑĮÐ½Ð°Ñı": 2282,
      "Ġ100": 2283,
      "Ġ186": 2284,
      "Ġin": 2285,
      "ĠÐ¡ÐµÑĢÐ³": 2286,
      "ov": 2287,
      "ĠÐĴÐ»Ð°Ð´Ð¸Ð¼": 2288,
      ".)": 2289,
      "ĠÑĦÐ°Ðº": 2290,
      "Ð»ÐµÐ½Ð°": 2291,
      "ĠÐ¿Ð¾ÑįÑĤ": 2292,
      "Ġ187": 2293,
      "ĠÑģÑĤÐµÐ¿ÐµÐ½Ð¸": 2294,
      "ĠÑĥÐ³": 2295,
      "ĠÐ¸Ð½ÑĤ": 2296,
      "ĠÐ²ÑĭÐ±": 2297,
      "ĠÐ¾ÐºÑĢÑĥÐ³Ð°": 2298,
      "ÐºÑģ": 2299,
      "ĠÐ¼Ð¾Ð¶Ð½Ð¾": 2300,
      "Ġ2001": 2301,
      "ĠÐ¿ÑĢÐ¾Ð²Ð¾Ð´": 2302,
      "ĠÐłÑĥÑģ": 2303,
      "ĠÐ¿ÑĢÐµÐ´ÑģÑĤÐ°Ð²Ð»Ñı": 2304,
      "ĠÐºÐ°Ð·": 2305,
      "ĠÐ¼ÐµÑģÑı": 2306,
      "Ġ2018": 2307,
      "ĠÐ²Ð½ÑĥÑĤ": 2308,
      "ĠÐ²ÐµÑĢÑģ": 2309,
      "ĠÐĺÐ²Ð°Ð½Ð¾Ð²": 2310,
      "ĠÑģÐµÐ»ÑĮÑģÐºÐ¾Ð³Ð¾": 2311,
      "ĠIS": 2312,
      "Ð»ÐµÐ¶": 2313,
      "ÑĨÐ¸Ð°Ð»Ð¸ÑģÑĤ": 2314,
      "Ð°Ðµ": 2315,
      "ĠÐ¿ÑĢÐ¸Ð³": 2316,
      "Ð°ÑĤÐµÐ»ÐµÐ¹": 2317,
      "ĠÐ¾ÑĤÐ¿ÑĢÐ°Ð²": 2318,
      "ĠÑĤÐ¾Ñĩ": 2319,
      "Ð¾ÑĢÐ°Ð±": 2320,
      "Ð¾Ð²Ð¾Ð³Ð¾": 2321,
      "Ð¾Ð¼ÐµÑĤ": 2322,
      "Ð²Ð¸Ð´": 2323,
      "24": 2324,
      "Â»)": 2325,
      "ĠÐ¿ÑĢÐ¸Ðº": 2326,
      "Ð¸Ð²Ð°ÐµÑĤ": 2327,
      "âĢ¦": 2328,
      "ĠÐŀÑĤÐµÑĩÐµÑģÑĤÐ²ÐµÐ½Ð½Ð¾Ð¹": 2329,
      "Ð°Ð²Ð°Ð»": 2330,
      "ĠÑįÑĤÐ¾ÑĤ": 2331,
      "Ð¾ÑģÑĤÐ°Ð²": 2332,
      "Ð»Ð¸Ñı": 2333,
      "ĠÐ·Ð°Ñı": 2334,
      "ÑĳÐ·": 2335,
      "ĠÐ¿ÑĢÐµÐ´Ð¿ÑĢ": 2336,
      "ĠÐ²Ð¾ÑģÑģÑĤ": 2337,
      "ĠÐ±Ð°Ð·": 2338,
      "ĠÑģÐ¸Ð¼": 2339,
      "ĠÐĲÐ»ÐµÐºÑģÐ°Ð½Ð´ÑĢ": 2340,
      "ĠXI": 2341,
      "ÐĹÐ°": 2342,
      "Ð¾ÑģÑĥÐ´Ð°ÑĢÑģÑĤÐ²ÐµÐ½": 2343,
      "Ð¸ÑĤÐµÐ»ÐµÐ¼": 2344,
      "ÑĥÐ½Ðº": 2345,
      "Ð¾Ð²ÑģÐºÐ¸Ð¹": 2346,
      "ard": 2347,
      "Ð±Ðµ": 2348,
      "ÑĢÐ°ÑĤÑĮ": 2349,
      "ĠÐĺÑĤ": 2350,
      "Ð³Ñĥ": 2351,
      "ĠÑģÐ¾Ð¿": 2352,
      "Ð¾Ð²Ð°Ñı": 2353,
      "Ð³Ð¾ÑĢÐ¾Ð´": 2354,
      "Ð¸ÐºÑĥ": 2355,
      "ĠÑĦÐ¸Ð·": 2356,
      "ĠÐĽÑĥ": 2357,
      "Ġb": 2358,
      "Ð¾ÑĤÐ¸Ð²": 2359,
      "ÑĨÐµ": 2360,
      "ĠÐ²Ð¾Ð·ÑĢÐ°ÑģÑĤ": 2361,
      "ĠÑģÐ¾Ð²ÐµÑĢÑĪ": 2362,
      "ÐµÐºÑģÑĤ": 2363,
      "ÐµÐ½Ñģ": 2364,
      "Ð¸Ð»Ð¸Ñī": 2365,
      "ĠÐ°Ð½Ð³Ð»": 2366,
      "ĠÐŃÑĤÐ¾": 2367,
      "ĠÐ¾Ð¿ÑĢÐµÐ´ÐµÐ»": 2368,
      "ĠÐ¿ÑĢÐ¾ÐµÐºÑĤ": 2369,
      "Ð°Ð½Ð¸": 2370,
      "ĠÐ´Ð¾Ð¿": 2371,
      "ĠÑĢÐµÐ¶Ð¸ÑģÑģ": 2372,
      "ĠÑĨÐµÐ½ÑĤÑĢÐ°": 2373,
      "ĠÐ½Ð°ÑĩÐ°Ð»ÑĮ": 2374,
      "ĠÑĢÐ¾Ð¼": 2375,
      "ĠÐ¼Ð¾Ð¼": 2376,
      "ĠÑģÐ¿Ð¾ÑĢÑĤ": 2377,
      "ĠÐºÐ¾Ð¼Ð¿Ð¾Ð·": 2378,
      "ÑģÑĤÐ²Ð¸Ð¸": 2379,
      "Ð¸Ð¹ÑģÐºÐ¸Ð¹": 2380,
      "ĠÑģÐ¾Ð·": 2381,
      "ĠÑģÐ¾ÑĤÑĢÑĥÐ´": 2382,
      "ĠÑģÐ¾Ð´ÐµÑĢÐ¶": 2383,
      "ĠÑĦÐ¸Ð»": 2384,
      "ÑģÐºÐ¸Ð¼Ð¸": 2385,
      "ĠÐ²ÑĭÑħÐ¾Ð´": 2386,
      "ÑĭÐ¿ÑĥÑģÐº": 2387,
      "ĠÑĢÐ°Ð´Ð¸": 2388,
      "ÑĢÑĥÐºÑĤ": 2389,
      "Ð¾Ð²Ð°Ð»Ð¸": 2390,
      "ign": 2391,
      "Ġ2003": 2392,
      "Ð¸ÑĨÐµ": 2393,
      "ĠCh": 2394,
      "ĠÐ¡Ð¾Ð²ÐµÑĤÐ°": 2395,
      "Ġ2019": 2396,
      "Ð¾Ð»Ð¾Ð²": 2397,
      "ĠÐ´Ð¾Ñĩ": 2398,
      "ĠÐ¿ÐµÑĢÐµÐ¿Ð¸ÑģÐ¸": 2399,
      "Ð¾ÑĢÑĥÑģ": 2400,
      "ÐµÐ½Ðµ": 2401,
      "ĠÐ½ÐµÐ³Ð¾": 2402,
      "ĠÑĤÐµÐ¼Ð¿": 2403,
      "Ġde": 2404,
      "Ð²ÑĢÐ°Ñī": 2405,
      "Ð½Ð¾Ð´": 2406,
      "Ð¤Ð¸Ð»ÑĮÐ¼": 2407,
      "Ð¾ÑıÐ½": 2408,
      "ĠÐ¸Ð½Ð´": 2409,
      "ĠÐºÑĢÐµÑģÑĤ": 2410,
      "ĠÑĤÑĢÐµÑĤ": 2411,
      "ĠÐ´Ð¸ÑĢÐµ": 2412,
      "BN": 2413,
      "Ð¸Ð½Ð¾Ð¹": 2414,
      "ĠÑħÐ¾Ð·ÑıÐ¹": 2415,
      "ÑİÑĢ": 2416,
      "ĠÐĳÐµÑĢ": 2417,
      "ĠÑĢÐ°ÑģÑģ": 2418,
      "ĠÐ½Ð¸": 2419,
      "ĠÐ°ÑĢÑħÐ¸ÑĤ": 2420,
      "ĠÐŀÐ»Ð¸Ð¼Ð¿Ð¸Ð¹ÑģÐºÐ¸Ñħ": 2421,
      "ĠÐ³ÐµÐ½ÐµÑĢÐ°Ð»": 2422,
      "ĠÐ¾ÑģÐ²": 2423,
      "ĠÐ¿Ð¾Ð·Ð²Ð¾Ð»": 2424,
      "ÐµÑĤÑĮ": 2425,
      "Ð½Ð¸ÑĨÐ°": 2426,
      "ĠÐ¿Ð¾Ð½": 2427,
      "ÐµÐºÑĤÐ°": 2428,
      "Ð¾ÑĤÑĭ": 2429,
      "ĠÑĢÐ¾Ð»ÑĮ": 2430,
      "ĠÐĴÐµÐ»Ð¸ÐºÐ¾Ð¹": 2431,
      "ÑĥÑį": 2432,
      "ĠÐ´ÑĢÑĥÐ³Ð¸Ðµ": 2433,
      "ĠÑħÐ¾ÑĤ": 2434,
      "Ð·Ð°Ð¿Ð°Ð´": 2435,
      "ĠÐ»Ð¸Ñĩ": 2436,
      "ÑģÑıÑĩ": 2437,
      "Ð¾ÐºÑģ": 2438,
      "ÑĥÑĤÑĮ": 2439,
      "Ð°Ð¼Ð±": 2440,
      "ĠÑĢÐ°ÑģÑĤ": 2441,
      "ĠÐĵÐµÑĢÐ¼Ð°Ð½Ð¸Ð¸": 2442,
      "Ð¾Ð»Ð¸ÑĤ": 2443,
      "ĠÐ²ÑĭÐ¿ÑĥÑģÐº": 2444,
      "ĠÐ¸Ð³ÑĢÐ¾Ðº": 2445,
      "ri": 2446,
      "ÐµÐ½Ð³": 2447,
      "ĠÑģÐ²Ð¾Ð¸Ñħ": 2448,
      "Ð¸Ð¹ÑģÐºÐ¾Ð³Ð¾": 2449,
      "ĠÐ¸Ð½ÑĤÐµÑĢ": 2450,
      "ĠÐ¤ÐµÐ´ÐµÑĢÐ°ÑĨÐ¸Ð¸": 2451,
      "ĠÐĳÐ¾Ð»ÑĮÑĪ": 2452,
      "ĠâĢĵ": 2453,
      "Ð»Ð°ÑĪ": 2454,
      "Ð¸Ð½Ð°Ð¼": 2455,
      "Ã©": 2456,
      "ĠÐļÐ°Ð½": 2457,
      "ĠÑĢÐµÐ·ÑĥÐ»ÑĮÑĤÐ°ÑĤÐµ": 2458,
      "Ð®": 2459,
      "ĠÐ¾ÑĦÐ¸ÑĨÐ¸Ð°Ð»ÑĮ": 2460,
      "ĠÑĤÐµÑĩÐµÐ½Ð¸Ðµ": 2461,
      "Ġ29": 2462,
      "ÑĢÐ¸Ð²": 2463,
      "ĠÑģÐ¿ÐµÑĨÐ¸Ð°Ð»ÑĮ": 2464,
      "III": 2465,
      "ĠÐ±Ð¾ÐµÐ²": 2466,
      "ĠÑĦÑĢÐ¾Ð½": 2467,
      "ÑĢÐµÑģ": 2468,
      "ÑĨÐ¾Ð²": 2469,
      "ÑĢÐ¾ÑģÑĤÑĢÐ°Ð½": 2470,
      "ĠÑĨÐµÑĢÐºÐ¾Ð²": 2471,
      "ĠY": 2472,
      "Ð´Ð¾": 2473,
      "ÑĢÐ°Ð½Ð¸Ñĩ": 2474,
      "ĠÑĥÐºÑĢÐ°": 2475,
      "ĠÐºÐ¾ÑĤÐ¾ÑĢÐ¾Ð¼": 2476,
      "ĠÐ¿ÑĢÑıÐ¼": 2477,
      "ĠÐ¸Ð³ÑĢÑĭ": 2478,
      "ĠÐ¾Ð´Ð½Ð¾Ð¹": 2479,
      "ÐµÐ±ÑİÑĤ": 2480,
      "Ġ1990": 2481,
      "ĠÐ¡Ð¾": 2482,
      "Ð¸ÐºÐ¾": 2483,
      "ĠÐºÐ¾ÑĢÐ°Ð±": 2484,
      "ĠÐ²Ð¾Ð¿ÑĢÐ¾Ñģ": 2485,
      "Ð°ÑĨÐ¸Ð¾Ð½": 2486,
      "ĠISBN": 2487,
      "ĠÐ¾Ð±ÐµÑģÐ¿": 2488,
      "ĠÐ¿ÑĢÐ¸Ð¼ÐµÐ½": 2489,
      "Ð¸ÑīÐµ": 2490,
      "ĠÐķÐ²ÑĢÐ¾Ð¿Ñĭ": 2491,
      "ÐµÐ½ÑĤÑĭ": 2492,
      "ĠÐ¿Ñģ": 2493,
      "ĠÐ·Ð°ÐºÐ»ÑİÑĩ": 2494,
      "ÑĩÐ¸Ðº": 2495,
      "ĠÐĲÑĦ": 2496,
      "ĠÐ½Ð°ÑģÑĤÐ¾ÑıÑī": 2497,
      "ĠÑĢÐ°ÑģÐ¿ÑĢÐ¾ÑģÑĤÑĢÐ°Ð½": 2498,
      "ĠÑĥÐ·": 2499,
      "ĠÐ½Ð¾Ð¼": 2500,
      "Ð¸ÑĢÐ¾Ð²Ð°Ð½Ð¸Ñı": 2501,
      "ĠÐ¼Ð°Ð³": 2502,
      "Ð¿Ð¾": 2503,
      "Ð¸Ð¾": 2504,
      "Ġ2020": 2505,
      "Ð°Ð½ÑģÐºÐ¸Ð¹": 2506,
      "Ð³Ð°ÑĢ": 2507,
      "ĠÐ´Ð²Ð¾ÑĢ": 2508,
      "ÑĢÐµÐ¶Ð´": 2509,
      "ĠÐĹÐ°": 2510,
      "ĠÑģÐ¾Ð±Ð¾Ð¹": 2511,
      "Ð°ÑģÑĤÑĭ": 2512,
      "28": 2513,
      "ĠÑģÐµÐ»ÑĮÑģÐ¾Ð²ÐµÑĤ": 2514,
      "ĠÐ¾Ð±ÑĢÐ°Ð·Ð¾Ð¼": 2515,
      "ĠÐĺÑģÐ¿": 2516,
      "ÑĢÐ°Ðº": 2517,
      "ĠÐ¡Ð°Ð½ÐºÑĤ": 2518,
      "ÑĢÐ°Ñĩ": 2519,
      "ĠÐŁÐ°Ð²": 2520,
      "Ġ1941": 2521,
      "ĠÐ²Ð»Ð°Ð´": 2522,
      "ÑģÐ¼": 2523,
      "Ð²Ð¾Ð»Ñİ": 2524,
      "ÑĢÑİ": 2525,
      "Ð¾ÑĢÐµÐ²": 2526,
      "Ð°Ð½ÑģÐºÐ¾Ð³Ð¾": 2527,
      "ĠÑģÑĨÐµÐ½": 2528,
      "Ð¾Ð¶Ð¸Ð²": 2529,
      "Ð½Ð¸Ð¸": 2530,
      "ĠÑĨÐµÑĢÐºÐ²Ð¸": 2531,
      "26": 2532,
      "ap": 2533,
      "Ð»Ð°Ð¼": 2534,
      "ÑıÐ¼Ð¸": 2535,
      "ĠÑĢÐµÐ³Ð¸Ð¾Ð½": 2536,
      "ĠÐĿÐ°ÑĨÐ¸Ð¾Ð½Ð°Ð»ÑĮ": 2537,
      "ĠÐ¢Ð¾Ð¼": 2538,
      "ÐŀÑģ": 2539,
      "78": 2540,
      "ĠÐ·Ð°Ð²Ð¾Ð´": 2541,
      "est": 2542,
      "ĠÐ¿ÑĢÐ¸Ð½Ð¸Ð¼": 2543,
      "ĠÐ·Ð°Ð¿Ð¸Ñģ": 2544,
      "ÑĢÐ°Ð´Ñĭ": 2545,
      "ÐµÑĢÐ°ÑĤÐ¾ÑĢ": 2546,
      "ĠÑĤÐµÐ¼Ð¿ÐµÑĢÐ°": 2547,
      "Ð»ÐµÐ½Ð¸Ð¸": 2548,
      "ĠÐ½Ð°ÑĩÐ°Ð»Ð°": 2549,
      "ĠÑģÐµÐ²ÐµÑĢÐ¾": 2550,
      "ĠÑģÐ¼ÐµÑĢÑĤÐ¸": 2551,
      "ĠÐ²ÑĭÐ·": 2552,
      "ay": 2553,
      "ĠÑĢÐ°Ð±": 2554,
      "ĠÐ»ÐµÐ³": 2555,
      "ĠÐ°Ðº": 2556,
      "ĠÐºÑĢÐ°Ñģ": 2557,
      "Ð°ÐµÐ²": 2558,
      "ĠÐ¾Ð±Ð»Ð°ÑģÑĤÑĮ": 2559,
      "ĠÐ·Ð°ÑıÐ²": 2560,
      "ĠÐ´ÑĢÐµÐ²": 2561,
      "Ġ1999": 2562,
      "ĠÐ´ÐµÐ²": 2563,
      "ÐµÐ¾ÑĢ": 2564,
      "Ð¸ÑĢÐµ": 2565,
      "ÐĴÑĭÐ¿ÑĥÑģÐº": 2566,
      "ĠÐºÑĢÐ¸ÑĤ": 2567,
      "Ð¼Ð¼": 2568,
      "ĠÐ¶Ð¸Ð·Ð½": 2569,
      "ĠÐ½ÐµÐ¹": 2570,
      "Ð¸ÑĩÐµÑģÐºÐ¸Ð¼": 2571,
      "Ð¸Ð»Ð»Ð¸": 2572,
      "ĠÐ¾ÑĤÐ´ÐµÐ»ÑĮ": 2573,
      "ÐµÐºÑĤÐ¸Ð²": 2574,
      "ÐĲÑĢ": 2575,
      "ĠÑģÑĤÑĢÐ°Ð½Ñĭ": 2576,
      "Ð¡Ð¿": 2577,
      "ÑĥÐ±Ð»Ð¸Ðº": 2578,
      "ĠÐ¼Ð¸Ð½Ð¸ÑģÑĤ": 2579,
      "ĠÐĴÐµÑĢÑħÐ¾Ð²": 2580,
      "ĠÐ¦ÐµÐ½ÑĤ": 2581,
      "27": 2582,
      "Ġ[": 2583,
      "ĠÐŁÐ°ÑĢ": 2584,
      "ĠÑİÐ³Ð¾": 2585,
      "ÐµÐ½Ð½": 2586,
      "ĠÐ¼Ð°Ð»": 2587,
      "Ð³Ð»Ð°Ð²": 2588,
      "ĠÐ¿Ð°ÑĢÑĤÐ¸Ð¸": 2589,
      "ce": 2590,
      "ÑĢÐ¸Ð½": 2591,
      "ĠÐ¾Ð´Ð½Ð¸Ð¼": 2592,
      "Ð¸Ð¼Ð¾": 2593,
      "ÑĮÑıÐ½": 2594,
      "Ð¾ÑĢÐ¸Ð¸": 2595,
      "ÑĦÐ¸ÑĨ": 2596,
      "40": 2597,
      "Ð¶Ð½Ð¾Ð¹": 2598,
      "ĠÐ³Ðµ": 2599,
      "ĠÐºÐ½ÑıÐ·": 2600,
      "Ð¸Ð»Ð¸Ñı": 2601,
      "ĠÑĩÐµÐ³Ð¾": 2602,
      "ĠÐ¿ÑĢÐ¸Ð·Ð½": 2603,
      "ĠÑģÑĤÐ°Ð»Ð¸": 2604,
      "ĠÐ»Ð¸ÑĪÑĮ": 2605,
      "ÑĥÐ´Ð°": 2606,
      "und": 2607,
      "ĠÐ¿ÐµÑĢÐ²Ð¾Ð¹": 2608,
      "ĠÐ¡Ð¾ÑİÐ·Ð°": 2609,
      "ÐµÑĢÐ½Ð¾": 2610,
      "Ð¿Ð»": 2611,
      "ĠÐ·Ð°Ñħ": 2612,
      "ÑĢÐ°Ð³": 2613,
      "ĠÐ¾ÑĢÐ³Ð°Ð½Ð¸Ð·": 2614,
      "ĠÐķÐ³Ð¾": 2615,
      "ub": 2616,
      "Ð´ÐµÐ½Ð°": 2617,
      "ĠÐ¾ÑĩÐµÐ½ÑĮ": 2618,
      "ÐĲÐ½": 2619,
      "ÑĢÐ¸Ñģ": 2620,
      "Ð¾Ñĥ": 2621,
      "ĠÐ½Ð¾Ñģ": 2622,
      "ĠÑĥÑģÐ»Ð¾Ð²": 2623,
      "Ð¾Ð²Ð¾": 2624,
      "Ð°ÑĤÐ¾Ð¼": 2625,
      "ĠÐ¿ÑĢÐ¾ÑħÐ¾Ð´": 2626,
      "ĠÐ½ÐµÑģ": 2627,
      "ĠÐ±ÑĢÐ¾Ð½": 2628,
      "ĠÐ¢Ð°ÐºÐ¶Ðµ": 2629,
      "ÐĵÐµÐ¾Ð³ÑĢÐ°ÑĦÐ¸Ñı": 2630,
      "ÑģÐ¾Ð½Ð°": 2631,
      "ĠÐĳÐ¾ÑĢ": 2632,
      "ĠÐ°Ð¿": 2633,
      "ĠÐ¿ÑĢÐµÐ´ÑģÐµÐ´": 2634,
      "ÑĪÐ¸ÑĢ": 2635,
      "ĠÐ¾Ð±ÑĢÐ°Ð·Ð¾Ð²Ð°Ð½Ð¸Ñı": 2636,
      "ĠÐĴÐ¾Ð»": 2637,
      "Ġv": 2638,
      "ĠÐ°Ð³": 2639,
      "ĠÐ¡Ð²ÑıÑĤ": 2640,
      "ĠÐ¾Ð±ÑĬÐµÐ´Ð¸Ð½": 2641,
      "Ð°Ð»Ð»": 2642,
      "Ð°ÐºÑģÐ¸Ð¼": 2643,
      "ĠÐºÐ¾Ð½ÑĤÑĢ": 2644,
      "ĠÐ¾ÑĢÐ´ÐµÐ½": 2645,
      "ĠÐ¸Ð½ÑĦÐ¾ÑĢÐ¼Ð°": 2646,
      "ĠÐ²Ð¾Ðº": 2647,
      "ĠÑĥÑĩÑĳ": 2648,
      "ÑĥÐ¶Ð´": 2649,
      "ÑĳÐ½Ð½ÑĭÐ¹": 2650,
      "ĠÑģÑĤÐ°ÑĤÑĮ": 2651,
      "ÑĮÐ¸": 2652,
      "ĠÐºÑĥÐ»ÑĮÑĤÑĥÑĢÑĭ": 2653,
      "ĠÐºÐ¾Ð¼Ð°Ð½Ð´Ñĭ": 2654,
      "ĠÑĤÑĢÑĳÑħ": 2655,
      "ÑĢÐµÐ·": 2656,
      "ĠÐ¼ÑĥÐ·Ñĭ": 2657,
      "ĠÐ¿ÑĢÐ°ÐºÑĤ": 2658,
      "ÑıÐ±ÑĢÐµ": 2659,
      "ÐµÐ¶Ð´ÑĥÐ½Ð°ÑĢÐ¾Ð´": 2660,
      "29": 2661,
      "Â²": 2662,
      "ĠÐ¡Ðº": 2663,
      "Ð½ÐµÑĪ": 2664,
      "Ð¸Ð±Ð¾Ð»ÐµÐµ": 2665,
      "Ð»Ð°Ð³Ð¾Ð´": 2666,
      "Ð¾Ð»Ð¾Ð³Ð¸Ñı": 2667,
      "ĠÑģÐ¸Ð»ÑĮ": 2668,
      "ĠÐºÐ¾Ð¼Ð¼Ñĥ": 2669,
      "190": 2670,
      "ĠÐĵÐ¾ÑģÑĥÐ´Ð°ÑĢÑģÑĤÐ²ÐµÐ½": 2671,
      "ÑģÑĤÐ²Ñĥ": 2672,
      "ĠÑģÐºÐ¾ÑĢ": 2673,
      "ĠÑĢÐ°Ð²": 2674,
      "ĠÐºÐ¾Ð½Ðº": 2675,
      "ĠÐ¿ÑĢÐ¸Ñħ": 2676,
      "ÑĥÐ¼Ð°": 2677,
      "Ð¸ÑģÑĤÐ¾Ð²": 2678,
      "ĠÐ³Ð¾Ð²Ð¾ÑĢ": 2679,
      "ĠÐ²Ð¾ÑĪ": 2680,
      "ÐĴÑĭÐ¿ÑĥÑģÐºÐ½Ð¸ÐºÐ¸": 2681,
      "ÑĤÐ¾Ð¼": 2682,
      "ÐµÑĢÑĤÐ°": 2683,
      "ĠÐ¢ÑĥÑĢ": 2684,
      "ĠÐ´Ð°Ð»ÑĮ": 2685,
      "ĠÑĤÑĭÑģÑıÑĩ": 2686,
      "Ġ(,": 2687,
      "ĠÐľÐ°Ð»": 2688,
      "Ð´Ñĭ": 2689,
      "ĠÐĴÐ°Ð»": 2690,
      "align": 2691,
      "ĠÐºÐ¾Ð»Ð¸ÑĩÐµÑģÑĤÐ²Ð¾": 2692,
      "Ð¸ÐºÐ»": 2693,
      "ĠÐ¿ÑĢÐ¸Ð±": 2694,
      "ÐŁÐµÑĤÐµÑĢÐ±ÑĥÑĢÐ³": 2695,
      "Ð¾Ð±ÑĢÐ¸ÑĤ": 2696,
      "ÑĭÐ»": 2697,
      "ĠÐ¿ÑĢÐ¾Ð²Ð¸Ð½": 2698,
      "ĠÐ²ÑĭÐ¸Ð³": 2699,
      "th": 2700,
      "Ð°Ð»ÑĮÐ½Ð¾Ðµ": 2701,
      "ĠÐ±Ð°Ð»": 2702,
      "ĠÐ¾ÑĤÑģ": 2703,
      "ĠÐºÐ°ÑĢ": 2704,
      "ĠÑĨÐµÐ½ÑĤÑĢ": 2705,
      "ÐµÐ»Ðµ": 2706,
      "ĠÑħÐ¾ÑĢ": 2707,
      "Ð¶Ð¸": 2708,
      "ĠÐ¼Ð°ÑģÑĤ": 2709,
      "Ð¾Ð´Ñĭ": 2710,
      "ÑģÑĤÑĢÐ¾": 2711,
      "ÐµÑħÐ°Ð½": 2712,
      "ĠÐ¼Ð¾Ð³ÑĥÑĤ": 2713,
      "Ð¿Ð¾Ð´Ð°Ð²": 2714,
      "ĠÐĺÐ³": 2715,
      "ĠÐ¸Ð·Ð¾Ð±ÑĢÐ°Ð¶": 2716,
      "Ð°ÑģÐº": 2717,
      "ÑĢÐ¸Ðº": 2718,
      "Ð¸ÑĤÐµÑĤ": 2719,
      "ĠÐļÐ°Ð»": 2720,
      "ÑģÐ¿Ð¾ÑĢÑĤ": 2721,
      "ĠÐ¿Ð°ÑĢÐ°": 2722,
      "ĠÑĤÑĥÑĢÐ½Ð¸": 2723,
      "ĠÐ½Ð°Ð·Ð½Ð°ÑĩÐµÐ½": 2724,
      "ĠÐ·Ð°Ð²ÐµÑĢÑĪ": 2725,
      "Ġ)": 2726,
      "ĠÐ²Ð¾ÑģÐ¿": 2727,
      "ess": 2728,
      "ÑĥÐ»Ð¸": 2729,
      "ÑĩÐ¸ÑĤ": 2730,
      "ĠÐĴÐ»Ð°Ð´Ð¸Ð¼Ð¸ÑĢ": 2731,
      "ĠÑĢÐ°ÑģÑģÐºÐ°Ð·": 2732,
      "ĠÐŀÑĦÐ¸ÑĨÐ¸Ð°Ð»ÑĮ": 2733,
      "Ġ50": 2734,
      "ĠÐļÐ°Ð¼": 2735,
      "ĠÑĩÐµÐ¼Ð¿Ð¸Ð¾Ð½Ð°ÑĤÐ°": 2736,
      "Ð¾Ð·Ð°": 2737,
      "Ð¸ÑģÐ»ÐµÐ½": 2738,
      "ÐµÐ½Ð½Ð¾Ðµ": 2739,
      "Ð°ÑĤÐµÐ»ÐµÐ¼": 2740,
      "ĠÑģÑĤÑĢÐµÐ»": 2741,
      "ru": 2742,
      "ae": 2743,
      "ĠÐĳÐ°ÑĢ": 2744,
      "ÑĢÐ°Ð¹": 2745,
      "ĠÐ±ÑĥÐ´ÐµÑĤ": 2746,
      "ĠÐĲÑĢÐ¼": 2747,
      "ĠÐľÐ¸ÑħÐ°": 2748,
      "Ð½Ð¾Ð²Ð°Ð½Ð¸Ñı": 2749,
      "ĠÑĩÐµÑĤ": 2750,
      "Ð¾ÑģÐ¾ÑĦ": 2751,
      "ab": 2752,
      "Ð±Ð¾Ð»ÑĮ": 2753,
      "ĠÑģÑĤÑĢÑĥÐºÑĤ": 2754,
      "Ð¸Ð¼Ð°": 2755,
      "ĠÐ¾Ð±ÑĭÑĩ": 2756,
      "ĠÐ½ÐµÐ¾Ð±": 2757,
      "ĠÐ¿ÑĢÐ¾Ð±Ð»ÐµÐ¼": 2758,
      "ĠÐºÐ»Ð°Ð´": 2759,
      "ĠÐ²ÐµÑģ": 2760,
      "ĠÐĽÐµ": 2761,
      "Ð¾Ð²ÑĭÐ¹": 2762,
      "ĠÑĦÑĥÐ½Ðº": 2763,
      "Ð¸Ð±Ð¸ÑĢ": 2764,
      "Ð¾Ð²ÐµÐ´": 2765,
      "ĠÑĢÐµÐº": 2766,
      "ĠÑģÑĤÐ¾ÑĢÐ¾Ð½Ñĭ": 2767,
      "ĠÑģÑĭÐ³": 2768,
      "Ð¸Ð·Ð°ÑĨÐ¸Ñı": 2769,
      "ĠÐ¿ÐµÑĢÐµÑĪ": 2770,
      "ĠÐ±ÑĢÐ°ÑĤ": 2771,
      "ÑĢÐ¸Ð¹": 2772,
      "ĠÐ´ÐµÑģÑı": 2773,
      "ĠÐ´Ð°Ð¶Ðµ": 2774,
      "ĠÐºÐ°Ð¿Ð¸ÑĤ": 2775,
      "):": 2776,
      "Ð²ÐµÐ¹": 2777,
      "ĠÐ°Ð½ÑĤ": 2778,
      "ÑİÐ¶": 2779,
      "ÑĪÐµÐµ": 2780,
      "ĠÑģÑĤÐ¾ÑĢÐ¾Ð½": 2781,
      "ĠÐ»Ð¸ÑĨ": 2782,
      "Ð¼Ð¿": 2783,
      "Ð¸Ð½Ð³ÑĢÐ°Ð´": 2784,
      "ĠÐ´Ð»Ð¸Ð½": 2785,
      "ÐµÑĩÐ°ÑĤ": 2786,
      "ĠÑģÐµÐ·Ð¾Ð½Ð°": 2787,
      "ĠÑĪÐºÐ¾Ð»Ñĭ": 2788,
      "Ð¸ÑĩÐµÑģÐºÐ¾Ð¼": 2789,
      "ÐĴÐ¾": 2790,
      "ÐºÐ¸Ðµ": 2791,
      "ĠÐ¸Ñģ": 2792,
      "ÑĩÐ¸Ð²": 2793,
      "ĠÐ¾ÑĨÐµÐ½": 2794,
      "ĠÐ¿ÑĢÐ¾ÑĨÐµÑģÑģ": 2795,
      "ĠÐ¼Ð°ÑĪ": 2796,
      "Ð°Ð½Ðº": 2797,
      "ÑģÐ¾Ð»": 2798,
      "ÐĿÐ°Ð³": 2799,
      "ĠÑĥÑĤÐ²ÐµÑĢÐ¶Ð´": 2800,
      "ud": 2801,
      "Ð°Ð´Ð»ÐµÐ¶": 2802,
      "ĠÐ¸Ð³ÑĢÐ°Ñħ": 2803,
      "ÑİÐ·": 2804,
      "Ġn": 2805,
      "ĠÑģÐ°Ð¼Ð¾Ð»": 2806,
      "Ð¸Ð¼ÐµÐ½": 2807,
      "ĠÑĤÐ¾ÑĤ": 2808,
      "ĠÐĴÐµÐ»Ð¸ÐºÐ¾Ð±ÑĢÐ¸ÑĤ": 2809,
      "ÑĳÐ´": 2810,
      "Ð°ÑİÑīÐ¸Ñħ": 2811,
      "Ð»ÐµÐ½Ð¸ÐµÐ¼": 2812,
      "ĠÑĤÑĢÐµÐ±": 2813,
      "Ð½Ð°ÑĢÑĥÐ¶": 2814,
      "ĠÐ¾Ð±ÐµÑģÐ¿ÐµÑĩ": 2815,
      "ÑģÑĮ": 2816,
      "ĠÐĺÑĢ": 2817,
      "ĠIII": 2818,
      "ĠÐ¸Ð³ÑĢ": 2819,
      "ĠÐ¸Ð·ÑĥÑĩ": 2820,
      "ĠÐ´Ð²Ðµ": 2821,
      "ÐºÐ°Ñı": 2822,
      "Ð°Ð²Ð¸ÑģÐ¸Ð¼": 2823,
      "ĠÐ¾Ñħ": 2824,
      "Ð¸ÑĤÐ°Ð¹": 2825,
      "ĠÐ¸Ð³ÑĢÐ°": 2826,
      "ĠÐºÐ¾Ð¼Ð¿Ð°Ð½Ð¸Ð¸": 2827,
      "ĠÑģÐ²Ð¾Ð¸": 2828,
      "ĠÐ´ÐµÐ¼": 2829,
      "ÑĢÐ°Ð²Ð½": 2830,
      "ĠÐ²ÑĭÐ¿Ð¾Ð»Ð½": 2831,
      "ĠÐ°ÐºÐ°Ð´ÐµÐ¼Ð¸Ð¸": 2832,
      "ĠÐ¸ÑĤÐ¾Ð³": 2833,
      "Ġ||": 2834,
      "ÑĮÐµÑĢ": 2835,
      "Ġ1944": 2836,
      "ĠÐ¼Ð¾Ð½Ð°ÑģÑĤÑĭ": 2837,
      "ÐµÐ½Ð½ÑĭÐ¼": 2838,
      "ĠÐºÐ¸Ð»": 2839,
      "ĠÐ²Ð¿ÐµÑĢÐ²ÑĭÐµ": 2840,
      "ĠÑĦÐ°ÐºÑĥÐ»ÑĮÑĤ": 2841,
      "Ġ2021": 2842,
      "ĠÐ¸Ð¼Ð¿ÐµÑĢÐ¸Ð¸": 2843,
      "ÐµÑĢÐº": 2844,
      "ĠAn": 2845,
      "ĠÐ¿ÑĢÐµÐ´Ð»Ð¾Ð¶": 2846,
      "Ð¾Ð½Ð¸Ð¸": 2847,
      "Ġ185": 2848,
      "ĠÐ¼ÐµÑĤÑĢÐ¾Ð²": 2849,
      "ĠÐľÐµÐ´": 2850,
      "ĠÐ¿Ð¾ÑģÑĤÑĥÐ¿": 2851,
      "ĠÐ´Ð½ÐµÐ¹": 2852,
      "Ð¼ÐµÑĩ": 2853,
      "ĠÑĢÐ¾ÑģÑģÐ¸Ð¹ÑģÐºÐ¸Ð¹": 2854,
      "Ð¶Ð°": 2855,
      "ÐºÐ°ÑĤ": 2856,
      "ĠÐ¾Ð´Ð½Ð¾": 2857,
      "ĠĠĠĠĠĠĠĠ": 2858,
      "ĠÑĥÐ»": 2859,
      "ĠÑģÐ¸ÑģÑĤÐµÐ¼Ñĭ": 2860,
      "Ð¾Ð³ÑĢÐ°ÑĦÐ¸Ð¸": 2861,
      "ĠÐ¿Ð¾Ñħ": 2862,
      "Ġ1998": 2863,
      "ĠÐ±ÑĢÐ¸Ð³": 2864,
      "Ġ1992": 2865,
      "ÑĪÐµÐ¼": 2866,
      "Ð°ÑĢÑĭ": 2867,
      "Ð»ÑİÐ´": 2868,
      "ĠÐ±Ð¾ÑĢÑĮ": 2869,
      "ĠÑĩÐ°Ñģ": 2870,
      "ĠÐ¼Ð¸ÑĢÐ¾Ð²Ð¾Ð¹": 2871,
      "ĠÐ½ÐµÐ±Ð¾Ð»ÑĮÑĪ": 2872,
      "ĠÐ¾ÑĤÐºÐ°Ð·": 2873,
      "ĠÑĪÐ¸ÑĢÐ¾Ðº": 2874,
      "ĠÐ´ÐµÐ±ÑİÑĤ": 2875,
      "Ð²ÑıÑī": 2876,
      "Ð»ÐµÐ³": 2877,
      "Ð¾ÑĢÐ²": 2878,
      "ĠÑģÐµÐ¼ÐµÐ¹": 2879,
      "ÑĢÐ¸Ñħ": 2880,
      "ĠÐ¿ÑĢÐ¾Ð¸Ð·Ð²ÐµÐ´": 2881,
      "ĠÑĨÐµÐ»": 2882,
      "ĠÑĩÐµÐ¼Ð¿Ð¸Ð¾Ð½Ð°ÑĤÐµ": 2883,
      "ĠÐ¿ÑĢÐµÐ¼Ð¸Ð¸": 2884,
      "ĠÑĢÐ°Ð±Ð¾Ñĩ": 2885,
      "ÐŀÑĤ": 2886,
      "ĠÐĴÐ¸Ðº": 2887,
      "ĠÑĩÐµÑģÑĤÑĮ": 2888,
      "ĠÑģÑĭÐ½": 2889,
      "ĠÑįÑĤÐ¸Ñħ": 2890,
      "ÑıÑĩ": 2891,
      "ĠÐ·Ð½Ð°Ðº": 2892,
      "ĠÐ·Ð°Ð»": 2893,
      "ÐµÑģÑĤÐ¸Ð²": 2894,
      "ĠÑģÑĬ": 2895,
      "ĠÐ¿ÑĢÐ¾Ð¿": 2896,
      "ĠÐ¼Ð°ÑģÑģ": 2897,
      "ĠÐ¼ÐµÐ½ÐµÐµ": 2898,
      "ĠÐ¾Ð±ÑĬÑıÐ²": 2899,
      "Ð¤Ð¸Ð»ÑĮÐ¼Ñĭ": 2900,
      "ĠÐ±ÑĢÐ¸ÑĤ": 2901,
      "ĠÐ¾ÑĢÐ³Ð°Ð½Ð¸Ð·Ð°ÑĨÐ¸Ð¸": 2902,
      "ĠÐ½ÐµÑģÐºÐ¾Ð»ÑĮ": 2903,
      "ĠÐ¾Ð±ÑīÐµÑģÑĤÐ²ÐµÐ½": 2904,
      "ill": 2905,
      "ph": 2906,
      "Ð°Ð½Ð´Ð¸Ð´": 2907,
      "ÐĻ": 2908,
      "Ð³Ð³": 2909,
      "ĠÐĳÐ¾Ð³": 2910,
      "Ð¸Ð»Ñı": 2911,
      "all": 2912,
      "ĠÐ¼Ð¾Ð¼ÐµÐ½ÑĤ": 2913,
      "Ð°Ð´ÑĨ": 2914,
      "|-": 2915,
      "ĠÐĶÐ¶Ð¾Ð½": 2916,
      "ĠÐ½Ð°ÑĩÐ¸Ð½": 2917,
      "ĠÐ¼Ð¾ÑĢÑı": 2918,
      "ĠÐ¿ÑĢÐ¾Ð¼ÑĭÑĪÐ»ÐµÐ½": 2919,
      "ĠÐ¿ÑĢÐ¸Ð½Ð°Ð´Ð»ÐµÐ¶": 2920,
      "ĠÑģÑĤÐ°Ð½Ð¾Ð²": 2921,
      "ĠÐ½Ð¸Ðº": 2922,
      "ĠÐĻ": 2923,
      "ÑĨÐ¾Ð³": 2924,
      "Ð¸Ð·Ð¼Ð°": 2925,
      "ĠÐ¶ÐµÐ½ÑīÐ¸Ð½": 2926,
      "ĠÐľÐ°Ð¹": 2927,
      "ĠÐ¿Ð¾Ð´Ð¿Ð¸Ñģ": 2928,
      "ĠÐºÐ¾Ð½Ñģ": 2929,
      "ĠÐ¿ÑĢÐ¾Ð¶Ð¸Ð²": 2930,
      "ord": 2931,
      "ĠÐ±Ð¸": 2932,
      "enter": 2933,
      "Ð¾ÑģÐ¼": 2934,
      "ĠÐ´Ð¾ÐºÑĥÐ¼": 2935,
      "ĠÑĤÑĢÐ°Ð´": 2936,
      "ĠÐ¿Ð¾Ð´Ð³Ð¾ÑĤÐ¾Ð²": 2937,
      "60": 2938,
      "Ð´Ñĥ": 2939,
      "ĠÐ´ÑĥÑħ": 2940,
      "ÐµÐºÑĤÐ¾ÑĢ": 2941,
      "ĠÐ±ÐµÑĢÐµÐ³Ñĥ": 2942,
      "ĠÐ¶Ð¸ÑĤÐµÐ»ÐµÐ¹": 2943,
      "ÐĺÐ½": 2944,
      "Ġ1996": 2945,
      "Ð°ÑİÑīÐ¸Ð¹": 2946,
      "art": 2947,
      "Ġ1991": 2948,
      "Ð°ÑħÑģÑĤ": 2949,
      "ĠÐ»ÐµÐ²": 2950,
      "ĠÐĴÑĭ": 2951,
      "ant": 2952,
      "80": 2953,
      "ĠÐ´ÐµÐ¿ÑĥÑĤ": 2954,
      "Ð»Ð°ÑĤ": 2955,
      "Ð°Ð²ÑĪÐ¸Ð¹": 2956,
      "ĠÐ¸ÑģÑĤÐ¾Ñĩ": 2957,
      "Ð½ÐµÑģ": 2958,
      "Ð°ÑĤÐ°Ð»ÑĮ": 2959,
      "Ð±Ð¾": 2960,
      "ĠÑĢÐµÐ»": 2961,
      "ĠÑıÐ²Ð»ÑıÑİÑĤÑģÑı": 2962,
      "ĠÑĨÐ²ÐµÑĤ": 2963,
      "ÐµÐ±ÑĢÑı": 2964,
      "Ġ%": 2965,
      "ĠÐľÐ¾ÑģÐºÐ²Ðµ": 2966,
      "ĠÐ·Ð¾Ð»Ð¾ÑĤ": 2967,
      "ĠÑĦÐ¸Ð»ÑĮ": 2968,
      "ĠÐ¸Ð¼Ñı": 2969,
      "ĠÐ§ÐµÑĢ": 2970,
      "Ġ1997": 2971,
      "Ð¿Ð¾Ð»Ð¾Ð¶": 2972,
      "ĠÐĶÐ¼Ð¸ÑĤ": 2973,
      "Ð¸ÐºÐ°ÑĨÐ¸Ð¸": 2974,
      "ĠÐ´ÐµÑĤÐµÐ¹": 2975,
      "Ġ1980": 2976,
      "Ð»Ð¸Ð½Ð°": 2977,
      "ĠÐļÐŁ": 2978,
      "ÐµÑħÐ½": 2979,
      "ew": 2980,
      "ÑĢÐ°ÑĨÐ¸Ð¸": 2981,
      "Ð¼ÑĥÐ½": 2982,
      "ÑĪÐ¸ÐµÑģÑı": 2983,
      "Ð»Ð¾Ðº": 2984,
      "ĠÑģÐµÐ»Ð°": 2985,
      "ĠÐ°Ð´": 2986,
      "ĠÐ¼Ð¸ÑĢ": 2987,
      "ĠÐ¿Ð¾ÑĢÑĤ": 2988,
      "ÑģÐºÐµ": 2989,
      "ĠÐŃÐ½": 2990,
      "ĠÐµÑģÐ»Ð¸": 2991,
      "ÑĪÑĤ": 2992,
      "ĠÑĤÐ¸ÑĤ": 2993,
      "Ð¾ÐµÐ´Ð¸Ð½": 2994,
      "ĠÐ³ÑĢÑĥÐ¿Ð¿Ð°": 2995,
      "ĠÑģÐ¾Ñģ": 2996,
      "Ð¾Ð²Ð°Ð½Ð¸ÐµÐ¼": 2997,
      "Ð°ÑĢÐ¸Ð¸": 2998,
      "ĠÐľÐ¾Ð½": 2999,
      "ĠÐļÑĥÑĢ": 3000,
      "ĠÐ´Ð¾ÑģÑĤÐ¸Ð³": 3001,
      "ĠÐ¿ÑĢÐ¾Ñģ": 3002,
      "ĠÑģÐ¾ÑĨÐ¸Ð°Ð»ÑĮ": 3003,
      "Ġa": 3004,
      "ĠÐĴÑĤÐ¾ÑĢ": 3005,
      "ĠÐ½ÐµÐ¾Ð±ÑħÐ¾Ð´": 3006,
      "ĠÐ²ÑĭÑģÑĤÐ°Ð²": 3007,
      "Ð¸ÑĢÐ¾Ð²Ð°ÑĤÑĮ": 3008,
      "=\"": 3009,
      "ĠÐ¯Ð¿Ð¾Ð½": 3010,
      "ĠÑģÐ²Ð¾Ð±Ð¾Ð´": 3011,
      "ĠÐľÐ¸Ð½": 3012,
      "ĠÐĲÐ»ÑĮ": 3013,
      "ĠÐ¶Ð¸Ð·Ð½ÑĮ": 3014,
      "Ð»Ð¸Ðº": 3015,
      "ĠÐ¾Ð±ÑĢÐ°Ð·Ð¾Ð²Ð°Ð½": 3016,
      "ĠÐ°Ð²ÑĤÐ¾Ð¼Ð¾Ð±": 3017,
      "ĠXIX": 3018,
      "Ð¾ÑĢÑĭ": 3019,
      "ĠÐ¾Ð´Ð½Ð¾Ð³Ð¾": 3020,
      "ĠÑĢÐµÐ´Ð°Ðº": 3021,
      "ĠÑĤÐ°Ð¼": 3022,
      "ĠÐ¿Ð¾Ð»ÑĮÐ·": 3023,
      "Ð°ÑģÑģÐ°": 3024,
      "ĠÑģÐ°Ð¼Ð¾Ð³Ð¾": 3025,
      "ÐµÐ½ÑĤÐ¾Ð¼": 3026,
      "Ġ40": 3027,
      "Ð¸ÑĤÐµÐ»ÑĮÐ½Ð¾Ð¹": 3028,
      "ĠÑĤÐ¾ÑĢÐ³Ð¾Ð²": 3029,
      "ĠÐ·Ð°Ð¼ÐµÑģÑĤ": 3030,
      "Ð¸ÑĨÐ¸Ð¾Ð½": 3031,
      "ĠÐĿÐ¾": 3032,
      "ÐŁÐµÑĢÐ²": 3033,
      "ĠÑıÐ·ÑĭÐºÐµ": 3034,
      "Ð¸ÑĤÐµÑĤÐ°": 3035,
      "ÑĢÐ¾Ð±": 3036,
      "ĠÐŁÑĢÐµÐ·Ð¸Ð´": 3037,
      "ĠÐºÐ°ÑĦ": 3038,
      "Ġ31": 3039,
      "ĠÐ¿Ð¾Ð»Ð¾Ð²": 3040,
      "ĠÐ¿ÑĢÐ¾ÑĦÐµÑģÑģÐ¾ÑĢ": 3041,
      "Ð¾Ð±ÐµÐ´": 3042,
      "ĠÐļÐ¸ÐµÐ²": 3043,
      "Ġ1995": 3044,
      "ĠÐ»ÑİÐ´ÐµÐ¹": 3045,
      "ĠÐ²ÑĭÐ¿ÑĥÑī": 3046,
      "ĠÐ²Ð°Ð¶": 3047,
      "ĠÐ¾Ð±Ð½Ð°ÑĢÑĥÐ¶": 3048,
      "Ð°Ð³Ð¾Ð³": 3049,
      "ĠÑĤÐ²Ð¾ÑĢ": 3050,
      "ĠÐľÐ¾ÑģÐºÐ²Ð°": 3051,
      "ĠÑĩÐµÐ»": 3052,
      "ou": 3053,
      "ĠÐºÐ»Ð°Ð´Ð±": 3054,
      "ĠÑĢÐ°Ð·Ð¼": 3055,
      "ÑĮÑİÑĤ": 3056,
      "ÐºÐ¾Ð²Ð°": 3057,
      "Ġ1943": 3058,
      "ĠÑĥÐ¿ÑĢÐ°Ð²Ð»ÐµÐ½Ð¸Ñı": 3059,
      "ĠÑģÐµÐ¼ÑĮÐµ": 3060,
      "ĠÐ¾ÑģÑĥÑīÐµÑģÑĤÐ²": 3061,
      "ĠÑģÐ¸Ð½": 3062,
      "ak": 3063,
      "ĠÐ³ÑĥÐ±ÐµÑĢÐ½Ð¸Ð¸": 3064,
      "Ġ1994": 3065,
      "Ð°Ð¹Ð´Ð¶": 3066,
      "Ð±Ð¸": 3067,
      "ĠÐºÐ¾": 3068,
      "ÐµÐ½Ð·": 3069,
      "Ð»Ð¸Ð¼Ð°ÑĤ": 3070,
      "ĠÐ¾ÑĤÐ²ÐµÑĤ": 3071,
      "ĠÐ±Ð¾Ð»": 3072,
      "ÐµÑĢÑģÐ¾Ð½": 3073,
      "ÐµÐ´Ð°Ð³Ð¾Ð³": 3074,
      "ÑģÐ¾Ð»ÑİÑĤ": 3075,
      "ÑıÐ²Ð»Ñı": 3076,
      "Ð¸Ð±Ð»Ð¸Ð¾ÑĤ": 3077,
      "ÑģÑĤÐ°Ð½ÑĤ": 3078,
      "Ġ1945": 3079,
      "Ð¸ÑĤÐµÐ»ÑĮÐ½ÑĭÐ¹": 3080,
      "Ð¾Ð²Ð°Ð»Ð°": 3081,
      "ĠÐŁÐ¾Ñĩ": 3082,
      "ĠÐ¡Ð¼": 3083,
      "ĠÐ·Ð¸Ð¼": 3084,
      "ĠÐ³ÑĢÐ°Ð¶Ð´Ð°Ð½": 3085,
      "ĠÐ²Ð»Ð¸Ñı": 3086,
      "Ð°Ð½Ð¸ÐµÐ¼": 3087,
      "Ð¼Ð¾ÑĤÑĢÑı": 3088,
      "ĠÑĤÑıÐ¶": 3089,
      "Ð½Ð¾ÑģÑĤÐµÐ¹": 3090,
      "ĠÐŁÐµÑĢ": 3091,
      "ÑİÑģ": 3092,
      "Ġl": 3093,
      "ĠÐ¾ÑĢÐ´ÐµÐ½Ð°": 3094,
      "ĠÑģÐ»Ð¾Ð¶": 3095,
      "ĠÑĢÑĭ": 3096,
      "Ð¾Ð½Ð°Ñĩ": 3097,
      "ĠÐĹÐ°Ð¿Ð°Ð´": 3098,
      "ĠÐ²ÑģÑĳ": 3099,
      "ĠÐ²Ð¾Ð·Ð³Ð»Ð°Ð²": 3100,
      "ĠÑģÐºÐ°Ð·": 3101,
      "ĠÐ§ÐµÐ¼Ð¿Ð¸Ð¾Ð½": 3102,
      "ĠÑģÐ¾ÑĢÐµÐ²": 3103,
      "ine": 3104,
      "ĠÑģÐµÑĢÐ¸Ð¸": 3105,
      "ÑģÐºÐ¾ÑĢÐµ": 3106,
      "ĠÐ¿ÐµÑĢÐµÑģ": 3107,
      "âĢľ": 3108,
      "ĠÐĶÐ¾Ð½": 3109,
      "ÑģÑĤÑĢÑĥÐº": 3110,
      "ĠÑģÑĤÑĢ": 3111,
      "ĠÐ²Ð½ÑĥÑĤÑĢÐµÐ½": 3112,
      "ĠÑĤÐ¸Ð¿Ð°": 3113,
      "ell": 3114,
      "ÐºÐ¾ÑĢ": 3115,
      "ÐłÐ°Ñģ": 3116,
      "Ð½Ð¾Ð´Ð¾ÑĢÐ¾Ð¶": 3117,
      "189": 3118,
      "Ð¸ÑĩÐµÑģÐºÑĥÑİ": 3119,
      "ĠÐºÑĥÑĢ": 3120,
      "ĠÐ³Ð²Ð°ÑĢ": 3121,
      "ĠÐµÐ¿Ð¸ÑģÐºÐ¾Ð¿": 3122,
      "ĠÑĤÐµÐºÑģÑĤ": 3123,
      "Ð¾Ð»ÐµÑĤ": 3124,
      "ÐºÐ¸Ð¼": 3125,
      "ĠÐºÐ»ÑĥÐ±Ð°": 3126,
      "ĠÐĲÐ´": 3127,
      "ÑĤÑĥÑĢÐµ": 3128,
      "Ð°Ð»ÑĮÑıÐ½": 3129,
      "ÐµÐ¼Ð°ÑĤ": 3130,
      "ĠÐľÐ°ÑĤ": 3131,
      "ĠÑĩÐ°ÑģÑĤÐ¾": 3132,
      "Ð½ÑĥÑĤ": 3133,
      "Ð²Ð¸Ð³": 3134,
      "ĠÑĢÐ°ÑģÑģÑĤÐ¾Ñı": 3135,
      "ĠÐ·Ð°ÐºÐ¾Ð½": 3136,
      "ik": 3137,
      "ĠÐ²Ð»Ð°ÑģÑĤÐ¸": 3138,
      "ĠÑĦÐ¾ÑĤ": 3139,
      "ÑĥÐºÐ¸": 3140,
      "ĠÐĺÐ½Ð´": 3141,
      "ĠÐºÐ¸Ð»Ð¾Ð¼ÐµÑĤ": 3142,
      "ĠÐ²ÑĭÐ´": 3143,
      "ĠÑĢÐ¾Ð´Ð¸Ð»ÑģÑı": 3144,
      "ĠÐºÑĢÑĭ": 3145,
      "ĠÐ¿Ð¾Ð¶": 3146,
      "ĠÐ¾Ð±ÑĥÑĩ": 3147,
      "ĠÐ¿ÑĢÐ¸ÑĪ": 3148,
      "ĠÐļÑĢÑĭ": 3149,
      "ob": 3150,
      "ĠÐ¿Ð°ÑĤ": 3151,
      "Ð¾Ð¿Ð¾Ð»": 3152,
      "ÑĥÐ»ÑģÑı": 3153,
      "ĠÑĢÐµÐ²Ð¾Ð»Ñİ": 3154,
      "ĠÑģÐµÐ»Ðµ": 3155,
      "ian": 3156,
      "ĠÐ½ÐµÐ¿": 3157,
      "Ð¾Ð»ÑĮÐºÑĥ": 3158,
      "ĠÐ¾ÑĤÐºÑĢÑĭ": 3159,
      "ĠÑĥÐ»Ð¸ÑĨÐ°": 3160,
      "ĠÑħÐ¾Ð´Ðµ": 3161,
      "ĠÐ°Ð»ÑĮ": 3162,
      "ĠÐłÐ¡": 3163,
      "ĠÐ³Ð¾ÑģÑĥÐ´Ð°ÑĢÑģÑĤÐ²ÐµÐ½Ð½Ð¾Ð³Ð¾": 3164,
      "Ð°Ð¹Ð»Ð¾Ð²": 3165,
      "ĠÐĵÐ»Ð°Ð²": 3166,
      "ĠÐºÐ¾ÑĤÐ¾ÑĢÐ¾Ðµ": 3167,
      "ĠÐ±Ð»Ð¸Ð·": 3168,
      "Ð½Ð°Ð·": 3169,
      "ĠÑģÐ¾Ñĩ": 3170,
      "center": 3171,
      "ĠÐ¸Ð´Ðµ": 3172,
      "ÐĲÐ²": 3173,
      "ÐµÑĢÐ±Ð°Ð¹Ð´Ð¶": 3174,
      "ĪĴ": 3175,
      "ĠÐ½ÐµÐ²": 3176,
      "ĠÑģÑĥÐ¼": 3177,
      "ÑĢÐ¾Ð·": 3178,
      "ĠÐ²ÑģÑĤÑĥÐ¿": 3179,
      "ĠÐĿÑĮÑİ": 3180,
      "ĠÐ³Ð¾Ð»Ð¾Ð²": 3181,
      "ĠÐ±Ð¾Ð³": 3182,
      "ÑĥÑħÐ°": 3183,
      "ĠÐ¿ÑĢÐ¾Ð¸Ð·": 3184,
      "ĠÐ¾ÑĤÐ¼ÐµÑĩ": 3185,
      "ev": 3186,
      "ĠÑģÑĤÐ°Ð½ÑĨÐ¸Ð¸": 3187,
      "ÑĳÑĤÐ°": 3188,
      "ĠÑĢÑĥÐ±": 3189,
      "Ġ1993": 3190,
      "Ð½Ð¾Ð²ÑĮ": 3191,
      "ĠÐ¿ÑĢÐ¸ÑħÐ¾Ð´": 3192,
      "ĠÐ¿Ð¾ÑģÑĤÐ°Ð²": 3193,
      "ĠÑģÐ²ÐµÑĤ": 3194,
      "ĠÑĥÑĩÐµÐ±": 3195,
      "ĠÑģÐ¾Ð±ÑĭÑĤ": 3196,
      "ÑĢÐµÐ³": 3197,
      "ÐµÑĢÐ¸Ñı": 3198,
      "ÑģÑĤÐ²ÐµÐ½Ð½Ð¾": 3199,
      "ĠÐ¿ÑĢÐµÐ´Ð¿ÑĢÐ¸ÑıÑĤ": 3200,
      "ĠÐŀÑĢÐ´ÐµÐ½": 3201,
      "ĠÐ¼ÐµÐ´Ð°Ð»ÑĮ": 3202,
      "Ð°ÑĢÐ¼": 3203,
      "Ġw": 3204,
      "ĠÑĢÐµÑģÐ¿": 3205,
      "ĠÐ¿Ð¾ÑģÑĤÐ¾ÑıÐ½": 3206,
      "Ð»Ð°Ð³Ð¾Ð´Ð°ÑĢÑı": 3207,
      "ÐµÐµÐ²": 3208,
      "ÑĳÑĢÐ°": 3209,
      "Ð¾ÑĢÐ¸": 3210,
      "ĠÑĦÐ¾Ð½": 3211,
      "Ġ1970": 3212,
      "Ð²Ð¸Ð¶": 3213,
      "ĠÐ±Ð¾Ð»ÑĮÑĪÐµ": 3214,
      "Ð¾Ð²Ð¾Ðµ": 3215,
      "Ð»Ð¸Ð¶": 3216,
      "ĠÑģÐµÐºÑĢÐµÑĤ": 3217,
      "Ð¸ÑĩÐ°": 3218,
      "ĠÐ¡ÐµÐ¼": 3219,
      "ÑįÐº": 3220,
      "ĠÑģÐµÐ·Ð¾Ð½Ðµ": 3221,
      "ĠÐ¡Ð¡Ðł": 3222,
      "ĠÐ²ÐµÑĢÑħ": 3223,
      "ÐµÑĢÑĮ": 3224,
      "ĠÐ²Ð¾Ð¾ÑĢÑĥÐ¶": 3225,
      "ĠÐºÐ¾Ð¼Ð¸ÑģÑģ": 3226,
      "av": 3227,
      "ĠÐ¿Ð»Ð°ÑĤ": 3228,
      "ĠÐ¿ÐµÑĢÐµÐ²Ð¾Ð´": 3229,
      "Ġ2022": 3230,
      "ĠÐłÐ¾Ð±": 3231,
      "ct": 3232,
      "ĠÐ¿ÑģÐ¸Ñħ": 3233,
      "ĠÑĪÑĤÐ°": 3234,
      "Ð½Ð¾Ð²Ð°": 3235,
      "ÑįÑĢ": 3236,
      "ĠÐłÐ¾Ð´": 3237,
      "Ð¿Ð¸ÑģÐ¾Ðº": 3238,
      "ĠÑĦÐ¸Ð»ÑĮÐ¼Ð°": 3239,
      "ĠÐºÐ¸Ð½Ð¾": 3240,
      "ĠÑĨÐµÐ½ÑĤÑĢÐ°Ð»ÑĮ": 3241,
      "Ð°ÑĪÐº": 3242,
      "ĠÑĢÐµÐ·ÑĥÐ»ÑĮÑĤÐ°ÑĤ": 3243,
      "ĠÐ¿ÑĢÐ¸ÑĢ": 3244,
      "if": 3245,
      "Ð¾Ð»Ð°": 3246,
      "Ð¸ÑĢÐ¾Ð²Ð°Ð½Ð¸Ðµ": 3247,
      "ĠÑģÐ¾ÐµÐ´Ð¸Ð½": 3248,
      "ĠÐ°ÑģÑģ": 3249,
      "Ð°Ð½Ð½ÑĭÐ¹": 3250,
      "Ð¾Ð¼Ð±": 3251,
      "ĠÐ¿Ð¾Ð¿ÑĥÐ»ÑıÑĢ": 3252,
      "ÑıÐµÑĤ": 3253,
      "ĠÑĥÐ¼": 3254,
      "Ð¾ÑģÐ»ÐµÐ´ÑģÑĤÐ²Ð¸Ð¸": 3255,
      "ĠÐ¡Ð°": 3256,
      "Ð¾Ð¿Ð°Ñģ": 3257,
      "70": 3258,
      "ĠÑģÐ°Ð¹ÑĤ": 3259,
      "Ġ1960": 3260,
      "ĠÐ¿ÐµÑĢÐ²Ð¾Ð³Ð¾": 3261,
      "ĠÐ´ÑĢ": 3262,
      "ĠÑĢÐ°Ð¼": 3263,
      "ĠÐ¾ÐºÑĢÑĥÐ¶": 3264,
      "ĠÑĢÐ°Ð±Ð¾ÑĤÑĥ": 3265,
      "ĠÐ½Ð°ÑģÐ»ÐµÐ´": 3266,
      "ĠÐ¿Ð¾ÑĩÑĤÐ¸": 3267,
      "ĠâĢŀ": 3268,
      "ĠÑĥÐ½Ð¸Ð²ÐµÑĢÑģÐ¸ÑĤÐµÑĤ": 3269,
      "ĠÐ´Ð¸Ð²Ð¸Ð·Ð¸Ð¸": 3270,
      "Ð°Ð¹Ð½": 3271,
      "ĠÐ¾Ð±ÑīÐµÑģÑĤÐ²Ð°": 3272,
      "ĠÐ´ÐµÑıÑĤÐµÐ»ÑĮÐ½Ð¾ÑģÑĤÑĮ": 3273,
      "Ð¸ÑĤÐµÐ»ÑĮÐ½ÑĭÐµ": 3274,
      "ĠÐ½Ð°ÑģÑĤÐ¾ÑıÑīÐµÐµ": 3275,
      "Ð°Ð½Ð½ÑĭÑħ": 3276,
      "ĠÐ¿ÑĢÐ¸Ð¼ÐµÑĢÐ½Ð¾": 3277,
      "ÑĭÐ²Ð°ÐµÑĤÑģÑı": 3278,
      "ĠÐ¾ÐºÐ¾Ð½ÑĩÐ¸Ð»": 3279,
      "ÑĥÐºÐ°": 3280,
      "ĠÐ¿ÑĢÐ¾Ð²ÐµÐ´": 3281,
      "ĠÐĲÐ¼ÐµÑĢ": 3282,
      "ÑĪÐ¸ÑģÑĮ": 3283,
      "ÑĨÐ°Ð¼Ð¸": 3284,
      "ÐĶÐ¶": 3285,
      "Ð»ÐµÐ²": 3286,
      "ĠÐ¿ÑĥÐ±Ð»": 3287,
      "Ġ&": 3288,
      "Ð¾ÑĢÐ¾ÑĤ": 3289,
      "qu": 3290,
      "eg": 3291,
      "Ð°ÑĥÑĢÐµ": 3292,
      "ĠÑģÐ¾Ð²Ð¼ÐµÑģÑĤ": 3293,
      "Ð¸Ð´Ð°": 3294,
      "ĠÑĥÑĩÐ¸Ð»Ð¸Ñī": 3295,
      "Ð»ÐµÐ½Ð¾": 3296,
      "ĠÐ²Ð½Ð¾Ð²ÑĮ": 3297,
      "ĠÐ±ÑĢÐ°": 3298,
      "ĠÐ¸ÑģÐºÐ»ÑİÑĩ": 3299,
      "ĠÑĦÑĥÑĤÐ±Ð¾Ð»Ð¸ÑģÑĤ": 3300,
      "Ð°ÑĤÐ¾Ñĩ": 3301,
      "ĠÐĲÐ¼": 3302,
      "ÑĢÐ°Ð·Ð´Ð½": 3303,
      "ÐĿÐ°Ð³ÑĢÐ°Ð´Ñĭ": 3304,
      "Ð¾Ð²ÑĭÐ¼": 3305,
      "ĠÐ¿Ð¾Ð»ÐºÐ°": 3306,
      "ĠÐºÐ¾ÑĢÐ¾Ð»ÐµÐ²": 3307,
      "ĠÐ²ÐµÑĤ": 3308,
      "ÑıÐ»Ð¸": 3309,
      "ĠÐ»Ð¸Ð±": 3310,
      "Ð°ÑİÑīÐ¸Ðµ": 3311,
      "ÑĢÐ¾Ð¿ÐµÐ¹": 3312,
      "ĠÐľÐ¾ÑĢ": 3313,
      "ÐµÑģÐ°": 3314,
      "ĠÐ½ÐµÐ·Ð°Ð²Ð¸ÑģÐ¸Ð¼": 3315,
      "Â»).": 3316,
      "ip": 3317,
      "ĠÑģÑĤÐ°Ð²": 3318,
      "Ð½Ð¸Ñı": 3319,
      "ĠÐ±Ð¾Ñı": 3320,
      "Ð»Ð¾ÑĢ": 3321,
      "ĠÐľÐ¸Ð½Ð¸ÑģÑĤ": 3322,
      "Ġ1989": 3323,
      "our": 3324,
      "Ð¾Ð·Ð½Ð°Ñĩ": 3325,
      "ens": 3326,
      "ĠÑįÐ»ÐµÐ¼": 3327,
      "35": 3328,
      "Ð¾ÑĢÐ¾Ð½Ðµ": 3329,
      "ĠÐĶÐ»Ñı": 3330,
      "ĠÐĵÐµÐ¾ÑĢ": 3331,
      "Ð°Ð½ÑĤÐ°": 3332,
      "ĠÐ¸Ð´": 3333,
      "ĠÐ¼ÐµÑħÐ°Ð½": 3334,
      "ĠÐŁÑĢÐµÐ´": 3335,
      "ÑİÑīÐ¸Ð¹": 3336,
      "ĠAl": 3337,
      "ĠÑĦÐ¸Ð»Ð¾ÑģÐ¾ÑĦ": 3338,
      "ĠÑĤÑĢÐµ": 3339,
      "Ð¸ÐºÑģ": 3340,
      "Ð»Ð¾ÑģÑĮ": 3341,
      "ÑĥÑĦ": 3342,
      "ĠÐ¾Ð±ÑıÐ·": 3343,
      "ĠÐ¼Ð°ÑĤÑĩÐµ": 3344,
      "ĠÐºÐ°ÑĦÐµÐ´": 3345,
      "ÐµÑģÑĤÑĢÐ°": 3346,
      "ĠÐ³ÐµÑĢÑĨÐ¾Ð³": 3347,
      "Ð¾ÑģÑĤÐ¾ÑĩÐ½Ð¾Ð¹": 3348,
      "ĠÑģÐ²ÑıÑĤ": 3349,
      "ÐłÐ¾Ð´Ð¸Ð»ÑģÑı": 3350,
      "ĠÐ¿ÑĢÐ¾ÑĦÐµÑģÑģÐ¸Ð¾Ð½": 3351,
      "ĠÑģÑĤÑĢÐµÐ»ÐºÐ¾Ð²": 3352,
      "Ġ1942": 3353,
      "ÑıÐ±ÑĢÑĮ": 3354,
      "ÑĳÐ½Ð½Ð¾Ð³Ð¾": 3355,
      "Ð²Ð¾ÑģÑĤÐ¾Ðº": 3356,
      "eb": 3357,
      "ĠÐĴÐµÐ»Ð¸ÐºÐ¾Ð±ÑĢÐ¸ÑĤÐ°Ð½Ð¸Ð¸": 3358,
      "Ð±ÐµÑĢÐ³": 3359,
      "ĠÑĥÐº": 3360,
      "ĠÐ¾Ð±Ñģ": 3361,
      "ĠÐ¿Ð¾Ð·Ð´": 3362,
      "ĠÑĢÐ°Ð·Ð²Ð¸ÑĤÐ¸Ñı": 3363,
      "ĠÐºÐ°Ð½Ð´Ð¸Ð´": 3364,
      "ĠÐĴÐµÑĢÑħÐ¾Ð²Ð½Ð¾Ð³Ð¾": 3365,
      "ĠÐ¾ÑģÐ½Ð¾Ð²Ð½Ð¾Ð¼": 3366,
      "ĠÑĢÐ°Ð·Ð´ÐµÐ»": 3367,
      "Ð¾ÐºÐ¾Ð¼": 3368,
      "Ġ184": 3369,
      "ĠÐ²Ð¾Ð·Ð½Ð¸Ðº": 3370,
      "Ð¸ÑĨÐ¸Ñı": 3371,
      "Ð°ÐºÐ¸": 3372,
      "ĠÐŁÑĢÐ°Ð²": 3373,
      "ĠÑĢÐµÐ¹": 3374,
      "ĠÐºÐ¾Ð½ÑĦ": 3375,
      "ĠÐ¿Ð¾ÑģÐ²ÑıÑī": 3376,
      "ĠÑįÑĤÐ¸": 3377,
      "Ð¸Ð´ÐµÑĢ": 3378,
      "Ð»Ð½": 3379,
      "Ð¾ÑģÐ°": 3380,
      "Ð¾Ð½Ð¸Ð¼": 3381,
      "ĠÐ¿Ð»Ð¾ÑīÐ°Ð´ÑĮ": 3382,
      "ÑģÑĤÐ²ÐµÐ½Ð½ÑĭÐ¹": 3383,
      "ĠÐŁÐ¾Ð»ÑĮÑĪ": 3384,
      "ĠÐŀÐ½Ð°": 3385,
      "ĠZ": 3386,
      "ĠÐ²Ð¾Ð·Ð²ÑĢÐ°Ñī": 3387,
      "Ð¾Ð¸ÑĤ": 3388,
      "ĠÑĢÐ°Ð·Ð»Ð¸ÑĩÐ½ÑĭÑħ": 3389,
      "ÑĦÐ°Ð²": 3390,
      "ĠÑĩÐ°ÑģÑĤÐ½Ð¾ÑģÑĤÐ¸": 3391,
      "ĠÐ¾Ð¿ÑĥÐ±Ð»Ð¸Ðº": 3392,
      "ÑģÑĤÑĢÐ°Ð»": 3393,
      "ĠÑĥÐ²ÐµÐ»Ð¸Ñĩ": 3394,
      "ĠÐ¼ÐµÐ´Ð¸ÑĨ": 3395,
      "ÑĢÐ¸ÑģÑĤÐ¸Ð°Ð½": 3396,
      "ĠÐĺÑĤÐ°Ð»Ð¸Ð¸": 3397,
      "ĠÑģÐ½": 3398,
      "ÑĢÐµÑĪ": 3399,
      "Ð¸ÑĤÐµÐ»ÑĮÐ½Ð¾Ð³Ð¾": 3400,
      "Ð¾ÑĤÐ²Ð¾ÑĢ": 3401,
      "Ð²ÑĳÑĢ": 3402,
      "ĠÐĵÐµÐ½": 3403,
      "Ð°ÑĢÑĤÐµ": 3404,
      "ĠÐ²ÑħÐ¾Ð´Ð¸ÑĤ": 3405,
      "Ð°ÐºÐ°": 3406,
      "ĠÐ½Ð°Ð³ÑĢÐ°Ð¶Ð´": 3407,
      "ÑİÑīÐ¸Ðµ": 3408,
      "ĠÐ³Ð¾Ð½": 3409,
      "ĠÑħÐ¾ÑĤÑı": 3410,
      "ĠÐĳÐ¾Ð»": 3411,
      "ĠÐŀÑĦÐ¸ÑĨÐ¸Ð°Ð»ÑĮÐ½ÑĭÐ¹": 3412,
      "ĠÐºÐ»Ð°Ð´Ð±Ð¸ÑīÐµ": 3413,
      "ĠÐļÐ¾Ð½ÑģÑĤÐ°Ð½ÑĤ": 3414,
      "ĠÐ´Ð¾Ð¿Ð¾Ð»Ð½": 3415,
      "ÑĥÐ¹": 3416,
      "03": 3417,
      "ÐºÐ°Ð¼": 3418,
      "ĠÑįÐ¼": 3419,
      "ok": 3420,
      "ĠÐ¸Ð½ÑģÑĤÐ¸ÑĤÑĥÑĤÐ°": 3421,
      "Ð»Ð»": 3422,
      "Ð¸ÑĤÑĭ": 3423,
      ".<": 3424,
      "Ð½Ð¸ÐºÐ°Ð¼Ð¸": 3425,
      "ÑĤÑĥÑĢÑĭ": 3426,
      "Ð°ÑĢÑĤÐ°Ð¼": 3427,
      "ÑīÐ¸Ðº": 3428,
      "ĠÐĲÐ½Ð´ÑĢÐµ": 3429,
      "ĠÐ²Ð´": 3430,
      "ĠÑĤÐµÐ¼Ð¿ÐµÑĢÐ°ÑĤÑĥÑĢÐ°": 3431,
      "ÑĢÐ¸Ð¿": 3432,
      "ĠÐ½ÐµÑģÐºÐ¾Ð»ÑĮÐºÐ¸Ñħ": 3433,
      "ĠÑģÐ¾Ð²ÐµÑĤÐ°": 3434,
      "ĠÑĢÐ¾Ð´Ð°": 3435,
      "ÐµÐ½Ð¸ÑıÑħ": 3436,
      "ĠÐ¿ÐµÑĢÑģÐ¾Ð½Ð°": 3437,
      "Ð¤Ð¡Ðł": 3438,
      "io": 3439,
      "ĠÐ·Ð´ÐµÑģÑĮ": 3440,
      "ĠÐ²ÐµÑī": 3441,
      "ĠÐ¾Ð±ÑĬÐµÐºÑĤ": 3442,
      "ĠÐĺÐ²Ð°Ð½": 3443,
      "Ð½Ð¾Ð³": 3444,
      "ran": 3445,
      "Ð¸ÑĤÐ°ÑĢ": 3446,
      "ĠÑĦÐ¸Ð½Ð°Ð½Ñģ": 3447,
      "ĠÐ±Ð°ÑģÑģ": 3448,
      "ÑİÐ¶ÐµÑĤ": 3449,
      "04": 3450,
      "ĠÐ»Ð¸Ð½Ð¸Ð¸": 3451,
      "ÑĢÐ¸Ð¸": 3452,
      "ĠÐ¿Ð¾Ð»ÐºÐ¾Ð²": 3453,
      "ĠÐ½Ð¸Ð¼": 3454,
      "Ð¾Ð¶Ð´ÐµÐ½Ð¸Ðµ": 3455,
      "Ð°ÐºÑĥ": 3456,
      "ĠÐľÐµÐ¶Ð´ÑĥÐ½Ð°ÑĢÐ¾Ð´": 3457,
      "Ð¸Ð»Ðµ": 3458,
      "ĠÐĳÐµÐ»Ð¾ÑĢÑĥÑģ": 3459,
      "Ð¾ÑĤÐµ": 3460,
      "ÑģÐµ": 3461,
      "ĠÐļÑĥÐ±ÐºÐ°": 3462,
      "ĠÐłÐ°Ñģ": 3463,
      "ĠÐ±Ð¾Ð»ÑĮÑĪÐ¸Ð½": 3464,
      "ÑģÐ¸": 3465,
      "ĠÐ´Ð¸ÑĢÐµÐºÑĤÐ¾ÑĢ": 3466,
      "ĠÐ´Ð°Ð²": 3467,
      "ĠÐ°Ð»ÑĦÐ°Ð²": 3468,
      "ĠÐ´Ð¾Ð»Ð¶Ð½Ð¾ÑģÑĤÑĮ": 3469,
      "ĠÐ°Ñį": 3470,
      "ĠÐ´Ð¾Ð¼Ð°": 3471,
      "ÑİÑīÐ¸Ñħ": 3472,
      "ÑĢÐ°Ð»Ð°": 3473,
      "ĠÐ¼ÐµÑģÑĤÐµ": 3474,
      "ĠÐ²ÑĭÐ±Ð¾ÑĢ": 3475,
      "ĠÑģÐ¾Ð±ÑĢÐ°Ð½": 3476,
      "ĠÐ»ÐµÐ¹": 3477,
      "ack": 3478,
      "ÑıÐ»Ð°": 3479,
      "ĠÑģÑĤÐ°Ð»Ð¾": 3480,
      "ĠÐ¾ÑĤÑģÑĥÑĤÑģÑĤÐ²": 3481,
      "ĠÐłÐ¡Ð¤Ð¡Ðł": 3482,
      "ĠÐ½Ð°Ð¸Ð±Ð¾Ð»ÐµÐµ": 3483,
      "ĠÐ¸Ð½Ð¶ÐµÐ½": 3484,
      "ĠÑĩÐ»ÐµÐ½Ð¾Ð¼": 3485,
      "Ð°ÐºÐ¾Ð²": 3486,
      "ĠÑģÐ²Ð¾Ð¸Ð¼": 3487,
      "Ð¾ÑĢÑĤÑĥ": 3488,
      "05": 3489,
      "ÐµÐ¹Ð¼": 3490,
      "Ð¸Ð»Ð»ÐµÑĢ": 3491,
      "ÑĩÐ¸": 3492,
      "ĠÐĲÐ»ÐµÐºÑģÐ°Ð½Ð´ÑĢÐ¾Ð²": 3493,
      "ĠÐļÐ¸ÑĢ": 3494,
      "ge": 3495,
      "ĠÐ½Ð°Ð·Ð²Ð°Ð½Ð¸ÐµÐ¼": 3496,
      "ĠÐ¦ÐµÐ½ÑĤÑĢÐ°Ð»ÑĮ": 3497,
      "Ð°Ð»Ð¾Ð¼": 3498,
      "ĠÐŁÑĢÐ¾": 3499,
      "ĠÐ¿Ð¾Ð¿ÑĭÑĤ": 3500,
      "ĠAr": 3501,
      "Ð¸ÑĤÐ¾ÑĢ": 3502,
      "ĠÐ¼Ð¾Ñī": 3503,
      "ĠÐ¿ÑĢÐµÐ²": 3504,
      "ÑĢÑĥÐ´Ð°": 3505,
      "Ð¸Ð¾Ð½Ð°": 3506,
      "Ð»Ð¸ÑģÑĮ": 3507,
      "Ð¸Ð½Ð´": 3508,
      "Ð¡Ð¡": 3509,
      "ĠÑĢÐ°ÑģÐ¿Ð¾Ð»Ð°Ð³": 3510,
      "ĠÑĤÐ°ÐºÐ¸Ñħ": 3511,
      "ĠÐĲÐ½Ð³Ð»": 3512,
      "ĠÐ¸ÑģÐºÑĥÑģÑģÑĤÐ²Ð°": 3513,
      "ÐµÐ²Ð¸Ð´": 3514,
      "ĠÐ¿ÑĢÐ¸Ð½ÑıÑĤ": 3515,
      "ĠÐĿÐ¸ÐºÐ¾Ð»Ð°Ð¹": 3516,
      "Ð»ÐµÐ½Ð¸Ð¹": 3517,
      "Ð¸ÑģÐ»Ð°Ð²": 3518,
      "ÑĨÐ¸ÐºÐ»": 3519,
      "ÑĥÑīÐµÑģÑĤÐ²ÐµÐ½": 3520,
      "Ġ=": 3521,
      "Ð»Ð°Ð·": 3522,
      "ĠPr": 3523,
      "Ð°Ð´Ðµ": 3524,
      "ĠÐ¶Ð¸Ð»": 3525,
      "ĠÑĤÐµÐ¿": 3526,
      "ĠÐ°Ð¼ÐµÑĢÐ¸ÐºÐ°Ð½ÑģÐºÐ¸Ð¹": 3527,
      "ĠÑģÐµÑĤ": 3528,
      "ĠÐ¼ÐµÑĤÐ¾Ð´": 3529,
      "Ð±ÐµÐº": 3530,
      "Ð¾Ð²Ð°Ð²": 3531,
      "ĠÑħÐ¾ÑĢÐ¾ÑĪ": 3532,
      "ĠÑĩÐµÑĤÑĭÑĢÐµ": 3533,
      "ĠÐłÐ°Ð·": 3534,
      "Ð¾ÑħÐ¾Ð·ÑıÐ¹": 3535,
      "34": 3536,
      "ÐµÐ²Ð¾Ð¹": 3537,
      "ĠÑģÐ¾Ð¾ÑĤÐ²ÐµÑĤÑģÑĤÐ²": 3538,
      "ĠÐ¿ÑĢÐ¾ÑģÑĤ": 3539,
      "ĠÑģÐ¸Ð¼Ð²Ð¾Ð»": 3540,
      "ĠÐĴÑĭÑģ": 3541,
      "Ð¸ÑĩÑĤ": 3542,
      "ĠÑħÑĢÐ°Ð¼": 3543,
      "ĠÑĥÑĩÐµÐ½": 3544,
      "ĠÐºÐ°ÑĤÐµÐ³": 3545,
      "ĠÑĥÑģÐ¿ÐµÑħ": 3546,
      "ĠÐļÑĢÐ¾Ð¼Ðµ": 3547,
      "ĠÑĢÐ°Ð¼ÐºÐ°Ñħ": 3548,
      "ĠÐ¸Ð½ÑĤÐµÑĢÐµÑģ": 3549,
      "Ð½Ð¾ÑģÑĤÑĢÐ°Ð½": 3550,
      "ĠÑĤÐµÐ°ÑĤÑĢÐ°": 3551,
      "ĠÐ¿ÑĢÐ¸ÑģÐ¾ÐµÐ´Ð¸Ð½": 3552,
      "01": 3553,
      "ĠÐ¡ÑĤÐ°ÑĢ": 3554,
      "ÑĦÐ°": 3555,
      "ÐµÐ½Ð½Ð¾ÑģÑĤÐ¸": 3556,
      "ĠÐ±Ð¸Ð±Ð»Ð¸Ð¾ÑĤ": 3557,
      "ĠÑĥÑĩÐ°ÑģÑĤÐ²Ð¾Ð²Ð°Ð»": 3558,
      "ĠÑĨÐµÐ»ÑĮ": 3559,
      "ĠÐ¿Ð¾Ð»Ðº": 3560,
      "Ð¸Ð»Ð¸Ð¸": 3561,
      "ĠÐ¿ÐµÑģÐ½Ð¸": 3562,
      "ĠÐ¼ÐµÑģÑĤÐ°": 3563,
      "Ð¶Ð´Ñĭ": 3564,
      "ep": 3565,
      "ĠÑĢÐµÐ¶Ð¸ÑģÑģÑĳÑĢ": 3566,
      "Ð¾Ð²Ð¾Ð»ÑĮ": 3567,
      "Ð°Ð¹ÑĤ": 3568,
      "..": 3569,
      "ÑĪÑĥÑİ": 3570,
      "ĠÐ¿ÐµÐ²": 3571,
      "ÐµÑĢÐµÐ¶": 3572,
      "ĠÐ¼Ð½Ð¾Ð³Ð¸Ñħ": 3573,
      "ĠÑģÐ²Ð¾Ñĳ": 3574,
      "ĠÐ²Ð¾ÑģÑĤÐ¾Ðº": 3575,
      "ÑĢÐ¸Ñı": 3576,
      "ĠÐ»ÐµÑĤÐ½Ð¸Ñħ": 3577,
      "ĠÐĵÐ¾ÑĢ": 3578,
      "//": 3579,
      "ÑĳÐ½Ð½Ð¾Ð¹": 3580,
      "ĠÑģÑĤÐ¸Ñħ": 3581,
      "ĠÑĢÐ¾Ð»Ð¸": 3582,
      "ort": 3583,
      "ĠÐ½Ð¸Ð·": 3584,
      "ne": 3585,
      "ĠÐºÑĥÐ»ÑĮÑĤÑĥÑĢ": 3586,
      "Ð²Ð°Ð½": 3587,
      "ÐµÐ½Ð¸ÑĤ": 3588,
      "02": 3589,
      "com": 3590,
      "Ð¾Ð¿ÐµÐ´": 3591,
      "ĠÑįÑĦÑĦ": 3592,
      "ĠÐ³Ð¾ÑĢÐ¾Ð´ÑģÐºÐ¾Ð³Ð¾": 3593,
      "ĠÐ²Ð¾ÑģÑģÑĤÐ°Ð½Ð¾Ð²": 3594,
      "Ð¸Ð½Ð¸": 3595,
      "Ġ1988": 3596,
      "ĠÐ´ÐµÑıÑĤÐµÐ»ÑĮÐ½Ð¾ÑģÑĤÐ¸": 3597,
      "ĠÐ¿ÐµÑĢÐ²ÑĭÐ¼": 3598,
      "ÐµÐ½ÑģÐºÐ¾Ð³Ð¾": 3599,
      "ĠÐºÑĢÐµÐ¿": 3600,
      "ĠÐĵÐµÐ¾ÑĢÐ³": 3601,
      "ĠÐĴÐ¸ÐºÑĤÐ¾ÑĢ": 3602,
      "ĠÐ¾Ð´Ð½Ð°": 3603,
      "ĠÐ´Ð¾Ð³": 3604,
      "Ð¸ÑĤÐµÐ»ÑĮÐ½ÑĭÑħ": 3605,
      "ĠÑĤÐ¾Ð½": 3606,
      "Ġ(),": 3607,
      "ĠÐ¾ÑĩÐµÑĢÐµÐ´": 3608,
      "ĠÐĴÑħÐ¾Ð´Ð¸ÑĤ": 3609,
      "Ð°Ð½ÑĤÑĭ": 3610,
      "Ð£ÑĩÐ°ÑģÑĤ": 3611,
      "Ð»ÐµÑĢ": 3612,
      "ĠÑģÐ¼Ð¾Ð³": 3613,
      "ĠÐ¿Ð¸ÑģÐ°ÑĤÐµÐ»ÑĮ": 3614,
      "ÑĥÑİÑīÐ¸Ð¹": 3615,
      "Ð¾ÑĨÐ¸": 3616,
      "Ð¿Ð¿": 3617,
      "85": 3618,
      "Ġ1930": 3619,
      "ĠÑĩÐ¸ÑģÐ»Ð¾": 3620,
      "ĠÐ²Ð¾Ð¹Ð½Ðµ": 3621,
      "ĠÐ¸ÑĤÐ°Ð»ÑĮÑıÐ½": 3622,
      "ĠÐ¿ÑĢÐ°Ð²Ð°": 3623,
      "ĠÐŃÑĢ": 3624,
      "ĠÐĴÑĤÐ¾ÑĢÐ¾Ð¹": 3625,
      "Ð¾Ð¿Ð¾Ð»ÑĮ": 3626,
      "ĠÐ¿ÐµÐ´Ð°Ð³Ð¾Ð³": 3627,
      "ĠÐ´Ð²Ð¸Ð³": 3628,
      "Ð½Ð¸ÑĨÑĭ": 3629,
      "ĠâĪĴ": 3630,
      "ĠÑħÑĥÐ´Ð¾Ð¶ÐµÑģÑĤÐ²ÐµÐ½": 3631,
      "ĠÐ¶ÐµÐ»ÐµÐ·Ð½Ð¾Ð´Ð¾ÑĢÐ¾Ð¶": 3632,
      "ĠÑįÐ¿Ð¸Ð·": 3633,
      "Ð²ÐµÑĢÐ´": 3634,
      "ĠÐ¿Ð¾Ð»ÑĥÑĩÐ¸Ð»Ð°": 3635,
      "ÐŁÑĢÐ¾": 3636,
      "ĠÐ¿ÑĢÐ¸ÐºÐ°Ð·": 3637,
      "06": 3638,
      "ĠÐ¸Ð·Ð±ÑĢÐ°Ð½": 3639,
      "ÑĩÐ°ÑĤ": 3640,
      "ÑĭÐ³": 3641,
      "ĠÐ°ÐºÑĤÑĳÑĢ": 3642,
      "Ð°Ð»ÑĮÐ½Ð¾Ð¼": 3643,
      "ĠÐ¿Ð¸ÑģÑĮ": 3644,
      "ĠÐ²ÐµÑĢ": 3645,
      "ÑĳÑĤÑģÑı": 3646,
      "Ð¸Ð½ÑģÐºÐ°Ñı": 3647,
      "ĠÐ½ÐµÑĤ": 3648,
      "ĠÑįÑĤÐ°Ð¿": 3649,
      "ĠÑįÐ½ÐµÑĢÐ³": 3650,
      "ÐļÐ»Ð¸Ð¼Ð°ÑĤ": 3651,
      "ĠÐºÑĢÐ°Ñı": 3652,
      "ib": 3653,
      "ÐºÐ¾Ð½Ñĩ": 3654,
      "ĠÐļÐ°Ð·Ð°ÑħÑģÑĤ": 3655,
      "ĠÑģÑĩÑĳÑĤ": 3656,
      "ĠÐ¾ÑĢÑĥÐ¶": 3657,
      "ĠÑģÐ»ÑĥÑĩÐ°Ðµ": 3658,
      "Ð³Ð¾ÑĢ": 3659,
      "ĠÐ¿ÑĢÐ¸Ð·ÑĳÑĢ": 3660,
      "ĠÐºÑĢÑĥÐ³": 3661,
      "Ġ1920": 3662,
      "ĠÑĥÐ½Ð¸ÑĩÑĤ": 3663,
      "ight": 3664,
      "ĠÐ²ÑĭÑĪÐµÐ»": 3665,
      "ĠÐ¾Ð³ÑĢÐ°Ð½Ð¸Ñĩ": 3666,
      "ĠÐ±Ð°ÑĢ": 3667,
      "ĠÐºÑĥÐ¿": 3668,
      "ĠÑıÐ·ÑĭÐºÐ°": 3669,
      "ĠÑĥÐµÐ·Ð´Ð°": 3670,
      "31": 3671,
      "ĠÑĢÐµÑģÐ¿ÑĥÐ±Ð»": 3672,
      "ĠÐ¿Ð¾Ð»Ð½Ð¾ÑģÑĤÑĮÑİ": 3673,
      "Ð¾ÑĢÐ°Ñħ": 3674,
      "ĠÐĳÐ°Ð»": 3675,
      "ĠÑħÐ¸Ð¼": 3676,
      "Ð¾ÑħÐ¾ÑĢÐ¾Ð½": 3677,
      "ĠÐļÐ°": 3678,
      "ĠÐĴÐ°ÑģÐ¸Ð»ÑĮ": 3679,
      "ĠÑģÐ±": 3680,
      "ÐµÐºÐ¸": 3681,
      "ĠÑĨÐµÑĢÐºÐ¾Ð²ÑĮ": 3682,
      "ĠÐłÐ¸Ð¼": 3683,
      "ĠÐĿÐµ": 3684,
      "ĠÐ¿ÑĢÐ¾Ð¸Ð·Ð¾ÑĪ": 3685,
      "08": 3686,
      "ÑģÐºÐ¸": 3687,
      "ĠÑģÐ¾ÑİÐ·": 3688,
      "ĠÐĹÐ°Ðº": 3689,
      "ÐŁÑĢÐµ": 3690,
      "ĠÐ¸Ð¼ÐµÐ»": 3691,
      "ÐĻÐ¾ÑĢ": 3692,
      "ĠÐ±Ð¸ÑĤ": 3693,
      "ĠÐ´ÐµÑģÑıÑĤ": 3694,
      "Ð¸Ð¿Ð»Ð¾Ð¼": 3695,
      "ĠÐ´Ð½Ñı": 3696,
      "ĠÐ°Ð±": 3697,
      "Ð¿Ð°ÑĢÑħ": 3698,
      "ĠÐ½Ð¾Ñĩ": 3699,
      "ĠUn": 3700,
      "ĠÐ¼ÑĥÐ¶ÑĩÐ¸Ð½": 3701,
      "ĠÐ¿ÑĢÐ°Ð²Ð¾ÑģÐ»Ð°Ð²": 3702,
      "ĠÐ²Ð¾Ð·ÑĢÐ°ÑģÑĤÐµ": 3703,
      "ÑĦÐµÑĢÐµÐ½": 3704,
      "ĠÐºÐ¾ÑĤÐ¾ÑĢÑĥÑİ": 3705,
      "ĠÐ¼Ð½Ð¾Ð¶": 3706,
      "ÐµÐ½ÐµÐ¼": 3707,
      "ĠÐ¿Ð¾Ð³Ð¸Ð±": 3708,
      "ĠÐ¤Ð¸Ð½": 3709,
      "ĠÑģÑĥÐ¿": 3710,
      "ĠÐ¡Ð¾Ð²ÐµÑĤÑģÐºÐ¾Ð³Ð¾": 3711,
      "up": 3712,
      "ĠÐ²Ð°ÑĢÐ¸": 3713,
      "ĠÐ¾ÑģÐ½Ð¾Ð²Ðµ": 3714,
      "ĠÐ¿Ð¾Ð¼Ð¾ÑīÑĮÑİ": 3715,
      "Ð¾Ð½Ñģ": 3716,
      "ÑĭÐ´": 3717,
      "ĠÐ½Ð°Ð¿ÑĢÐ¸Ð¼ÐµÑĢ": 3718,
      "ĠÑĤÑĢÐµÑĤÑĮ": 3719,
      "ĠÐ´Ð¾ÐºÑĤÐ¾ÑĢ": 3720,
      "ĠÑģÑĢÐ°Ð¶": 3721,
      "Ð¸Ð°ÑĤ": 3722,
      "ĠÐ¾Ð±ÑĢÐ°ÑĤ": 3723,
      "ĠÑıÐ¿Ð¾Ð½": 3724,
      "ĠÐ¿ÐµÑħ": 3725,
      "Ð¾ÑħÑĢÐ°Ð½": 3726,
      "ĠÑĦÐ¾ÑĢ": 3727,
      "Ð¸ÑģÑĤÐ°Ð½": 3728,
      "Ð½Ð°Ñħ": 3729,
      "36": 3730,
      "ÐŃÐº": 3731,
      "ĠÑĦÐ°Ð¼": 3732,
      "ĠÑĤÑĳ": 3733,
      "Ð¡Ð¾Ð³Ð»Ð°ÑģÐ½Ð¾": 3734,
      "Ð¸Ð»ÐµÑĤ": 3735,
      "Ð¸ÑıÐ¼Ð¸": 3736,
      "ĠÑĢÐµÑĪÐµÐ½Ð¸Ðµ": 3737,
      "Ġg": 3738,
      "ÑĳÐ³": 3739,
      "ĠÐĲÑĢÑħ": 3740,
      "ÐŁÐ¾Ð»": 3741,
      "ÑĨÐ¸ÐºÐ»Ð¾Ð¿ÐµÐ´": 3742,
      "ĠÐ¿Ð¾Ð»ÑĮ": 3743,
      "37": 3744,
      "ĠÐ´Ð°Ð»ÑĮÐ½ÐµÐ¹": 3745,
      "ĠÐ´ÐµÑĢÐµÐ²Ð½Ð¸": 3746,
      "ĠÐ°Ð»ÑĮÐ±Ð¾Ð¼Ð°": 3747,
      "Ð¸ÑĨÐµÐ¹": 3748,
      "ĠÐ¿ÑĢÐ¸Ð½ÑıÐ»": 3749,
      "Ð¼Ð°Ð¹": 3750,
      "Ð¸Ð²Ð°": 3751,
      "Ð°ÑĢÐº": 3752,
      "ĠÐ¾ÑĦÐ¸ÑĨ": 3753,
      "Ð°ÑĩÐ¸": 3754,
      "ĠÐ³Ð»ÑĥÐ±": 3755,
      "ĠÐŁÐµÑĤÑĢÐ¾Ð²": 3756,
      "ĠÐ¾ÑģÐ²Ð¾Ð±": 3757,
      "ÑĥÐ»Ð°": 3758,
      "ĠÐ½ÐµÐºÐ¾ÑĤÐ¾ÑĢÑĭÑħ": 3759,
      "ÑıÐµÑĤÑģÑı": 3760,
      "ĠÐ¿Ð¾Ð·Ð¶Ðµ": 3761,
      "ĠÐ½Ð°Ð»": 3762,
      "ĠÐ±Ð¾Ð»ÑĮ": 3763,
      "ĠÐĲÐºÐ°Ð´ÐµÐ¼": 3764,
      "38": 3765,
      "ĠÑĥÑĩÑĢÐµÐ¶Ð´": 3766,
      "07": 3767,
      "Ð¸ÑĤÐ¾Ð²": 3768,
      "ĠÐ¿ÑĢÐ¸Ð´": 3769,
      "ÑĢÑĥÑģ": 3770,
      "09": 3771,
      "ĠÑĤÐ¾Ð¿": 3772,
      "ĠÐ»Ð¸ÑĤÐµÑĢÐ°ÑĤÑĥÑĢ": 3773,
      "ĠÐ±Ð°ÑĤÐ°Ð»ÑĮ": 3774,
      "Ð§Ð»ÐµÐ½Ñĭ": 3775,
      "ĠÐ³Ð³": 3776,
      "ÑĩÐ¸ÑģÐ»ÐµÐ½": 3777,
      "ĠÐ·Ð°Ð¼ÐµÐ½": 3778,
      "ÐºÐ°Ð½": 3779,
      "ĠÐ´Ð¸ÑģÐº": 3780,
      "ĠÐ¼Ð°Ñģ": 3781,
      "ex": 3782,
      "ĠÐ¡Ð¸Ð¼": 3783,
      "ĠÑİÐ¶": 3784,
      "ÐµÐ»Ñİ": 3785,
      "Ð°Ð´Ð°ÐµÑĤ": 3786,
      "ĠÐ¼Ð°ÑģÑĤÐµÑĢ": 3787,
      "ĠÑıÐ·ÑĭÐº": 3788,
      "Ġ1950": 3789,
      "ĠÐ¼Ð¸Ð»Ð»Ð¸": 3790,
      "ĠÐľÐ¸ÑħÐ°Ð¸Ð»": 3791,
      "ĠÐ·Ð°ÑĤ": 3792,
      "ĠÐºÐ¾ÑĢÐ¾ÑĤ": 3793,
      "ĠÐ·Ð°Ð²ÐµÐ´": 3794,
      "ĠÐ¶Ð¸Ð²Ð¾ÑĤ": 3795,
      "ww": 3796,
      "ĠÐ£Ñĩ": 3797,
      "ĠÑĤÐ¾Ð³Ð´Ð°": 3798,
      "Ð°ÑģÐ°": 3799,
      "39": 3800,
      "Ð¾Ð»Ñİ": 3801,
      "ĠÐ·Ð°Ð²Ð¾ÐµÐ²": 3802,
      "ĠÐ½Ð°ÑĨÐ¸Ð¾Ð½Ð°Ð»ÑĮÐ½Ð¾Ð¹": 3803,
      "ĠÐ®Ð¶": 3804,
      "Ð¾Ð²Ð°Ð½Ð¸Ð¹": 3805,
      "ĠÐ¿Ð¾Ð¼ÐµÑī": 3806,
      "ĠÑĥÐ½Ð¸ÑĩÑĤÐ¾Ð¶": 3807,
      "Ð±ÐµÑĢ": 3808,
      "ĠÐ£Ð½": 3809,
      "ĠÑģÐµÐ±Ðµ": 3810,
      "ĠÑĨÐ°ÑĢ": 3811,
      "ĠÑģÐµÑĢÐ¸": 3812,
      "ÐºÑĥÐ¿": 3813,
      "ĠÐ·Ð½": 3814,
      "ĠÐ½Ð°ÑģÑĤÑĥÐ¿": 3815,
      "ĠEn": 3816,
      "ĠÐ´ÑĢÐ°Ð¼": 3817,
      "ĠÑĤÑĢ": 3818,
      "ÐºÐ°ÑĤÐµÑĢ": 3819,
      "ĠÐĵÑĢÐ¸Ð³": 3820,
      "ĠÐľÐ¸ÑħÐ°Ð¹Ð»Ð¾Ð²": 3821,
      "ÑĢÐµÐ¼ÐµÐ½Ð½Ð¾": 3822,
      "Ð¾ÑĨ": 3823,
      "ĠÐ´Ð°Ð»": 3824,
      "ĠCom": 3825,
      "ĠÐ¿Ð¾ÑĤÐµÑĢ": 3826,
      "ĠÑĦÐ°ÐºÑĤ": 3827,
      "ĠÑģÐ¿Ð¾ÑĢÑĤÐ¸Ð²": 3828,
      "ĠÐ¼Ð¾Ð»": 3829,
      "Ð¸Ð½ÑģÐºÐ¾Ð¼": 3830,
      "Ġ1940": 3831,
      "ĠÑħÐ¾Ð»Ð¾Ð´": 3832,
      "ĠÑĤÐµÑĢÐ¼": 3833,
      "ĠÐ²ÐµÐ»Ð¸Ðº": 3834,
      "ĠÑĤÑĳÐ¿Ð»": 3835,
      "ÑıÐ³": 3836,
      "ĠÑĤÐ¸ÑĤÑĥÐ»": 3837,
      "ÑħÐ°": 3838,
      "ĠÐ¸ÑģÐºÑĥÑģÑģÑĤÐ²": 3839,
      "64": 3840,
      "ĠÐ¼Ð°ÑĢÑĪ": 3841,
      "ÑıÑĢ": 3842,
      "ĠÐ²ÐµÑĢÑģÐ¸Ð¸": 3843,
      "ÑĢÑĥÑĩ": 3844,
      "ĠÐ²ÐµÐºÐµ": 3845,
      "ĠÑĥÐ±Ð¸Ð¹": 3846,
      "ĠÐ±ÑĥÐ´ÑĥÑī": 3847,
      "ĠÐĺÐ²Ð°Ð½Ð¾Ð²Ð¸Ñĩ": 3848,
      "ĠÐ±ÐµÐ·Ð¾Ð¿Ð°Ñģ": 3849,
      "ĠÐĵÐ°Ð»": 3850,
      "ĠÐŃÑĤ": 3851,
      "Ð°Ð²ÐºÐ°Ð·": 3852,
      "Ð¸Ð»Ð¸Ð¹": 3853,
      "Ġ().": 3854,
      "ÑĢÐµÑĩÐµÑģÐº": 3855,
      "Ġ35": 3856,
      "ÑĨÑĥ": 3857,
      "ich": 3858,
      "ĠÐ²ÐµÑĢÐ½ÑĥÐ»ÑģÑı": 3859,
      "ĠÐºÐ¾Ð´": 3860,
      "ĠÐ´ÑĥÑħÐ¾Ð²": 3861,
      "Ð¸Ð²Ð°ÐµÑĤÑģÑı": 3862,
      "ĠÐºÐ¾Ð¼Ð°Ð½Ð´Ð¸ÑĢ": 3863,
      "ĠÐļÐ°ÑĤ": 3864,
      "Ð°Ð½Ð¾Ð¼": 3865,
      "ĠÐ³Ð¾ÑģÑĥÐ´Ð°ÑĢÑģÑĤÐ²ÐµÐ½Ð½ÑĭÐ¹": 3866,
      "Ð°Ð±Ð¾ÑĤ": 3867,
      "ĠÐ³Ð¾Ð»Ð¾Ñģ": 3868,
      "ĠÐ¾Ð±ÑĢÐ°Ð·Ð¾Ð²Ð°Ð½Ð¸Ðµ": 3869,
      "ĠÐ¸ÑģÑģÐ»ÐµÐ´Ð¾Ð²Ð°Ð½Ð¸Ñı": 3870,
      "ĠÐ½Ð°Ð±Ð»ÑİÐ´": 3871,
      "ĠÑĤÑĭÑģ": 3872,
      "ĠÐ¼Ð»Ð°Ð´": 3873,
      "ĠÐ½Ð°Ð¹": 3874,
      "ĠSp": 3875,
      "Ð»ÐµÐ½Ð¸Ñİ": 3876,
      "ĠÑģÑĢÐ°Ð²Ð½": 3877,
      "ĠÑĢÐ°Ð½ÐµÐµ": 3878,
      "ÐµÐºÐ¾Ð¼": 3879,
      "ĠÐĲÐ»ÐµÐºÑģÐ°Ð½Ð´ÑĢÐ°": 3880,
      "ĠÐ²Ð½ÐµÑĪ": 3881,
      "Ġ1987": 3882,
      "ĠÐ½ÐµÐºÐ¾ÑĤÐ¾ÑĢÑĭÐµ": 3883,
      "Ð¸Ð²ÑĪÐ¸Ð¹": 3884,
      "ĠÐ¸Ð½Ð¾ÑģÑĤÑĢÐ°Ð½": 3885,
      "ĠÐ½ÐµÐ¾Ð±ÑħÐ¾Ð´Ð¸Ð¼": 3886,
      "ĠÐŀÐ½Ð¸": 3887,
      "Ð¾Ð²Ð°ÑĢ": 3888,
      "ĠÑįÐºÐ·": 3889,
      "ĠÑĢÑĥÐºÐ¾Ð²Ð¾Ð´ÑģÑĤÐ²Ð¾Ð¼": 3890,
      "Â»),": 3891,
      "ĠÐ¿Ð¾ÑģÐº": 3892,
      "ĠÐłÐ¤": 3893,
      "Ð°ÑĨÐ¸Ñı": 3894,
      "ÑĩÑĳÑĤ": 3895,
      "ĠÐ¿ÐµÑĢÐ²ÑĭÑħ": 3896,
      "ÐµÐ½Ð¸ÑıÐ¼Ð¸": 3897,
      "ĠÐ¼ÐµÐ»": 3898,
      "ÑĥÐºÐ¾Ð²": 3899,
      "ĠÑģÐ¾Ð·Ð´Ð°Ð½": 3900,
      "ive": 3901,
      "ÐĲÐĿ": 3902,
      "ĠÐ¿ÑĢÐ¾Ð¸ÑģÑħ": 3903,
      "ÐµÐ½ÑģÐºÐ¾Ð¹": 3904,
      "Ð½Ð¸Ñİ": 3905,
      "Ġ1986": 3906,
      "ĠÐĵÐ¾Ð»": 3907,
      "ity": 3908,
      "ĠÐłÐ¾Ð¼": 3909,
      "ĠÐºÐ¾Ð¼Ð¿Ð°Ð½Ð¸Ñı": 3910,
      "ĠÐĴÐ°ÑĢ": 3911,
      "Ð°Ð¼Ð°": 3912,
      "Ġ1985": 3913,
      "Ġ1939": 3914,
      "ĠÐ³Ð°Ð»": 3915,
      "ÑĭÐ²Ð°": 3916,
      "ÑĳÑĢÑĭ": 3917,
      "ĠÐ°Ð»ÑĦÐ°Ð²Ð¸ÑĤÑĥ": 3918,
      "ĠÐ¿ÑĢÐ¾Ð²ÑĳÐ»": 3919,
      "75": 3920,
      "ĠÐ¿Ð¾ÑĢÑıÐ´": 3921,
      "ÐļÐĲ": 3922,
      "ĠÐļÐ°Ðº": 3923,
      "ĠÐ¼Ð¸Ð½ÑĥÑĤ": 3924,
      "ĠÑĥÑģÐ¿ÐµÑĪ": 3925,
      "ĠÑĦÐµÐ´ÐµÑĢÐ°": 3926,
      "Ð±Ð¸Ð½": 3927,
      "ĠÐ²Ð¸Ð´Ð¾Ð²": 3928,
      "ĠÐĺÐ½ÑģÑĤÐ¸ÑĤÑĥÑĤ": 3929,
      "ÐŁÑĢÐµÐ´": 3930,
      "ĠÐ¿Ð¾ÑĢÐ°Ð¶": 3931,
      "Ð¼Ð¾ÑĢ": 3932,
      "ĠÐľÐ°Ð½": 3933,
      "ĠÐ¿Ð¾ÑģÐºÐ¾Ð»ÑĮÐºÑĥ": 3934,
      "ÐµÐ»ÐµÐ½": 3935,
      "ĠÐ¼Ð¸Ðº": 3936,
      "ĠÐ¿Ð¾ÑģÑĳÐ»Ð¾Ðº": 3937,
      "Ð°Ð´Ð¶": 3938,
      "ĠÐ¸Ð¼Ð¿ÐµÑĢÐ°ÑĤÐ¾ÑĢ": 3939,
      "ĠÑĢÐ°ÑģÑģÑĤÐ¾ÑıÐ½Ð¸Ð¸": 3940,
      "ĠÑĤÑĢÐ°Ð²": 3941,
      "Ġ+": 3942,
      "ĠÑģÑĤÐ°Ð´": 3943,
      "ĠÐ½Ð¾Ð²ÑĭÐ¹": 3944,
      "ĠÑĥÑģÑĤÑĢÐ¾Ð¹": 3945,
      "ĠÑĢÐ°ÑģÐº": 3946,
      "ĠÐĹÐµÐ¼": 3947,
      "end": 3948,
      "45": 3949,
      "ry": 3950,
      "ĠÐļÐ°ÑĢÐ°": 3951,
      "ĠÑĥÐ¿Ð¾Ð¼Ð¸Ð½": 3952,
      "ĠÐ¿ÑĢÐ¾Ð³ÑĢÐ°Ð¼Ð¼": 3953,
      "Ð¤ÑĥÑĤ": 3954,
      "Ð¾Ð¿ÑĢ": 3955,
      "ĠÑģÐµÐ»ÑĮÑģÐ¾Ð²ÐµÑĤÐ°": 3956,
      "ĠÐĽÐ¾Ð½Ð´": 3957,
      "ÐĺÑģÑĤ": 3958,
      "ÑįÐ¼": 3959,
      "ĠÐ¶ÑĥÑĢÐ½Ð°Ð»Ð¸ÑģÑĤ": 3960,
      "ĠÐºÑĢÐ°Ð¹": 3961,
      "ĠÐ¼Ð½Ð¾Ð³Ð¸Ðµ": 3962,
      "ĠÐ´Ð²Ð¸Ð¶ÐµÐ½Ð¸Ñı": 3963,
      "ÑĥÐ°": 3964,
      "Ð»ÑĥÐ¶ÐµÐ½Ð½ÑĭÐ¹": 3965,
      "ĠÑģÐ¾Ð»Ð´": 3966,
      "Ġ1984": 3967,
      "ĠÐĶÐ¾": 3968,
      "ĠÐľÐ¾ÑģÐºÐ²Ñĭ": 3969,
      "ĠÑģÐµÐ·Ð¾Ð½": 3970,
      "ÑĥÐ»ÑĮÐ¿": 3971,
      "ĠÐ¿Ð¾ÑģÑĤÐ°Ð½Ð¾Ð²": 3972,
      "ĠÐ¿ÐµÑĢÐµÐ¼": 3973,
      "ĠÐĽÐµÐ½Ð¸Ð½Ð³ÑĢÐ°Ð´": 3974,
      "ĠÑģÐ¾Ð¾ÑĢÑĥÐ¶": 3975,
      "ĠÑĪÐ°Ñħ": 3976,
      "ĠÐ±Ð¾Ð»ÑĮÑĪÐ¾Ð¹": 3977,
      "ĠÐ¸Ð¼ÐµÑİÑĤ": 3978,
      "ĠÐ¡ÐµÑĢÐ³ÐµÐ¹": 3979,
      "Ð¾Ð²Ð°Ð½Ð°": 3980,
      "ĠÑĩÐµÑĤÑĭÑĢÑĳÑħ": 3981,
      "ĠÐ½Ð°ÑģÐµÐ»ÐµÐ½Ð¸Ðµ": 3982,
      "ĠÐ¤ÑĳÐ´": 3983,
      "ĠÐĵÐ°ÑĢ": 3984,
      "ĠĠĊ": 3985,
      "Ð°Ð»ÑĮÐ½ÑĭÐ¼": 3986,
      "Ð¼Ð°ÑĤÑĢÐ¸Ð²": 3987,
      "ĠÑģÐ°Ð¼Ð¾": 3988,
      "Ġ179": 3989,
      "ÐŁÐ¾Ð´": 3990,
      "ÑİÐ½": 3991,
      "ĠÐºÐ¾ÑģÐ¼": 3992,
      "Ð¿Ð°ÑĢÐ°ÑĤ": 3993,
      "ĠÑģÐ¿Ð¾ÑĢÑĤÐ°": 3994,
      "ĠÐ¡ÐµÑĢ": 3995,
      "ĠÑĢÐµÐºÐ°": 3996,
      "ĠÐºÐ¾Ð½ÑĨÐ°": 3997,
      "ĠÐºÐ¾ÑĢÐ¾Ð»ÑĮ": 3998,
      "ĠÑĢÐ°Ðº": 3999,
      "ĠÐŀÑģÑĤ": 4000,
      "ĠÐ¿ÑĢÐ¸Ð¾Ð±": 4001,
      "ÐĵÐ¾ÑĢÐ¾Ð´": 4002,
      "Ð¼Ð¸Ð½": 4003,
      "ÐµÐ»Ð»": 4004,
      "ĠÑĢÐ°Ð·Ð¼ÐµÑĢ": 4005,
      "ĠÐ´Ð²ÑĥÐ¼": 4006,
      "ĠÐ´ÑĢÑĥÐ³Ð¾Ð¹": 4007,
      "ÐºÐ¸Ð½Ð°": 4008,
      "Ġ1918": 4009,
      "ĠÑĪÐºÐ¾Ð»Ð°": 4010,
      "ĠÐ¿ÑĢÐ¾Ð²Ð¸Ð½ÑĨÐ¸Ð¸": 4011,
      "ÑĥÑİÑīÐ¸Ñħ": 4012,
      "ÑĳÐ¶": 4013,
      "ÑĥÐºÑĤ": 4014,
      "ĠÑģÐ°Ð¼ÑĭÑħ": 4015,
      "ĠÐľÐ¾ÑģÐºÐ¾Ð²ÑģÐºÐ¾Ð¹": 4016,
      "ĠÑģÐ°Ð¼Ð¾Ð»ÑĳÑĤ": 4017,
      "ÑĥÑİÑīÐ¸Ðµ": 4018,
      "ĠÐ²Ð¾Ð¹ÑģÐºÐ°": 4019,
      "ĠÐ°ÑĢÐµÑģÑĤ": 4020,
      "ĠÐ¿ÑĢÐµÐ¿Ð¾Ð´Ð°Ð²": 4021,
      "Ð»ÑıÐµÑĤ": 4022,
      "ĠÑģÑĨÐµÐ½Ð°ÑĢ": 4023,
      "ÑĢÐ¾Ð³": 4024,
      "ĠÐ´ÐµÑĢÐµÐ²Ð½Ðµ": 4025,
      "ÐµÐ½Ð½Ð¾Ð¼": 4026,
      "ÑħÐ¾Ð·": 4027,
      "ĠÐ¾Ð±Ð²Ð¸Ð½": 4028,
      "ĠÐĵÐµÑĢÐ¾Ð¹": 4029,
      "áĥ": 4030,
      "ĠÑģÑĤÐ°ÑĤÑĥÑģ": 4031,
      "ÑģÑĤÐ²ÐµÐ½Ð½ÑĭÑħ": 4032,
      "ÑĭÐ²Ð°ÑİÑĤ": 4033,
      "ÑĥÑı": 4034,
      "32": 4035,
      "Ð´ÐµÑĢ": 4036,
      "ĠÐºÐ¾ÑĢÐ¿ÑĥÑģ": 4037,
      "ĠÐ°Ð²Ð¸Ð°ÑĨÐ¸Ð¾Ð½": 4038,
      "tp": 4039,
      "ĠIV": 4040,
      "ÐµÐ½Ð½ÑĥÑİ": 4041,
      "ies": 4042,
      "ÑĭÐ²Ð°Ð»": 4043,
      "ĠÐ¼Ð¾ÑģÑĤ": 4044,
      "ast": 4045,
      "ĠÑģÐ»Ð°Ð²": 4046,
      "ĠÐ½ÑĳÐ¼": 4047,
      "ĠÐ²Ð½Ð¸Ð¼": 4048,
      "ĠÐ´Ð¾ÑģÑĤÑĥÐ¿": 4049,
      "ĠÐ¼ÐµÑģÑıÑĨÐ°": 4050,
      "ÐļÐ¾Ð½": 4051,
      "ĠÐ´Ð¾Ð»Ð»": 4052,
      "Ð°ÑĤÐ¸": 4053,
      "ÑĢÑĥÐ±": 4054,
      "Ð½ÐµÑĢ": 4055,
      "Ð»Ð°Ð½Ð´Ð¸Ð¸": 4056,
      "ÑĪÐ°": 4057,
      "ĠÐ·Ð°ÑħÐ²Ð°ÑĤ": 4058,
      ">Â«": 4059,
      "ÐµÐ²ÑģÐºÐ¾Ð³Ð¾": 4060,
      "Ð¾ÑģÑĤÑĢÐ¾": 4061,
      "ĠÐĶÐ¾Ð¼": 4062,
      "ĠÑĥÐ´Ð°Ð»Ð¾ÑģÑĮ": 4063,
      "ĠÐ¿ÑĢÐ¾Ñĩ": 4064,
      "Ð¸ÑĩÐ½Ð¾": 4065,
      "65": 4066,
      "ÑĤÐ°Ñħ": 4067,
      "Ð²ÐµÑĢÐ³": 4068,
      "ĠÐĶÑį": 4069,
      "ÑĤÐ¸Ð½Ð³": 4070,
      "ĠÐĿÐ¸ÐºÐ¾Ð»Ð°": 4071,
      "ĠÐ¾ÑĤÐ²": 4072,
      "ĠÐ¯Ð¿Ð¾Ð½Ð¸Ð¸": 4073,
      "Ġ1917": 4074,
      "ĠÐºÐ¾Ð¼Ð¿Ð»ÐµÐºÑģ": 4075,
      "ĠÐ·Ð°Ð½ÑıÐ»": 4076,
      "âĢĵ": 4077,
      "ĠÐ¿ÑĢÐµÐ´ÐµÐ»": 4078,
      "Ð°ÑĤÐ°ÑĢ": 4079,
      "ĠÐºÐ¾Ð»Ð¾Ð½": 4080,
      "ĠÐ¿ÑĢÐµÐ·Ð¸Ð´ÐµÐ½ÑĤ": 4081,
      "ĠÐĴÐ¸Ð»ÑĮ": 4082,
      "ĠÐ¿ÑĢÐ¸ÑģÑĥÑĤÑģÑĤÐ²": 4083,
      "Ð½Ð¾Ð²ÑĢÐµÐ¼ÐµÐ½Ð½Ð¾": 4084,
      "ĠÑĤÐ°ÐºÐ¸Ðµ": 4085,
      "Ð¾ÑĢÑĥÐ´": 4086,
      "ÑģÐ¾Ð²": 4087,
      "ĠÐºÑĢÐµÑģÑĤÑĮÑıÐ½": 4088,
      "ÑĥÑĢÐ³Ð°": 4089,
      "ain": 4090,
      "Ð°ÑĨ": 4091,
      "ĠÐ½Ð°Ð¿Ð°Ð´": 4092,
      "ĠÐ¿ÑĢÐ°Ð²Ð¾": 4093,
      "ÑıÑĤÐ¾": 4094,
      "Ð¿Ð¾Ð·": 4095,
      "ĠÐµÐ²ÑĢÐ¾Ð¿ÐµÐ¹": 4096,
      "ĠÐ¿ÐµÑĢÐµÑħÐ¾Ð´": 4097,
      "ĠÐĲÐ·ÐµÑĢÐ±Ð°Ð¹Ð´Ð¶": 4098,
      "ĠÐ¤Ð¸Ð»Ð¸": 4099,
      "Ð¸Ð¶ÐµÐ½Ð¸Ñı": 4100,
      "ĠÐķÐºÐ°ÑĤÐµÑĢ": 4101,
      "ĠÐ¾Ð±Ð¾Ð·Ð½Ð°Ñĩ": 4102,
      "ĠÐ³ÑĢÑĥÐ·": 4103,
      "ĠÑĤÐµÐ¾ÑĢ": 4104,
      "ĠÐĳÐ¾ÑĢÐ¸Ñģ": 4105,
      "Ð¸ÑģÑĤÐ¸ÐºÐ°": 4106,
      "Ð°ÑİÑīÐµÐ¹": 4107,
      "Ð´Ð¾Ð²": 4108,
      "Ð¸Ð½Ð¸Ð¼": 4109,
      "ĠÐ¼Ð¸ÑĢÐµ": 4110,
      "Ð½Ð¸ÑĤ": 4111,
      "Ð¾ÑģÑı": 4112,
      "Ð·Ðµ": 4113,
      "ĠÐ¾ÐºÐ¾Ð½ÑĩÐ°Ð½Ð¸Ñı": 4114,
      "http": 4115,
      "ÐĵÐ£": 4116,
      "Ð°Ð¼ÑıÑĤÑĮ": 4117,
      "ĠÐºÐ¾Ð½ÑĤÑĢÐ°ÐºÑĤ": 4118,
      "ĠÐ¿ÑĢÐ¸ÑģÐ²Ð¾": 4119,
      "://": 4120,
      "ĠÐ½Ð°ÑģÑĤ": 4121,
      "ĠÑĥÐµÐ·Ð´": 4122,
      "ĠÐ´ÐµÐ¹ÑģÑĤÐ²Ð¸Ñı": 4123,
      "ĠÐµÐ¹": 4124,
      "ĠÐ²ÑģÐµÐ¼": 4125,
      "Ð²Ð¾Ð¹": 4126,
      "Ð°Ð²Ð»Ð¸Ð²": 4127,
      "ÐµÐ½ÑģÐºÐ¸Ð¹": 4128,
      "ĠÐºÐ½Ð¸Ð³Ð¸": 4129,
      "ĠÑĢÐ°Ð±Ð¾ÑĤÐµ": 4130,
      "ĠÐ¼ÐµÐ½ÑĮ": 4131,
      "ĠÑĦÐ¸Ð»ÑĮÐ¼Ðµ": 4132,
      "Ð»ÑıÐµÑĤÑģÑı": 4133,
      "ĠÐ¿ÑĢÐ¾Ð¸Ð·Ð²Ð¾Ð´ÑģÑĤÐ²Ð°": 4134,
      "ÑģÐ¾Ð¼": 4135,
      "Ð¸Ð²ÑĪÐ¸ÐµÑģÑı": 4136,
      "ĠÐŀÐ±Ñī": 4137,
      "ĠÐĺÑģÐ¿Ð°Ð½Ð¸Ð¸": 4138,
      "Ġ1979": 4139,
      "88": 4140,
      "ĠÐĿÐ°Ð¿": 4141,
      "Ð°Ð½Ð¸Ð¼": 4142,
      "Ð¿ÑĢÐµ": 4143,
      "ĠÑĥÐ´Ð°ÑĢ": 4144,
      "ÑĨÐ¸ÑĦ": 4145,
      "Ġ60": 4146,
      "ĠÐ·ÐµÐ¼Ð»Ð¸": 4147,
      "ĠÐ¿Ð¾ÑĤÐ¾Ð¼": 4148,
      "ÑĢÐµÐ½Ð¸Ñı": 4149,
      "ĠMar": 4150,
      "ĠÑĪÐºÐ¾Ð»Ðµ": 4151,
      "ĠÐ¿Ð»ÐµÐ¼": 4152,
      "ĠÐĺÐ»ÑĮ": 4153,
      "--": 4154,
      "ĠÐ±Ð»Ð°Ð³Ð¾Ð´Ð°ÑĢÑı": 4155,
      "sp": 4156,
      "ĠÐ½Ð¾Ð²Ð¾Ð³Ð¾": 4157,
      "ĠÐºÐ¾ÑĤÐ¾ÑĢÑĭÐ¼": 4158,
      "ĠÐ´Ð¾Ð»Ð¶ÐµÐ½": 4159,
      "ĠÐ¿Ð¾ÑįÑĤÐ¾Ð¼Ñĥ": 4160,
      "ĠÐ¼Ñĭ": 4161,
      "ĠÐ½Ð¾ÑıÐ±": 4162,
      "Ġ1982": 4163,
      "ÐŀÑģÐ½Ð¾Ð²": 4164,
      "ĠÐ¿Ð°Ð»": 4165,
      "ÑĨÐµÐ½ÑĤ": 4166,
      "ĠÑģÐµÑĢÐµÐ±ÑĢÑı": 4167,
      "ont": 4168,
      "Ð¿Ð¾Ð»Ð°Ð³": 4169,
      "The": 4170,
      "ĠÑĥÐ¿ÑĢÐ°Ð·Ð´Ð½": 4171,
      "ĠÑĥÐ½Ð¸Ð²ÐµÑĢÑģÐ¸ÑĤÐµÑĤÐµ": 4172,
      "Ġ1976": 4173,
      "Ġ1983": 4174,
      "ĠÐ´Ð¾ÑĩÑĮ": 4175,
      "ÑįÐ»ÑĮ": 4176,
      "Ð¸Ð´Ñĭ": 4177,
      "33": 4178,
      "ĠÐ²Ð·Ð°": 4179,
      "ĠÐ¾Ð±ÑĭÑĩÐ½Ð¾": 4180,
      "ĠÐºÐ¾Ð»Ð»ÐµÐºÑĤ": 4181,
      "Ð¾Ð²Ð°Ð½Ñĭ": 4182,
      "ĠÐ³Ð¾ÑģÑĥÐ´Ð°ÑĢÑģÑĤÐ²Ð°": 4183,
      "Ð¿ÐµÑĢ": 4184,
      "ĠÑįÐ¿Ð¸Ð·Ð¾Ð´": 4185,
      "Ð²Ð°ÑĢÐµ": 4186,
      "ĠÑģÐ¸Ð½Ð³": 4187,
      "ĠÐ¾ÑĢÐ³Ð°Ð½Ð¸Ð·Ð°": 4188,
      "ind": 4189,
      "ĠÐ¿Ð¾Ð²ÐµÑĢÑħ": 4190,
      "ĠÑĤÐ°Ð¹": 4191,
      "ĠÑĢÐµÐ¼": 4192,
      "ÑĮÐµÐ²": 4193,
      "Ġ1975": 4194,
      "ĠÐĹÐ²": 4195,
      "ÑĳÑģ": 4196,
      "ĠÑĢÐ°ÑģÑĪÐ¸ÑĢ": 4197,
      "Ð¾Ð°Ð½": 4198,
      "ĠÐ¨ÑĤ": 4199,
      "Ð°Ð²ÑĪÐ¸Ñħ": 4200,
      "ĠÐ¾ÑģÐ°Ð´": 4201,
      "Ð°ÑıÑģÑĮ": 4202,
      "ÐĶÐ¾ÑģÑĤ": 4203,
      "ĠÐļÐŁÐ¡Ð¡": 4204,
      "ĠÑĢÐµÑĩ": 4205,
      "ĠÐ»Ð¸Ð±Ð¾": 4206,
      "ĠÐ²ÐºÐ»ÑİÑĩÐ°Ñı": 4207,
      "Â»;": 4208,
      "ÑĥÑĢÑĥ": 4209,
      "Ġ1968": 4210,
      "ĠÐ¦ÐµÑĢ": 4211,
      "sk": 4212,
      "ĠÐĿÐ¸Ð¶": 4213,
      "ĠÐ¾Ð±Ð»Ð°Ð´": 4214,
      "ĠÐ¿ÑĢÐ¾ÑĤÑıÐ¶": 4215,
      "ĠÐ¾Ð±ÑĢÐ°Ñī": 4216,
      "ĠÐ½ÐµÐ¿ÑĢ": 4217,
      "Ġ1972": 4218,
      "ĠÐ·Ð°ÑĢ": 4219,
      "ĠÐļÐ¾Ð½ÑģÑĤÐ°Ð½ÑĤÐ¸Ð½": 4220,
      "ĠÑĥÑĢÐ¾Ð²Ð½ÐµÐ¼": 4221,
      "ĠÐ¿ÑĢÐ¾ÐµÐºÑĤÐ°": 4222,
      "ÑĢÐ¸ÑģÐ°": 4223,
      "Ġ1981": 4224,
      "ÑĥÑģÑĤÑı": 4225,
      "ĠÑģÑĥÐ±": 4226,
      "ĠÐ±Ð°ÑģÑģÐµÐ¹": 4227,
      "ass": 4228,
      "ĠÑģÐ²Ð¸Ð´": 4229,
      "ĠÐºÐ¾Ð¼Ð°Ð½Ð´Ð°": 4230,
      "Ð¾ÑİÐ·": 4231,
      "ĠÐľÐ¸Ð½Ð¸ÑģÑĤÐµÑĢ": 4232,
      "ĠÐ¿ÑĢÐµÑģÑĤÑĥÐ¿": 4233,
      "ĠÑĤÑĢÐ°Ð½ÑģÐ¿Ð¾ÑĢÑĤ": 4234,
      "ĠÐĽÐµÐ¾Ð½": 4235,
      "ĠÐ¿ÑĢÐ¾Ð¸ÑģÑħÐ¾Ð´Ð¸ÑĤ": 4236,
      "ĠÐ²Ð»Ð¸ÑıÐ½Ð¸Ðµ": 4237,
      "ĠÐ½Ñĭ": 4238,
      "ĠÐ»Ð¸Ð³": 4239,
      "Ġh": 4240,
      "Ð»Ð¾ÑĤÐ°": 4241,
      "Ð»ÐµÑĩ": 4242,
      "ĠÑģÐ¾ÑĤÑĢÑĥÐ´Ð½Ð¸Ñĩ": 4243,
      "ÐľÑĥÐ·": 4244,
      "Ð¸Ð¹ÑģÐºÐ°Ñı": 4245,
      "ĠÐ²Ð¾Ð·Ð´ÑĥÑħÐ°": 4246,
      "ĠÐĽÑĮ": 4247,
      "44": 4248,
      "ĠÐ²ÐµÐ´ÑĥÑī": 4249,
      "Ð¸ÑģÑĤÐ°": 4250,
      "Ð¸ÑĢÑĥÐµÑĤ": 4251,
      "ĠÑģÐ¾Ð·Ð´Ð°Ð½Ð¸Ñı": 4252,
      "ĠÐ¿Ð¾Ñį": 4253,
      "ĠÐ¿ÐµÑĢÐµÑĪÑĳÐ»": 4254,
      "ÑĥÐ½Ð°": 4255,
      "ĠÐ½Ð¾Ð²ÑĭÑħ": 4256,
      "ĠÐºÐ¾Ð½ÑĨÐµÑĢÑĤ": 4257,
      "ĠÐºÐ½Ð¸Ð³": 4258,
      "ĠÐŁÐ¾Ð±ÐµÐ´": 4259,
      "Ġ1973": 4260,
      "Ð»Ð°Ð±": 4261,
      "ĠÑģÐ°Ð¼ÑĭÐ¼": 4262,
      "ĠÑħÑĥÐ´Ð¾Ð¶Ð½Ð¸Ðº": 4263,
      "ĠÐ±ÑĢÐ¾Ð½Ð·": 4264,
      "ĠÑĪÑĤÐ°ÑĤ": 4265,
      "ĠÐ¿ÑĢÐ¾Ðº": 4266,
      "Ð¸ÐºÐ¾Ð¼": 4267,
      "ÐµÑĢÐ¾ÑıÑĤ": 4268,
      "ĠÐ¯Ð½": 4269,
      "ĠÐ¾ÑĤÑĢÑıÐ´": 4270,
      "ĠÑĦÐµÑģÑĤÐ¸Ð²": 4271,
      "ĠÑĩÑĳÑĢ": 4272,
      "Ð¿Ð¸ÑģÐ°Ð½Ð¸Ðµ": 4273,
      "ĠÐĿÐ°ÑģÐµÐ»": 4274,
      "Ð°Ð»Ñı": 4275,
      "ĠÑıÐ²": 4276,
      "ĠÐ¿Ð°": 4277,
      "ĠÐĲÐ¹": 4278,
      "ĠÐ²ÑĭÑģÑĤÑĥÐ¿Ð°Ð»": 4279,
      "ĠÐºÐ¾ÑĢÐ¾Ð»Ñı": 4280,
      "Ġ1978": 4281,
      "ĠÐ¡Ð²ÑıÑĤÐ¾Ð³Ð¾": 4282,
      "ĠÑģÐ¾Ð³Ð»Ð°Ñģ": 4283,
      "Ð½ÑİÑİ": 4284,
      "ĠÐ¼Ð°Ð½": 4285,
      "Ð²ÐµÐ¹ÑĨ": 4286,
      "ĠÐ³Ð¸Ð¼": 4287,
      "ĠÐĽÐµÐ½Ð¸Ð½Ð°": 4288,
      "ĠÐ¿Ð¾Ð´ÑĤ": 4289,
      "ĠÐ´ÑĢÑĥÐ³Ð¸Ð¼Ð¸": 4290,
      "ĠÑģÐ²ÑıÑī": 4291,
      "ĠÐ±Ð»Ð°Ð³": 4292,
      "Ð¸ÑĩÐµÑģÐºÐ¸Ð¼Ð¸": 4293,
      "ĠÐ´Ð¸Ð¿Ð»Ð¾Ð¼": 4294,
      "ĠÐ¡ÐŁ": 4295,
      "ĠÐľÐ°ÑĢÑĤ": 4296,
      "Ð¸Ð·Ð²ÐµÑģÑĤ": 4297,
      "ĠÐĺÑģ": 4298,
      "Ð³Ð»Ñı": 4299,
      "ĠÑģÑħ": 4300,
      "ĠÐºÐ¾ÑĢÐ¿ÑĥÑģÐ°": 4301,
      "ĠÐºÑĥÐ»ÑĮ": 4302,
      "ĠÑĢÑĥÑģÑģÐºÐ¸Ð¹": 4303,
      "Ð¸ÑĢÐ¾Ð²Ð°Ð½Ð°": 4304,
      "Ġ1965": 4305,
      "1945": 4306,
      "89": 4307,
      "ÑĢÐ°Ð¼Ð°": 4308,
      "Ã¼": 4309,
      "ĠÑĤÑĢÐµÐ½ÐµÑĢ": 4310,
      "Ð°Ð½ÑģÐºÐ°Ñı": 4311,
      "ĠÐ¼ÐµÑĩ": 4312,
      "ĠÐŁÐ°Ð»": 4313,
      "86": 4314,
      "Ð¸Ð¹ÑģÐºÐ¾Ð¼": 4315,
      "ĠÐ·Ð²Ð°Ð½Ð¸Ðµ": 4316,
      ".).": 4317,
      "Ð¾Ð½Ñĥ": 4318,
      "ĠÐĴÐ¾Ð·": 4319,
      "ÑĮÑİÑĤÐµÑĢ": 4320,
      "ert": 4321,
      "ĠÐºÑĢÐ¾Ð²": 4322,
      "ÑıÑģÑĮ": 4323,
      "Ð¾Ð»Ð½Ñı": 4324,
      "ĠÑħÐ¾Ðº": 4325,
      "ĠÐ³Ð¾ÑĤÐ¾Ð²": 4326,
      "ĠÑĪÐºÐ¾Ð»Ñĥ": 4327,
      "ĠÐºÐ»Ð°ÑģÑģÐ°": 4328,
      "ĠÐ½ÐµÑĳ": 4329,
      "ĠÐŁÑĢÐµÐ¼": 4330,
      "Ð¸Ð´ÐµÑĢÐ»Ð°Ð½Ð´": 4331,
      "Ð»Ð°Ð¼ÐµÐ½ÑĤ": 4332,
      "ĠÑģÐ¿ÐµÐºÑĤ": 4333,
      "ĠÐºÐ°ÑĢÑĮÐµÑĢÑĥ": 4334,
      "ĠÐºÐ°Ð²Ð°Ð»": 4335,
      "ĠÐµÐ¿Ð°ÑĢÑħ": 4336,
      "ĠÐľÑĥÐ·": 4337,
      "ĠÐ´Ð¸ÑģÑģ": 4338,
      "ĠÐ°ÑģÑĤ": 4339,
      "ĠÐ´Ð¾ÑĢÐ¾Ð³Ð¸": 4340,
      "ĠÐ¿ÐµÑĢÐµÐ½": 4341,
      "ĠÐ¿ÐµÑĢÐµÐ¸Ð¼ÐµÐ½": 4342,
      "ust": 4343,
      "Ð¾ÑģÑĤÐ°Ð½": 4344,
      "Ð£Ð¼ÐµÑĢ": 4345,
      "ĠÐ±ÐµÑģÐ¿": 4346,
      "Ð¾Ð»Ðµ": 4347,
      "ĠÐ¿Ð¾ÑĤÑĢÐµÐ±": 4348,
      "ĠÐ¾ÑĤÐ½Ð¾ÑĪÐµÐ½Ð¸Ñı": 4349,
      "Ð¸Ð½ÑĮ": 4350,
      "76": 4351,
      "ĠÐ²ÑĢÐ°Ñĩ": 4352,
      "ĠÐºÑĥÑĢÑģ": 4353,
      "Ð°ÑĤÐµÐ»ÑĮÐ½Ð¾": 4354,
      "ĠÐĳÑĢÐ°Ð·": 4355,
      "Ð±Ð¸ÑĤ": 4356,
      "Ð¡ÐµÐ¼": 4357,
      "ĠÑģÐ»ÑĥÐ¶Ð±Ñĭ": 4358,
      "ĠÐ¸Ð½ÑģÑĤÑĢÑĥ": 4359,
      "Ð»ÑĥÐ³Ð¸": 4360,
      "ĠÐ±Ñİ": 4361,
      "ĠÐ¼Ð°ÐºÑģÐ¸Ð¼": 4362,
      "ĠÐ´Ð¾Ð»Ð¶Ð½Ð¾ÑģÑĤÐ¸": 4363,
      "ÑĤÐ¾Ñĩ": 4364,
      "ÑĢÐ¾ÑĤ": 4365,
      "ĠÐ²ÑĭÐ´ÐµÐ»": 4366,
      "Ġ1974": 4367,
      "ÐºÐ¸Ð¼Ð¸": 4368,
      "ĠÐ¿Ð¾Ð¼Ð¾Ð³": 4369,
      "ĠÐ¾ÑĤÐµÑĨ": 4370,
      "ÑĳÐ½Ð½Ð°Ñı": 4371,
      "Ð»Ð¸Ð½Ð³": 4372,
      "ang": 4373,
      "ĠÑĤÐ°Ð½ÐºÐ¾Ð²": 4374,
      "ĠÐĽÐ¸ÑĤ": 4375,
      "ĠÐ¾ÑģÑĤÑĢÐ¾Ð²Ð°": 4376,
      "ĠÑĦÑĥÑĤÐ±Ð¾Ð»Ñĥ": 4377,
      "ÑĩÐ¸Ð½Ñĭ": 4378,
      "ĠÑģÐ¸Ð»Ñĭ": 4379,
      "ĠÐ½Ð°ÑĥÐºÐ¸": 4380,
      "ĠÑįÑĤÐ¸Ð¼": 4381,
      "ĠÑĢÐ°Ð·ÑĢÑĥÑĪ": 4382,
      "ĠÐ¿ÐµÑĢÐ²Ð¾Ð¼": 4383,
      "ĠÑĥÑĩÐ°ÑģÑĤÐ½Ð¸Ðº": 4384,
      "ÑĢÑĥÑĤ": 4385,
      "Ġ000": 4386,
      "Ð°Ð·Ð²": 4387,
      "84": 4388,
      "ÑĢÐ°Ð·Ñĥ": 4389,
      "ĠÑĦÐ¸Ð³": 4390,
      "ĠÐ²ÑģÐµÐ¹": 4391,
      "Ð°ÑĢÐ°Ð½": 4392,
      "ĠÐ´Ð°Ð½Ð½ÑĭÑħ": 4393,
      "ĠÑĢÐ°Ð·Ð²ÐµÐ´": 4394,
      "ĠÐķÐ²Ð³": 4395,
      "Ð£ÑĩÐ°ÑģÑĤÐ½Ð¸ÐºÐ¸": 4396,
      "ĠÑĨÐµÐ»ÑĮÑİ": 4397,
      "ĠÐ±Ð¾Ð¹": 4398,
      "ĠÑģÐµÐ¼ÑĮÐ¸": 4399,
      "ĠÐ¿Ð¾Ð´Ð¾Ð±": 4400,
      "ÑĥÑĢÐ½Ð¸ÑĢ": 4401,
      "ĠÐĲÐ½Ð³Ð»Ð¸Ð¸": 4402,
      "ĠÐ³Ð»Ð°Ð²Ð½ÑĭÐ¼": 4403,
      "ĠÐ¼Ð½ÐµÐ½Ð¸Ñİ": 4404,
      "ÐµÐ´Ð¸Ð½Ðµ": 4405,
      "Ð°ÑģÑģÐ°Ð¶": 4406,
      "Ð¾Ð½Ð¾Ñģ": 4407,
      "Ð¸Ð²Ð°Ð»": 4408,
      "ĠÐ§ÐµÑħ": 4409,
      "ÐŁÐµÑĢÑģÐ¾Ð½": 4410,
      "ĠÐ¾ÑĤÐ¼ÐµÑĤ": 4411,
      "ÑĢÑĥÐ¿Ð¿Ð°": 4412,
      "ĠÐŁÑĢÐ¾ÑĦ": 4413,
      "ĠÐĽÐ°ÑĤ": 4414,
      "ĠÑģÐµÐ½ÑĤÑıÐ±ÑĢÐµ": 4415,
      "ÐºÑĥÑĤ": 4416,
      "ĠÑıÐ½Ð²Ð°ÑĢÐµ": 4417,
      "Ġ1977": 4418,
      "ĠÐ·Ð°ÐºÐ¾Ð½Ñĩ": 4419,
      "ĠÐĲÑĤ": 4420,
      "ÐºÐ¾Ð¿": 4421,
      "ĠÐ¿Ð»Ð°Ð²": 4422,
      "Ð»ÑıÐ½Ð´": 4423,
      "ĠÑĢÑı": 4424,
      "ĠTh": 4425,
      "ÐµÑģÑģÐ°": 4426,
      "Ð¸ÐºÐ¾Ð¹": 4427,
      "ĠÐĹÐ°ÑĤÐµÐ¼": 4428,
      "Ð°Ð»ÑĮÐ½ÑĥÑİ": 4429,
      "ÐºÐ¾Ð²ÑģÐºÐ¾Ð³Ð¾": 4430,
      "Ġ1938": 4431,
      "ĠÑħÑĢÐ°Ð½": 4432,
      "90": 4433,
      "Ġ1966": 4434,
      "Ð¸Ð³Ð¸Ð¾Ð·": 4435,
      "ĠÐ¿ÑĢÐ¸Ð²Ð¾Ð´": 4436,
      "Ġ1971": 4437,
      "ÑĨÐµÐ¼": 4438,
      "ĠÑĩÐµÐ¼Ð¿Ð¸Ð¾Ð½Ð°ÑĤ": 4439,
      "ĠÐ°ÑĢÑħÐ¸ÑĤÐµÐºÑĤ": 4440,
      "ĠÐ¾Ð±Ð¾ÑĢÐ¾Ð½Ñĭ": 4441,
      "ÑĢÐ°Ð½Ð°": 4442,
      "Ð¸ÑģÑĤÐ¸ÐºÐ¸": 4443,
      "Ð¾Ð·Ð²": 4444,
      "ĠÐ¿ÑĢÐµÐ´Ð¾ÑģÑĤÐ°Ð²": 4445,
      "ÑĢÐ¾ÑģÐ»Ð°Ð²": 4446,
      "ĠÑĩÐ°ÑģÑĤÑĮÑİ": 4447,
      "Ġ1937": 4448,
      "ÑĢÐ°Ð·Ð´ÐµÐ»": 4449,
      "ĠÐ¼Ð°Ðµ": 4450,
      "ĠÐ¼Ð¸Ð½Ð¸Ð¼": 4451,
      "ĠÐĴÐ¸ÑĤ": 4452,
      "ĠÐ´Ð°ÑĤ": 4453,
      "ĠÑģÐ¾ÑģÑĤÐ¾Ð¸ÑĤ": 4454,
      "ĠÐ¸ÑģÐ¿ÑĭÑĤ": 4455,
      "ĠÐĿÐ°ÑĢÐ¾Ð´": 4456,
      "ĠÐ´Ð¸Ñģ": 4457,
      "ĠÑĢÐ°ÑģÐ¿Ð¾Ð»Ð¾Ð¶ÐµÐ½": 4458,
      "ĠÑģÐ²Ð¸Ð´ÐµÑĤ": 4459,
      "Ð½ÑĭÐ½Ðµ": 4460,
      "Ð¸Ð²Ð°ÑĤÑĮ": 4461,
      "ÑģÑĤÐ¸ÑĤÑĥ": 4462,
      "ĠÐ´Ð¾Ð»Ð»Ð°ÑĢÐ¾Ð²": 4463,
      "ĠÐĲÐ²ÑģÑĤÑĢÐ°Ð»": 4464,
      "ĠÑĦÑĥÑĤÐ±Ð¾Ð»ÑĮ": 4465,
      "ica": 4466,
      "ĠÐ¥Ð°ÑĢ": 4467,
      "ĠÑģÑĭÐ³ÑĢÐ°Ð»": 4468,
      "ÐºÐ¸Ð¿": 4469,
      "ĠÐ·Ð´Ð°Ð½Ð¸Ñı": 4470,
      "Ð°ÑĤÐ¾ÑĢÐ°": 4471,
      "ĠÐ½ÐµÑĦ": 4472,
      "ÐĺÑģÑĤÐ¾Ñĩ": 4473,
      "ĠÐ´ÐµÑĢÐ¶": 4474,
      "ĠÑĩÑĥÐ²": 4475,
      "Ð¸ÑĢÐ°ÑĤ": 4476,
      "Ð²Ñĥ": 4477,
      "ĠÑĢÐ°Ð·ÑĢÐµÑĪ": 4478,
      "ĠÐĲÐ½ÑĤÐ¾Ð½": 4479,
      "ÐºÐ¾Ð»ÑĮ": 4480,
      "Ð¸Ð¾Ð½Ñĭ": 4481,
      "ĠÐ¼Ð°ÑĢÑĤÐµ": 4482,
      "ÑĭÐ²Ð°ÑĤÑĮ": 4483,
      "Ġ1967": 4484,
      "ĠÐ¿ÑĢÐ¸ÑĤ": 4485,
      "ĠÐ²ÑĤÐ¾ÑĢÐ¾Ð³Ð¾": 4486,
      "ĠÑģÐ¾ÑĢÐµÐ²Ð½Ð¾Ð²Ð°Ð½Ð¸Ñı": 4487,
      "Ð»ÑĮÐ½Ð¾Ð³Ð¾": 4488,
      "Ð°Ð´ÑĮ": 4489,
      "Ð°Ð½Ð¸ÐµÐ¹": 4490,
      "55": 4491,
      "ĠÑģÐ¸ÑģÑĤÐµÐ¼Ð°": 4492,
      "Ð¸ÑĤÐ¸": 4493,
      "ĠÐ¾Ð¿ÐµÑĢÐ°ÑĨÐ¸Ð¸": 4494,
      "ĠÑģÐ½Ð¾Ð²Ð°": 4495,
      "ĠÐ²Ð¾Ð»Ð¾ÑģÑĤÐ¸": 4496,
      "ĠÑįÑģÑĤ": 4497,
      "Ġ1964": 4498,
      "ÑĳÐ·Ð´": 4499,
      "ÐµÐ³Ð´Ð°": 4500,
      "Ð¸Ð½ÐµÐ½ÑĤ": 4501,
      "ĠÐ¿ÐµÑĢÐµÐµÑħ": 4502,
      "ĠÑĤÐ°Ð±": 4503,
      "ĠÐ²Ð¾Ð·Ð¼Ð¾Ð¶Ð½Ð¾ÑģÑĤÑĮ": 4504,
      "ĠÐ½Ð°ÑĪ": 4505,
      "ĠÐºÑĤÐ¾": 4506,
      "ĠÐºÐ²Ð°ÑĢÑĤ": 4507,
      "Ð¼Ð°ÑĢ": 4508,
      "ĠÑıÑĢ": 4509,
      "ĠÐĽÐµÐ²": 4510,
      "ĠÐ´Ð¾ÐºÑĥÐ¼ÐµÐ½ÑĤ": 4511,
      "ĠÐ´Ð²ÑĥÐ¼Ñı": 4512,
      "ÐµÐ³Ð¾ÑģÑı": 4513,
      "ÑĦÐ¸Ð»ÑĮÐ¼": 4514,
      "Ð³Ð¸Ð¿": 4515,
      "ĠÐ¡ÐµÐ½": 4516,
      "ĠSh": 4517,
      "ĠÐºÐ¾Ð¼Ð¼ÑĥÐ½Ñĭ": 4518,
      "ĠÐ³Ð¸Ð´": 4519,
      "ĠÐ¾ÑĤÑĨÐ°": 4520,
      "ĠÐ¢ÐµÐ¼": 4521,
      "ÐµÑĢÐµÐ²Ð½Ñı": 4522,
      "ĠÐĺÐ¼Ð¿": 4523,
      "Ġ1959": 4524,
      "Ð¾ÑģÐ»Ð¾Ð²": 4525,
      "ĠÑģÐ¾Ð³Ð»Ð°ÑģÐ½Ð¾": 4526,
      "ĠÐĿÐ°ÑģÐµÐ»ÐµÐ½Ð¸Ðµ": 4527,
      "74": 4528,
      "ĠÐ´Ð¾Ð±Ð°Ð²": 4529,
      "ÑĢÐ°Ð½Ñĭ": 4530,
      "ĠÑģÐ»ÑĥÐ¶Ð±Ñĥ": 4531,
      "ÑĤÐ¾ÑĢÑĭ": 4532,
      "ÐµÑĢÐ°Ð¼Ð¸": 4533,
      "ĠÑĢÐµÐ·ÑĥÐ»ÑĮÑĤÐ°ÑĤÐ°Ð¼": 4534,
      "ÑĤÐµÐ½Ð°Ð½ÑĤ": 4535,
      "ÑĤÐ¸Ð²": 4536,
      "ÐºÐ²": 4537,
      "ĠÐ¿Ð¾ÑıÐ²Ð»Ñı": 4538,
      "ÐµÐºÐ°Ð½": 4539,
      "ĠÐŀÐ¿": 4540,
      "ÑģÑĤÐµÑĢ": 4541,
      "Ð¸ÐºÐ°ÑĨÐ¸Ñı": 4542,
      "Ð¾ÑĩÐ½ÑĭÐ¹": 4543,
      "Ð¸ÑĤÐµÐ»ÑıÐ¼Ð¸": 4544,
      "ĠÐ²ÐµÑģÑĮ": 4545,
      "ĠÐ¡ÐµÐ²ÐµÑĢÐ½Ð¾Ð¹": 4546,
      "ĠÐ¿ÑĢÐ¾Ð¸Ð·Ð²ÐµÐ´ÐµÐ½Ð¸Ñı": 4547,
      "ĠÐ¾ÑĤÐ½Ð¾ÑģÐ¸ÑĤÑģÑı": 4548,
      "ĠÐ²ÐµÑĩ": 4549,
      "ÐłÑĥÑģ": 4550,
      "ĠÑĩÐ°ÑģÐ¾Ð²": 4551,
      "ĠÐŁÐµÑĢÐ²Ð¾Ð¹": 4552,
      "Ġ1963": 4553,
      "ĠÐºÑĢÑĥÐ¿Ð½ÐµÐ¹": 4554,
      "ĠÐºÐ½ÑıÐ¶": 4555,
      "ÐºÐ¾Ðµ": 4556,
      "ĠÐ¿ÑĢÑıÐ¼Ð¾Ð¹": 4557,
      "Ð¾ÑģÑĤÑĮÑİ": 4558,
      "ĠÐ²Ð¾ÐµÐ²": 4559,
      "ĠÐ·Ð½Ð°Ð¼": 4560,
      "ĠÐ²Ð¸Ð·": 4561,
      "ÑģÐ¸Ð¸": 4562,
      "Ð¼Ð»Ð½": 4563,
      "Ð¸ÑĤÐµÐ»ÑĮÐ½Ð¾Ðµ": 4564,
      "Ġ1969": 4565,
      "ÑģÑĤÐ°Ð½": 4566,
      "ĠÐ¿ÑĢÐ¸ÑĢÐ¾Ð´": 4567,
      "man": 4568,
      "ĠÐŃÐ´": 4569,
      "ÐµÐ»Ñĳ": 4570,
      "ĠÐĲÐ·Ð¸Ð¸": 4571,
      "ĠÑĤÐ¾Ð¼Ñĥ": 4572,
      "ĠÐĵÑĢÐµ": 4573,
      "ĠÐ¸Ð¼ÐµÐ½Ð½Ð¾": 4574,
      "ĠÐ´Ð»": 4575,
      "ore": 4576,
      "ĠÐ¿ÑĢÐµÐ´ÑģÑĤÐ°Ð²Ð»ÑıÐµÑĤ": 4577,
      "ĠÐ¼ÑĥÐ·ÐµÐ¹": 4578,
      "ĠÐ°Ð²Ð³ÑĥÑģÑĤÐµ": 4579,
      "Ð²ÐµÑĤÐ°": 4580,
      "ĠÐ»Ð¸Ð´": 4581,
      "ĠÐ´ÐµÐºÐ°Ð±ÑĢÐµ": 4582,
      "ĠÑģÐ±Ð¾ÑĢÐ½ÑĥÑİ": 4583,
      "ĠÐ¸ÑģÐ¿Ð¾Ð»ÑĮÐ·Ð¾Ð²Ð°Ð»": 4584,
      "ĠÐ¾ÐºÑĤÑıÐ±ÑĢÐµ": 4585,
      "ĠÐ³Ð²Ð°ÑĢÐ´ÐµÐ¹": 4586,
      "ĠÑģÐ¾ÑģÑĤÐ°Ð²Ð»ÑıÐ»Ð¸": 4587,
      "Ð¸ÑĢÐ¾Ð²Ð°Ð½Ð½ÑĭÐµ": 4588,
      "ĠÐµÐ´Ð¸Ð½ÑģÑĤÐ²ÐµÐ½": 4589,
      "ĠÐłÐ¾ÑģÑģÐ¸Ñı": 4590,
      "ĠÐ·Ð°Ð³": 4591,
      "ond": 4592,
      "ĠÐ£Ð¸Ð»ÑĮ": 4593,
      "ĠÑĥÐ»Ð¸ÑĨÑĭ": 4594,
      "ĠÐ¿ÑĢÐ¾ÑĤÐ¸Ð²Ð½Ð¸ÐºÐ°": 4595,
      "ÐŀÑĢ": 4596,
      "ĠAm": 4597,
      "Ð°Ð½Ð´Ð°": 4598,
      "ĠÑĤÐ²Ð¾ÑĢÑĩ": 4599,
      "ĠÐºÐ¾Ð¿": 4600,
      "ĠÐ¼Ð°ÑĤÑĩÐµÐ¹": 4601,
      "ĠÐ¿ÐµÑĢÐ²ÑĭÐµ": 4602,
      "ĠÐ½Ð°Ð½": 4603,
      "ĠÐ¿ÑĢÐ¾ÑģÑĤÑĢÐ°Ð½": 4604,
      "ĠÐľÐ¾ÑģÐºÐ¾Ð²ÑģÐºÐ¾Ð³Ð¾": 4605,
      "Ð¸ÑĨÐ¸Ð¹": 4606,
      "ĠÑĢÐ°Ð·Ð½ÑĭÑħ": 4607,
      "ĠÐ¿Ð¾ÑģÐµÐ»ÐµÐ½Ð¸Ðµ": 4608,
      "ÑĥÑİÑĤÑģÑı": 4609,
      "ĠÑĤÑİ": 4610,
      "ĠÑĢÐ°Ð·Ð²Ð¸ÑĤÐ¸Ðµ": 4611,
      "Ð°Ð½Ð´Ð°ÑĢÑĤ": 4612,
      "Ġ978": 4613,
      "Ð¾Ð¼Ð±Ð°ÑĢÐ´": 4614,
      "ĠÐ¾Ð²": 4615,
      "ĠÐ²Ð²ÐµÐ´": 4616,
      "bo": 4617,
      "ĠÐ²ÑģÐºÐ¾ÑĢÐµ": 4618,
      "ĠÐ²Ð·Ð°Ð¸Ð¼": 4619,
      "Ġ1946": 4620,
      "ĠÐ°ÑĢÑĤÐ¸ÑģÑĤ": 4621,
      "ĠBl": 4622,
      "ĠÐºÐ¾Ð¼Ð¸ÑĤÐµÑĤÐ°": 4623,
      "ĠÐ¿Ð¾Ð²ÑĭÑĪ": 4624,
      "ĠÐ·Ð´Ð°Ð½Ð¸Ðµ": 4625,
      "ĠÐ²Ð¿Ð¾ÑģÐ»ÐµÐ´ÑģÑĤÐ²Ð¸Ð¸": 4626,
      "ĠÐ°ÑĢÑĤÐ¸Ð»Ð»ÐµÑĢ": 4627,
      "ĠÐ±Ð°Ð½": 4628,
      "Ð¸Ð³Ð¸Ð½": 4629,
      "ĠÑģÐ¸ÑĤÑĥ": 4630,
      "Ġ45": 4631,
      "ey": 4632,
      "ÐŁÐµÑĢÑģÐ¾Ð½Ð°Ð»Ð¸Ð¸": 4633,
      "ĠÐļÐ¾Ð³Ð´Ð°": 4634,
      "ÐºÐ¾Ð¼Ð°": 4635,
      "ÑĤÐ°Ð½": 4636,
      "ĠÐŁÐ°ÑĢÐ¸Ð¶": 4637,
      "ÐµÑĢÐ¸Ð¼": 4638,
      "ĠÐ¿ÑĥÑĤÐ¸": 4639,
      "ĠÐºÐ¾Ð¼Ð°Ð½Ð´Ñĥ": 4640,
      "Ð³ÐµÐ½ÑĤ": 4641,
      "ÑĤÐµÑĢÐ½": 4642,
      "ĠÐ¸ÑģÐ¿Ð¾Ð»ÑĮÐ·ÑĥÐµÑĤÑģÑı": 4643,
      "ĠÐĳÑĭ": 4644,
      "ĠÐ¿ÑĤ": 4645,
      "Ð½ÑĥÐ¶Ð´": 4646,
      "ung": 4647,
      "Ð°Ð»Ð¸ÑĦ": 4648,
      "ÐµÑĤÐ¾Ð¼": 4649,
      "ĠÐ¾ÑĤÐ»Ð¸ÑĩÐ¸Ðµ": 4650,
      "ÐµÐ½Ð½ÑĭÐ¼Ð¸": 4651,
      "ĠÐ²ÑĭÑĢÐ°Ð¶": 4652,
      "Ġ1958": 4653,
      "ĠÐŁÐ°ÑĤ": 4654,
      "79": 4655,
      "Ġ1956": 4656,
      "ĠÐ¿Ð¾Ð´ÑĩÐ¸Ð½": 4657,
      "ĠÐĲÑĦÑĢ": 4658,
      "ÑĢÐ°Ð»Ð¸": 4659,
      "ĠÑģÐ¿ÑĢÐ°Ð²": 4660,
      "ĠÐ´ÐµÐ¿Ð°ÑĢÑĤÐ°Ð¼": 4661,
      "ĠÐ¼Ð¸ÑĤ": 4662,
      "ĠÐ¾Ð´Ð½Ð¾Ð¼": 4663,
      "ÐŀÐ´": 4664,
      "ĠÐļÐ¾ÑģÑĤ": 4665,
      "46": 4666,
      "ĠÐºÐ¸ÑĤÐ°Ð¹": 4667,
      "ĠÐ¿Ð¾Ð¼Ð¾ÑīÐ¸": 4668,
      "ĠÑįÐ¿Ð¾Ñħ": 4669,
      "ĠÐ²ÑĭÐ¿ÑĥÑģÑĤ": 4670,
      "ĠÐ»ÑĳÐ³": 4671,
      "ĠÐ¼Ð°ÑĤÐµÐ¼Ð°ÑĤ": 4672,
      "ĠÐ²Ð¸Ð½": 4673,
      "ĠÐ²Ð¾ÑģÑĤÐ¾Ñĩ": 4674,
      "Ð°ÑĤÐ¾Ð»": 4675,
      "ÑĢÐ¾Ð¶": 4676,
      "Ð°Ð»Ð¸Ñı": 4677,
      "ÑĤÐ°Ð¹": 4678,
      "ĠÐ¶ÐµÐ½ÑīÐ¸Ð½Ñĭ": 4679,
      "ĠÑģÐ°Ð´": 4680,
      "ĠÑģÐ¿Ð¸Ñģ": 4681,
      "ĠÑĩÐ¸ÑģÐ»ÐµÐ½": 4682,
      "ĠÑĤÐ¾Ð»": 4683,
      "ld": 4684,
      "Ð¾ÐºÐ¸": 4685,
      "ĠÐ½Ð°ÑħÐ¾Ð´Ð¸Ð»ÑģÑı": 4686,
      "ÐµÐ»ÑĮÐ³": 4687,
      "Ġ1962": 4688,
      "ÑĭÐ´ÑĥÑī": 4689,
      "ĠÐłÐ¾ÑģÑĤ": 4690,
      "Ġ1919": 4691,
      "ĠÐ¶Ð¸Ð²Ð¾Ð¿": 4692,
      "ĠÐŀÑģÐ½Ð¾Ð²": 4693,
      "ĠÐ´Ð¾Ð»Ð¶Ð½Ñĭ": 4694,
      "48": 4695,
      "ĠÐ²ÑĭÐ½ÑĥÐ¶Ð´": 4696,
      "ĠÑĢÐ¾Ð¼Ð°Ð½": 4697,
      "ĠÐ¿ÐµÑĢÑģÐ¾Ð½Ð°Ð¶": 4698,
      "Ð¾ÐºÐ¾Ð»": 4699,
      "ĠÐĲÐ²ÑģÑĤÑĢ": 4700,
      "Ð¾ÑĢÐ´Ð¶": 4701,
      "ÐµÑģÑĤÐ²Ð¾Ð¼": 4702,
      "ÐµÑģÐ¼Ð¾ÑĤÑĢÑı": 4703,
      "ĠÐ¶ÑĥÑĢÐ½Ð°Ð»Ð°": 4704,
      "ect": 4705,
      "Ð¸Ð½ÑģÐºÐ¸Ñħ": 4706,
      "ĠÑģÐ¾ÑģÑĤÐ°Ð²Ð»ÑıÐ»Ð¾": 4707,
      "ĠÑĤÑĥÑĢÐ½Ð¸ÑĢÐ°": 4708,
      "Ġ1961": 4709,
      "ĠÐłÐ°Ð´": 4710,
      "ĠÑģÐ¿Ð¸ÑģÐº": 4711,
      "Ð¸Ð·Ð´": 4712,
      "ĠÐ¿Ð»Ð¾ÑĤ": 4713,
      "ÑĪÐ¸Ð¼Ð¸": 4714,
      "ĠÐ½Ð¾ÑĢÐ¼": 4715,
      "Ġ;": 4716,
      "Ð°Ð½Ð½Ð°Ñı": 4717,
      "ĠÐŁÐ¾Ð¼": 4718,
      "ĠÐ¿Ð¾Ð»Ð¾Ð¶ÐµÐ½Ð¸Ðµ": 4719,
      "ĠÑģÐ²Ð¾ÑĳÐ¼": 4720,
      "ĠÐ¿ÑĢÐ¸Ð»": 4721,
      "ĠÑģÐ»Ð¾Ð²Ð°": 4722,
      "ĠÐ¿ÑĢÐµÐ¸Ð¼": 4723,
      "ÑĥÑīÐµÑģÑĤÐ²ÐµÐ½Ð½Ð¾": 4724,
      "ĠÐ¸ÑİÐ»Ðµ": 4725,
      "Ð°Ð¼Ð¿": 4726,
      "ĠÐ´ÑĥÑĪ": 4727,
      "ĠÑģÑĤÐ°Ð½Ð¾Ð²Ð¸ÑĤÑģÑı": 4728,
      "ĠNew": 4729,
      "ÑĢÑĥÐ½": 4730,
      "Ð¾Ð²ÑģÐºÐ¾Ð¼": 4731,
      "Ð¸Ð·Ð²Ð¾Ð´": 4732,
      "ĠÐ¿ÑĢÐ°Ð²Ð¸ÑĤÐµÐ»ÑĮÑģÑĤÐ²Ð°": 4733,
      "Ð°Ð¼ÐµÑĢ": 4734,
      "ĠÐ¿ÐµÑĢÐ¸Ð¾Ð´Ð°": 4735,
      "ĠÐ¾ÑģÐ¾Ð±ÐµÐ½Ð½Ð¾": 4736,
      "ĠÐ±ÐµÐ·Ð¾Ð¿Ð°ÑģÐ½Ð¾ÑģÑĤÐ¸": 4737,
      "ĠÑģÐµÑĢÐµÐ´Ð¸Ð½Ðµ": 4738,
      "ĠÐ²ÑĭÐ·Ð²": 4739,
      "Ġ1948": 4740,
      "Ð´Ð¸Ð¸": 4741,
      "66": 4742,
      "ĠÑģÑĤÐ°Ð½ÑĨÐ¸Ñı": 4743,
      "ÑĢÐµÐ´ÐµÐ»Ñı": 4744,
      "ĠÑģÐ¿ÐµÑĨÐ¸Ð°Ð»Ð¸ÑģÑĤ": 4745,
      "ĠÐ»Ð°ÑĤ": 4746,
      "Ð½Ð¸ÐºÐµ": 4747,
      "Ð¾Ð³Ð»Ð°ÑĪ": 4748,
      "ĠÐ¿ÐµÑħÐ¾ÑĤ": 4749,
      "ĠÐ´ÐµÐ±ÑİÑĤÐ¸ÑĢÐ¾Ð²Ð°Ð»": 4750,
      "ĠÐĲÑħ": 4751,
      "ĠÐ¿Ð»Ð¾": 4752,
      "ĠÐ½Ð¸Ð¶": 4753,
      "Ð±Ð¸Ð»": 4754,
      "ÑĢÐµÑī": 4755,
      "ĠÐ¡Ð¾Ð±": 4756,
      "ÐľÐ°ÑĢ": 4757,
      "ĠÐ¿ÑĢÐ¾Ð³": 4758,
      "ĠÑģÑĦÐ¾ÑĢÐ¼": 4759,
      "ÑĭÐ¶": 4760,
      "ĠÑĩÐµÑĤÐ²ÑĳÑĢ": 4761,
      "ĠÐ´Ð¸ÑģÑģÐµÑĢÑĤÐ°": 4762,
      "ÐµÐ²ÑģÐºÐ¸Ð¹": 4763,
      "77": 4764,
      "ĠÐ¿ÑĢÐµÐ¾Ð±ÑĢÐ°Ð·": 4765,
      "ĠÐºÐ¸Ð»Ð¾Ð¼ÐµÑĤÑĢÐ¾Ð²": 4766,
      "ÐµÐµÐ²Ð¸Ñĩ": 4767,
      "Ð¸ÑĥÐ¼Ð°": 4768,
      "ue": 4769,
      "ĠÐ¿ÑĢÐ¸Ð½ÑĨÐ¸Ð¿": 4770,
      "Ð¿Ð°Ð½Ð¸Ð¸": 4771,
      "ĠÐ¿ÐµÑģÐ½Ñı": 4772,
      "ĠÐŁÐ¾Ð·": 4773,
      "ĠÑģÐ¾ÑģÑĤÐ¾ÑıÐ½Ð¸Ñİ": 4774,
      "ĠÐĲÐ½ÑĤ": 4775,
      "az": 4776,
      "ĠÐ±Ð»Ð¾Ðº": 4777,
      "ĠÑįÑĤÑĥ": 4778,
      "Ġ1926": 4779,
      "ĠÑħÑĢÐ¸ÑģÑĤÐ¸Ð°Ð½": 4780,
      "ĠÐ¿ÐµÑĢÐ²ÑĥÑİ": 4781,
      "ĠÐ²Ð¾Ð´Ñĭ": 4782,
      "ĠÐ½Ð¾Ð²Ð¾Ð¹": 4783,
      "ÑĢÐ¾ÑĪ": 4784,
      "ĠÐ¡Ð°Ð»": 4785,
      "ĠÐ²ÑĭÑĪÐ»Ð°": 4786,
      "Ġst": 4787,
      "ĠBo": 4788,
      "ĠÑģÐºÑĥÐ»ÑĮÐ¿": 4789,
      "ĠÐ¿ÑĢÐ¾Ð´ÑİÑģ": 4790,
      "olog": 4791,
      "Ġ1957": 4792,
      "Ð°Ð½Ð¾Ð²Ð°": 4793,
      "ĠÐ´Ð¾ÑģÑĤÐ°ÑĤÐ¾Ñĩ": 4794,
      "ĠÐ´ÑĢÑĥÐ³Ð¸Ð¼": 4795,
      "ĠÐºÐ°ÑĤÐµÐ³Ð¾ÑĢÐ¸Ð¸": 4796,
      "ĠÑĤÑĢÐ°Ð´Ð¸ÑĨÐ¸Ð¾Ð½": 4797,
      "ÑĢÐ°Ð´Ð°": 4798,
      "ĠÐºÐ°Ð´": 4799,
      "ÐµÑĢÐ°Ð»ÑĮ": 4800,
      "ĠXVIII": 4801,
      "ĠÐ»ÑİÐ´Ð¸": 4802,
      "ĠÐ¿ÑıÑĤÑĮ": 4803,
      "ĠÐ¼ÐµÑĢ": 4804,
      "ÐļÐ¾ÑĢ": 4805,
      "ĠÑģÑĢÐµÐ´ÑģÑĤÐ²": 4806,
      "ĠÐļÐ°ÑĢÐ»": 4807,
      "ÑĥÑİÑīÐµÐ³Ð¾": 4808,
      "ĠÐ¿Ð¾Ð»Ðµ": 4809,
      "Ð½Ð°ÑĩÐ°Ð»Ð°": 4810,
      "ÐµÐ»ÐµÑģ": 4811,
      "ĠÐ¾ÑģÑĤÐ°Ð½Ð¾Ð²": 4812,
      "ÑģÐµÐ½": 4813,
      "Ð¼Ð¾Ñģ": 4814,
      "ĠÐ·Ð°Ð¼ÐµÑĤ": 4815,
      "ĠÐĴÐ»Ð°Ð´Ð¸Ð¼Ð¸": 4816,
      "Ð¤ÑĢÐ°Ð½": 4817,
      "ĠÐ¿Ð¾ÑħÐ¾Ð´": 4818,
      "ĠÑĢÐµÐ¿": 4819,
      "Ð¾ÑģÑĢÐµÐ´": 4820,
      "Ð°Ð²Ð°": 4821,
      "ĠÐ¸Ð³ÑĢÐ°Ð»": 4822,
      "ĠÐ¸ÑİÐ½Ðµ": 4823,
      "ÑıÑīÐ¸Ñħ": 4824,
      "ĠÐºÐ½ÑıÐ·ÑĮ": 4825,
      "ĠÐ½Ð°ÑĩÐ°Ð»Ð¾": 4826,
      "ĠÐ¿ÑĢÐµÑģ": 4827,
      ".),": 4828,
      "ĠÐ°Ð´Ð¼Ð¸Ð½Ð¸ÑģÑĤ": 4829,
      "ĠÐĺÐ·ÑĢÐ°": 4830,
      "ĠÐ¿ÑĢÐ¾Ð³ÑĢÐ°Ð¼Ð¼Ñĭ": 4831,
      "ĠÐŀÐŀ": 4832,
      "Ð¶ÐµÐ½Ð¸Ñı": 4833,
      "ĠÑģÐ¾Ðº": 4834,
      "ĠÐ¼ÐµÐ´Ð°Ð»Ð¸": 4835,
      "ĠÐ´Ð¾Ð¼Ð°ÑĪ": 4836,
      "ĠÐ±ÑĥÐº": 4837,
      "ĠÐ¿ÑĢÐµÐ´ÑĭÐ´ÑĥÑī": 4838,
      "iz": 4839,
      "ĠÐ²ÐµÐ»": 4840,
      "ĠÑįÑģÐº": 4841,
      "ĠÑĤÐ°ÐºÐ¸Ð¼": 4842,
      "ĠÑģÐ¾Ð»Ð´Ð°ÑĤ": 4843,
      "ĠÐ½Ð°Ð·ÑĭÐ²Ð°ÐµÐ¼": 4844,
      "ĠÐļÐ¸ÑĤ": 4845,
      "ĠÐ°Ð¿ÑĢÐµÐ»Ðµ": 4846,
      "ĠÐ²Ð¾ÐµÐ½Ð½Ð¾Ð³Ð¾": 4847,
      "Ã¤": 4848,
      "ĠÐ½Ð°ÑĢÑĥÑĪ": 4849,
      "ĠÐ½Ð¾ÑıÐ±ÑĢÐµ": 4850,
      "82": 4851,
      "ĠÑĢÑĭÐ½": 4852,
      "ĠÑģÐ¾Ð·ÑĭÐ²Ð°": 4853,
      "Ð¸Ð½Ð¾Ð¼": 4854,
      "ĠÐ¿ÑĢÐ¾Ð¸Ð³": 4855,
      "Ġ70": 4856,
      "ĠÐ³ÑĢÐ°Ð¼": 4857,
      "Ð±Ð¾Ð¹": 4858,
      "ĠÐºÐ¾Ð»Ð»ÐµÐº": 4859,
      "ĠÐ¾Ð±Ð¾ÑĢÑĥÐ´": 4860,
      "ĠÐĿÐ¾Ð²Ð³Ð¾ÑĢÐ¾Ð´": 4861,
      "ĠÐ»Ð°Ð³": 4862,
      "ĠÐĵÑĢÑĥÐ·": 4863,
      "Ð¾Ð½Ð¸Ñı": 4864,
      "ĠÐ¸Ð·Ð´Ð°ÑĤÐµÐ»ÑĮ": 4865,
      "Ð¸ÑĢÐ¾Ð²Ð°Ð»Ð¸": 4866,
      "99": 4867,
      "ĠÑĢÐ¸Ð¼": 4868,
      "ĠÐ¿ÑĢÐ¾Ð´ÑĥÐºÑĤ": 4869,
      "ĠÐ½Ð°Ð·Ð²Ð°Ð½Ð¸Ñı": 4870,
      "ĠÑĢÑĥÑģÑģÐºÐ¸Ðµ": 4871,
      "Ð¾ÑģÑĤÐ°Ð½Ð¾Ð²": 4872,
      "ĠÐ¸Ð½Ð¸": 4873,
      "ĠÑĪÐµÑģÑĤ": 4874,
      "ĠÐ¡Ð¸Ð½": 4875,
      "ĠRec": 4876,
      "185": 4877,
      "ĠÐ¡Ð¿Ð¸ÑģÐ¾Ðº": 4878,
      "ĠÐ¾Ð¿ÑĭÑĤ": 4879,
      "ĠÐ¸Ð½ÑĦ": 4880,
      "ĠÐ³Ð»Ð°Ð²Ð½ÑĭÐ¹": 4881,
      "ĠÐ°Ð´Ð¼Ð¸Ð½Ð¸ÑģÑĤÑĢÐ°ÑĤÐ¸Ð²Ð½Ð¾Ð³Ð¾": 4882,
      "ĠÐ£Ð½Ð¸Ð²ÐµÑĢÑģÐ¸ÑĤ": 4883,
      "ĠÐ¾ÑĢÐ¸Ð³Ð¸Ð½": 4884,
      "ĠÑĥÐ¿ÑĢÐ°Ð²Ð»Ñı": 4885,
      "ĠÐ£Ð·": 4886,
      "Ġhttp": 4887,
      "ĠÐ¼Ð¾ÑģÐº": 4888,
      "ĠÑģÐ»ÑĥÐ¶Ð¸Ð»": 4889,
      "ÑĩÐµÐ½ÐºÐ¾": 4890,
      "ĠÐ·Ð°Ð½ÑıÑĤ": 4891,
      "47": 4892,
      "ĠÑĢÐ¾ÑģÑĤ": 4893,
      "Ð¾ÑĤÐ°Ð½": 4894,
      ")<": 4895,
      "ĠÐ²ÑģÐ¿": 4896,
      "Ð¸Ð²ÑĪÐ¸Ñħ": 4897,
      "ĠÐ·Ð°Ð´Ð°Ñĩ": 4898,
      "ĠÐĽÐ°": 4899,
      "ĠÑĪÑĤÐ°ÑĤÐ°": 4900,
      "Ð¾Ð³Ð¾Ñģ": 4901,
      "ĠÐºÐ¾Ð»Ð»ÐµÐºÑĤÐ¸Ð²": 4902,
      "Ð»Ð¸ÑĨÐ°": 4903,
      "ĠÐ¸ÑĤÐ¾Ð³Ðµ": 4904,
      "ĠÐ½Ð°ÑĥÑĩÐ½Ð¾": 4905,
      "ĠÐŃÑģÑĤ": 4906,
      "Ð½ÑĮ": 4907,
      "ĠÐºÐ¾Ð½ÐºÑĥÑĢ": 4908,
      "ory": 4909,
      "ĠÐ¸Ð»": 4910,
      "Ð¡Ð¿Ð¾ÑĢÑĤ": 4911,
      "ĠÐ¿ÑĢÐ¸ÑģÑĤ": 4912,
      "Ð¾ÑĢÑĦ": 4913,
      "ĠÐ´Ð¸Ð²Ð¸Ð·Ð¸Ñı": 4914,
      "ĠÐļÑĢÐ°ÑģÐ½Ð¾Ð¹": 4915,
      "ĠÐĴÐ¸Ð½": 4916,
      "ÑģÐµÐ¼": 4917,
      "ĠÐļÐ¾ÑĢÐ¾Ð»ÐµÐ²": 4918,
      "ĠÐ¶Ð°Ð½": 4919,
      "ĠÑĤÐµÑħÐ½Ð¾Ð»Ð¾Ð³": 4920,
      "ÐŁÑĢÐ¸": 4921,
      "ber": 4922,
      "ĠÐ»Ð¸ÑĤÐµÑĢÐ°ÑĤÑĥÑĢÑĭ": 4923,
      "ÑĢÐ³": 4924,
      "ĠÐ¿Ð¾Ð»Ñĥ": 4925,
      "ÐŀÐ¿Ð¸ÑģÐ°Ð½Ð¸Ðµ": 4926,
      "ÐĴÑĭ": 4927,
      "ĠÐ¡ÑĤÐ°Ð»": 4928,
      "Ð¸ÑĢÑĭ": 4929,
      "ÑĥÐ¼Ñĭ": 4930,
      "ĠÐ¿ÑĭÑĤ": 4931,
      "ĠÐ¶ÑĥÑĢÐ½Ð°Ð»": 4932,
      "ÑıÑģÐ½": 4933,
      "Ð¾ÑģÑģÐ¸Ð¹ÑģÐºÐ¾Ð¹": 4934,
      "Ġ1954": 4935,
      "Ġto": 4936,
      "ĠÐ¸ÑģÐ¿Ð¾Ð»Ð½Ñı": 4937,
      "ĠÐºÐ°Ð±": 4938,
      "ÑĤÐ¾ÑĢÐ¾Ð¼": 4939,
      "ĠÐľÐ°Ð³": 4940,
      "Ð°ÐºÑĤÐ¸Ð²": 4941,
      "ĠÐ°Ð·": 4942,
      "ĠÑĦÐµÐ²ÑĢÐ°Ð»Ðµ": 4943,
      "ÂŃ": 4944,
      "ĠÐ¸Ð½Ð¶ÐµÐ½ÐµÑĢ": 4945,
      "49": 4946,
      "ÑģÑĤÑĢÑĥÐºÑĤ": 4947,
      "ĠÐĴÐ¿": 4948,
      "ĠÑħÐ°ÑĢÐ°ÐºÑĤÐµÑĢÐ¸Ð·": 4949,
      "ĠÐ´ÑĢÐ°Ð¼Ð°ÑĤ": 4950,
      "ĠÐ¿Ð¾Ð·Ð¸ÑĨÐ¸Ð¸": 4951,
      "ĠÑĥÐºÑĢÐµÐ¿": 4952,
      "ÑĢÐ¾Ð»": 4953,
      "ĠÐºÐ°ÑĢÑĮÐµÑĢÐ°": 4954,
      "Ð¾ÑĩÐ½ÑĭÑħ": 4955,
      "ĠÐ½ÐµÐ´Ð¾ÑģÑĤ": 4956,
      "ĠÐĳÑĭÐ»": 4957,
      "Ð¾Ð½Ð¸": 4958,
      "ft": 4959,
      "ĠÐ¢Ðµ": 4960,
      "ĠÐĶÐµÐ¼": 4961,
      "ĠÐ»ÐµÑĤÐ¾Ð¼": 4962,
      "ĠÐ¼ÑĥÐ»ÑĮÑĤ": 4963,
      "ÐŁÐ¾ÑħÐ¾ÑĢÐ¾Ð½": 4964,
      "ĠÐ¿ÑĢÐ¸Ð±Ñĭ": 4965,
      "ÑĥÐ¼Ð°Ð½": 4966,
      "Ġ1936": 4967,
      "ish": 4968,
      "Ð½ÐµÐ³Ð¾Ð´": 4969,
      "87": 4970,
      "ÐĺÑģÑĤÐ¾ÑĩÐ½Ð¸ÐºÐ¸": 4971,
      "ĠÐ¡ÑĢÐµÐ´Ð¸": 4972,
      "ĠÑĦÐ»Ð¾ÑĤÐ°": 4973,
      "ĠÐ·Ð°Ð²Ð¾Ð´Ð°": 4974,
      "Ð°Ð·Ð°": 4975,
      "ĠÐ²Ð¾ÑģÐ¿Ð¸ÑĤ": 4976,
      "%.": 4977,
      "ong": 4978,
      "ĠÎ": 4979,
      "ĠÐ±Ð°ÑĪ": 4980,
      "ĠÐ¿Ð¾ÑģÑĤÑĥÐ¿Ð¸Ð»": 4981,
      "ĠÐºÑĢÐ°ÑĤ": 4982,
      "Ġ36": 4983,
      "ĠÐĴÑģÐµ": 4984,
      "Ð¸ÑĢÐ¾Ð²Ð°Ð½Ð½ÑĭÑħ": 4985,
      "ĠÑĥÑĩÐ¸Ð»Ð¸ÑīÐµ": 4986,
      "ĠÑĨÐµÐ½ÑĤÑĢÐ¾Ð¼": 4987,
      "ÐµÐ¶Ð¸ÑģÑģ": 4988,
      "ÐĶÐ¸Ð½Ð°Ð¼": 4989,
      "Ð¸Ð²Ð°Ð½Ð¸Ñı": 4990,
      "Ð¸Ð½Ð°ÑĨÐ¸Ð¸": 4991,
      "ÑĢÐ¸ÑĨ": 4992,
      "Ð¸Ð²Ð°ÑİÑĤ": 4993,
      "ÐµÐ·Ð´Ñĭ": 4994,
      "ĠÐ¿Ð°ÑģÑģÐ°Ð¶": 4995,
      "ĠÐĲÐºÐ°Ð´ÐµÐ¼Ð¸Ð¸": 4996,
      "ĠÐľÐ°ÐºÑģÐ¸Ð¼": 4997,
      "ÑĩÐ°Ñģ": 4998,
      "ĠÐ½Ð¾Ð²ÑĭÐµ": 4999,
      "ĠÐºÑĥÐ±": 5000,
      "ÐµÐ³Ð¾Ð´": 5001,
      "ĠÐ¥Ð°ÑĢÑĮ": 5002,
      "ĠÐ¾Ð¶": 5003,
      "Ð¾Ð³ÑĢÐ°Ð´": 5004,
      "ÑĥÑĪÐºÐ°": 5005,
      "ÐµÐ²Ð¾": 5006,
      "ĠDe": 5007,
      "ĠÐĹÐ´": 5008,
      "ĠÐ¿ÐµÑģÐµÐ½": 5009,
      "ĠÑĢÐµÐ±": 5010,
      "ĠÐ¿ÑĢÐµÐ´ÑģÐµÐ´Ð°ÑĤÐµÐ»ÑĮ": 5011,
      "ĠÐ¿ÑĢÐµÐ·Ð¸Ð´ÐµÐ½ÑĤÐ°": 5012,
      "ĠÑģÐ¿Ð¸ÑģÐ¾Ðº": 5013,
      "ĠÐŃÐ»": 5014,
      "ĠÐ½Ð°Ð³ÑĢÐ°Ð¶Ð´ÑĳÐ½": 5015,
      "ĠÐ¾Ð·Ð½Ð°Ñĩ": 5016,
      "ÑģÑĤÑĢÐµÐ»": 5017,
      "ĠÐ´Ð¾ÑħÐ¾Ð´": 5018,
      "ĠÑģÑĭÐ½Ð°": 5019,
      "ĠÑģÐ¾ÑĩÐ¸Ð½": 5020,
      "ĠÐ·Ð°Ð¼ÐµÑģÑĤÐ¸ÑĤÐµÐ»ÑĮ": 5021,
      "ĠÐ¼Ð½Ð¾Ð³Ð¾ÑĩÐ¸ÑģÐ»ÐµÐ½": 5022,
      "ÑĥÐ³Ð¾Ð»ÑĮ": 5023,
      "ĠÐŀÐ»ÑĮ": 5024,
      "ach": 5025,
      "ĠÐ¾ÑĢÑĥÐ´": 5026,
      "Ð¾Ð²ÑģÐºÐ°Ñı": 5027,
      "ĠÐ½Ð°ÑĩÐ°Ð»ÑĮÐ½Ð¸Ðº": 5028,
      "Ð¾Ð²ÑĥÑİ": 5029,
      "Ð¤ÑĥÑĤÐ±Ð¾Ð»": 5030,
      "ĠÑĥÐ¼ÐµÑĢÐµÐ½Ð½Ð¾": 5031,
      "ĠÑĩÐµÑĢ": 5032,
      "ĠÐ·Ð°Ð±Ð¸Ð»": 5033,
      "ĠÑĥÐ´Ð¾ÑģÑĤÐ¾": 5034,
      "ĠÐ¡Ð¾Ð³Ð»Ð°ÑģÐ½Ð¾": 5035,
      "ĠÐ¿ÐµÑĢÐµÐ³": 5036,
      "ff": 5037,
      "ith": 5038,
      "ire": 5039,
      "ÑĢÐ¸Ð·": 5040,
      "Ġ80": 5041,
      "ĠÐ¼Ð°ÑĪÐ¸Ð½": 5042,
      "ĠÐ²Ð¼ÐµÑģÑĤÐ¾": 5043,
      "ĠÐ¼Ð¸ÑģÑģ": 5044,
      "ĠÑĥÑģÑĤÐ°Ð½Ð¾Ð²Ð»ÐµÐ½": 5045,
      "ĠÐĺÐ·Ð´": 5046,
      "ÐĴÐ¡": 5047,
      "ĠÑģÐ»Ð¾Ð²Ð°Ð¼": 5048,
      "ĠÐ¿ÑĢÐ¾ÑĤÑıÐ¶ÐµÐ½Ð¸Ð¸": 5049,
      "ĠÐ¾Ð¿Ð°Ñģ": 5050,
      "ĠÐ¡Ð¾ÑĨÐ¸Ð°Ð»Ð¸ÑģÑĤ": 5051,
      "||": 5052,
      "ĠÐ·Ð°Ñī": 5053,
      "ĠÐ¸Ð¼Ð¿ÐµÑĢÐ°": 5054,
      "uc": 5055,
      "Ð°ÑĢÑĥÑģ": 5056,
      "ĠÑĦÑĢÐ¾Ð½ÑĤÐ°": 5057,
      "83": 5058,
      "ÐºÑĢÐ°ÑĤ": 5059,
      "ĠÑģÑĤÑĢÐ°Ð½Ðµ": 5060,
      "ÐµÐ¾Ð»Ð¾Ð³": 5061,
      "Ð¸Ð´Ð¾Ð²": 5062,
      "ĠÐ¾ÑĤÑģÑĤÐ°Ð²": 5063,
      "ÐĺÐ·Ð²ÐµÑģÑĤ": 5064,
      "ĠÐ±Ð¾": 5065,
      "ÑİÑīÐ°Ñı": 5066,
      "ÐµÑĢÑĤÐ²": 5067,
      "ork": 5068,
      "ĠÑģÑĢÐ°Ð·Ñĥ": 5069,
      "Ð¢Ð°Ðº": 5070,
      "Ð¾ÑĩÐ½Ð¾Ð¹": 5071,
      "ÑĢÐ¾Ð²Ð°": 5072,
      "ĠÐ³ÐµÑĢÐ±": 5073,
      "ĠÐ¢Ð¸Ð¼": 5074,
      "ĠÐ¥Ð¾ÑĢ": 5075,
      "Ġ1929": 5076,
      "ĠÐ¿ÑĮ": 5077,
      "ĠÐ²Ð¾Ð·Ð´ÑĥÑĪ": 5078,
      "Ð°ÑħÐ°": 5079,
      "Ð°ÑİÑīÐ°Ñı": 5080,
      "ÐµÐ¿ÑĥÑĤ": 5081,
      "ĠÐ¾ÑĢÐº": 5082,
      "ĠÐºÐ¾Ð½ÑĦÐ»Ð¸Ðº": 5083,
      "ĠÑįÐ»ÐµÐºÑĤÑĢÐ¾Ð½": 5084,
      "ÑĢÐµÐº": 5085,
      "ÑĢÐ°ÑĨÐ¸Ñı": 5086,
      "ĠÑĩÐµÑĤÐ²ÐµÑĢ": 5087,
      "ial": 5088,
      "Ð¾Ð¶Ðµ": 5089,
      "ÐµÑĢÐµÑı": 5090,
      "ÐŀÐ±Ñī": 5091,
      "ĠÐ´Ð²Ð¾ÑĢÐ¾Ð²": 5092,
      "ĠÑĢÐ¸Ñģ": 5093,
      "ĠÐ³Ð»Ð°Ð²Ð½Ð¾Ð³Ð¾": 5094,
      "Ð¸ÑĢÐ¾Ð²Ð°Ð½Ñĭ": 5095,
      "ĠÐ¡ÑĤÐµÐ¿": 5096,
      "Ð²ÑıÑĤ": 5097,
      "ĠÐºÐ¾ÑģÑĤ": 5098,
      "ÐľÐ¾ÑģÐº": 5099,
      "Ð¾Ð¿ÑĢÐ¸ÑıÑĤ": 5100,
      "ĠÐ²ÐµÑĢÐ¾ÑıÑĤ": 5101,
      "ĠÑĢÐ°Ð·Ð¼ÐµÑī": 5102,
      "Ð¾Ð²Ð°Ð»Ð¾": 5103,
      "ss": 5104,
      "ĠÑģÐ¿Ð°Ñģ": 5105,
      "ĠÑįÑĤÐ¾Ð¼Ñĥ": 5106,
      "ĠÐĲÐ½Ð´ÑĢÐµÐ¹": 5107,
      "ĠÐ¿Ð»ÐµÐ½": 5108,
      "ĠÑįÐ»ÐµÐºÑĤÑĢ": 5109,
      "ĠÐľÐ¸ÑĢ": 5110,
      "Ġ1949": 5111,
      "Ð¼ÐµÐ´": 5112,
      "ĠÐ¢Ð°Ð¼": 5113,
      "ĠÐ½Ð°ÑģÐµÐ»ÑĳÐ½Ð½ÑĭÑħ": 5114,
      "ĠÑĩÐ»ÐµÐ½Ð¾Ð²": 5115,
      "ĠÑĢÐµÐ»Ð¸Ð³Ð¸Ð¾Ð·": 5116,
      "ĠÐ¿Ð°ÑĢÑĤÐ¸Ð¹": 5117,
      "ĠÐ®Ð¶Ð½Ð¾Ð¹": 5118,
      "ĠÑĢÑıÐ´Ð¾Ð¼": 5119,
      "Ð¾Ð½Ð°ÑĩÐ°Ð»ÑĮÐ½Ð¾": 5120,
      "Ð±Ð¾Ð²": 5121,
      "42": 5122,
      "ÑĢÐµÐ¶": 5123,
      "2010": 5124,
      "Ð³ÐµÐ»ÑĮ": 5125,
      "ĠÐĿÐ¸ÐºÐ¾Ð»Ð°ÐµÐ²Ð¸Ñĩ": 5126,
      "95": 5127,
      "ÐºÐ¸Ð¿Ð°Ð¶": 5128,
      "ĠÑįÐºÑģÐ¿ÐµÐ´": 5129,
      "ÑģÑĤÐ²Ð¸Ðµ": 5130,
      "Ð¾Ð²Ð°Ð½Ð¸Ð¸": 5131,
      "ĠÑģÐ¾ÑģÑĤÐ°Ð²Ð°": 5132,
      "ĠÐĵÑĢÐ°Ð½": 5133,
      "ĠÑĤÑıÐ¶ÑĳÐ»": 5134,
      "Ð»Ð°Ð¹": 5135,
      "ĠÐ¿ÑĢÐµÐºÑĢÐ°": 5136,
      ".-": 5137,
      "Ð°Ð¹Ð´": 5138,
      "Ð¶ÐµÐ³Ð¾Ð´": 5139,
      "ĠÐ¸Ð½Ð¾Ð³Ð´Ð°": 5140,
      "ÐµÐºÐ¾": 5141,
      "ĠÐ±Ð¾Ð»ÐµÐ·": 5142,
      "Ð°ÑĢÐ´Ð°": 5143,
      "ĠÐ¿Ð¾Ð´ÑĢÐ°Ð·Ð´ÐµÐ»": 5144,
      "ĠÐ»Ð¸": 5145,
      "ĠÐ¿ÑĢÐ°ÐºÑĤÐ¸ÑĩÐµÑģÐºÐ¸": 5146,
      "Ġ1947": 5147,
      "ĠÐ¿ÑĢÐ¾Ð¸ÑģÑħÐ¾Ð´": 5148,
      "ÑĥÐ»Ñĭ": 5149,
      "ĠÐ³ÑĢÐµÑĩÐµÑģÐº": 5150,
      "ĠÐ·Ð½Ð°ÑĩÐµÐ½Ð¸Ñı": 5151,
      "Ð¸Ð½Ð³Ð°": 5152,
      "ĠÑĩÐ¸ÑĤ": 5153,
      "ĠÐ²ÑĭÐ´Ð°": 5154,
      "ĠÐĵÐµÐ½ÐµÑĢÐ°": 5155,
      "ĠÑģÐ¾Ð³Ð»Ð°ÑĪ": 5156,
      "ate": 5157,
      "Ð°Ð½ÑĤÐ¾Ð²": 5158,
      "ĠÐľÐ°ÑĢÐ¸Ñı": 5159,
      "ĠÑĤÐµÐ»Ð°": 5160,
      "2008": 5161,
      "ĠÐĲÐ»ÑĮÐ±": 5162,
      "ĠÐ´Ð²Ð¾ÑĢÑıÐ½": 5163,
      "ĠÐ¾ÐºÐºÑĥÐ¿": 5164,
      "Ð¾ÑĢÐ°ÑĤÐ¾ÑĢ": 5165,
      "ĠÐ·Ð°Ð±Ð¾Ð»": 5166,
      "ĠÐĴÐ¾ÑģÑĤÐ¾Ñĩ": 5167,
      "ĠÐ¸Ð³ÑĢÐµ": 5168,
      "72": 5169,
      "ĠÑĤÑĥÑĢÐµ": 5170,
      "ÑĮÐµÑĢÐ°": 5171,
      "ÐµÐ¼Ð¿Ð¸Ð¾Ð½Ñĭ": 5172,
      "ĠÐļÑĢÑĭÐ¼": 5173,
      "ĠÐºÐ¾Ð½ÑĦÐµÑĢÐµÐ½": 5174,
      "ĠÐĲÐ»ÐµÐºÑģÐµÐ¹": 5175,
      "ÑĥÐµÐ¼": 5176,
      "te": 5177,
      "Ð¸ÑĨÑĥ": 5178,
      "ĠÐĳÑĥÑĢ": 5179,
      "ĠÐ¿Ð¸ÑĤ": 5180,
      "ÑĢÐ¾Ð½Ð¾Ð¼": 5181,
      "ĠÐ¾Ð´Ð½Ð¾Ð¸Ð¼": 5182,
      "ĠÑģÑĤÑĢÐ¾Ð¸ÑĤÐµÐ»ÑĮÑģÑĤÐ²Ð¾": 5183,
      "ĠÑģÑĦ": 5184,
      "ĠÐļÐ»": 5185,
      "ĠÑģÐµÐ¼ÐµÐ¹ÑģÑĤÐ²Ð°": 5186,
      "ÑĥÑİÑīÐ¸Ð¼": 5187,
      "ĠÐ°Ð½Ð°Ð»Ð¾Ð³": 5188,
      "ĠÐ¿Ð»Ð¾ÑīÐ°Ð´Ð¸": 5189,
      "ĠÐ²Ð¾Ð·Ð²": 5190,
      "Ġ1935": 5191,
      "ĠÐ¿Ð¾Ð¸ÑģÐº": 5192,
      "ĠÐ¼Ð°Ð¹": 5193,
      "tern": 5194,
      "ĠÐĲÐ³": 5195,
      "%,": 5196,
      "Ð»Ð°Ð´Ð°": 5197,
      "ĠÐ¡Ð¸Ð±Ð¸ÑĢ": 5198,
      "ĠÑĥÑģÑĤÑĥÐ¿": 5199,
      "ĠÐ¡ÑĤÐ°Ð½": 5200,
      "ĠÑĩÐµÐ»Ð¾Ð²ÐµÑĩ": 5201,
      "ĠÐ·Ð²Ð°Ð½Ð¸Ñı": 5202,
      "ĠÑĦÐ»Ð¾ÑĤ": 5203,
      "ly": 5204,
      "ĠÐºÐ¾Ð¼Ð¼ÑĥÐ½": 5205,
      "ĠÐ²ÑĭÑĪÐµ": 5206,
      "ĠÑĢÐµÐ²Ð¾Ð»ÑİÑĨÐ¸Ð¸": 5207,
      "Ð°Ð½Ð°Ð²Ð»Ð¸Ð²": 5208,
      "ĠÐ¢ÐµÑĢ": 5209,
      "ÐłÐ°Ð·": 5210,
      "ĠÐ½Ð°ÑĥÑĩÐ½ÑĭÑħ": 5211,
      "ĠÐ²Ð¾Ð·Ð³Ð»Ð°Ð²Ð»Ñı": 5212,
      "ĠLe": 5213,
      "ĠÐ²ÐºÐ»Ð°Ð´": 5214,
      "Ð¸Ð´Ñĥ": 5215,
      "ÑĩÐ¸ÐºÐ¾Ð²": 5216,
      "ure": 5217,
      "ĠÐĲÐ¼ÐµÑĢÐ¸ÐºÐ¸": 5218,
      "ĠÑģÑĢÐ¾Ðº": 5219,
      "2007": 5220,
      "ÑīÐµ": 5221,
      "ĠÐ¨Ð²Ðµ": 5222,
      "ĠÐ¿Ð¾Ð»Ð½Ð¾Ð¼": 5223,
      "Ð°ÑĢÐ°Ð±": 5224,
      "ĠÑĨÐµÐ½ÑĤÑĢÐµ": 5225,
      "ĠÑĤÐµÐ¾ÑĢÐ¸Ð¸": 5226,
      "ĠÐļÐ°Ð¿": 5227,
      "2000": 5228,
      "ĠÑģÑĤÐ°ÑĢÑĪÐ¸Ð¹": 5229,
      "ĠÐ¸Ð½ÑĦÐ¾ÑĢÐ¼Ð°ÑĨÐ¸Ð¸": 5230,
      "ĠÐ°ÑĤÐ¼Ð¾Ñģ": 5231,
      "Ð°ÑĥÑĢÐµÐ°ÑĤ": 5232,
      "Ð½Ð°Ð´ÑĨ": 5233,
      "ĠÐµÐ²ÑĢÐµÐ¹": 5234,
      "ĠÐ¿ÑĢÐ°Ð·Ð´": 5235,
      "ĠÐ³Ð¾ÑĢÐ¾Ð´ÑģÐºÐ¾Ð¹": 5236,
      "ĠÐ°Ð²ÑĤÐ¾Ð¼Ð¾Ð±Ð¸Ð»ÑĮ": 5237,
      "ĠÐ¸Ð½ÑģÑĤÑĢÑĥÐ¼ÐµÐ½ÑĤ": 5238,
      "ĠÐ·Ð°Ð¼ÑĥÐ¶": 5239,
      "ÐĲÐ¢": 5240,
      "ĠÐ¿ÑĢÐµÑģÑĤ": 5241,
      "ĠÐĹÐ°Ð½Ð¸Ð¼": 5242,
      "ÐµÐºÐ¾ÑĤÐ¾ÑĢÑĭÐµ": 5243,
      "ĠPro": 5244,
      "ĠÑģÑĤÑĢÐ¾Ð¸ÑĤÐµÐ»ÑĮÑģÑĤÐ²Ð°": 5245,
      "Ġk": 5246,
      "ĠÐ¸ÑģÑģÐ»ÐµÐ´Ð¾Ð²Ð°Ð½Ð¸Ð¹": 5247,
      "ĠÐ¯ÑĢÐ¾ÑģÐ»Ð°Ð²": 5248,
      "ĠÐ¾Ð¿ÑĢÐµÐ´ÐµÐ»Ñı": 5249,
      "ĠÐĳÐµÐ»Ð¾ÑĢÑĥÑģÑģÐ¸Ð¸": 5250,
      "Ð¸ÑĤÐµÐ»ÑĮÐ½Ð°Ñı": 5251,
      "ĠÐĶÐ¶Ð¾ÑĢÐ´Ð¶": 5252,
      "Ð»ÑĥÑĩ": 5253,
      "ÐµÐºÐ°ÐµÑĤ": 5254,
      "ÐļÐ°ÑĢ": 5255,
      "Ð¾Ð²Ð¾Ð¼": 5256,
      "Ð°ÐºÐ¾Ð½": 5257,
      "ĠÐ¿Ð¾Ð»ÑĥÑĩÐ¸Ð»Ð¸": 5258,
      "ĠÑĢÐ°Ð±Ð¾ÑĤÐ°ÑĤÑĮ": 5259,
      "ÐµÐ³Ð¾Ð´Ð½Ñı": 5260,
      "ide": 5261,
      "ÐĶÐµÑĢÐµÐ²Ð½Ñı": 5262,
      "ĠÑĢÐ°ÑģÐ¿Ð¾Ð»Ð¾Ð¶ÐµÐ½Ð°": 5263,
      "ÑĥÐ¼Ð±": 5264,
      "Ð°ÑĤÐ¾": 5265,
      "ÑģÑĤÑĢÐ¾Ð¹": 5266,
      "ĠÐ³Ð¸Ð¿": 5267,
      "ĠÐ¾ÑĩÐµÑĢÐµÐ´ÑĮ": 5268,
      "ĠÑģÐ½ÑıÑĤ": 5269,
      "Ð¾Ð²Ð°Ð»ÑģÑı": 5270,
      "org": 5271,
      "ĠÐºÐ¾Ð½ÑĤÐ¸Ð½ÐµÐ½ÑĤ": 5272,
      "ĠÐ³Ð»Ð°Ð²Ðµ": 5273,
      "ĠÐ°ÑįÑĢÐ¾Ð¿": 5274,
      "ug": 5275,
      "ĠÐ²ÐµÐ»Ð¸Ñĩ": 5276,
      "Ð¼Ð¸Ð½Ð¸ÑģÑĤ": 5277,
      "ĠÐ½Ð°Ð¿Ð¸ÑģÐ°Ð»": 5278,
      "ĠÑģÐ¾Ð¾ÑĤÐ²ÐµÑĤÑģÑĤÐ²Ð¸Ð¸": 5279,
      "ĠÐľÐ°ÑĢÐº": 5280,
      "ĠÐ¿Ð»Ð°ÑģÑĤ": 5281,
      "ĠÑģÐ²Ð¸Ð´ÐµÑĤÐµÐ»ÑĮ": 5282,
      "ĠÐ¿Ð¾Ð±ÐµÐ´Ñĥ": 5283,
      "ĠÐ½ÐµÐ¸Ð·Ð²ÐµÑģÑĤ": 5284,
      "ĠÐ¿ÑĢÐ¾Ð¼ÑĭÑĪÐ»ÐµÐ½Ð½Ð¾ÑģÑĤÐ¸": 5285,
      "ĠÑģÐ¾ÑģÐµÐ´": 5286,
      "ĠÑĢÐ¾Ð·": 5287,
      "ĠÐ¾ÑĤÐ½Ð¾ÑģÐ¸ÑĤÐµÐ»ÑĮÐ½Ð¾": 5288,
      "Ð°Ð½Ð½Ð¾Ð¹": 5289,
      "ÑģÐ¾Ð»ÑİÑĤÐ½ÑĭÐ¹": 5290,
      "ĠÐ°Ð²ÑĤÐ¾Ð´": 5291,
      "ĠÐ²Ð¾ÐµÐ½Ð½ÑĭÑħ": 5292,
      "Ð¾Ð´Ð½": 5293,
      "ĠÐ²Ð½Ð¸Ð¼Ð°Ð½Ð¸Ðµ": 5294,
      "ĠÐĵÐ¾ÑĢÐ¾Ð´": 5295,
      "ĠÑĥÐ´Ð°": 5296,
      "Ð¸Ð¹ÑģÐºÐ¸Ñħ": 5297,
      "ĠÑĢÐµÑĦÐ¾ÑĢÐ¼": 5298,
      "ĠÑĤÐµÑĩ": 5299,
      "ĠÐĳÑĥÐ´": 5300,
      "Ð»Ð¸Ð¶Ð°Ð¹": 5301,
      "ost": 5302,
      "Ġ1955": 5303,
      "ĠÐĳÐµÐ½": 5304,
      "ĠÐ¾Ð±ÑīÐµÐ¹": 5305,
      "sc": 5306,
      "62": 5307,
      "ĠÑģÐ¿ÑĥÑģÑĤÑı": 5308,
      "Ð´Ð¾Ð¼": 5309,
      "ÐŁÑĢÐ°Ð²": 5310,
      "ĠÐľÐ¸Ð»": 5311,
      "ĠÑĢÐ°ÑģÑģÐ¼Ð°ÑĤÑĢÐ¸Ð²": 5312,
      "Ð²ÐµÐ½": 5313,
      "ĠÐ¼ÑĥÐ·ÑĭÐºÐ¸": 5314,
      "ĠÐ¢Ð¾ÑĢ": 5315,
      "ĠÐ½Ð°Ð³ÑĢÐ°Ð´": 5316,
      "ĠÐĴÐ»Ð°Ð´Ð¸Ð¼Ð¸ÑĢÐ°": 5317,
      "ĠSc": 5318,
      "ĠÑģÐ²ÑıÑīÐµÐ½": 5319,
      "81": 5320,
      "Ð¸ÑĢÑĥÐµÑĤÑģÑı": 5321,
      "69": 5322,
      "ÐĲÐŀ": 5323,
      "Ġ500": 5324,
      "Ġr": 5325,
      "ĠÑĦÐ°ÐºÑĥÐ»ÑĮÑĤÐµÑĤ": 5326,
      "ĠÐ´Ð¸Ð·": 5327,
      "Ð½Ð¾Ðº": 5328,
      "ĠÐ¿Ð¾ÑıÑģ": 5329,
      "Ð°ÑĤÑĮÑı": 5330,
      "ĠÐ¿Ð¾Ð²ÑĤÐ¾ÑĢ": 5331,
      "ĠÐ²ÑģÐµÐ³Ð´Ð°": 5332,
      "ĠRecord": 5333,
      "Ð»Ð¸ÑĨ": 5334,
      "ĠÐ±Ð¾ÐµÐ²ÑĭÑħ": 5335,
      "aw": 5336,
      "ĠÐ¿ÑĢÐ¸Ð³Ð»Ð°ÑĪ": 5337,
      "ĠÐ¿Ð¾Ð»ÐºÐ¾Ð²Ð½Ð¸Ðº": 5338,
      "ĠÐĴÐµÐ½Ð³": 5339,
      "ĠÐĹÐ°Ñģ": 5340,
      "ĠÑĢÐ°Ð·Ð´": 5341,
      "ÑĨÐ¸Ð¾Ð½Ð½ÑĭÑħ": 5342,
      "ĠÐ¾Ð±Ð¾ÑĢÐ¾Ð½": 5343,
      "Ð°Ð´Ð¸": 5344,
      "Ð¸ÑĢÐ¾Ð²Ð°Ð»Ð°": 5345,
      "Ð¾Ð´ÐµÐ¹ÑģÑĤÐ²": 5346,
      "ĠÐ·Ð°ÑıÐ²Ð¸Ð»": 5347,
      "ĠÑĤÐµÐ°ÑĤÑĢ": 5348,
      "Ð°Ð¼ÐµÑĤ": 5349,
      "ĠÑģÑĤÑĢÑĥÐºÑĤÑĥÑĢÐµ": 5350,
      "ix": 5351,
      "Ð¸ÑģÑĤÐ°Ð½Ð°": 5352,
      "ÑĢÐ°Ð±Ð°ÑĤ": 5353,
      "ÑĨÐ¸Ð¾Ð½Ð½Ð¾Ð¹": 5354,
      "Ð»Ð¾Ð²Ð°": 5355,
      "ĠÑģÐµÑĢÑĮ": 5356,
      "ÐĴÐĶ": 5357,
      "43": 5358,
      "ĠÐŁÐ¾Ñģ": 5359,
      "ĠÐŃÐ¼": 5360,
      "ĠÐ¾ÑĢÐ´ÐµÐ½Ð¾Ð¼": 5361,
      "Ð¾ÑĤÑı": 5362,
      "Ð»Ð¾Ð±": 5363,
      "ĠÑĢÐµÐ³ÑĥÐ»ÑıÑĢ": 5364,
      "ĠÐ¾Ð´Ð½Ð¾Ð²ÑĢÐµÐ¼ÐµÐ½Ð½Ð¾": 5365,
      "ÐµÑĢÐ²Ð°ÑĤÐ¾ÑĢ": 5366,
      "ĠÐºÐ¾Ð½ÑģÑĤÑĢÑĥÐº": 5367,
      "ĠÑĩÐ¸ÑģÐ»Ð°": 5368,
      "ĠÐľÐµÐ´Ð°Ð»ÑĮ": 5369,
      "ÐĳÐµÐ»": 5370,
      "ĠÑĤÐµÐ°ÑĤÑĢÐ°Ð»ÑĮ": 5371,
      "ĠÐ¿Ð¾ÐºÐ¸Ð½": 5372,
      "ĠÐ°Ð²ÑĤÐ¾Ð½Ð¾Ð¼": 5373,
      "ĠÐ¿ÑĥÐ½ÐºÑĤÐ¾Ð²": 5374,
      "ĠÐ½Ð°Ð¿ÑĢÐ°Ð²Ð»ÐµÐ½": 5375,
      "ĠÐ³ÐµÑĢÐ¾": 5376,
      "Ð¾Ð»ÑĮÑĦ": 5377,
      "ĠÐ´Ð¸Ð½": 5378,
      "ĠÐ²ÑĭÑģÐ¾ÑĤ": 5379,
      "ĠÐ¼ÑıÑĩ": 5380,
      "ĠÐ°ÐºÑĤÑĢÐ¸ÑģÐ°": 5381,
      "ĠÐºÐ°Ð½ÑĤ": 5382,
      "Ð°Ð»Ð¸ÑĤ": 5383,
      "ÑģÑĤÐ¾": 5384,
      "ÑĢÐ¾Ð¿Ð¾Ð»Ð¸ÑĤ": 5385,
      "ĠÐ°ÑģÑģÐ¾ÑĨÐ¸": 5386,
      "ĠÑĢÐ°Ð·Ð³": 5387,
      "ĠÐ»Ð¸Ð³Ð¸": 5388,
      "Ð¸ÑģÐ»": 5389,
      "ock": 5390,
      "Ð¶Ð½ÑĭÐ¹": 5391,
      "Ð°Ð²ÑĢ": 5392,
      "Ð¾Ð³Ð¾ÑĢ": 5393,
      "Ð¸ÐºÐ°Ð¼Ð¸": 5394,
      "Ð»ÐµÐ±": 5395,
      "ĠÐľÐ°": 5396,
      "Ġ1953": 5397,
      "ĠÐķÐ²ÑĢÐ¾Ð¿Ðµ": 5398,
      "Ð¾Ð²ÐºÐ°": 5399,
      "ĠÐ¡Ð»Ð°Ð²": 5400,
      "ĠÐĵÑĥ": 5401,
      "ĠÑĢÑĥÑģÑģÐºÐ¾Ð¹": 5402,
      "Ð¾ÑģÑĤÐ¾ÑıÑĤÐµÐ»ÑĮ": 5403,
      "Ð¾Ð»Ð¾Ð¼": 5404,
      "ĠÐ¸ÑģÑĤÐ¾ÑĢÐ¸Ñı": 5405,
      "ÑĤÐ¾ÑĢÐ°Ñı": 5406,
      "Ġ1952": 5407,
      "ĠÐ¶ÐµÐ½Ð°": 5408,
      "ĠÐ²Ð¾ÐµÐ½Ð½Ð¾": 5409,
      "ĠÐºÑĢÐ¾Ð¼Ðµ": 5410,
      "Ð¸ÐµÐ¿Ð¸ÑģÐºÐ¾Ð¿": 5411,
      "ÑĢÐ¸ÑĤÐ¾ÑĢÐ¸": 5412,
      "ÐµÑĢÐ²ÑĮÑİ": 5413,
      "2006": 5414,
      "ier": 5415,
      "ĠÐºÐ»Ð¸": 5416,
      "Ð¡Ð°Ð¼": 5417,
      "ĠÑįÐºÑģÐ¿Ð»Ñĥ": 5418,
      "ĠÑĢÐµÐ°Ðº": 5419,
      "Ð¼Ð¾": 5420,
      "ÑģÐ¼ÐµÐ½": 5421,
      "41": 5422,
      "iss": 5423,
      "ĠÐ·Ð½Ð°ÑĩÐµÐ½Ð¸Ðµ": 5424,
      "ĠÑĪÑĤÐ°Ð±Ð°": 5425,
      "ĠÐ¡ÑĢÐµÐ´Ð½ÐµÐ³Ð¾Ð´": 5426,
      "ÐºÐ¾Ð²ÑģÐºÐ¸Ð¹": 5427,
      "ĠÑģÐ¼ÐµÐ½": 5428,
      "ĠÐ¼Ð¼": 5429,
      "ĠÑģÐ¾Ð¿ÑĢÐ¾Ð²": 5430,
      "71": 5431,
      "ÐºÐ»": 5432,
      "ÑĥÑĩÐ¸": 5433,
      "ĠÐ´Ð¾Ð³Ð¾Ð²Ð¾ÑĢ": 5434,
      "ĠÐļÑĥÐ·": 5435,
      "ĠÑģÑĤÐµÐ¿ÐµÐ½ÑĮ": 5436,
      "ĠÑĦÐ¾ÑĢÐ¼Ñĭ": 5437,
      "ĠÐ©": 5438,
      "ĠÑħÐ¾Ð·ÑıÐ¹ÑģÑĤÐ²Ð°": 5439,
      "ĠÐ¢Ð°Ð¹": 5440,
      "ĠÑħÐ¾ÑĢÐ¾ÑĪÐ¾": 5441,
      "ĠÑģÐµÑĢÐ´": 5442,
      "ĠÐ·Ð°ÐºÑĢÑĭÑĤ": 5443,
      "Ġ1924": 5444,
      "ĠÐĳÐµÑĢÐ»Ð¸Ð½": 5445,
      "ÑĩÐ°Ð¹": 5446,
      "ĠÐ¿ÑĢÐµÐ´Ð¿Ð¾Ð»Ð°Ð³": 5447,
      "ĠÑĤÑĥÑĢÐ½Ð¸ÑĢÐµ": 5448,
      "orld": 5449,
      "ĠÐŁÑĢÐµÐ·Ð¸Ð´Ð¸ÑĥÐ¼Ð°": 5450,
      "St": 5451,
      "ĠÐºÐ¾Ð½ÐµÑĩ": 5452,
      "Ġ1928": 5453,
      "ĠÐĺÐ¾Ð°Ð½": 5454,
      "ĠÐ¸ÑģÐ¿Ð¾Ð»ÑĮÐ·Ð¾Ð²Ð°ÑĤÑĮ": 5455,
      "ĠÑĥÑĢÐ¾Ð²Ð½Ñı": 5456,
      "ĠÐºÐ»ÐµÑĤ": 5457,
      "Ð¾ÑĤÑĢÐµÐ±": 5458,
      "68": 5459,
      "ÐµÐ½Ð¾Ð¼": 5460,
      "ĠÐ·Ð°Ð²Ð¸ÑģÐ¸Ð¼": 5461,
      "ĠÑĥÑģÐ»Ð¾Ð²Ð¸ÑıÑħ": 5462,
      "ĠÐ¡ÐŁÐ±": 5463,
      "ĠQ": 5464,
      "ÐĻÐ¾ÑĢÐº": 5465,
      "ĠÐ¥Ð¾Ð»": 5466,
      "Ð¾ÑģÑģÐ¸Ñı": 5467,
      "ÑĢÐµÐ¼Ñı": 5468,
      "Ð¾ÑĢÐ¾Ð¼": 5469,
      "ĠÐ±ÐµÐ¶": 5470,
      "ĠÐĴÐ°ÑģÐ¸Ð»ÑĮÐµÐ²Ð¸Ñĩ": 5471,
      "Ð¿ÑĢÐ¸": 5472,
      "Ð¸Ð¼Ðµ": 5473,
      "ĠÐ¾ÐºÑĢÑĥÐ³Ðµ": 5474,
      "ĠÐŁÐ¾Ð»ÑĮÑĪÐ¸": 5475,
      "ĠÐ¿ÑĢÐ°Ð²Ð¸ÑĤÐµÐ»ÑĮÑģÑĤÐ²Ð¾": 5476,
      "ĠÐĽÐ¸": 5477,
      "ĠÐ¿Ð¾ÐµÐ·Ð´": 5478,
      "Ð¸ÑĤÐ°ÑĢÐ°": 5479,
      "ÐŁÐ¾Ñģ": 5480,
      "ÐļÑĢÐ°Ñģ": 5481,
      "ĠÐłÐ¸Ñĩ": 5482,
      "Ġfor": 5483,
      "Ġ65": 5484,
      "ÑĭÑĤÐ°": 5485,
      "73": 5486,
      "ĠÐ¦Ðļ": 5487,
      "ĠÐ¸ÑģÑĤÑĢÐµÐ±": 5488,
      "Ð°Ð±Ð¾ÑĢÐ°ÑĤÐ¾ÑĢ": 5489,
      "ÑĨÐ¸Ð¾Ð½Ð½Ð¾Ð³Ð¾": 5490,
      "ÑģÑĤÐ²ÐµÐ½Ð½Ð¾Ð¹": 5491,
      "ath": 5492,
      "ÑĢÐ´": 5493,
      "ĠÐ¿ÑĥÑĤÐµÑĪ": 5494,
      "ĠÑĤÐ¾Ð²Ð°ÑĢ": 5495,
      "ĠÑįÐºÑģÐ¿ÐµÑĢÐ¸Ð¼": 5496,
      "ĠÐ¿ÐµÑĢÐµÑģÑĤ": 5497,
      "ĠÐ¿Ð°Ð¿": 5498,
      "Ð¾ÑĦÑĦ": 5499,
      "ĠÑıÐ·ÑĭÐºÐ¾Ð²": 5500,
      "ĠÐ±Ð¸Ð·Ð½": 5501,
      "ĠÐ¿ÐµÑĩÐ°ÑĤ": 5502,
      "ĠÑģÑĤÐ¾": 5503,
      "ĠÐĿÐ°Ñĩ": 5504,
      "ĠÐ¿Ð¾ÐºÐ°": 5505,
      "ĠÐĿÐ¾Ð²Ð¾Ñģ": 5506,
      "ĠÐ¶ÐµÐ»ÐµÐ·Ð½Ð¾Ð¹": 5507,
      "ĠMus": 5508,
      "ĠÐ°ÑĢÑħÐ¸ÑĤÐµÐºÑĤÐ¾ÑĢ": 5509,
      "ĠÑįÐ½ÑĨÐ¸ÐºÐ»Ð¾Ð¿ÐµÐ´": 5510,
      "ĠÐºÐ°Ð½Ð´Ð¸Ð´Ð°ÑĤ": 5511,
      "ina": 5512,
      "ĠÐŀÐºÑĤ": 5513,
      "ĠÑĢÑĥÑģÑģÐºÐ¾Ð³Ð¾": 5514,
      "ĠÐ¸Ð½Ð¸ÑĨÐ¸": 5515,
      "2009": 5516,
      "ĠÐ¢Ð°": 5517,
      "ĠÐĽÑĥÑĩ": 5518,
      "ĠÑģÐ¾Ð¾ÑĤÐ²ÐµÑĤÑģÑĤÐ²ÐµÐ½Ð½Ð¾": 5519,
      "ĠÐºÐ°ÑĤÐ¾Ð»": 5520,
      "Ð°Ð²Ð¾Ð´": 5521,
      "ĠÑĥÑģÐ¸Ð»": 5522,
      "ÐĽÑĥÑĩ": 5523,
      "Ã¡": 5524,
      "ĠÐĿÐ¸Ð´ÐµÑĢÐ»Ð°Ð½Ð´": 5525,
      "2005": 5526,
      "ĠÐĳÐ¾Ð»Ð³Ð°ÑĢ": 5527,
      "ĠÐ°Ð²ÑĤÐ¾Ð´Ð¾ÑĢÐ¾Ð³": 5528,
      "ĠÐ¤ÑĢÐ¸Ð´": 5529,
      "Ð²Ð¾Ðº": 5530,
      "ĠÐĲÐ²ÑģÑĤÑĢÐ°Ð»Ð¸Ð¸": 5531,
      "ĠÑģÐ¾ÑģÑĤÐ¾ÑıÐ»Ð°ÑģÑĮ": 5532,
      "ĠÐ½ÐµÐ¿Ð¾ÑģÑĢÐµÐ´": 5533,
      "ien": 5534,
      "ĠÐ³Ð¾ÑģÑĥÐ´Ð°ÑĢÑģÑĤÐ²ÐµÐ½Ð½Ð¾Ð¹": 5535,
      "ational": 5536,
      "ĠÐ¿Ð¾Ð´Ð²ÐµÑĢÐ³": 5537,
      "ÐŁÐ¾Ñĩ": 5538,
      "ĠÑĥÑĪ": 5539,
      "Ð°ÑĢÑĮÐµÑĢÐ°": 5540,
      "ĠÐ¡Ð°Ð²": 5541,
      "ĠÐ¿Ð¾Ð·Ð´Ð½ÐµÐµ": 5542,
      "ĠÐŁÐµÑĢÐ²ÑĭÐ¹": 5543,
      "Ġ32": 5544,
      "ÐµÑĢÐ¸Ð¹": 5545,
      "Ð°Ð»Ñĥ": 5546,
      "ĠÐ¼Ð°ÑĤÑĮ": 5547,
      "ĠÐľÐ°Ð´": 5548,
      "ĠÐĶÐ°Ð²": 5549,
      "ivers": 5550,
      "Ġ1934": 5551,
      "ĠÐ½Ð°ÑĩÐ°Ð»Ð¸": 5552,
      "Ð¾ÐºÐ¾": 5553,
      "ĠÑĢÐµÐºÐ¾ÑĢÐ´": 5554,
      "ĠÑģÐ¾Ð²Ð¼ÐµÑģÑĤÐ½Ð¾": 5555,
      "idae": 5556,
      "ĠBr": 5557,
      "ĠÐ¿ÑĢÐ¾ÑħÐ¾Ð´Ð¸ÑĤ": 5558,
      "ĠÐ·Ð°Ð¿Ð¸ÑģÐ¸": 5559,
      "Ð¸ÑĤÐµÐ»ÑĮÐ½ÑĭÐ¼": 5560,
      "Ð¾Ð·Ð½": 5561,
      "ĠÐ¼Ð½Ð¾Ð¶ÐµÑģÑĤÐ²Ð¾": 5562,
      "Ð¾ÑĩÐ½ÑĭÐµ": 5563,
      "ÐµÐ²ÑĭÑħ": 5564,
      "ĠÐ¾ÑĤÑĢÐ°Ð¶": 5565,
      "ĠÐ¢Ð¸Ñħ": 5566,
      "63": 5567,
      "ĠÑĨÐ²ÐµÑĤÐ°": 5568,
      "ĠÑĤÑĥÑĢÐ½Ð¸ÑĢ": 5569,
      "ĠÐŁÐ°": 5570,
      "ĠÐ°Ð¼": 5571,
      "ĠÐŃÑĤÐ¾ÑĤ": 5572,
      "2012": 5573,
      "Ð¸ÑĩÐ½Ð°Ñı": 5574,
      "ĠÐ·Ð°ÐºÐ°Ð·": 5575,
      "ÐĶÐ¾": 5576,
      "ÐĲÐ»ÑĮÐ±Ð¾Ð¼": 5577,
      "Ð°Ð¼ÐµÑĢÐ¸ÐºÐ°Ð½": 5578,
      "ĠÐ¼ÐµÑĤÐ°Ð»Ð»": 5579,
      "ĠÐ½Ð°Ð»Ð¸Ñĩ": 5580,
      "ÑİÑīÐµÐ¹": 5581,
      "67": 5582,
      "ĠÐ¿ÑĢÐ°Ð²Ð»ÐµÐ½Ð¸Ñı": 5583,
      "ĠÐ¿ÑĢÐ¾ÑıÐ²": 5584,
      ".;": 5585,
      "ĠÐ²Ð¾ÐµÐ½Ð½ÑĭÐ¹": 5586,
      "ĠÐ½ÐµÐº": 5587,
      "ĠÐ³Ð¾ÑģÑĤ": 5588,
      "Ð¸ÑģÑĤÑĢ": 5589,
      "ÑĤÐ°Ð±": 5590,
      "ĠÐ²ÑĭÐ¸Ð³ÑĢÐ°Ð»": 5591,
      "ĠÐ·Ð¾Ð½Ðµ": 5592,
      "ÐĲÑĢÑħ": 5593,
      "ĠÑĦÐ°ÐºÑĥÐ»ÑĮÑĤÐµÑĤÐ°": 5594,
      "ace": 5595,
      "Ð½ÐµÑĤ": 5596,
      "ĠÑĢÐ¾Ð¶Ð´ÐµÐ½Ð¸Ñı": 5597,
      "Â»:": 5598,
      "ĠÐ°ÑĤÐ°Ðº": 5599,
      "ys": 5600,
      "ĠÐ¡Ð¼Ð¾Ð»": 5601,
      "ĠÐ²Ð¾ÐµÐ½Ð½Ð¾Ð¹": 5602,
      "ĠÐ²ÑĭÑģÐ¾ÑĤÐ°": 5603,
      "ĠÑģÐ´": 5604,
      "ÐµÐ½ÑĮÑĪ": 5605,
      "ĠÑĢÐ°ÐºÐµÑĤ": 5606,
      "ĠÐŃÐº": 5607,
      "ĠÐ±Ð°Ð·Ðµ": 5608,
      "Ð»Ð¸Ð±Ð¾": 5609,
      "Ð¾Ð²Ð°Ð½Ð¾": 5610,
      "ĠÐ½Ð°ÑģÑĩÐ¸ÑĤ": 5611,
      "ment": 5612,
      "ÑĢÐ°ÑĪ": 5613,
      "Ð»Ð¾Ð³": 5614,
      "ĠÐļÐ°Ð·Ð°ÑħÑģÑĤÐ°Ð½Ð°": 5615,
      "2011": 5616,
      "ÐµÐ½ÑĤÐµ": 5617,
      "ĠÐ¿Ð¸ÑģÐ°Ð»": 5618,
      "ÑģÐºÐ¾ÑħÐ¾Ð·ÑıÐ¹": 5619,
      "Ð°Ð½ÑģÐºÐ¸Ñħ": 5620,
      "ah": 5621,
      "ÐµÐ»ÐµÐ·": 5622,
      "Ġ1932": 5623,
      "ĠPar": 5624,
      "ĠÐ¸Ð·Ð²ÐµÑģÑĤÐ½ÑĭÐ¹": 5625,
      "ÑĢÐ°Ð½ÑģÐ¿Ð¾ÑĢÑĤ": 5626,
      "ĠÐ½Ð°ÑĩÐ°Ð»ÑĮÐ½Ð¸ÐºÐ°": 5627,
      "ĠÐļÑĢÐ¸ÑģÑĤ": 5628,
      "ĠÐĵÐ¾ÑģÑĥÐ´Ð°ÑĢÑģÑĤÐ²ÐµÐ½Ð½Ð¾Ð¹": 5629,
      "ÐĹÐ¾Ð»Ð¾ÑĤ": 5630,
      "ĠÐ»ÐµÐº": 5631,
      "ÐµÐ·Ð´Ðµ": 5632,
      "ĠÑĥÐ±Ð¸ÑĤ": 5633,
      "Ð°ÑģÐ¿": 5634,
      "ĠÐ²Ð¾Ð¹Ð½Ð°": 5635,
      "ĠÐ¾Ð·ÐµÑĢÐ°": 5636,
      "ĠÐłÐĲÐĿ": 5637,
      "ĠÐ¢ÑĢÐ¾": 5638,
      "ĠÐĲÐĿ": 5639,
      "ĠÐ´Ð¾Ð¼Ðµ": 5640,
      "ĠÐ¿ÐµÑĢÐ²Ð°Ñı": 5641,
      "ĠÐ¿Ð¾ÑģÑĳÐ»ÐºÐ°": 5642,
      "ĠÐ½ÐµÐ¼ÐµÑĨÐºÐ¸Ð¹": 5643,
      "Ð½Ð°Ð·Ð½Ð°Ñĩ": 5644,
      "ĠÐŁÐ°Ð²Ð»Ð¾Ð²": 5645,
      "ĠÐ°ÑĢÐ¼Ð¸Ñı": 5646,
      "Ð³Ð¾Ð»": 5647,
      "ĠÐ¿ÑĢÐµÐ´ÑģÑĤÐ°Ð²Ð¸ÑĤÐµÐ»ÐµÐ¹": 5648,
      "ĠÐ¾ÑģÐ°Ð´ÐºÐ¾Ð²": 5649,
      "ĠÑģÑĤÑĢÐµÐ¼": 5650,
      "ĠÐ¾ÑģÐ½Ð¾Ð²Ð½Ð¾Ð¹": 5651,
      "ÑĥÑĪÐºÐ¸": 5652,
      "Ð¸Ð½Ð°Ð»": 5653,
      "ÐļÐŁ": 5654,
      "ÑĩÐ°": 5655,
      "ĠÐ¾Ð´Ð½Ñĥ": 5656,
      "ĠÑĢÐµÐºÐµ": 5657,
      "ĠÐ¿ÑĢÐ¾ÑĤÐµÑģÑĤ": 5658,
      "ÐµÑĤÐ¸": 5659,
      "ĠÐ·Ð°ÑģÐ»ÑĥÐ³Ð¸": 5660,
      "ĠÐ¿ÑĢÐ¾Ð¸ÑģÑħÐ¾Ð¶Ð´ÐµÐ½Ð¸Ñı": 5661,
      "Ġ90": 5662,
      "ĠÐ½ÐµÑĥÐ´": 5663,
      "ĠÑĢÐ°Ð±Ð¾ÑĤÐ°": 5664,
      "ĠÑģÐµÐ»ÑĮÑģÐºÐ¾Ðµ": 5665,
      "ÑĥÐ·Ð°": 5666,
      "ÑĳÐ½Ð½ÑĭÐ¼": 5667,
      "ĠÐ¾ÑģÐ²Ð¾Ð±Ð¾Ð¶Ð´": 5668,
      "ÐŁÑĢÐµÐ¿Ð¾Ð´Ð°Ð²": 5669,
      "Ð¾Ð´Ð°ÑĤÐµÐ»ÑĮ": 5670,
      "ĠÐ±Ð¾Ð¼Ð±Ð°ÑĢÐ´": 5671,
      "ĠÐ½Ð°ÑħÐ¾Ð´ÑıÑĤÑģÑı": 5672,
      "ÑİÑīÐ¸Ð¼": 5673,
      "ĠÑĥÑĢÐ¾Ð²Ð½Ðµ": 5674,
      "Ð¸Ð¼Ð¾ÑģÑĤÑĮ": 5675,
      "ĠÑĤÑĢÐ°Ð½Ñģ": 5676,
      "ĠÐĶÐ°Ð½": 5677,
      "ĠÑĦÑĢÐ°Ð½ÑĨÑĥÐ·ÑģÐºÐ¸Ð¹": 5678,
      "ĠÑĢÐ°Ð·Ð»Ð¸ÑĩÐ½ÑĭÐµ": 5679,
      "ĠÐķÑģÐ»Ð¸": 5680,
      "ĠÐ¿Ð¸Ð»": 5681,
      "Ð¶ÐµÐ½Ð¸Ðµ": 5682,
      "ĠÐ°Ð²ÑĤÐ¾Ð±": 5683,
      "ĠÑģÑĤÐ°Ð½Ð´Ð°ÑĢÑĤ": 5684,
      "ĠÐ¿ÐµÑĢÐµÐ²ÐµÐ´": 5685,
      "Ð¾ÑģÐ¿Ð¸ÑĤ": 5686,
      "ĠÐ´ÐµÑĢÐµÐ²ÑıÐ½": 5687,
      "ĠÐĽÑĮÐ²": 5688,
      "Ð¼ÐµÑĢÑĩÐµÑģÐº": 5689,
      "ĠÑĥÐ»Ð¸ÑĨÐµ": 5690,
      "ĠÐŁÐ¾Ð¿": 5691,
      "ĠÐ¢ÑĢÑĥÐ´Ð°": 5692,
      "ĠÑģÑĩÐ¸ÑĤÐ°ÐµÑĤÑģÑı": 5693,
      "ÑĦÐ¸Ð»": 5694,
      "Ð½Ð¾Ð·": 5695,
      "Ġ1921": 5696,
      "Ð»Ð¸ÑĪ": 5697,
      "ĠÐ¿Ð¾Ð½Ð¸Ð¼": 5698,
      "ĠÐ½Ð¸Ñĩ": 5699,
      "ĠÐºÐ¾Ð½ÐºÑĥÑĢÑģ": 5700,
      "ern": 5701,
      "ÑĨÐ¸ÑıÑħ": 5702,
      "Ã³": 5703,
      "Ð¾Ð¿Ð¾Ð»Ð¾Ð¶": 5704,
      "ĠÑĪÑĤÑĥÑĢ": 5705,
      "ĠÐ´Ð¸Ð²Ð¸Ð·Ð¸Ð¾Ð½": 5706,
      "ÑĪÐ¸Ð±": 5707,
      "Ġ1933": 5708,
      "Ð²Ð°Ð»": 5709,
      "Ð¾Ð²ÐµÑĢ": 5710,
      "ĠÐ»Ð¸ÑĤ": 5711,
      "ĠÑıÐ²Ð»ÑıÐ»ÑģÑı": 5712,
      "ĠÐĿÐ°Ð³": 5713,
      "ÐºÐ°ÑĢ": 5714,
      "ĠÐĳÑĢÐ¸ÑĤ": 5715,
      "ÑįÐ»": 5716,
      "ÑĨÐ°Ð¼": 5717,
      "ĠÐ¾ÑĢÐ³": 5718,
      "ÑĨÐ¸Ð¾Ð½Ð½ÑĭÐ¹": 5719,
      "ĠÐ¿Ð¾Ð´ÑħÐ¾Ð´": 5720,
      "ĠÐŁÐ¾ÑģÐ»ÐµÐ´": 5721,
      "ÐºÐ»ÑİÑĩ": 5722,
      "ĠÐ¾ÑĢÐ³Ð°Ð½Ð¸Ð·Ð°ÑĨÐ¸Ñı": 5723,
      "ÑĢÐ°ÑģÑģ": 5724,
      "ĠÑĪÐ²ÐµÐ´": 5725,
      "ĠÐĶÐ¶ÐµÐ¹Ð¼": 5726,
      "ĠÑĤÐ¾ÑĩÐºÐ¸": 5727,
      "100": 5728,
      "ĠÐ¼ÑĥÐ·ÐµÑı": 5729,
      "ĠÐ»ÑĥÑĩÑĪÐ¸Ñħ": 5730,
      "ĠÑİÑĢÐ¸Ð´": 5731,
      "ÐŁÐ¾ÑħÐ¾ÑĢÐ¾Ð½ÐµÐ½Ð½ÑĭÐµ": 5732,
      "Ġ1931": 5733,
      "ĠÐ±ÑĭÑģÑĤÑĢÐ¾": 5734,
      "ĠÐ¡ÑĥÐ´": 5735,
      "ÑĥÑĤÐ°": 5736,
      "ical": 5737,
      "ĠÐ¿ÑĥÑģÑĤ": 5738,
      "ĠÑĢÐ°ÑģÑĤÐµÐ½Ð¸Ð¹": 5739,
      "ĠÐºÐ¾ÑĤÐ¾ÑĢÐ¾Ð¼Ñĥ": 5740,
      "ĠÐ·Ð½Ð°ÐºÐ¾Ð¼": 5741,
      "ĠÐĳÐ°ÑĪÐº": 5742,
      "ĠÐ¼ÐµÑģÑıÑĨÐµÐ²": 5743,
      "ĠÐ¤Ð¸Ð»Ð¸Ð¿Ð¿": 5744,
      "ĠÐ¿Ð°Ð¼ÑıÑĤÐ½Ð¸Ðº": 5745,
      "Ð¸ÑħÐ°": 5746,
      "ĠÐ¤Ð¸Ð½Ð»ÑıÐ½Ð´": 5747,
      "ĠÐ²Ð¾ÑģÑĮ": 5748,
      "ÑĢÐ°ÑĤÐµÐ³": 5749,
      "ĠÐ°Ð²ÑĤÐ¾Ð¼Ð°ÑĤ": 5750,
      "Ã¶": 5751,
      "ĠÑģÐ°Ð¼Ð¾ÑģÑĤÐ¾ÑıÑĤÐµÐ»ÑĮ": 5752,
      "ĠÐĲÐ»ÐµÐºÑģÐ°Ð½Ð´ÑĢÐ¾Ð²Ð¸Ñĩ": 5753,
      "ĠÐµÑģÑĤ": 5754,
      "ĠÐ¼Ð°Ð³Ð°Ð·": 5755,
      "Ġ1951": 5756,
      "ĠÑģÐ½Ð¸Ð¼": 5757,
      "ĠÑģÐ°Ð¼Ð¾Ð¹": 5758,
      "2004": 5759,
      "ĠÐ¼Ð°ÑĢÐº": 5760,
      "ÐµÐ·ÑĥÐ»ÑĮÑĤ": 5761,
      "ĠÐ¿ÐµÑĢÐ²ÐµÐ½": 5762,
      "ĠÐĽÐ¸Ð½": 5763,
      "Ð¶Ð´Ðµ": 5764,
      "ĠÐŃÐ¹": 5765,
      "ÐµÐ½Ð½Ð¾ÑģÑĤÑĮ": 5766,
      "ĠÐ²ÐºÐ»ÑİÑĩÐ°ÐµÑĤ": 5767,
      "ĠBe": 5768,
      "ĠÐłÐ°Ð±Ð¾ÑĤ": 5769,
      "Ġ1922": 5770,
      "ĠÐ±Ð¾Ð»ÑĮÑĪÐ¸Ð½ÑģÑĤÐ²Ð¾": 5771,
      "ĠÐ²ÑĢÑĥÑĩ": 5772,
      "ĠÐ²Ð¾ÐºÑĢÑĥÐ³": 5773,
      "ĠÐ¼Ð¾ÑĢÐµ": 5774,
      "ĠÑģÐµÐ¹": 5775,
      "ĠÐ¸Ð·Ð´Ð°Ð½Ð¸Ñı": 5776,
      "ĠÐ²ÑģÑĤÑĢÐµÑĤ": 5777,
      "ÐķÐ²": 5778,
      "ÐµÐ»Ð»Ð¸": 5779,
      "ĠÑĨÐµÐ»Ð¾Ð¼": 5780,
      "ĠÐ¸Ð·Ð²ÐµÑģÑĤÐ½Ð¾": 5781,
      "Ġ1914": 5782,
      "ĠÐ²ÐµÑĢÑĪ": 5783,
      "ĠÑģÐ¸Ð»ÑĮÐ½Ð¾": 5784,
      "ÐļÐ°ÑĢÑĮÐµÑĢÐ°": 5785,
      "ÑĤÐµÑĢÑĢÐ¸ÑĤÐ¾ÑĢÐ¸": 5786,
      "Ð°ÑģÐºÐµÑĤ": 5787,
      "ĠÑģÑĤÐµÐ½": 5788,
      "ĠÐ¼Ð¾Ð³Ð»Ð¸": 5789,
      "ĠÑįÐºÐ¸Ð¿Ð°Ð¶": 5790,
      "ĠPh": 5791,
      "ÑģÑĤÐ²ÐµÐ½Ð½Ð¾Ð³Ð¾": 5792,
      "ĠÐ´ÐµÐ½": 5793,
      "ÐļÐ°Ð·": 5794,
      "ÑĢÐ¾Ð²Ð¾Ð¹": 5795,
      "ĠÑģÐ¼ÐµÑĪ": 5796,
      "1944": 5797,
      "ÑĤÑĢ": 5798,
      "Ð°Ð·Ð²Ð°Ð½Ð¸Ðµ": 5799,
      "Ð¸ÑĤÐµÐ»ÑĮÐ½Ð¾ÑģÑĤÑĮ": 5800,
      "ÐµÑĢÐµÐ¹": 5801,
      "ĠÐŁÐ¾ÑĤ": 5802,
      "se": 5803,
      "Ð³Ð¾Ðµ": 5804,
      "ĠÐĽÐ°ÑĤÐ²": 5805,
      "ĠÐºÐ»ÑİÑĩ": 5806,
      "ĠÐºÐ¾Ð¼Ð¿Ð¾Ð·Ð¸ÑĤÐ¾ÑĢ": 5807,
      "ĠÑģÐ¸ÑģÑĤÐµÐ¼Ðµ": 5808,
      "ĠÐ¿ÑĢÐ¾Ð¸Ð·Ð²Ð¾Ð´ÑģÑĤÐ²Ð¾": 5809,
      "ĠÐ³ÑĢÑĥÐ¿Ð¿Ðµ": 5810,
      "ĠÐĹÐ½Ð°Ð¼": 5811,
      "ĠÑĢÐµÐ¹ÑĤÐ¸Ð½Ð³": 5812,
      "ĠÐ¼ÑĥÐ½Ð¸ÑĨÐ¸Ð¿Ð°Ð»ÑĮÐ½Ð¾Ð³Ð¾": 5813,
      "ÐµÐ²Ð¸Ð·": 5814,
      "Ð¸ÑĢÐ¾Ð²ÐºÐ¸": 5815,
      "ĠÐ¸Ð·Ð³Ð¾ÑĤÐ¾Ð²": 5816,
      "2013": 5817,
      "Ġe": 5818,
      "ÑĪÐ¸Ð½": 5819,
      "Â»<": 5820,
      "ĠÐ¾ÐºÐµ": 5821,
      "ĠÐ¿Ð¾ÑĤÐ¾Ð¼Ñĥ": 5822,
      "Ð¸ÑĨÐ¸Ñİ": 5823,
      "Ð¡ÑİÐ¶ÐµÑĤ": 5824,
      "ĠÐŃÑĤÐ°": 5825,
      "ĠÐºÐ½Ð¸Ð³Ðµ": 5826,
      "ĠÐ²Ð¾Ð·Ð¼Ð¾Ð¶Ð½Ð¾": 5827,
      "ĠÐ¡Ð¾ÑĦ": 5828,
      "ÑĩÐµÐ·": 5829,
      "ĠÑĦÐ¸ÑĢ": 5830,
      "ĠÐĶÐ¼Ð¸ÑĤÑĢÐ¸Ð¹": 5831,
      "ĠÑĢÑıÐ´Ð°": 5832,
      "Ð¾Ð»ÑĮÑģÐºÐ¾Ð³Ð¾": 5833,
      "ĠÑĤÐµÐ»ÐµÐ²Ð¸Ð´": 5834,
      "ĠÐ¿Ð¾ÑģÐµÑī": 5835,
      "ĠRecords": 5836,
      "Ð»ÐµÐ½Ð½ÑĭÐµ": 5837,
      "Ð¾Ð·Ð¼Ð¾Ð¶": 5838,
      "ĠÂ°": 5839,
      "Ð¿Ð¾Ð»Ð¸ÑĤ": 5840,
      "ÑıÑĤÑĮÑģÑı": 5841,
      "ĠÐ¸Ð¼ÐµÐ»Ð¸": 5842,
      "ĠÐ½ÐµÑģÐ¼Ð¾ÑĤÑĢÑı": 5843,
      "ĠÐ±ÐµÐ³": 5844,
      "Ġ1923": 5845,
      "Ð¼Ð°Ð½Ð°": 5846,
      "Ð½Ð°Ð¹": 5847,
      "Ð°ÑīÐ¸Ñħ": 5848,
      "ÑĭÐ²Ð°Ð»Ð¸": 5849,
      "ĠÐ¡ÑĢÐµÐ´Ð½ÑıÑı": 5850,
      "ÑĨÐ¾Ð¼": 5851,
      "age": 5852,
      "ĠÐ´Ð¾ÑģÑĤÐ°ÑĤÐ¾ÑĩÐ½Ð¾": 5853,
      "ĠÐ¿Ð°ÑĢÐ»Ð°Ð¼ÐµÐ½ÑĤ": 5854,
      "ĠÑįÑĦÑĦÐµÐºÑĤÐ¸Ð²": 5855,
      "ĠÐ»Ð¾Ð´": 5856,
      "ÐŁÐµÑģ": 5857,
      "Ð¸Ð½ÑģÐºÐ¸Ðµ": 5858,
      "ÐµÐ´Ð¶": 5859,
      "Ð»ÑĮÑı": 5860,
      "ĠÐ¼ÐµÐ¶": 5861,
      "Ð¤ÑĥÑĤÐ±Ð¾Ð»Ð¸ÑģÑĤÑĭ": 5862,
      "ĠÐ´Ð¾ÑĩÐµÑĢÐ¸": 5863,
      "Ð¸ÑĢÐ°Ð½": 5864,
      "ĠÐ¾ÑĤÐ´ÐµÐ»Ð°": 5865,
      "2014": 5866,
      "ite": 5867,
      "ĠÑĤÐ°ÐºÐ¾Ð¹": 5868,
      "ĠÐ¡Ð»Ð¾Ð²": 5869,
      "ĠÐ±Ð¾ÑĢÑĮÐ±Ðµ": 5870,
      "ĠÐ¾Ð½Ð¾": 5871,
      "ĠÐ¨Ð°ÑĢ": 5872,
      "Ġ1927": 5873,
      "ĠÐ£Ð¸Ð»ÑĮÑıÐ¼": 5874,
      "Ð°Ð»ÑĮÐ´": 5875,
      "ĠÐ¿ÑĢÐ°Ð²Ð¸Ð»Ð¾": 5876,
      "ĠÐ¿ÑıÑĤÐ¸": 5877,
      "ÐŁÑĢÐµÐ¿Ð¾Ð´Ð°Ð²Ð°ÑĤÐµÐ»Ð¸": 5878,
      "ÐĲÐ»": 5879,
      "ĠÐ¿ÑĢÐ¾Ð¸Ð·Ð²ÐµÐ´ÐµÐ½Ð¸Ð¹": 5880,
      "ĠÐ¿Ð¾Ð»ÑĥÑĩÐ¸Ð²": 5881,
      "ÐµÐ¼Ð¾ÑĢÐ¸": 5882,
      "Ġalign": 5883,
      "ĠÐºÐ°Ð¿Ð¸ÑĤÐ°Ð½": 5884,
      "ĠÐ¿Ð¾ÑħÐ¾ÑĢÐ¾Ð½": 5885,
      "ĠÑģÐ²ÐµÐ´ÐµÐ½Ð¸Ñı": 5886,
      "ÑĨÐ¾": 5887,
      "ÐºÐ¾Ð²Ð¾": 5888,
      "ĠÐ²Ð¾Ð´Ð½Ð¾Ð³Ð¾": 5889,
      "ĠÐ±Ð¾Ð»ÑĮÑĪÐ°Ñı": 5890,
      "ÐµÑĢÐ°Ð½": 5891,
      "ĠXVII": 5892,
      "Ð¾ÑĢÐ¾ÑĤÐ°": 5893,
      "ĠÐłÐ°Ð¹": 5894,
      "ÑĳÑĤÑĢ": 5895,
      "Ġi": 5896,
      "ĠÐŁÑĢÐ¾ÑĦÐ¸Ð»ÑĮ": 5897,
      "ĠÑģÐ¾ÑģÑĤÐ¾ÑıÐ»ÑģÑı": 5898,
      "ĠÐłÑĥÐ¼": 5899,
      "ĠÐŁÐ¸ÑĤ": 5900,
      "ĠÐ§Ð°ÑĢ": 5901,
      "ĠÐĲÐº": 5902,
      "Ð¾ÑĢÐ¾Ð²Ð¸Ñĩ": 5903,
      "ĠÐļÐ¸ÑĢÐ¾Ð²": 5904,
      "Ð°Ð³Ð°": 5905,
      "61": 5906,
      "ĠÐ»Ð¸ÑģÑĤ": 5907,
      "Ð½Ð°ÐºÐ¾Ð¼": 5908,
      "Ð°Ð±ÑĢ": 5909,
      "ĠÐ´Ð¸ÑģÑĤÐ°Ð½": 5910,
      "ĠÐ·Ð°ÑīÐ¸Ñī": 5911,
      "ĠÐļÐ°Ð»Ð¸": 5912,
      "ĠÑģÐ¾Ð»Ð½": 5913,
      "ĠÐ¿Ð¾Ð±ÐµÑĢÐµÐ¶": 5914,
      "ĠÐ¿ÑĢÐ¸Ð±Ð»Ð¸Ð·": 5915,
      "ĠÐ¾Ð±ÑıÐ·Ð°Ð½": 5916,
      "ÑįÐ´": 5917,
      "Ð¸Ð³Ð½": 5918,
      "ĠÑĢÐ°Ð±Ð¾ÑĤÐ°ÐµÑĤ": 5919,
      "ĠÐ²ÑĭÐ±Ð¾ÑĢÐ°Ñħ": 5920,
      "Ð°ÑĤÑĥ": 5921,
      "lin": 5922,
      "ÑĢÐ¸Ð°ÑĢÑħ": 5923,
      "ĠÐĴÐ¾ÑģÑĤÐ¾Ðº": 5924,
      "ĠÐ¤Ð¸Ð»": 5925,
      "Ġla": 5926,
      "ĠÐ±Ð¾Ð³Ð°ÑĤ": 5927,
      "ĠÐ¨Ð²ÐµÐ¹ÑĨ": 5928,
      "Ð°ÑģÑĤÑĮ": 5929,
      "ĠÑģÑĤÑĢÐ°Ð½Ð°Ñħ": 5930,
      "ĠÐ»ÐµÑĩ": 5931,
      "ĠÑħÐ¾ÐºÐºÐµ": 5932,
      "ĠÐĴÐ°ÑģÐ¸Ð»Ð¸Ð¹": 5933,
      "ĠÐ²Ð·ÑıÑĤ": 5934,
      "Ð¾Ð²ÑĢÐµÐ¼": 5935,
      "ĠÃ": 5936,
      "ĠÐ¿ÐµÑĢÐµÐº": 5937,
      "ÑĬÑĳÐ¼": 5938,
      "Ð¿ÐµÐ´": 5939,
      "ÐµÑĩÐ½Ð¾Ð¹": 5940,
      "ĠÐ¿ÑĢÐ¾Ð´ÑĥÐº": 5941,
      "Ð°ÑģÐ¾Ð²": 5942,
      "ĠÐĿÐ°Ð´": 5943,
      "ĠÐĹÐ°Ð¿": 5944,
      "ĠÐ¿Ð¾ÑĢÑĥÑĩ": 5945,
      "ĠÐºÐ¾Ð¼Ð°Ð½Ð´Ðµ": 5946,
      "ĠÐ¿ÑĥÑĤÑĮ": 5947,
      "ĠÐ¸Ð·Ð²ÐµÑģÑĤÐµÐ½": 5948,
      "ÑĢÐ¾ÑĢ": 5949,
      "ĠÐ¡ÐµÐ²": 5950,
      "ĠÐĿÐ¸ÐºÐ¾Ð»Ð°ÐµÐ²": 5951,
      "ĠÐ±ÑĢÐ¸Ð³Ð°Ð´Ñĭ": 5952,
      "ĠÐ®ÑĢÐ¸Ð¹": 5953,
      "Ð°Ð±ÑģÐ¾Ð»ÑİÑĤÐ½ÑĭÐ¹": 5954,
      "ick": 5955,
      "ĠÐ´Ð°Ð»ÑĮÐ½ÐµÐ¹ÑĪÐµÐ¼": 5956,
      "Ð¼Ð°Ð¹Ð¾ÑĢ": 5957,
      "ĠÐ¿ÐµÑĢÐ²Ð¾Ðµ": 5958,
      "ĠÐ²Ð¸Ð´Ð°": 5959,
      "Ġ1925": 5960,
      "ÑĤÐ¸Ð¼": 5961,
      "ĠÐŁÐ¾Ð·Ð¶Ðµ": 5962,
      "ĠÐ¡Ð¾ÑĨÐ¸Ð°Ð»Ð¸ÑģÑĤÐ¸ÑĩÐµÑģÐºÐ¾Ð³Ð¾": 5963,
      "ĠÐ¢Ð²ÐµÑĢ": 5964,
      "Ð¾Ð²Ð°Ð½Ð¸Ñİ": 5965,
      "ĠÐ±ÐµÐ´": 5966,
      "Ð°ÑĢÐ¸Ñı": 5967,
      "ĠÑĩÐµÑĢÑĤ": 5968,
      "ĠÐ³ÑĢÑĥÐ¿Ð¿Ñĥ": 5969,
      "Ġder": 5970,
      "ĠÐ¿Ð¾Ð·Ð²Ð¾Ð»ÑıÐµÑĤ": 5971,
      "ĠÐ³Ð°Ð·ÐµÑĤÑĭ": 5972,
      "ĠÐ²Ð¸ÑĨÐµ": 5973,
      "ÑĹ": 5974,
      "ĠÐ°Ð¿Ð¿Ð°ÑĢÐ°ÑĤ": 5975,
      "ĠÐŀÐº": 5976,
      "ĠÑī": 5977,
      "ĠÐ¼ÑĭÑģ": 5978,
      "ĠÐ´ÐµÐ¼Ð¾Ð½": 5979,
      "ĠÐ´ÐµÐ¹ÑģÑĤÐ²Ð¸Ð¹": 5980,
      "ĠÐ§Ð»ÐµÐ½": 5981,
      "ĠÐ¸Ð½Ð¾ÑģÑĤÑĢÐ°Ð½Ð½ÑĭÑħ": 5982,
      "ĠÐ½ÑĥÐ¶": 5983,
      "ĠÐ¼Ð°ÑĤÑĩÐ°": 5984,
      "Ð¾Ð»Ð¾Ð³Ð¸ÑĩÐµÑģÐºÐ¸Ñħ": 5985,
      "ĠÐ³Ð¾ÑĢÐ¾Ð´Ð¾Ð²": 5986,
      "ĠÐµÐ²ÑĢÐµ": 5987,
      "ĠÐłÐ¾Ð±ÐµÑĢÑĤ": 5988,
      "ÑĪÐµÐ¼Ñĥ": 5989,
      "Ð¾ÑģÐ¿Ð¾Ð´": 5990,
      "ÐĿÐ°ÑĨÐ¸Ð¾Ð½Ð°Ð»ÑĮ": 5991,
      "ĠÐĺÐ·Ð²ÐµÑģÑĤ": 5992,
      "ĠÐ´Ð²Ð¸Ð¶ÐµÐ½Ð¸Ðµ": 5993,
      "ĠÐ²ÐµÑĢÑĤ": 5994,
      "ÐĲÐ»ÐµÐºÑģ": 5995,
      "ÐºÐ¾Ð½ÑĩÐ¸Ð»": 5996,
      "ĠÑģÑĤÐ¾ÑĢÐ¾Ð½Ñĥ": 5997,
      "ĠÐ¿ÑĢÐ¸Ðµ": 5998,
      "Ð¸ÑĩÐ½ÑĭÐ¹": 5999,
      "ÑĢÐµÑħ": 6000,
      "ĠÐ·ÑĢÐµÐ½Ð¸Ñı": 6001,
      "Ð¾ÑģÐµ": 6002,
      "ĠÐ·Ð°Ð½Ð¸Ð¼Ð°Ð»ÑģÑı": 6003,
      "ĠÑįÑģÐºÐ°Ð´": 6004,
      "ĠÐ±Ð¾ÑıÑħ": 6005,
      "ĠÐ°ÑĦ": 6006,
      "ĠÑģÐ»ÑĥÑĩÐ°Ð¹": 6007,
      "Ð»ÐµÐºÑģÐ°": 6008,
      "ĠÐ¤ÐµÑĢ": 6009,
      "ĠÐ²ÐµÑĢÑģÐ¸Ñı": 6010,
      "ĠÐĳÐµÐ»Ð°ÑĢÑĥÑģ": 6011,
      "ĠÐĿÐ°ÑĢ": 6012,
      "ĠÑģÑĢÐµÐ´Ð½ÐµÐ¼": 6013,
      "ĠÑģÑĥÐ´Ð°": 6014,
      "ÑĨÐ¸Ð°Ð»Ð¸Ð·": 6015,
      "Ð¡Ð¿Ð¸ÑģÐ¾Ðº": 6016,
      "ĠÐµÐ¶ÐµÐ³Ð¾Ð´": 6017,
      "ĠÑģÐµÐ»ÑĮÑģÐºÐ¾ÑħÐ¾Ð·ÑıÐ¹": 6018,
      "ĠÐ´Ð¾ÐºÐ°Ð·": 6019,
      "ÐµÐºÑģÑĥ": 6020,
      "ĠÑģÐµÐ¼ÑĮ": 6021,
      "ÐĿÐ°Ñĩ": 6022,
      "ÐļÐ¾Ð»": 6023,
      "Ð¸Ð½ÐºÐ¸": 6024,
      "ĠÐ¾Ð´ÐµÑĢÐ¶": 6025,
      "ĠÐĿÐ¸ÐºÐ¾Ð»Ð°Ñı": 6026,
      "ĠÑĢÐµÑģ": 6027,
      "2003": 6028,
      "ĠÐĴÐµÑĢ": 6029,
      "Ð½Ð°Ð¿": 6030,
      "Ġ39": 6031,
      "ÐĶÐ»Ñı": 6032,
      "Ð£Ñĩ": 6033,
      "Ð°Ð»Ð¸Ð·Ð°ÑĨÐ¸Ð¸": 6034,
      "ĠÐ¾ÑĤÐ´ÐµÐ»ÐµÐ½Ð¸Ñı": 6035,
      "ĠÑĦÐ¸Ð»ÑĮÐ¼Ñĭ": 6036,
      "ĠÑĩÐ¸ÑģÑĤ": 6037,
      "ĠÐ¼ÑĥÐ½Ð¸ÑĨÐ¸Ð¿Ð°Ð»": 6038,
      "Ð·ÑĭÐ²": 6039,
      "Ð¼ÐµÑģÑĤÐµ": 6040,
      "ĠÐĴÐµÐ½": 6041,
      "ĠÐ²Ð¾Ð¹ÑģÐºÐ°Ð¼Ð¸": 6042,
      "ĠÑģÐ»ÐµÐ´ÑĥÑİÑīÐ¸Ðµ": 6043,
      "ĠÐ³Ð¸Ð±": 6044,
      "ĠÐ´ÐµÐ»Ð¾": 6045,
      "ÐµÐºÑĤÑĭ": 6046,
      "ÐļÐ°Ðº": 6047,
      "Ð½Ð°Ð±": 6048,
      "ĠÐ¿Ð¾Ð»Ñı": 6049,
      "ĠÐĵÐµÐ½ÑĢÐ¸Ñħ": 6050,
      "Ð»Ð¾Ð´": 6051,
      "ĠÐ°Ð´Ð¼Ð¸Ð½Ð¸ÑģÑĤÑĢÐ°ÑĤÐ¸Ð²Ð½Ð¾": 6052,
      "ÐµÑĢÐ¸Ð°Ð»Ñĭ": 6053,
      "ĠÐĳÐµÐ·": 6054,
      "ĠÑģÐ½Ñı": 6055,
      "oh": 6056,
      "rom": 6057,
      "ĠÐĶÐ¾Ðº": 6058,
      "ÐĿÐ¸Ðº": 6059,
      "ĠÑĢÐ°Ð´Ð¸Ð¾": 6060,
      "Ð¿Ð°ÑĢÐ°": 6061,
      "ĠÑĦÐ°Ð¼Ð¸Ð»Ð¸Ñı": 6062,
      "ĠÐ¾ÑħÑĢÐ°Ð½": 6063,
      "ÐŃÐ½": 6064,
      "ÐĽÑİ": 6065,
      "ĠÑĢÐ°Ð¹Ð¾Ð½Ð½Ð¾Ð³Ð¾": 6066,
      "Ð¸Ð½ÑģÐºÐ¾Ðµ": 6067,
      "ÑĤÐ°Ðº": 6068,
      "ÑĭÐºÐ°": 6069,
      "ĠÐŁÐ°ÑĢÐ°": 6070,
      "ÐĶÐµÐ¿ÑĥÑĤ": 6071,
      "Ġund": 6072,
      "ĠCl": 6073,
      "ĠÐļÐ°Ð²ÐºÐ°Ð·": 6074,
      "ĠÑģÐ¼ÐµÑĢÑĤ": 6075,
      "ĠÐºÐ°Ð¶Ð´ÑĭÐ¹": 6076,
      "Ð¸ÑĩÐ½ÑĭÐµ": 6077,
      "ĠÑģÐµÑĢÑĮÑĳÐ·": 6078,
      "ĠÐ½ÑĭÐ½Ðµ": 6079,
      "ek": 6080,
      "ĠÑĦÐ¸Ð»ÑĮÐ¼Ð¾Ð²": 6081,
      "ĠÐ»ÑİÐ±Ð¾Ð²": 6082,
      "ĠÐ¿Ð°ÑĢÑĤÐ¸Ñı": 6083,
      "ĠÐ½Ð¸ÐºÐ°Ðº": 6084,
      "Ð°ÑİÑīÐµÐ³Ð¾": 6085,
      "ĠÐ¿Ð¾ÑģÐµÑĤ": 6086,
      "ĠÐ¿ÑĢÐ¾Ð±Ð»ÐµÐ¼Ñĭ": 6087,
      "ÑĢÐµÑģÐ¿": 6088,
      "ĠÐ²ÑĭÐ¿Ð¾Ð»Ð½Ñı": 6089,
      "ĠÐ¿ÑĢÐµÐ¼ÑĮÐµÑĢ": 6090,
      "ĠÐ¿ÑĢÐµÐ¿Ð¾Ð´": 6091,
      "ÑĤÐ¾ÑĢÐ¾Ð²": 6092,
      "ĠÐ½Ð¸Ð¶Ðµ": 6093,
      "ĠÐ·Ð²ÑĳÐ·Ð´": 6094,
      "ĠÐ²Ð¸Ð´ÐµÐ¾": 6095,
      "Ð°ÑĢÑģÐºÐ¾Ð³Ð¾": 6096,
      "ĠÑģÐµÑģÑĤ": 6097,
      "ĠÐ·Ð½Ð°Ð¼ÐµÐ½Ð¸ÑĤ": 6098,
      "ary": 6099,
      "Ð°Ð½Ð³ÐµÐ»ÑĮ": 6100,
      "ĠÐ¿ÑĢÐµÐ¼Ð¸Ñı": 6101,
      "Ð³Ð¾ÑģÐ»Ð°Ð²": 6102,
      "Ð°ÑĤÐ¸ÑģÑĤÐ¸ÐºÐ°": 6103,
      "ĠÐ¸ÑģÑĤÐ¾ÑĢÐ¸Ñİ": 6104,
      "ions": 6105,
      "ĠÐĽÐµÐ¹": 6106,
      "ÐĳÐ¾Ð»ÑĮÑĪ": 6107,
      "ÐµÐ¼Ð°": 6108,
      "ĠÐ²ÑģÑİ": 6109,
      "ult": 6110,
      "Ð¢ÑĢÐµÐ½": 6111,
      "ĠÐ¿ÑĢÐ¾ÑģÑĤÐ¾": 6112,
      "ĠÐ·Ð°ÑīÐ¸ÑĤÑĭ": 6113,
      "ĠÐ¡Ð¸Ð»": 6114,
      "ĠÐ¿ÑĢÐµÐ´Ð½Ð°Ð·Ð½Ð°Ñĩ": 6115,
      "ĠÑĢÐµÐ³Ð¸Ð¾Ð½Ðµ": 6116,
      "ĠÑĤÑİÑĢÑĮ": 6117,
      "ÑģÑĥ": 6118,
      "Ð±ÑĭÐ²": 6119,
      "ÐĿÐµ": 6120,
      "2001": 6121,
      "ĠÐ´Ð¶": 6122,
      "ĠÑģÑĬÑĳÐ¼": 6123,
      "ĠÐ¿ÑĢÐ¾Ð´Ð°Ð¶": 6124,
      "Ð°Ð½Ð½": 6125,
      "ĠÐ¿Ð¾ÑģÐ»ÐµÐ´Ð½Ð¸Ð¹": 6126,
      "2002": 6127,
      "ÑĢÑĥÐ¿Ð¿Ñĭ": 6128,
      "ĠÑĢÐ°Ð´": 6129,
      "ÑĮÑıÐ¼Ð¸": 6130,
      "ĠÑģÑĤÐ¾ÑĢÐ¾Ð½Ðµ": 6131,
      "ĠÐºÐ¾Ð»ÑħÐ¾Ð·": 6132,
      "ĠÑĥÑĩÐ°ÑģÑĤÐ¾Ðº": 6133,
      "ĠÐ¥ÑĢÐ¸ÑģÑĤ": 6134,
      "Ð¸ÑĦÐ¸ÐºÐ°ÑĨÐ¸Ð¸": 6135,
      "ĠÐ°ÑģÐ¿": 6136,
      "ĠÐĴÐ¸Ð´": 6137,
      "ÑĪÐ¸": 6138,
      "ĠÐ¿ÑĢÐµÐ´Ð¿Ð¾Ð»Ð¾Ð¶": 6139,
      "ÐºÑĤÐ¾ÑĢÐ°": 6140,
      "ĠÐ½Ð°ÑĢÐ¾Ð´Ð¾Ð²": 6141,
      "ÑģÑĤÐ°": 6142,
      "ĠÐ¾Ð³ÑĢÐ¾Ð¼": 6143,
      "ĠÐ¿ÑĢÐ¾ÑĢ": 6144,
      "ÐĺÑģÑĤÐ¾ÑĢ": 6145,
      "ĠÐļÑĢÐ°ÑģÐ½Ð¾Ð³Ð¾": 6146,
      "ĠÑģÐ²Ð¾Ð¸Ð¼Ð¸": 6147,
      "ĠÐ¼ÑĥÑģ": 6148,
      "ĠÐ²Ð°ÑĢÐ¸Ð°Ð½ÑĤ": 6149,
      "ĠÐ¼ÐµÐ¶Ð´ÑĥÐ½Ð°ÑĢÐ¾Ð´Ð½ÑĭÑħ": 6150,
      "ĠÐ¿ÑĢÐ¸Ð·Ð²": 6151,
      "ĠÐ±ÑĥÐ´ÑĥÑĤ": 6152,
      "ĠÐ¼ÐµÑģÑĤÐ½Ð¾Ð³Ð¾": 6153,
      "ĠÐ¯ÐºÐ¾Ð²": 6154,
      "ĠÐºÐ¾Ð»Ð»ÐµÐ´": 6155,
      "ĠÐ³ÑĢÐ°Ð½Ð¸ÑĨÑĭ": 6156,
      "Ġ1915": 6157,
      "ĠÐ°ÑĢÑħÐ¸ÐµÐ¿Ð¸ÑģÐºÐ¾Ð¿": 6158,
      "ĠÐ¡Ñĥ": 6159,
      "ĠÐ²Ð»Ð°ÑģÑĤÑĮ": 6160,
      "ĠÐ¿Ð¾ÐºÑĢÐ¾Ð²": 6161,
      "ĠÐ¾ÑĪÐ¸Ð±": 6162,
      "Ð¸Ð½Ñı": 6163,
      "Ð°Ð½ÐºÐ°": 6164,
      "ĠÐ¿ÑĢÐµÐ´Ð»Ð°Ð³": 6165,
      "ĠÑĤÐµÑĢÐ¼Ð¸Ð½": 6166,
      "ĠÐ´ÐµÑıÑĤ": 6167,
      "isc": 6168,
      "ĠÐ¿Ð°Ð´": 6169,
      "ÑĮÐ¼": 6170,
      "Ð½Ð°ÑĩÐ°Ð»ÑĮÐ½Ð¾": 6171,
      "ice": 6172,
      "ĠÑħÑĥÐ´Ð¾Ð¶Ð½Ð¸ÐºÐ¾Ð²": 6173,
      "ÑĢÐ°Ð¿": 6174,
      "Ð±ÑĢÐ°Ð½": 6175,
      "Ð¸Ð¼Ð¾ÑģÑĤÐ¸": 6176,
      "ics": 6177,
      "ĠÐºÐ¾Ð½ÑĤÑĢÐ¾Ð»": 6178,
      "ĠÐºÐ½Ð¸Ð³Ð°": 6179,
      "ĠÐºÐ¾Ð¼Ð°Ð½Ð´Ð¸ÑĢÐ°": 6180,
      "ward": 6181,
      "ĠÐķÑĳ": 6182,
      "ÑĨÐµÐ¿": 6183,
      "ĠÑģÑĤÐ¸Ð»Ðµ": 6184,
      "ĠÐļÑĥ": 6185,
      "ÑĩÐ¸ÐºÐ¸": 6186,
      "ĠÑģÑĢÐµÐ´ÑģÑĤÐ²Ð°": 6187,
      "ĠÐ±Ð¾Ð»ÑĮÑĪÐ¾Ðµ": 6188,
      "one": 6189,
      "Ð°ÐºÐ¾Ð¼": 6190,
      "Ð¾ÑĢÐ³Ð°Ð½": 6191,
      "Ġdes": 6192,
      "Ð¸ÑĢÐ¾Ð²Ð°Ð½Ð¾": 6193,
      "Ġet": 6194,
      "ĠÐ½Ð¾Ð³": 6195,
      "ÑĳÐ¹": 6196,
      "ĠÑĢÑĥÑģÑģÐºÐ¸Ñħ": 6197,
      "ĠÑģÑĢÐµÐ´Ð½ÐµÐ¹": 6198,
      "Ð°ÐµÐ¼ÑĭÑħ": 6199,
      "ÐµÑģÑĤÐ²Ñĥ": 6200,
      "ĠÐ½Ð°ÑĨÐ¸Ð¾Ð½Ð°Ð»ÑĮÐ½Ð¾Ð³Ð¾": 6201,
      "ÐµÐ½Ð¸ÑıÐ¼": 6202,
      "ĠÑĥÐ»Ð¸ÑĨ": 6203,
      "ĠÐ¿Ð»Ð°ÑĤÑĦÐ¾ÑĢÐ¼": 6204,
      "Ð¾ÐºÐ¾Ð²": 6205,
      "Ð¼ÐµÑĢÑĤ": 6206,
      "ĠÐ¢Ð°ÐºÐ¸Ð¼": 6207,
      "ĠÐ½ÐµÐ¾Ð´Ð½": 6208,
      "ĠÐ¼Ð¾Ð½Ð°ÑģÑĤÑĭÑĢÑı": 6209,
      "ĠÐ¾ÑĤÐ½Ð¾ÑĪÐµÐ½Ð¸Ð¸": 6210,
      "Ġ300": 6211,
      "ĠÐ¶Ð¸Ð²Ð¾ÑĤÐ½ÑĭÑħ": 6212,
      "ĠÑģÐ½Ð°ÑĩÐ°Ð»Ð°": 6213,
      "ĠÑĤÐµÑħÐ½Ð¸ÐºÐ¸": 6214,
      "ĠÐľÐ¸ÑħÐ°Ð¹Ð»Ð¾Ð²Ð¸Ñĩ": 6215,
      "Ð½Ð¸ÐºÑĥ": 6216,
      "ĠÐ°ÑĢÐ¼ÑıÐ½": 6217,
      "ĠÐ¼Ð¾Ð´ÐµÐ»Ð¸": 6218,
      "ÐĶÐ¸Ð½Ð°Ð¼Ð¾": 6219,
      "ĠÐ°Ð³ÐµÐ½ÑĤ": 6220,
      "ĠÐ´Ð¾ÐºÑĤÐ¾ÑĢÐ°": 6221,
      "ĠÐľÑĥÑħ": 6222,
      "ĠÑįÑĤÐ½": 6223,
      "Ð½Ð¸ÐºÐ°Ð¼": 6224,
      "Ð¼Ð¾Ð½": 6225,
      "Ð¿Ð¾Ñĩ": 6226,
      "ĠÑĥÐ¿ÑĢÐ°Ð²Ð»ÐµÐ½Ð¸Ðµ": 6227,
      "ĠÐ·ÐµÐ¼ÐµÐ»ÑĮ": 6228,
      "ĠÐ¾ÑģÑĥÑīÐµÑģÑĤÐ²Ð»Ñı": 6229,
      "ear": 6230,
      "Ð»Ð°Ñħ": 6231,
      "ĠÐ±ÑĥÑĢ": 6232,
      "ÐµÑĢÐ¿": 6233,
      "Ð¾ÑĢÑĤÑĥÐ³": 6234,
      "ĠÐ¾Ð±ÑĬÑĳÐ¼": 6235,
      "ĠÑģÐ¾Ð±Ð¸ÑĢÐ°": 6236,
      "ĠÐľÐµÐºÑģ": 6237,
      "ĠÑģÑĤÐ¾Ñı": 6238,
      "ĠÐĽÐ¸Ð²": 6239,
      "ĠÐºÐ½ÑıÐ·Ñı": 6240,
      "ĠÐ¿ÐµÑĢÐµÐ´Ð°Ñĩ": 6241,
      "ĠÐºÐ¾Ð¼Ð¸ÑģÑģÐ¸Ð¸": 6242,
      "sch": 6243,
      "ĠSch": 6244,
      "ĠÑĨÐ¸ÑĦ": 6245,
      "ÐľÐ¾Ð½": 6246,
      "ĠÐĶÐ°Ð»ÑĮ": 6247,
      "Ð¿Ð¾Ð»ÐºÐ¾Ð²": 6248,
      "ĠÐ¿Ð¾Ð»Ð¾Ð²Ð¸Ð½Ðµ": 6249,
      "59": 6250,
      "ÑĥÐ»ÑĮÐ¼Ð°Ð½": 6251,
      "ĠÐ´Ð¾Ð²Ð¾Ð»ÑĮ": 6252,
      "ĠÐĿÐµÑģÐ¼Ð¾ÑĤÑĢÑı": 6253,
      "ĠÐ¢Ð¾Ð»": 6254,
      "ĠÐ´Ð¸Ð½Ð°ÑģÑĤ": 6255,
      "2015": 6256,
      "ĠÐ³ÐµÐ½": 6257,
      "Ð°ÑĢÐ¸Ð¹": 6258,
      "ĠÐ¸Ð·Ð±Ð¸ÑĢÐ°ÑĤ": 6259,
      "ÑĥÐ»ÐµÐ¼": 6260,
      "ÑĢÐ°Ð´Ðµ": 6261,
      "Ð¸ÑĤÐµÐ»ÑĮÑģÑĤÐ²Ð¾": 6262,
      "ĠÐ»Ð¸Ðº": 6263,
      "les": 6264,
      "ÐµÐ¶Ð¸ÑģÑģÑĳÑĢ": 6265,
      "ĠÐĴÐ°Ð½": 6266,
      "ĠÐ´Ð¾Ð»Ð³": 6267,
      "Ð·Ð¸Ð¸": 6268,
      "ĠÐ·Ð½Ð°ÑĩÐ¸ÑĤÐµÐ»ÑĮÐ½Ð¾": 6269,
      "Ð¡ÑĢÐµÐ´": 6270,
      "Ð¿Ð°Ð½Ð¸Ñı": 6271,
      "ĠÐ¡ÐµÑĢÐ±": 6272,
      "ÑģÑĤÐ°Ð½Ð¾Ð²": 6273,
      "ann": 6274,
      "ĠÐ´ÐµÐ¿ÑĥÑĤÐ°ÑĤÐ¾Ð²": 6275,
      "ĠÐ¿ÑĢÐ¸Ð½Ð¸Ð¼Ð°Ð»": 6276,
      "ÑĥÑĩÑĪ": 6277,
      "ĠÐľÐ¸Ð½Ð¸ÑģÑĤÐµÑĢÑģÑĤÐ²Ð°": 6278,
      "ĠÐ¾Ð±Ð¸ÑĤ": 6279,
      "Ð·Ð¸": 6280,
      "ĠÐ°Ð½Ð³": 6281,
      "ĠÐ½Ð¸Ð¼Ð¸": 6282,
      "ĠÑģÑĥÐ»": 6283,
      "Ð¼ÐµÐ¹": 6284,
      "ĠÐĴÐ¾Ð¹": 6285,
      "ĠÐ·Ð¸Ð¼Ð¾Ð¹": 6286,
      "ĠÑģÐ½Ð¸": 6287,
      "Ġ33": 6288,
      "Ð¾ÑĩÐ½Ð¾Ð³Ð¾": 6289,
      "Ð²Ð¾ÑģÑĤÐ¾ÐºÑĥ": 6290,
      "ĠÑħÑĢÐ°Ð¼Ð°": 6291,
      "Ð¾ÑĩÑĮ": 6292,
      "ĠÑĢÐµÐ·ÐµÑĢÐ²": 6293,
      "Ð·Ð°Ð¿Ð°Ð´Ñĥ": 6294,
      "ĠÐ¿Ð¾ÐºÐ¾Ð»": 6295,
      "ĠÐ¿Ð°Ð¼ÑıÑĤÐ¸": 6296,
      "ĠÐ¿ÑĮÐµÑģ": 6297,
      "ĠÑĢÐ°Ð·Ð±": 6298,
      "ĠÑĨÐµÐ½ÑĤÑĢÐ°Ð»ÑĮÐ½Ð¾Ð¹": 6299,
      "ĠÐ²Ð½ÐµÑģ": 6300,
      "ĠÑĤÐ°": 6301,
      "ÑģÑĤÑĢÐ°": 6302,
      "ĠÑģÑĥÑīÐµÑģÑĤÐ²ÑĥÐµÑĤ": 6303,
      "ĠÐĺÐ¼": 6304,
      "ĠÐ¼Ð¾Ð´ÐµÐ»ÑĮ": 6305,
      "Ġ1905": 6306,
      "ĠÐ¿ÐµÐ½Ñģ": 6307,
      "pt": 6308,
      "Ð°ÑĢÐ½": 6309,
      "ĠÐ·ÐµÐ¼Ð»Ñı": 6310,
      "ÑĳÑĢÐ¾Ð²": 6311,
      "ÑĢÑıÐ´Ð°": 6312,
      "ĠÐ¸ÑĤÐ¾Ð³Ð°Ð¼": 6313,
      "Ð¾Ð½ÑĮ": 6314,
      "ĠÐ¿ÑĢÐµÐ´ÐµÐ»Ð°Ñħ": 6315,
      "ĠÐ¸ÑģÐ¿Ð¾Ð»ÑĮÐ·Ð¾Ð²Ð°Ð½Ð¸Ñı": 6316,
      "ĠÑĢÐµÐ³Ð¸": 6317,
      "ĠÑĤÐµÐ»ÐµÐºÐ°Ð½": 6318,
      "ĠÐ²ÑģÑı": 6319,
      "Ð´ÐµÐ»ÑĮ": 6320,
      "ĠÐ²ÑĤÐ¾ÑĢÐ¾Ð¼": 6321,
      "ĠÐĵÑĢÐ¸Ð³Ð¾ÑĢ": 6322,
      "ÑĢÐ¾ÑĤÐ¸Ð²": 6323,
      "Ð¸Ð»Ð¾Ð²": 6324,
      "ÐľÐµÐ´": 6325,
      "ĠÐ·Ð´Ð¾ÑĢÐ¾Ð²": 6326,
      "yle": 6327,
      "Ð¾Ð·Ñĭ": 6328,
      "ÐŃÐºÐ¾Ð½Ð¾Ð¼": 6329,
      "ĠÑĥÐ»ÑĥÑĩÑĪ": 6330,
      "ĠÐ»Ð°Ð±Ð¾ÑĢÐ°ÑĤÐ¾ÑĢ": 6331,
      "ron": 6332,
      "ÑĦÐ¾ÑĢÐ´": 6333,
      "ĠÐ³Ð¾ÑģÑĥÐ´Ð°ÑĢÑģÑĤÐ²": 6334,
      "Ð¥ÑĥÐ´Ð¾Ð¶": 6335,
      "58": 6336,
      "ĠÑģÐ¾Ð²ÑĢÐµÐ¼ÐµÐ½Ð½Ð¾Ð¹": 6337,
      "ĠVI": 6338,
      "ĠÐĴÑģÐµÑĢ": 6339,
      "ÑĤÐ°Ð¶": 6340,
      "ĠÐ¼Ð¸Ð½Ð¸Ð¼ÑĥÐ¼": 6341,
      "ĠÐŁÑĢÐ¸Ð¼": 6342,
      "ÑĳÐ½Ð½Ð¾Ðµ": 6343,
      "Ð¡ÐµÐ¼ÑĮÑı": 6344,
      "ĠÑĥÐ¼ÐµÐ½ÑĮÑĪ": 6345,
      "Ð¸ÑĢÐ¾Ð²Ð°Ð½Ð½ÑĭÐ¹": 6346,
      "Ġon": 6347,
      "ĠÐ§ÐµÑĢÐµÐ·": 6348,
      "ĠÑĢÑĥÐ±Ð»ÐµÐ¹": 6349,
      "ĠÐ±ÑĭÐ²ÑĪÐ¸Ð¹": 6350,
      "ĠÑĢÐµÐ¶Ð¸ÑģÑģÑĳÑĢÐ°": 6351,
      "ĠÑģÐ¾Ð·Ð´Ð°Ð²": 6352,
      "ĠÐ¼ÐµÐ´Ð¸": 6353,
      "ĠÐ¼ÑĥÐ¶ÑĩÐ¸Ð½Ñĭ": 6354,
      "ÑıÑīÐ¸Ðµ": 6355,
      "ĠÑģÑİÐ¶ÐµÑĤ": 6356,
      "ĠÑģÑĤÐ°ÑĢÑĤ": 6357,
      "ĠÐ³ÑĢÐ°ÑĦÐ°": 6358,
      "ÑģÐ¾": 6359,
      "ĠÐ»ÑİÐ´": 6360,
      "ĠÐ¿ÑĢÐ¸ÑģÐ²Ð¾ÐµÐ½Ð¾": 6361,
      "Ð´Ð¼Ð¸Ð½Ð¸ÑģÑĤÑĢÐ°ÑĤÐ¸Ð²Ð½ÑĭÐ¹": 6362,
      "ĠÑĢÐ¾Ðº": 6363,
      "2016": 6364,
      "Ð¾ÐºÑĢÐ°ÑĤÐ½Ð¾": 6365,
      "ÑıÑīÐ¸Ð¹": 6366,
      "ĠÑĪÐ¾Ñĥ": 6367,
      "ict": 6368,
      "ÑģÑĤÐ²Ð¸Ñı": 6369,
      "ĠÐŁÐ°Ð²ÐµÐ»": 6370,
      "ĠÐĵÐ¾Ð´": 6371,
      "ĠÑĪÑĤÐ°Ð±": 6372,
      "ÑģÑĤÐ²ÐµÐ½Ð½ÑĭÐµ": 6373,
      "Ð°ÑĤÐ¾ÑĢÐ¾Ð¼": 6374,
      "Ð½Ð°ÑģÑĤ": 6375,
      "ĠXVI": 6376,
      "ĠÐĿÐ°ÑĨÐ¸Ð¾Ð½Ð°Ð»ÑĮÐ½ÑĭÐ¹": 6377,
      "Ð¸Ð½Ð°Ñħ": 6378,
      "ĠÐ¿Ð¾Ð¼Ð¾ÑīÑĮ": 6379,
      "ĠÐ³Ð¸Ð¼Ð½Ð°Ð·": 6380,
      "ĠÐºÐ°Ð²Ð°Ð»ÐµÑĢ": 6381,
      "ĠÐ´Ð»Ð¸Ð½Ð¾Ð¹": 6382,
      "ĠÐĺÑģÑĤÐ¾ÑĢÐ¸Ñı": 6383,
      "Ð»ÑĮÐ½ÑĭÐ¹": 6384,
      "ĠÐ¼ÐµÐ½Ñı": 6385,
      "ÐĶÐµÐ¿ÑĥÑĤÐ°ÑĤÑĭ": 6386,
      "ÑĮÐµÑĤ": 6387,
      "ĠÐ¼Ð¾ÑĤÐ¸Ð²": 6388,
      "ĠÐ¨Ð²ÐµÑĨÐ¸Ð¸": 6389,
      "ĠÐ¿Ð¾Ð´Ð°Ð²": 6390,
      "ĠÐ¿Ð¾Ð½ÑıÑĤ": 6391,
      "ĠÑįÐºÑģÐ¿Ð»ÑĥÐ°ÑĤÐ°": 6392,
      "\"|": 6393,
      "ĠÐ±Ð¾ÑĢ": 6394,
      "ĠÐŁÐ°Ð½": 6395,
      "ĠÐ¾ÑĦÐ¸ÑĨÐ¸Ð°Ð»ÑĮÐ½Ð¾": 6396,
      "Ġ37": 6397,
      "ĠCo": 6398,
      "ĠÐŃÑĤÐ¸": 6399,
      "ĠÐ¿ÑĢÐµÐ´ÑģÐµÐ´Ð°ÑĤÐµÐ»Ñı": 6400,
      "ĠÐķÐ³Ð¸Ð¿": 6401,
      "ÐłÐ¾ÑģÑģÐ¸Ñı": 6402,
      "ÐĴÐ¾Ð»": 6403,
      "ĠÐ´Ð¾Ð»Ð¶Ð½Ð°": 6404,
      "ĠÐĶÐ¸": 6405,
      "54": 6406,
      "ÐľÐĺ": 6407,
      "ĠÐºÐ¾Ð¼Ð¿ÑĮÑİÑĤÐµÑĢ": 6408,
      "ĠÐ¿Ð¾ÑĩÑĳÑĤ": 6409,
      "ĠÐŁÐ¾Ðº": 6410,
      "ĠÐºÐ¾Ð¼Ð¼ÑĥÐ½Ð°": 6411,
      "ÐŁÐ¾Ð»Ð¸ÑĤ": 6412,
      "ĠÑİÐ¶Ð½Ð¾Ð¹": 6413,
      "Ð¸Ð²Ð°Ð»Ð¸": 6414,
      "ĠÑĤÑĢÐ°ÐºÑĤ": 6415,
      "ĠÐĹÐ¾Ð»Ð¾ÑĤ": 6416,
      "Ð°Ð½ÑģÐºÐ¾Ð¼": 6417,
      "ĠÐĿÐ¸": 6418,
      "ĠÐĺÐ½Ð´Ð¸Ð¸": 6419,
      "ĠÐ·Ð°Ð½Ð¸Ð¼Ð°Ð»": 6420,
      "ĠÐ¸Ð¼ÐµÐ½ÐµÐ¼": 6421,
      "ĠÑĦÐ¸Ð³ÑĥÑĢ": 6422,
      "ĠÑģÐµÑĤÐ¸": 6423,
      "Ð¿Ð¾Ð»Ð½": 6424,
      "ĠÑħÐ¾Ð»": 6425,
      "old": 6426,
      "ĠÑģÐ»ÐµÐ´ÑĥÑİÑīÐ¸Ð¹": 6427,
      "ĠÐ¾ÑģÐ½Ð¾Ð²Ð½ÑĭÑħ": 6428,
      "ĠÐĸÐ°Ð½": 6429,
      "ĠÑģÐ°Ð½": 6430,
      "ĠÐĳÐ°Ð¹": 6431,
      "yn": 6432,
      "ĠÐºÐ¾Ð½ÑĤÑĢÐ¾Ð»ÑĮ": 6433,
      "ĠÐ¡ÑĥÐ¿": 6434,
      "ĠÑģÐ°Ð¼Ð¾Ð¼": 6435,
      "ĠÑĩÐµÑĤÐ²ÑĳÑĢÑĤ": 6436,
      "ÐºÐ°Ð·Ð¾Ð¼": 6437,
      "Ġ38": 6438,
      "ĠÐºÐ¾ÑĢÐ°Ð±Ð»Ñı": 6439,
      "ĠÑĥÐ²Ð¸Ð´": 6440,
      "ÑĤÐµÐ·": 6441,
      "Ð²Ð¾ÑģÑĤ": 6442,
      "ĠÐ¢ÐµÐ»": 6443,
      "ÑĢÐ¸Ð¼ÐµÑĩÐ°ÑĤÐµÐ»ÑĮ": 6444,
      "ÑĢÐµÐ¹Ñģ": 6445,
      "ĠÑĢÐ°ÑĥÐ½": 6446,
      "ĠÐĽÑİÐ±": 6447,
      "ĠÐ½Ð°Ð¿ÑĢÐ°Ð²Ð»ÐµÐ½Ð¸Ñı": 6448,
      "ÐµÐ¼ÑĭÑħ": 6449,
      "ĠÐĲÑĢÐ¼Ð¸Ð¸": 6450,
      "ĠÐ½Ð°Ð¿ÑĢÑı": 6451,
      "ĠÐ°ÑĢÐ°Ð±": 6452,
      "ĠÑĥÑĩÐ¸Ð»ÑģÑı": 6453,
      "ÐºÐ¾Ð²ÑĮ": 6454,
      "ÑĳÐ²Ð°": 6455,
      "au": 6456,
      "ĠÐ¿ÑĢÐµÐ¸Ð¼ÑĥÑīÐµÑģÑĤÐ²ÐµÐ½Ð½Ð¾": 6457,
      "ĠÐ°ÐºÑĤÐ¸Ð²Ð½Ð¾": 6458,
      "ÑīÐ¸Ð½Ñĭ": 6459,
      "ĠÐ·Ð°ÑģÑĤÐ°Ð²": 6460,
      "ĠÐ¼Ð¸ÑĦ": 6461,
      "ÑĭÐ²Ð°Ñı": 6462,
      "Ð½Ð¾Ð¶": 6463,
      "ÐºÑĢÑĭÑĤ": 6464,
      "ĠÐ³Ð»Ð°Ð·": 6465,
      "ÐĹÐ´": 6466,
      "Ð¸Ð²Ð¸Ð´Ñĥ": 6467,
      "ĠÐ¾Ð±ÑģÐ»ÑĥÐ¶": 6468,
      "ĠÐ±Ð¾Ð³Ð¾Ñģ": 6469,
      "ĠÐĹÐ°Ð½Ð¸Ð¼Ð°ÐµÑĤ": 6470,
      "ĠÐŁÐ°ÑĢÐ¸": 6471,
      "ĠÑĢÐ°Ð·Ð°": 6472,
      "ĠÐłÑĭ": 6473,
      "ĠÐ¤ÐµÐ´": 6474,
      "Ð¾ÑĩÐºÐ¸": 6475,
      "Ð¾ÑģÐ½Ð¾Ð²": 6476,
      "land": 6477,
      "ĠÐ¼ÐµÑĢÐµ": 6478,
      "ĠÐ±ÐµÑģ": 6479,
      "ĠÐ·Ð°Ð±Ð¾Ð»ÐµÐ²": 6480,
      "ĠÐ£Ð·Ð±ÐµÐº": 6481,
      "ÐĲÐ»ÑĮÐ±Ð¾Ð¼Ñĭ": 6482,
      "ĠÐĲÑģÑĤ": 6483,
      "Ð¾Ð½Ð¸Ðº": 6484,
      "Ð¸Ð²ÑĪÐ¸ÑģÑĮ": 6485,
      "ÐłÐ¾Ð´Ð¸Ð²ÑĪÐ¸ÐµÑģÑı": 6486,
      "ÑĪÐµÐ¹ÑģÑı": 6487,
      "ĠRe": 6488,
      "ĠÑģÑĥÐ¿ÑĢÑĥÐ³": 6489,
      "ĠÑĢÐµÑģÐ¿ÑĥÐ±Ð»Ð¸ÐºÐ¸": 6490,
      "ÐµÑĦÐ¾Ð½": 6491,
      "1999": 6492,
      "Ð½ÐµÐ²ÐµÐº": 6493,
      "Ð¸ÑģÐ¿": 6494,
      "ĠYou": 6495,
      "ÑĢÐ¾Ð²Ð¾Ð´": 6496,
      "ĠÐĶÐ¼Ð¸ÑĤÑĢ": 6497,
      "ĠÑĢÐµÑĪÐµÐ½Ð¸Ñı": 6498,
      "ĠÑģÐ¾Ð¾ÑĢÑĥÐ¶ÐµÐ½Ð¸Ñı": 6499,
      "ĠWorld": 6500,
      "ĠÑĤÐ¾Ð½Ð½": 6501,
      "ĠÐ»ÐµÐ¹Ð±": 6502,
      "ĠÑĦÐ¾ÑĢÑĤ": 6503,
      "Ð³Ð½": 6504,
      "Ð°Ð²ÑĪÐ¸Ðµ": 6505,
      "ĠÑģÐ¿ÐµÐºÑĤÐ°Ðº": 6506,
      "orm": 6507,
      "ĠÑĦÑĢÐ¾Ð½ÑĤ": 6508,
      "ÐµÐ¸": 6509,
      "ÐµÐ¾Ð´": 6510,
      "ĠÐ»ÑĮ": 6511,
      "ĠÐ²ÑħÐ¾Ð´Ð¸Ð»Ð°": 6512,
      "ĠAir": 6513,
      "Ð°Ð»ÑĮÐ½ÑĭÐ¼Ð¸": 6514,
      "ĠÐ¿Ð°Ð¼ÑıÑĤÑĮ": 6515,
      "Ð½Ð¸ÑĨÐµÐ¹": 6516,
      "ĠÐĵÐµÑĢÐ¾Ñı": 6517,
      "ÐĵÐ°Ð»": 6518,
      "ĠÐ´Ð¸Ð¿Ð»Ð¾Ð¼Ð°ÑĤ": 6519,
      "Ð¸ÑĢÐ¾Ð²Ð°Ð½Ð½Ð¾Ð¹": 6520,
      "ĠÐĳÐ¾Ð±": 6521,
      "Ð½Ð¾ÑģÑĤÑıÑħ": 6522,
      "Ð»Ð¸ÑĤ": 6523,
      "ĠÐ³Ð¾Ð²Ð¾ÑĢÐ¸ÑĤ": 6524,
      "ĠĠĠ": 6525,
      "ĠÐ²ÑĭÐ²Ð¾Ð´": 6526,
      "ĠÑģÑĤÑĢÐ°ÑĤÐµÐ³": 6527,
      "Ð¿ÑĢÐ¾": 6528,
      "Ð¾Ð¿ÑĢÐ¸Ð¼ÐµÑĩÐ°ÑĤÐµÐ»ÑĮ": 6529,
      "ĠÐ¿ÑĢÐ¾Ð»": 6530,
      "Ð»ÐµÐ½Ð´": 6531,
      "Ð½Ð¸ÐºÐ°Ñħ": 6532,
      "ĠÑįÐ¼Ð¸Ð³": 6533,
      "Ð¾Ð»Ð´Ð°Ð²": 6534,
      "ĠÑģÐµÐ²ÐµÑĢÐµ": 6535,
      "ĠÐ°ÑĤÐ¼Ð¾ÑģÑĦÐµÑĢ": 6536,
      "ĠÐķÐ²ÑĢÐ¾Ð¿ÐµÐ¹": 6537,
      "ĠÑĤÐ¾Ð¹": 6538,
      "ĠÐĶÐ½Ðµ": 6539,
      "ĠÑĤÑĢÑĥÐ´Ð°": 6540,
      "ĠÑĩÐ°ÑģÑĤÐµÐ¹": 6541,
      "1991": 6542,
      "ĠÐ¾Ð´Ð½": 6543,
      "ĠÐ§ÐµÐ¼Ð¿Ð¸Ð¾Ð½Ð°ÑĤ": 6544,
      "ĠÑħÐ°ÑĢÐ°ÐºÑĤÐµÑĢÐ¸Ð·ÑĥÐµÑĤÑģÑı": 6545,
      "ĠÐºÐ¾Ð½ÑĨÐµÐ¿": 6546,
      "ĠÐ¿ÑĢÐ°Ð²Ð¾Ð¼": 6547,
      "ÐµÐ½ÑĤÐ°Ð¼Ð¸": 6548,
      "ĠÑĩÐ»ÐµÐ½Ñĭ": 6549,
      "96": 6550,
      "ÑĩÐ¸ÐºÐ°": 6551,
      "ĠÐ²Ð·ÑĢÐ¾Ñģ": 6552,
      "ĠEd": 6553,
      "ĠÐŀÐ¼": 6554,
      "Ð¾ÑĩÐºÐ°": 6555,
      "ĠÐ½Ð°ÑĢÐ¾Ð´Ð°": 6556,
      "ĠÐºÐ¸Ð½Ð¾ÑĦ": 6557,
      "Ð²Ð°Ð¹": 6558,
      "ĠÑĤÐµÐ»ÐµÑģ": 6559,
      "ĠÑģÑĥÐ´ÑĮ": 6560,
      "ĠÐļÐ°Ð»Ð¸ÑĦÐ¾ÑĢ": 6561,
      "ĠÐ²Ð·ÑĢÑĭÐ²": 6562,
      "Ð¾Ð½ÑģÐºÐ¾Ð³Ð¾": 6563,
      "ĠÑĥÐ¶": 6564,
      "ĠÐłÐļ": 6565,
      "ĠÐ¿ÑĢÐµÐ¶Ð´Ðµ": 6566,
      "ĠÐ¿Ð¸Ñī": 6567,
      "Ð¾ÑĩÐ½Ð°Ñı": 6568,
      "52": 6569,
      "ĠÐºÐ¾Ð¼ÐµÐ´": 6570,
      "ÑīÐ¸ÐºÐ¾Ð²": 6571,
      "ĠÐ²ÑĭÑħÐ¾Ð´Ð°": 6572,
      "ĠÐļÐ°Ð½Ð°Ð´Ñĭ": 6573,
      "ĠÐ¿Ð¾ÑģÑĤÑĢÐ¾Ð¹": 6574,
      "ĠÐ±Ð¾ÑĢÑĮÐ±Ñĭ": 6575,
      "ĠÑĢÑĥÑģÑģÐºÐ¾Ð¼": 6576,
      "ata": 6577,
      "ÐµÑĤÐ¾Ð²": 6578,
      "ĠÐ¾ÑģÑĤÑĢÐ¾Ð²Ðµ": 6579,
      "ĠÐ¾Ð¿ÐµÑĢ": 6580,
      "Ð°Ð´Ñĥ": 6581,
      "act": 6582,
      "Ð¸ÑģÑĤÐ¾Ð¼": 6583,
      "ĠÐ¿ÑĢÐ¸Ð±Ð»Ð¸Ð·Ð¸ÑĤÐµÐ»ÑĮÐ½Ð¾": 6584,
      "ĠÐ½Ð¾Ð¼Ð¸Ð½": 6585,
      "ĠÐ¿ÐµÑģÐ½Ñİ": 6586,
      "ÐµÑĢÑģÐºÐ¸Ð¹": 6587,
      "ĠÐŁÐ°ÑĢÐ¸Ð¶Ðµ": 6588,
      "ÐļÐ¾Ð¼Ð°Ð½Ð´": 6589,
      "ĠÑģÐµÐºÑĢÐµÑĤÐ°ÑĢÑĮ": 6590,
      "ĠÐ¤ÑĢ": 6591,
      "Ð°ÑİÑīÐ¸Ð¼": 6592,
      "ĠÐ¶ÐµÑģÑĤ": 6593,
      "ĠÐļÑĢÐ°ÑģÐ½Ð¾": 6594,
      "Ð°Ð»Ð¸Ð·Ð°": 6595,
      "ĠÑİÐ³Ðµ": 6596,
      "92": 6597,
      "Ð¸Ð·Ð¾Ð²Ð°Ð½": 6598,
      "Ð¾Ð²Ðµ": 6599,
      "ĠÑģÐ¾Ð»": 6600,
      "ĠÐĶÑįÐ²Ð¸Ð´": 6601,
      "Ð´Ñı": 6602,
      "Ð¾Ð·Ð³": 6603,
      "ĠÐĲÐ½Ð°ÑĤÐ¾Ð»": 6604,
      "ĠÐ´ÑĢÑĥÐ·": 6605,
      "ĠÐ¿Ð¾Ð´Ð¿Ð¸ÑģÐ°Ð»": 6606,
      "ĠÐĶÐ¾Ð±": 6607,
      "ver": 6608,
      "Ð¾ÑĩÐ½Ð¾": 6609,
      "Ð°ÑĤÐµÐ»ÑĮÐ½ÑĭÑħ": 6610,
      "ĠÐºÐ¾ÑĢÐ¾Ð»": 6611,
      "ĠÐ¿Ð¾Ð´Ð¿": 6612,
      "ĠÐ²Ð¿Ð°Ð´": 6613,
      "Ð°ÑĤÐµÐ»ÑĮÐ½Ð¾Ð¹": 6614,
      "56": 6615,
      "ĠÐľÑĥÑĢ": 6616,
      "Ð¾Ð»ÑıÑħ": 6617,
      "ÐĿÐł": 6618,
      "ĠÐ¿ÑĥÑĤÑĳÐ¼": 6619,
      "ĠWar": 6620,
      "ĠÐ·Ð°Ð¿Ð°Ñģ": 6621,
      "Ġ1912": 6622,
      "ĠÐĳÑĢÐ°Ð·Ð¸Ð»Ð¸Ð¸": 6623,
      "ĠÑģÐ»ÐµÐ´ÑĥÐµÑĤ": 6624,
      "ÐµÐ¾": 6625,
      "Ð¿Ð¾Ñģ": 6626,
      "Ð¾ÑĢÑģÐºÐ¾Ð³Ð¾": 6627,
      "amp": 6628,
      "ĠÐŁÐµÑĤÑĢÐ°": 6629,
      "Ð°ÑĢÐµ": 6630,
      "lay": 6631,
      "ĠÑģÐµÐ¼ÑĮÑı": 6632,
      "2017": 6633,
      "ĠÐ¾Ð±ÑīÐµÐ³Ð¾": 6634,
      "ĠÐĲÑĢÑĤ": 6635,
      "ÐµÐ²Ð´": 6636,
      "ĠÐļÐ¾Ð´": 6637,
      "ÐµÐ·ÑĥÐ»ÑĮÑĤÐ°ÑĤÑĭ": 6638,
      "ĠÐ´Ð²Ð°Ð¶Ð´Ñĭ": 6639,
      "98": 6640,
      "ood": 6641,
      ".Â»": 6642,
      "ÑĤÐµÑħÐ½": 6643,
      "ĠÐ¿ÑĥÑĤÐµÑĪÐµÑģÑĤÐ²": 6644,
      "Ð¸Ð±Ð¾Ð»ÑĮÑĪ": 6645,
      "ÐŃÐ¡": 6646,
      "Ð¾Ð»ÑĮÑģÐºÐ¸Ð¹": 6647,
      "ĠÑģÐ¾Ð·Ð´Ð°Ð½Ð¸Ðµ": 6648,
      "ÑħÐ°Ð½": 6649,
      "ĠÑĦÐ¾ÑĢÐ¼Ðµ": 6650,
      "ĠÐºÑĢÑĥÐ¿Ð½ÑĭÑħ": 6651,
      "Ð¾Ð¹ÑĩÐ¸Ð²": 6652,
      "ĠHe": 6653,
      "Ð°ÑģÑĤÑĢÐ¾ÑĦ": 6654,
      "ĠÐĶÐ¾Ð»": 6655,
      "ĠÑĨÐµÐ½": 6656,
      "ĠÑĪÐµÑģÑĤÑĮ": 6657,
      "ĠÐ²Ð¾ÑĪÑĳÐ»": 6658,
      "ĠÐŀÐ±Ð»Ð°Ð´": 6659,
      "ÐµÐ»ÐµÐ²": 6660,
      "ĠÐ¸Ð¼Ð¿ÐµÑĢÐ°ÑĤÐ¾ÑĢÐ°": 6661,
      "ĠÐºÐ°Ð»": 6662,
      "ĠÑĥÐ³Ð»": 6663,
      "ĠÑĤÐ¾Ð²Ð°ÑĢÐ¸Ñī": 6664,
      "ÐµÑĨÐºÐ¾Ð³Ð¾": 6665,
      "ÐĵÐ¾ÑĢÐ¾Ð´Ð°": 6666,
      "ĠÑįÐºÐ¾Ð½Ð¾Ð¼Ð¸ÐºÐ¸": 6667,
      "ĠÐ¿ÑĢÐ¾Ð²ÐµÐ´ÐµÐ½Ð¸Ñı": 6668,
      "ĠÐļÐ¸ÑĤÐ°Ð¹": 6669,
      "ĠÐ´Ð¾ÑģÑĤÐ°Ð²": 6670,
      "ĠÐ¸Ð·Ð¾Ð±": 6671,
      "ĠÐ·ÑĢÐ¸ÑĤ": 6672,
      "ĠÐ´Ð¸ÑĢÐµÐºÑĤÐ¾ÑĢÐ°": 6673,
      "ÑĩÐµ": 6674,
      "ĠÐĴÐ¾ÑĢÐ¾Ð½Ðµ": 6675,
      "ĠÐ·Ð°Ð²Ð¸ÑģÐ¸Ð¼Ð¾ÑģÑĤÐ¸": 6676,
      "ĠÐ¾Ð±ÑīÐµÑģÑĤÐ²Ð¾": 6677,
      "ĠUnivers": 6678,
      "ĠÐ²Ð¾Ð·Ð¼Ð¾Ð¶Ð½Ð¾ÑģÑĤÐ¸": 6679,
      "Ð»Ð¾ÑĤÑĮ": 6680,
      "ĠÐµÐ¿Ð°ÑĢÑħÐ¸Ð¸": 6681,
      "ĠÐ²ÑģÑĤÑĥÐ¿Ð¸Ð»": 6682,
      "Ð»Ð¾ÑīÐ°Ð´ÑĮ": 6683,
      "Ð¸ÑĢÐ¾Ð²Ð°Ð»ÑģÑı": 6684,
      "Ð¼Ð¾Ð²": 6685,
      "ĠÑĩÐµÐ»Ð¾Ð²ÐµÑĩÐµÑģÐº": 6686,
      "out": 6687,
      "97": 6688,
      "ĠÑĢÐµÐµÑģÑĤÑĢÐ°": 6689,
      "ĠÑģÐºÐ¾Ð½Ñĩ": 6690,
      "1998": 6691,
      "ĠÐ·ÐµÐ¼Ð»Ðµ": 6692,
      "ĠÐ¿Ð¾ÑģÐ»ÐµÐ´Ð½Ð¸Ðµ": 6693,
      "Ð°Ð½ÑĤÐ°ÑģÑĤ": 6694,
      "ĠÐ¼Ð¸Ð»Ð»Ð¸Ð¾Ð½Ð¾Ð²": 6695,
      "ĠÐ¿Ð¾ÑģÑĤÑĢÐ¾ÐµÐ½": 6696,
      "ĠÐ¡ÐµÐ²ÐµÑĢÐ¾": 6697,
      "1990": 6698,
      "ÐµÐ½ÑĮÑİ": 6699,
      "ĠÐ¿ÑĢÐµÑģÐ»ÐµÐ´": 6700,
      "ĠÐĲÐ¡Ð¡Ðł": 6701,
      "ĠÑģÑĥÐ´ÐµÐ±": 6702,
      "ĠÑĢÐµÐºÐ¾Ð½": 6703,
      "int": 6704,
      "ĠÐľÐ°ÑĢÐ¸Ð¸": 6705,
      "ÐłÐµÐºÐ¸": 6706,
      "ÐµÐ¹ÑĤ": 6707,
      "ÐĸÐµÐ½": 6708,
      "ĠÐºÐ²Ð°Ð»Ð¸ÑĦ": 6709,
      "ÐĿÐļ": 6710,
      "ĠÐ½Ð¸ÐºÐ¾Ð³Ð´Ð°": 6711,
      "ĠÑĥÑĩÐ°ÑģÑĤÐ½Ð¸ÐºÐ¾Ð²": 6712,
      "ĠÐŀÐºÑĤÑıÐ±ÑĢÑĮ": 6713,
      "Ð»ÑĥÐ³": 6714,
      "ÑĪÐ°Ð²": 6715,
      "ĠÐļÐ°Ð±": 6716,
      "ĠÐ¾ÑĤÐ¿": 6717,
      "ĠÐ¸Ð·Ð¼ÐµÐ½ÐµÐ½Ð¸Ñı": 6718,
      "ĠÐ¤ÑĢÐ¸Ð´ÑĢÐ¸Ñħ": 6719,
      "ÐĵÐ»Ð°Ð²": 6720,
      "ĠÐ»ÑĳÑĤ": 6721,
      "Ð¸ÑĩÐ½ÑĭÑħ": 6722,
      "ÐµÐ½Ð½Ð¸Ñģ": 6723,
      "son": 6724,
      "Ð»Ð¸Ñģ": 6725,
      "53": 6726,
      "ĠÐĴÐ»Ð°Ð´Ð¸Ð¼Ð¸ÑĢÐ¾Ð²": 6727,
      "ĠÐĹÐ°ÑģÐ»ÑĥÐ¶ÐµÐ½Ð½ÑĭÐ¹": 6728,
      "ĠÐ´Ð¾Ð²Ð¾Ð»ÑĮÐ½Ð¾": 6729,
      "Ġ1913": 6730,
      "Ð½ÐµÐ¼Ñĥ": 6731,
      "ĠÐ¿Ð¾ÑĢÐ¾Ð´": 6732,
      "ĠÐ³ÐµÑĢÐ¼": 6733,
      "ĠÐĴÑģÐµÐ³Ð¾": 6734,
      "ĠÐ¿ÑĢÐ¾ÑĦÐµÑģÑģÐ¾ÑĢÐ°": 6735,
      "ĠÐ³Ð°": 6736,
      "ĠÐŁÑĳÑĤÑĢ": 6737,
      "ĠÐ²ÐµÑĢÐ½ÑĥÑĤÑĮ": 6738,
      "ĠÐºÐ¾Ð¼Ð¿Ð°Ð½Ð¸ÐµÐ¹": 6739,
      "ÐľÑĥÐ·ÑĭÐº": 6740,
      "Ð§ÐµÐ¼Ð¿Ð¸Ð¾Ð½Ñĭ": 6741,
      "ĠĠĠĠĠĠĠĠĠĠĠĠĠĠĠĠ": 6742,
      "ĠÐļÐ¾": 6743,
      "ĠÐłÑĥ": 6744,
      "ĠÐĴÐ¾Ð»Ð¾Ð³": 6745,
      "Ð½Ð°Ð¿ÑĢÐ¸Ð¼ÐµÑĢ": 6746,
      "ÑĢÐµÑģÐ¿Ð¾Ð½Ð´": 6747,
      "Ð¸ÑĩÐ½Ð¾Ð¹": 6748,
      "ĠÐŁÐ¾ÑĢÑĤÑĥÐ³": 6749,
      "ÐļÐ¾Ð´": 6750,
      "Ð¿Ð°ÑĤ": 6751,
      "ĠÐľÐ¸ÑĤ": 6752,
      "Ð¡Ð¾ÑģÑĤÐ°Ð²": 6753,
      "ĠÐĺÐ¼Ð¿ÐµÑĢÐ°ÑĤÐ¾ÑĢ": 6754,
      "ĠÐ¾Ð¿ÑĥÐ±Ð»Ð¸ÐºÐ¾Ð²Ð°Ð½": 6755,
      "ĠÐ²ÑĭÑģÑĤÑĥÐ¿Ð¸Ð»": 6756,
      "ĠÐ¡Ð°ÑĢÐ°ÑĤ": 6757,
      "ÐµÑĢÐ¸Ð°Ð»": 6758,
      "ĠÐŁÐµÑĢÐ¼": 6759,
      "ÑĥÐ¼ÐµÐ½ÑĤ": 6760,
      "ĠÑģÐ¾Ð²ÑĢÐµÐ¼ÐµÐ½Ð½Ð¾Ð³Ð¾": 6761,
      "ĠÐĺÐ½ÑģÑĤÐ¸ÑĤÑĥÑĤÐ°": 6762,
      "ĠÐŀÐ´Ð¸Ð½": 6763,
      "ĠÐ²ÑĭÐ¿ÑĥÑīÐµÐ½": 6764,
      "ĠÐ²Ð·Ð³Ð»Ñı": 6765,
      "ÐµÐ»Ð°Ð½Ð´": 6766,
      "Ð¸ÑĢÐ¸Ð¶": 6767,
      "ĠÐĲÑģÑģ": 6768,
      "ĠÑĢÐ°ÑģÐ¿Ð¾Ð»Ð¾Ð¶ÐµÐ½Ñĭ": 6769,
      "ĠÑĦÐ¾Ð½Ð´": 6770,
      "ĠÐĳÑĢÑİ": 6771,
      "oll": 6772,
      "Ð¾ÑĢÑıÐ´": 6773,
      "ĠÐĿÐµÐ¼": 6774,
      "Ð¸ÑĩÐµÑģÐºÐ¾Ð¼Ñĥ": 6775,
      "ĠÑĥÑĩÐ°ÑģÑĤÐ¸Ñı": 6776,
      "ĠÐ¸Ð¼ÐµÐ½": 6777,
      "ĠÐ·Ð°Ð½Ð¸Ð¼Ð°ÐµÑĤ": 6778,
      "Ð¾ÑĤÐ¾": 6779,
      "ĠÐĳÑĢÐ°": 6780,
      "ĠÐ¼Ð°Ð»ÐµÐ½ÑĮ": 6781,
      "Ġ34": 6782,
      "Ð²Ð»ÑıÐµÑĤÑģÑı": 6783,
      "ĠCon": 6784,
      "ÐµÑĢÐ°Ð¼": 6785,
      "ĠÐ»Ð¸ÐºÐ²Ð¸Ð´": 6786,
      "ĠÑħÑĥÐ´Ð¾Ð¶Ð½Ð¸ÐºÐ°": 6787,
      "ĠÐ±Ð¾ÐºÑģ": 6788,
      "ĠÐŁÑģÐº": 6789,
      "ĠÐĵÑĢÐµÑĨÐ¸Ð¸": 6790,
      "ĠÐ¸Ð·Ð´Ð°Ð½Ð¸Ðµ": 6791,
      "ĠÑģÐ¸Ð»Ñĥ": 6792,
      "ÐľÐµÐ¶Ð´ÑĥÐ½Ð°ÑĢÐ¾Ð´": 6793,
      "ĠÐ¿ÑĢÐµÑģÑģ": 6794,
      "ĠÐ´Ð°Ð½Ð½ÑĭÐµ": 6795,
      "Ð¾ÑĤÐ¸Ð¿": 6796,
      "ÑĤÑĥÑĢÑĥ": 6797,
      "ĠÐ½ÐµÑĦÑĤ": 6798,
      "Ð»Ð¸ÑģÑĤ": 6799,
      "ĠLa": 6800,
      "ĠÐ²Ð¾ÑĪÐ»Ð¸": 6801,
      "ĠÑĦÐ¸Ð»Ð¾ÑģÐ¾ÑĦÐ¸Ð¸": 6802,
      "ĠÐ¿Ð¾Ð´ÑĤÐ²ÐµÑĢÐ¶Ð´": 6803,
      "Ð§ÐµÐ¼Ð¿Ð¸Ð¾Ð½": 6804,
      "ĠÐŃÐ»ÑĮ": 6805,
      "ĠÐ¾Ð±Ðµ": 6806,
      "ĠÐ´ÐµÐ»Ð°": 6807,
      "1943": 6808,
      "ĠÐ²ÑĢÐµÐ¼ÐµÐ½ÐµÐ¼": 6809,
      "ĠÐ¡Ð¸ÑĢ": 6810,
      "ÐµÐ¹Ñģ": 6811,
      "ĠÐļÐ°Ð»Ð¸Ð½": 6812,
      "ĠÐ¡ÑĤÐ¸Ð²": 6813,
      "ĠÑģÑĤÑĥÐ´Ð¸Ð¸": 6814,
      "ĠÐ¿Ð¾Ð´Ð´ÐµÑĢÐ¶ÐºÑĥ": 6815,
      "ĠÑģÐ´ÐµÐ»Ð°ÑĤÑĮ": 6816,
      "Ð»ÑĭÑħ": 6817,
      "ĠÑģÐ²ÐµÑĢÑħ": 6818,
      "ĠÐ¼ÐµÐ¶Ð´ÑĥÐ½Ð°ÑĢÐ¾Ð´Ð½Ð¾Ð³Ð¾": 6819,
      "ĠÑģÐ¿Ð¾ÑĢÑĤÑģÐ¼ÐµÐ½": 6820,
      "ĠÑĤÐ°Ð»": 6821,
      "ĠÐ¿ÑĢÐµÐ´ÑģÑĤÐ°Ð²Ð¸ÑĤÐµÐ»ÑĮ": 6822,
      "ÑĢÐ¸ÑĦ": 6823,
      "Ð³ÐµÐ½": 6824,
      "ĠÐ°ÑĢÑħÐ¸ÑĤÐµÐºÑĤÑĥÑĢÑĭ": 6825,
      "ĠÐºÐ¾Ð½ÑĤÐ¸Ð½ÐµÐ½ÑĤÐ°Ð»ÑĮÐ½ÑĭÐ¹": 6826,
      "ĠÑĪÐ°ÑħÐ¼Ð°ÑĤ": 6827,
      "ĠÑģÐ½Ðµ": 6828,
      "ÑĪÐµÐ³Ð¾ÑģÑı": 6829,
      "Ð¾Ð¼Ð½": 6830,
      "ĠÑĥÑĩÐ¸Ð»Ð¸ÑīÐ°": 6831,
      "ĠÐ¿ÑĢÐ¾Ð¶Ð¸Ð²Ð°Ð»Ð¾": 6832,
      "ĠÑĤÐµÐ¿ÐµÑĢÑĮ": 6833,
      "ĠÐĵÐ¾Ð¼": 6834,
      "ĠÑĥÑħÐ¾Ð´": 6835,
      "ĠÐ½Ð°Ð¿ÑĢÐ°Ð²Ð»ÐµÐ½Ð¸Ð¸": 6836,
      "ĠÐ¿ÑĢÐ¾Ð¸Ð·Ð¾ÑĪÐ»Ð¾": 6837,
      "ĠÐ°ÑĢÑħÐ¸ÑĤÐµÐº": 6838,
      "ÑıÑİÑĤ": 6839,
      "ĠÐ¿ÑĢÐµÐ´ÑģÑĤÐ°Ð²Ð»ÐµÐ½": 6840,
      "Ð³Ð¸Ð½": 6841,
      "Ð³Ð¸Ð·": 6842,
      "ĠÐĹÐ°Ð²": 6843,
      "ĠÑĢÐ°Ð±Ð¾ÑĩÐ¸Ñħ": 6844,
      "ĠÐ¨Ð¾ÑĤ": 6845,
      "ĠÑĤÑĥÑĢÐµÑĨ": 6846,
      "Ð°Ð½Ð¾Ð²Ð¸Ñĩ": 6847,
      "ÑĥÐ¿ÑĢÐ°Ð²": 6848,
      "ĠÐºÐ°ÑĢÑĮÐµÑĢÑĭ": 6849,
      "ÐµÐ½ÑĩÐµÑģÐº": 6850,
      "ĠÑĢÐµÑĪÐ¸Ð»": 6851,
      "Ð°Ð»ÐµÐ¹": 6852,
      "Ð¸ÑĤÐ¾Ð¼": 6853,
      "ÐºÐµÐ¹": 6854,
      "ĠÐ¼ÐµÑĢÐ¾Ð¿ÑĢÐ¸ÑıÑĤ": 6855,
      "ĠÐ±Ð¾Ð»ÑĮÑĪÑĥÑİ": 6856,
      "ax": 6857,
      "ium": 6858,
      "Ġ1910": 6859,
      "ĠÐ¿ÐµÑĢÐµÐ±": 6860,
      "ĠÐĲÐ½Ð³": 6861,
      "ĠÐºÐ¾Ð»ÑĮ": 6862,
      "ĠÐ±Ð¸Ð·Ð½ÐµÑģ": 6863,
      "ĠÑĢÐµÐ±ÑĳÐ½": 6864,
      "ĠÑģÐ¸Ð³Ð½": 6865,
      "ĠÐ°ÑĢÐµÐ½Ð´": 6866,
      "94": 6867,
      "ĠEx": 6868,
      "ĠÐłÑĥÐ¼ÑĭÐ½": 6869,
      "ĠÐ¿ÑĢÐµÐ´Ð¼ÐµÑĤ": 6870,
      "ĠÐ¿Ð»Ð°": 6871,
      "ÑĳÐº": 6872,
      "ĠÐ³ÐµÐ½ÐµÑĢÐ°Ð»Ð°": 6873,
      "ÐµÑģÐ»Ð°Ð²": 6874,
      "ĠÐľÐ°Ñħ": 6875,
      "ĠÐºÐ½Ð¸Ð³Ñĥ": 6876,
      "ĠÐļÐ¸ÑĤÐ°Ñı": 6877,
      "Ð¸ÐµÐ²Ð¸Ñĩ": 6878,
      "ÐļÐŀ": 6879,
      "ĠÐ½Ð°ÑĢ": 6880,
      "ĠÑģÐ¾Ð²ÐµÑĤÑģÐºÐ¸Ñħ": 6881,
      "ĠÐ¼Ð°ÑĤÑĩÐ°Ñħ": 6882,
      "ĠÐĹÐ´ÐµÑģÑĮ": 6883,
      "ĠÐ´ÐµÐ¼Ð¾ÐºÑĢÐ°ÑĤ": 6884,
      "ĠÐ¿Ð¾Ð»Ð¸ÑĤÐ¸ÐºÐ¸": 6885,
      "ĠÐ¿ÑĢÐµÐ¼Ð¸Ñİ": 6886,
      "ÑĥÑİÑīÐµÐ¹": 6887,
      "ĠÐ½Ð°Ð²": 6888,
      "1997": 6889,
      "ĠÑģÐ»ÑĥÑĩÐ°Ñı": 6890,
      "ĠÐ¿Ð°ÑĢÑĤÐ¸Ð·": 6891,
      "ĠÐ¡ÐµÐ¼ÑĳÐ½": 6892,
      "per": 6893,
      "ĠÐ¿Ð¾Ð»ÑĥÑĩÐ¸ÑĤÑĮ": 6894,
      "ÑĢÐ¾Ð²Ð¾Ð»ÑĮ": 6895,
      "Ð³ÑĢÐµÑģÑģ": 6896,
      "Ð»Ð¸Ð¼Ð¿Ð¸": 6897,
      "ĠÐ±ÐµÐ»Ð¾ÑĢÑĥÑģ": 6898,
      "51": 6899,
      "ĠÑĥÑĩÑĳÐ½ÑĭÐ¹": 6900,
      "ÑĢÐ°ÑģÑĤÑĢÑĥÐºÑĤ": 6901,
      "ĠÐ¿ÐµÑĩ": 6902,
      "ĠÑĤÐµÐ°ÑĤÑĢÐµ": 6903,
      "ĠÐĲÐ²ÑģÑĤÑĢÐ¸Ð¸": 6904,
      "ÐµÐ»Ð»Ð°": 6905,
      "Ð¾Ð¼Ð°": 6906,
      "ĠÐºÐ»Ð¸Ð½": 6907,
      "1996": 6908,
      "ĠÑĪÐ¸ÑĢÐ¾ÐºÐ¾": 6909,
      "Ð°Ð½Ñĥ": 6910,
      "ĠÑĢÐµÐ³Ð¸Ð¾Ð½Ð°": 6911,
      "ĠÐ¸ÑģÑħÐ¾Ð´": 6912,
      "ĠÐ±Ð°ÑģÐºÐµÑĤ": 6913,
      "ĠÐ±Ð°Ñģ": 6914,
      "oy": 6915,
      "Ð»ÑİÐ±": 6916,
      "ĠÑĢÐ°ÑĥÐ½Ð´": 6917,
      "ĠÐ¥Ð°ÑĢÑĮÐºÐ¾Ð²": 6918,
      "ĠÐ½Ð°Ð¼": 6919,
      "ÑĦÐ¸Ð¼": 6920,
      "ÐºÐ°Ñģ": 6921,
      "ĠÐłÐ°Ð¼": 6922,
      "ĠÐ¾ÑĢÑĥÐ¶Ð¸Ñı": 6923,
      "Ġ120": 6924,
      "Ð¡Ð°Ð½": 6925,
      "Ð·ÐµÐ¼": 6926,
      "Ð¸Ð²Ð°Ñı": 6927,
      "93": 6928,
      "Ġ1916": 6929,
      "ĠÐ·Ð°ÑħÐ²": 6930,
      "ĠÑĥÐ¿Ð¾Ð¼Ð¸Ð½Ð°ÐµÑĤÑģÑı": 6931,
      "ĠÐ°ÑĢÑħÐ¸Ð²": 6932,
      "ĠÐĲÐ¿": 6933,
      "ĠÐ·Ð°Ð½ÑıÐ»Ð°": 6934,
      "ĠÑģÑĩÑĳÑĤÐ¾Ð¼": 6935,
      "Ð¸ÑıÐ¼": 6936,
      "ĠÐ¾ÑĩÐºÐ¾Ð²": 6937,
      "ÐµÐ½ÑģÐºÐ¾Ð¼": 6938,
      "ĠÐ¸Ð³ÑĢÑĥ": 6939,
      "ĠÐºÐ¾Ð¼Ð°Ð½Ð´Ð¾Ð²Ð°Ð½Ð¸ÐµÐ¼": 6940,
      "ĠÐ´ÑĢÑĥÐ¶": 6941,
      "ĠÐ£ÐºÑĢÐ°Ð¸Ð½Ðµ": 6942,
      "Ð¸ÑĦÐ¸ÐºÐ°ÑĨÐ¸Ñı": 6943,
      "ĠÐĿÐ¾ÑĢÐ²": 6944,
      "Ð»ÑĳÐ½": 6945,
      "Ð»Ð°Ð½ÑĤ": 6946,
      "ĠÐ¸Ð½Ð¸ÑĨÐ¸Ð°ÑĤÐ¸Ð²": 6947,
      "ĠÐ¡ÑĤÐ°Ð½Ð¸ÑģÐ»Ð°Ð²": 6948,
      "ĠÑģÐ¾Ð±ÑĭÑĤÐ¸Ð¹": 6949,
      "ĠÐ½Ð°Ð·Ð²Ð°Ð½": 6950,
      "57": 6951,
      "ÐļÐ»ÑĥÐ±": 6952,
      "ĠÐ¿Ð¾ÑģÐ»ÐµÐ´Ð¾Ð²Ð°ÑĤÐµÐ»ÑĮ": 6953,
      "ÐŁÐµÑĢÐ²ÑĭÐ¹": 6954,
      "Ð¾Ð·ÐµÑĦ": 6955,
      "Ð¸Ð¹ÑģÐºÐ¸Ðµ": 6956,
      "ĠÐ¶Ð¸ÑĤÐµÐ»Ð¸": 6957,
      "Ð°ÑĢÑģÐºÐ¸Ð¹": 6958,
      "ĠÐ¾ÑģÐ½Ð¾Ð²Ð°Ð½Ð¸Ñı": 6959,
      "ĠÐ²Ð·Ð°Ð¸Ð¼Ð¾Ð´ÐµÐ¹ÑģÑĤÐ²": 6960,
      "ĠÐ²Ð½ÑĥÑĤÑĢÐµÐ½Ð½Ð¸Ñħ": 6961,
      "oth": 6962,
      "ÑĢÐ¾ÑģÑĤ": 6963,
      "ĠÑģÐ¾Ð¿ÑĢÐ¾ÑĤÐ¸Ð²": 6964,
      "ĠÐ±ÑĭÐ²ÑĪÐµÐ³Ð¾": 6965,
      "ÑĩÐ°Ð½": 6966,
      "ĠÑĢÐ°ÑģÐ¿ÑĢÐµÐ´ÐµÐ»": 6967,
      "ĠÐĴÐĴÐ¡": 6968,
      "ĠÐºÐ¾Ð¼Ð¸ÑĤÐµÑĤ": 6969,
      "ĠÑĦÑĥÐ½ÐºÑĨÐ¸Ð¸": 6970,
      "Ð¸ÑĤÐµ": 6971,
      "ÐĺÐĺ": 6972,
      "ĠÐ¿ÑĢÐ°Ð²Ð¾ÑģÐ»Ð°Ð²Ð½Ð¾Ð¹": 6973,
      "ĠÑģÑĥÑĤ": 6974,
      "Ð¾Ð²Ð°ÑĤÑĮÑģÑı": 6975,
      "ĠÐ¼Ð¾Ð»Ð¾Ð´ÑĳÐ¶": 6976,
      "ĠÐ²Ð½ÑĥÑĤÑĢÐ¸": 6977,
      "ĠÐ¾ÑĤÑģÑĤÑĥÐ¿": 6978,
      "ÐºÐ°Ð´": 6979,
      "ĠÐ¿ÑĢÐµÐ´ÑģÑĤÐ°Ð²Ð¸ÑĤÐµÐ»Ð¸": 6980,
      "Ð»Ð»ÐµÐ»ÑĮ": 6981,
      "ĠÐ¼Ð°Ð³Ð¸ÑģÑĤ": 6982,
      "Ð»ÑĢÐ´": 6983,
      "ĠÐ¼Ð¸Ð½Ð¸ÑģÑĤÑĢÐ°": 6984,
      "ĠÐĶÑĥÐ±": 6985,
      "ĠÑĨÐ°ÑĢÑĮ": 6986,
      "ĠÐ´Ð¸Ð°Ð»": 6987,
      "Ð´Ð¶Ð°": 6988,
      "ĠÐ²Ð¾ÑģÐ¿ÑĢ": 6989,
      "ĠÐ·Ð°ÐºÐ¾Ð½Ð¾Ð´Ð°ÑĤÐµÐ»ÑĮ": 6990,
      "ĠÐĶÐ»Ð¸Ð½Ð°": 6991,
      "ĠÑĥÐ´Ð°Ð»": 6992,
      "oph": 6993,
      "ĠÐ£Ð¿ÑĢÐ°Ð²": 6994,
      "row": 6995,
      "ÐłÐ°ÑģÐ¿Ð¾Ð»Ð¾Ð¶": 6996,
      "Ð¸ÑĤÐµÐ»ÑĮÐ½ÑĥÑİ": 6997,
      "Ġ2023": 6998,
      "ĠÐ¸Ð·Ð²ÐµÑģÑĤÐ½ÑĭÑħ": 6999,
      "Ð°ÑĪÐ°": 7000,
      "ĠÑģÐ¾ÐºÑĢÐ°Ñī": 7001,
      "ĠÐ³ÑĢÐµÐ±": 7002,
      "ĠÐłÑĥÑģÑģÐºÐ¾Ð¹": 7003,
      "ĠÑģÑĭÐ½Ð¾Ð²": 7004,
      "ĠÐ¿ÑĢÐ¸Ð²Ð»ÐµÐº": 7005,
      "ĠÐ»Ð¸Ð³Ðµ": 7006,
      "ĠÐ¼ÑĭÑĪ": 7007,
      "ĠÐ¿Ð¸ÑĪ": 7008,
      "ĠÐŁÑĢÐ¾Ð´": 7009,
      "ĠÑģÐµÐ½": 7010,
      "ĠÐ¿ÑĢÐ¸ÑĳÐ¼": 7011,
      "ĠAward": 7012,
      "ĠÑĢÑĭÐ±": 7013,
      "Ð°ÑģÑģÐµÐ¹Ð½": 7014,
      "ĠÐ¾ÑĤÐ´ÐµÐ»ÐµÐ½Ð¸Ðµ": 7015,
      "ĠÐ¿Ð¾Ð»Ð¸ÑĤÐ¸ÑĩÐµÑģÐºÐ¾Ð¹": 7016,
      "ÐĶÐł": 7017,
      "ĠÐ»Ð¸ÑĨÐ°": 7018,
      "ĠÐ½Ð°Ð·Ð°Ð´": 7019,
      "ĠÐ´Ð¾ÑĢÐ¾Ð³Ð°": 7020,
      "Ġ150": 7021,
      "ĠÐļÐ¾ÑĤ": 7022,
      "ĠÐ²Ð»Ð°Ð´ÐµÐ»ÑĮ": 7023,
      "ĠÐ½ÐµÐ³": 7024,
      "Ð¸Ð²Ð°Ð½Ð¸Ðµ": 7025,
      "Ð°Ð½ÑĤÐ¾Ð¼": 7026,
      "ÑĳÐ»ÑĤ": 7027,
      "ĠÑģÐ¾Ð²ÐµÑĤÑģÐºÐ¾Ð¹": 7028,
      "ĠÐºÐ¸ÑĢ": 7029,
      "ĠÐĳÐµÐ»ÑĮÐ³": 7030,
      "ĠÑģÐ¾Ð°Ð²": 7031,
      "Ð¶ÐµÐ²": 7032,
      "1995": 7033,
      "ĠÐľÐµÐ»": 7034,
      "Ġ'": 7035,
      "ĠÐ¿ÑĢÐµÐ´ÑģÐµÐ´Ð°ÑĤÐµÐ»ÐµÐ¼": 7036,
      "ĠOr": 7037,
      "Ð½Ð¾Ð³Ð¸Ðµ": 7038,
      "ĠÐŁÐµÑĤÑĢÐ¾Ð²Ð¸Ñĩ": 7039,
      "ÑģÐºÐ¾ÑĢ": 7040,
      "ĠÐ´ÑĢÑĥÐ³Ð°": 7041,
      "Ð¸Ð»Ð»Ð°": 7042,
      "ÐľÐµÑĤ": 7043,
      "ĠÑģÐ¿Ð¾ÑģÐ¾Ð±ÑģÑĤÐ²": 7044,
      "ĠÐ¼ÐµÑĤÐ°Ð»": 7045,
      "ĠÑĦÐ¾ÑĢÐ¼Ñĥ": 7046,
      "ĠÑģÑĤÐ¸Ð»": 7047,
      "Ð¸ÑĤÐµÐ»ÑĮÐ½Ð¾ÑģÑĤÐ¸": 7048,
      "ĠÐ¸ÑģÑģÐ»ÐµÐ´Ð¾Ð²": 7049,
      "Ð¾Ð½Ð³": 7050,
      "ĠÐĺÑħ": 7051,
      "ÑĤÐµÑĢÐµÑģ": 7052,
      "1994": 7053,
      "ĠÐ¾ÑĤÐ¼ÐµÐ½": 7054,
      "Ð¡Ð²": 7055,
      "ĠÐĿÐ¾Ð²Ð¾ÑģÐ¸Ð±Ð¸ÑĢ": 7056,
      "ÑħÐ¾Ð·Ð°": 7057,
      "ĠÐ´Ð¾ÑģÑĤÐ¸Ð¶ÐµÐ½Ð¸Ñı": 7058,
      "Ġ1900": 7059,
      "ĠÐ²ÑĭÐ±Ð¾ÑĢÐ¾Ð²": 7060,
      "ĠÐ²ÑĭÐ´ÐµÐ»Ñı": 7061,
      "www": 7062,
      "ĠÐ¼ÐµÑģÑĤÐ½ÑĭÑħ": 7063,
      "ĠÑģÐ²Ð¾ÐµÐ¼Ñĥ": 7064,
      "ĠÐ½Ð¾Ð¼Ð¸Ð½Ð°ÑĨÐ¸Ð¸": 7065,
      "ÐµÑĨÐºÐ¸Ð¹": 7066,
      "ÐµÑĢÐ°Ð¿": 7067,
      "ĠÐ¿Ð¾Ð²ÐµÑĢÑħÐ½Ð¾ÑģÑĤÐ¸": 7068,
      "ĠÐ¾ÑĤÐ±": 7069,
      "ÐĴÐŀ": 7070,
      "ĠÐĲÐ½Ð½Ð°": 7071,
      "ÐµÑģÑģÑĭ": 7072,
      "ÐµÐ½Ð´Ð°": 7073,
      "ÐĿÐ°ÑĥÑĩ": 7074,
      "ĠÐ¼Ð°ÑĢÑĪÑĢÑĥ": 7075,
      "ÐĶÐ¾ÑģÑĤÐ¸Ð¶ÐµÐ½Ð¸Ñı": 7076,
      "col": 7077,
      "ÑĢÑĥÐ³Ð¸Ðµ": 7078,
      "ĠÑĤÐ²Ð¾ÑĢÑĩÐµÑģÐº": 7079,
      "ĠÐ¤Ð»Ð¾ÑĢ": 7080,
      "ĠÐ¼Ð¾Ð½Ð°ÑģÑĤÑĭÑĢÑĮ": 7081,
      "ĠÐ²Ð¾ÐµÐ½": 7082,
      "2018": 7083,
      "ĠÑģÐ´ÐµÐ»Ð°Ð»": 7084,
      "ĠÐļÐ²": 7085,
      "ĠÐ²ÑĭÑģÐ¾ÑĤÐµ": 7086,
      "ÑĭÑĪÐµ": 7087,
      "ĠÐ²ÑĭÐ¹": 7088,
      "ĠÐ¼Ð¸Ð½Ð¸ÑģÑĤÑĢ": 7089,
      "ĠÐľÐµÑĤ": 7090,
      "ÐºÐ¾Ð±": 7091,
      "Ð°ÑħÐ°ÑĢ": 7092,
      "ÐĹÐ°Ð¿Ð°Ð´": 7093,
      "ĠÐ½ÐµÐºÐ¾ÑĤÐ¾ÑĢÐ¾Ðµ": 7094,
      "uss": 7095,
      "ĠÐ°Ð½Ð°Ð»Ð¸Ð·": 7096,
      "ĠÐ¿ÑĢÐ¸Ð½ÑĨ": 7097,
      "ĠÑĩÐµÐ¼Ð¿Ð¸Ð¾Ð½Ð¾Ð¼": 7098,
      "ĠÐ¿ÑĢÐµÐ´Ð¿ÑĢÐ¸Ð½Ð¸Ð¼": 7099,
      "ĠÑĢÐµÐ°Ð»Ð¸Ð·": 7100,
      "ĠÐ¾Ð»Ð¸Ð¼Ð¿Ð¸Ð¹": 7101,
      "ĠÐ½Ð°ÑĩÐ°Ð»Ð¾ÑģÑĮ": 7102,
      "ĠÐ¿ÑĢÐ¾ÑĪÑĳÐ»": 7103,
      "ĠÑģÐµÐ³Ð¾Ð´Ð½Ñı": 7104,
      "ĠÐ½Ð°ÑĩÐ°Ð»Ð°ÑģÑĮ": 7105,
      "ĠÑģÑĥÑħ": 7106,
      "ÐĺÑģÐ¿": 7107,
      "ĠÐŁÐµÑĤÐµÑĢÐ±ÑĥÑĢÐ³": 7108,
      "Ð·Ñı": 7109,
      "ĠÐ¿Ð¾Ð´Ð²Ð¾Ð´": 7110,
      "Ð°ÑģÐ¾Ð²Ð¾Ð¹": 7111,
      "ĠÐ¾ÐºÐ¾Ð½ÑĩÐ°Ð½Ð¸Ð¸": 7112,
      "Ġz": 7113,
      "ĠÐ³Ð»Ð°Ð²Ð½ÑĭÑħ": 7114,
      "ÑİÑīÐµÐ³Ð¾": 7115,
      "ĠÑģÑĤÐ¾Ð»Ðº": 7116,
      "Ð¸Ð²Ð°ÑİÑĤÑģÑı": 7117,
      "ĠÐľÐ°ÑĢÐ¸": 7118,
      "ĠÐĲÐ·ÐµÑĢÐ±Ð°Ð¹Ð´Ð¶Ð°Ð½Ð°": 7119,
      "ĠÐĳÐ¾Ð»ÑĮÑĪÐ¾Ð¹": 7120,
      "ĠÐ¸Ð·Ð¼ÐµÑĢ": 7121,
      "ĠÐ±Ð»Ð°": 7122,
      "ĠÑģÐµÐ²ÐµÑĢÐ½Ð¾Ð¹": 7123,
      "Ð½Ð¸ÑĨÐµ": 7124,
      "ĠÐºÐ¸Ñģ": 7125,
      "ĠÐ·Ð°Ð¿ÑĢÐµÑī": 7126,
      "Ð°ÑĤÐ¾ÑĢÐ¾Ð²": 7127,
      "ÐµÑĤÑĥ": 7128,
      "ĠÐĴÑģÐºÐ¾ÑĢÐµ": 7129,
      "ĠÑĢÐ°Ð±Ð¾ÑĤÐ°Ð»Ð°": 7130,
      "ÑĨÐ¸Ð¾Ð½Ð½ÑĭÐµ": 7131,
      "Ð³ÐµÑĢ": 7132,
      "ĠÐ¿ÑĢÐ¸Ð½ÑıÑĤÐ¾": 7133,
      "ĠÐłÐµÐ¹": 7134,
      "ĠÐ¿ÑĢÐµÐ¶": 7135,
      "ĠÑģÐ»ÐµÐ´ÑĥÑİÑīÐµÐ¼": 7136,
      "ĠÑģÐ¼ÑĭÑģ": 7137,
      "ĠÐķÐ²Ð³ÐµÐ½Ð¸Ð¹": 7138,
      "ÑĮÐ¼Ð¸": 7139,
      "ĠÐ¿Ð¾Ð»Ð¸ÑĤÐ¸ÑĩÐµÑģÐºÐ¸Ð¹": 7140,
      "ÐµÐ·Ð¾Ð½": 7141,
      "ÐŀÐ¿": 7142,
      "ĠÐĵÑĢÐ°Ð¶Ð´": 7143,
      "ĠÐĲÑĢÐ³ÐµÐ½ÑĤ": 7144,
      "Ð¾ÑģÑĭ": 7145,
      "Ð¸Ð²Ð½ÑĭÐµ": 7146,
      "Ð»ÑĥÑĪ": 7147,
      "ĠÑĢÐ¾Ð»ÑıÑħ": 7148,
      "ÐµÐ¶Ð´Ñĥ": 7149,
      "ÐµÐ´Ð¸": 7150,
      "ĠÐļÐ°ÑģÑĤ": 7151,
      "ĠÐ³Ð»Ð°Ð²Ð½Ð¾Ð¹": 7152,
      "1992": 7153,
      "ĠÐ¢ÑĢÑĥÐ´": 7154,
      "ÐµÑģÑĤÐµÑĢ": 7155,
      "ai": 7156,
      "ĠÐ½Ð°Ð´Ðµ": 7157,
      "ĠÑĢÑĥÑĩ": 7158,
      "ÐµÐ»ÑĮÐ´": 7159,
      "ĠÐ¸ÑģÑĩÐµÐ·": 7160,
      "ÐºÐµÑĢ": 7161,
      "ĠÐ°Ð½Ð³Ð»Ð¸Ð¹ÑģÐºÐ¸Ð¹": 7162,
      "ĠÐºÐ¾Ð¼Ð¼ÐµÑĢÑĩÐµÑģÐº": 7163,
      "ĠÑģÐºÐ°Ð·Ð°Ð»": 7164,
      "ÐµÑĢÐ²Ð°ÑĤÐ¾ÑĢÐ¸Ð¸": 7165,
      "Ð¾Ð·Ð´Ð½ÐµÐµ": 7166,
      "ĠÐ»ÐµÐ³ÐºÐ¾": 7167,
      "ĠÐ²Ð¾Ð·Ð³Ð»Ð°Ð²Ð¸Ð»": 7168,
      "ĠVol": 7169,
      "ĠÐ±Ð°ÑĤÐ°Ð»ÑĮÐ¾Ð½": 7170,
      "Ð¾Ð»Ð¾Ð³Ð¸ÑĩÐµÑģÐºÐ¾Ð³Ð¾": 7171,
      "ĠÐ²Ð¾Ð¹Ð½Ñĥ": 7172,
      "ĠÐ¿ÑĭÑĤÐ°": 7173,
      "ĠÐ²Ð¸Ð´Ñĭ": 7174,
      "ĠÑĥÐ¿Ð¾ÑĤÑĢÐµÐ±": 7175,
      "Ð°ÑĤÐ¾ÑĢÑĭ": 7176,
      "ĠÑĢÐ°Ð·Ð½Ð¾": 7177,
      "ĠÐ¸Ð½ÑĤÐµÑĢÐ²ÑĮÑİ": 7178,
      "ĠÐºÐ°ÑĢÑĤÐ¸Ð½Ñĭ": 7179,
      "Ð¾Ð²Ð¸ÑĩÐ°": 7180,
      "ĠÐ²ÑħÐ¾Ð´ÑıÑĤ": 7181,
      "ÐµÑĤÑĤ": 7182,
      "ĠÐĲÐ½Ð½Ñĭ": 7183,
      "ÐµÐ²Ð¸Ð·Ð¸Ð¾Ð½": 7184,
      "ĠÑĢÐµÐ·ÑĥÐ»ÑĮÑĤÐ°ÑĤÑĭ": 7185,
      "ĠÐ¾ÐºÑĢÐ°": 7186,
      "ĠÐ¾ÑĤÑĩ": 7187,
      "ĠComp": 7188,
      "ĠMe": 7189,
      "ĠÐ¿ÑĢÐµÐºÑĢÐ°Ñī": 7190,
      "ĠÐ¿ÐµÑĢÐµÑĥÐ»": 7191,
      "Ð¿ÑĢÐ¾ÑģÑĤÑĢÐ°Ð½": 7192,
      "ĠÑĥÑģÑĤÑĢÐ¾": 7193,
      "ĠÐ¿Ð¾ÑıÐ²Ð¸Ð»ÑģÑı": 7194,
      "Ð¾ÑģÐ¸ÑĦ": 7195,
      "ĠÐ¾Ð±ÑĥÑĩÐµÐ½Ð¸Ñı": 7196,
      "unt": 7197,
      "ĠÐ¿Ð¾ÐºÑĢÑĭÑĤ": 7198,
      "ĠÑħÑĢÐ¾Ð½": 7199,
      "ĠÐ¸ÑģÑĤÐ¾ÑĢÐ¸Ðº": 7200,
      "ĠÑĪÐ¾ÑģÑģ": 7201,
      "ÑĢÐ¸Ð±": 7202,
      "ĠÐ¿ÐµÑĢÑģÐ¾Ð½": 7203,
      "ÐµÑĤÑĢÐ¾Ð²": 7204,
      "ĠÑįÐ²": 7205,
      "ĠÐ¼Ð°ÑĤÐµÑĢÐ¸Ð°Ð»Ð¾Ð²": 7206,
      "ĠÐ¿Ð°Ð½": 7207,
      "ÃŃ": 7208,
      "ĠÐ´Ð¸ÑģÑģÐµÑĢÑĤÐ°ÑĨÐ¸Ñİ": 7209,
      "Ð½Ð°Ð²": 7210,
      "ĠÐ¿Ð¾ÑģÑĤÐµÐ¿": 7211,
      "ĠÐłÑĥÐ´": 7212,
      "ĠÐ¾Ð¶Ð¸Ð´": 7213,
      "ĠÐĶÐ°Ð»": 7214,
      "Ð°Ð±Ð¸Ð»": 7215,
      "ÐµÑģÐ¾ÑİÐ·": 7216,
      "ĠÐĳÐ°ÑĤ": 7217,
      "ÐµÑīÐµÐ½Ð¸Ñı": 7218,
      "Ð¢ÑĢÐµÐ½ÐµÑĢÑĭ": 7219,
      "ĠÑģÐ¾Ð·Ð´Ð°Ð½Ð¸Ð¸": 7220,
      "ĠÐ²ÑĢÐ°": 7221,
      "ĠÐ¿Ð¾ÑĢÑĤÑĢÐµÑĤ": 7222,
      "yc": 7223,
      "ĠÐŀÐ±Ð»Ð°Ð´Ð°ÑĤÐµÐ»ÑĮ": 7224,
      "Ð¸ÐµÐ²Ð°": 7225,
      "Ð¸ÑīÐ°": 7226,
      "ĠÑĥÑĢÐ¾Ð²ÐµÐ½ÑĮ": 7227,
      "ĠÑĢÐ°Ð½ÐµÐ½": 7228,
      "ĠÐºÐ¾Ð¶": 7229,
      "ĠÐŁÑĥÑĤ": 7230,
      "ĠÐµÐµ": 7231,
      "ĠÐĹÐ½Ð°Ð¼ÐµÐ½Ð¸": 7232,
      "ĠÐ¾ÐºÑĢÐµÑģÑĤ": 7233,
      "ĠÐ¸Ð½ÑĤÐµÑĢÐ½": 7234,
      "ĠÐ´Ð¸ÑĢÐµÐºÑĤÐ¾ÑĢÐ¾Ð¼": 7235,
      "ĠÐ¿Ð¾ÑģÑĤÐ¾ÑıÐ½Ð½Ð¾": 7236,
      "ÑĢÐµÑĤÐ°": 7237,
      "ĠÐ¾ÑĦÐ¾ÑĢÐ¼": 7238,
      "Ð³Ð¾Ð»ÑĮ": 7239,
      "Ð¾ÑĢÐ´Ð¸Ð½": 7240,
      "ĠÐ±ÑĢÐ°ÑĤÐ°": 7241,
      "ĠÐ¿ÑĢÐµÐºÑĢÐ°ÑĤ": 7242,
      "ĠÐ½Ð°Ð¸Ð¼ÐµÐ½": 7243,
      "ĠÑĦÐ°Ð±ÑĢ": 7244,
      "ĠÑģÐ¾Ñİ": 7245,
      "ĠÐ¿ÑĢÐµÐ´Ð¿ÑĢÐ¸ÑıÑĤÐ¸Ñı": 7246,
      "ĠÑĦÐ¸Ð½Ð°Ð»Ðµ": 7247,
      "Ġ44": 7248,
      "ĠÑģÐµÑĢÐ¸Ñı": 7249,
      "ĠÐ¾Ð·ÐµÑĢÐ¾": 7250,
      "ĠÐĿÐ°Ð¿ÑĢÐ¸Ð¼ÐµÑĢ": 7251,
      "Ð½Ð¸ÐºÐ¾Ð²Ð°": 7252,
      "ĠÐĿÐ°ÑĨÐ¸Ð¾Ð½Ð°Ð»ÑĮÐ½Ð¾Ð¹": 7253,
      "ĠÐ¾ÑĢÐ¸": 7254,
      "Ð±Ð½": 7255,
      "ĠÐ¿ÑĥÐ½Ðº": 7256,
      "ÐµÐ»ÐµÐ³": 7257,
      "ĠÐ²Ð´Ð¾Ð»ÑĮ": 7258,
      "ĠÐ¿ÑĢÐ¾ÑģÐ¿": 7259,
      "ÐºÐ¾ÑĤ": 7260,
      "ĠÐ°ÑĢÑħÐµÐ¾Ð»Ð¾Ð³": 7261,
      "Ð»Ð°Ð½Ð°": 7262,
      "ĠÐ¸Ð½ÑģÑĤÐ¸ÑĤÑĥÑĤÐµ": 7263,
      "Ð¸ÑĨÐºÐ¸Ð¹": 7264,
      "ĠÐĿÐ¾Ð²Ð¾Ð¹": 7265,
      "ĠÐ²Ð¿Ð»Ð¾ÑĤÑĮ": 7266,
      "ĠÐºÐ°Ð¶Ð´Ð¾Ð¹": 7267,
      "Ð°ÑĤÐµÐ»ÑĮÑģÑĤÐ²Ð¾": 7268,
      "Ġ75": 7269,
      "ĠÑĨÐ¸Ðº": 7270,
      "ÐµÑģÐ»Ð¸": 7271,
      "ĠÐłÑıÐ·": 7272,
      "Ð¾Ð¼Ð¸Ð½Ð°": 7273,
      "ÑĥÐ±ÐµÐ¶": 7274,
      "Ð°ÑĤÑĢ": 7275,
      "ame": 7276,
      "Ð½ÑĥÐ²": 7277,
      "ĠÑģÐ¿ÑĥÑĤ": 7278,
      "ĠÐ°ÑĢÐ¼Ð¸Ñİ": 7279,
      "ĠÑĦÐ¸Ð½Ð°Ð»Ð°": 7280,
      "ĠÐ¼Ð°ÑĤÐµÑĢ": 7281,
      "ĠÐ¿Ð¾Ð±ÐµÐ´Ñĭ": 7282,
      "ĠÐ¢ÑĢÐµÑĤ": 7283,
      "ĠÐ¼ÐµÑģÑĤÐ½Ð¾ÑģÑĤÐ¸": 7284,
      "ĠÐľÐ¾": 7285,
      "ĠCol": 7286,
      "ĠÐŁÐ¾ÑĩÑĳÑĤ": 7287,
      "yl": 7288,
      "ĠÐ¿ÑĢÐ°Ð²Ð¸Ð»": 7289,
      "ĠÐ¼Ð°Ðº": 7290,
      "ĠÑħÐ¾Ð»Ð¾Ð´Ð½Ð¾Ð³Ð¾": 7291,
      "ĠÐ´Ð¾Ð¼Ð¾Ð²": 7292,
      "Ð»ÑıÑĤÑĮ": 7293,
      "Ð¡Ð¾Ð±": 7294,
      "are": 7295,
      "ĠÑĪÐºÐ¾Ð»ÑĮ": 7296,
      "ĠÑģÐ¸ÑģÑĤÐµÐ¼Ñĥ": 7297,
      "ĠÐ¿ÑĤÐ¸ÑĨ": 7298,
      "Ð°ÑīÐµ": 7299,
      "ÐŁÐµÑĤÐµÑĢÐ±ÑĥÑĢÐ³Ðµ": 7300,
      "Ð¼ÐµÐ»ÑĮ": 7301,
      "Ġ1906": 7302,
      "ĠÐ±Ð»": 7303,
      "Ð¾Ð±Ð¸Ð»ÑĮ": 7304,
      "ĠÐĳÐµÑĢÐ½": 7305,
      "ĠÐĶÐ°": 7306,
      "ĠÐ¾Ð±ÑĬÐµÐºÑĤÐ¾Ð²": 7307,
      "ÐĺÐ·Ð²ÐµÑģÑĤÐ½ÑĭÐµ": 7308,
      "1993": 7309,
      "ĠÐĿÐµÐºÐ¾ÑĤÐ¾ÑĢÑĭÐµ": 7310,
      "ĠÐ³Ð²Ð°ÑĢÐ´Ð¸Ð¸": 7311,
      "Ð¼ÑĥÐ·": 7312,
      "ĠÐ±Ð¾Ñİ": 7313,
      "Ð¾ÑıÐ²": 7314,
      "ĠÐ¸ÑģÐ¿Ð¾Ð»ÑĮÐ·Ð¾Ð²Ð°Ð½Ð¸Ðµ": 7315,
      "ĠÐĲÐ¼ÐµÑĢÐ¸ÐºÐ°Ð½": 7316,
      "ĠÑĥÐºÑĢÐ°ÑĪ": 7317,
      "ÑĪÐµÑģÑĤÐ²": 7318,
      "ĠÐ¢ÑĥÑĢÑĨÐ¸Ð¸": 7319,
      "ĠÐ¢Ð°Ð»": 7320,
      "ĠÐ¾Ð±ÑĬÐµÐºÑĤÐ°": 7321,
      "Ð»Ð¾Ð¹": 7322,
      "Ð£Ð¼ÐµÑĢÑĪÐ¸Ðµ": 7323,
      "ĠÐľÐ¾Ð³": 7324,
      "ĠÐ¿ÑĢÐ¾ÑĤÐµÐºÐ°ÐµÑĤ": 7325,
      "ĠÑģÐ¾ÑģÑĤÐ°Ð²Ð»ÑıÐ»Ð°": 7326,
      "ÑĦÐ¸Ð½": 7327,
      "ÐµÑĢÑĭÐ²": 7328,
      "ĠÐ¼ÑĥÑģÑĥÐ»ÑĮÐ¼Ð°Ð½": 7329,
      "ĠÐ¡Ð¾Ð»Ð½": 7330,
      "Ġ1908": 7331,
      "orn": 7332,
      "ÑıÑģÐ½Ñı": 7333,
      "ĠÐ³ÑĢÑĥÐ¿Ð¿Ð¾Ð¹": 7334,
      "ĠÐĶÐµÐ²": 7335,
      "ĠÑģÐ¾Ð¿ÑĢÐ¾Ð²Ð¾Ð¶Ð´": 7336,
      "ĠÑĤÑĢÐ°Ð½ÑģÐ¿": 7337,
      "ĠÐ¾ÑĢÐºÐµÑģÑĤ": 7338,
      "ĠÐ¿Ð¾Ð»ÑĥÑĦ": 7339,
      "ÐĹÐ²": 7340,
      "Ð±Ð°ÑĤ": 7341,
      "ĠÐ·Ð°Ð»Ð¾Ð¶": 7342,
      "ubl": 7343,
      "ĠÐ£ÑĩÐ°ÑģÑĤ": 7344,
      "ĠÑģÐ¾ÑģÑĤÐ¾ÑıÐ½Ð¸Ðµ": 7345,
      "ĠÑĢÑĥÐºÐ¾Ð²Ð¾Ð´Ð¸ÑĤÐµÐ»ÑĮ": 7346,
      "ius": 7347,
      "ĠPress": 7348,
      "Ð»ÐµÐ½Ð½ÑĭÑħ": 7349,
      "Ġ64": 7350,
      "ĠÐĵÐ°Ð±": 7351,
      "Ð¾Ð¹ÑĤÐ¸": 7352,
      "ĠÐ²ÑĭÑģÑĤÑĥÐ¿Ð»ÐµÐ½Ð¸Ñı": 7353,
      "Ð¸ÑģÑĤÐºÐ°": 7354,
      "ĠÐĳÑĢ": 7355,
      "ĠÑĨÐµÑĢÐµÐ¼": 7356,
      "ogra": 7357,
      "ĠÐ¿ÐµÑĢÐµÐµÑħÐ°Ð»": 7358,
      "ÐĲÐł": 7359,
      "ĠAd": 7360,
      "ĠÐ¡Ð¾Ð»": 7361,
      "ĠÐ¾Ð±ÑĢÐ°Ð±Ð¾ÑĤ": 7362,
      "Ð¸Ð½ÑģÑĤÐ²Ð¾": 7363,
      "ĠÐ´ÑĥÐ±": 7364,
      "ĠÐķÐºÐ°ÑĤÐµÑĢÐ¸Ð½": 7365,
      "ros": 7366,
      "ĠÐĽÐ¾Ñģ": 7367,
      "ÐĲÐ»ÑĮ": 7368,
      "ĠÐĳÐ°Ð±": 7369,
      "ĠÐ¾ÑģÐ½Ð¾Ð²Ð°Ð½Ð¸Ð¸": 7370,
      "ĠÐ¿Ð¾ÑĪ": 7371,
      "Ð¾ÐºÐ¾Ð¹": 7372,
      "\",": 7373,
      "ĠÐµÑģÑĤÐµÑģÑĤÐ²ÐµÐ½": 7374,
      "ĠÐ°ÑĥÐ´": 7375,
      "Ġ400": 7376,
      "ous": 7377,
      "att": 7378,
      "ĠÐ°Ð²ÑģÑĤÑĢ": 7379,
      "ĠÑĢÑĥÐº": 7380,
      "91": 7381,
      "ĠÐ¸Ð½Ð´Ð¸Ð²Ð¸Ð´Ñĥ": 7382,
      "ĠÐ¿ÑĢÐ¸ÑĪÐ»Ð¾ÑģÑĮ": 7383,
      "ĠÐ¸Ð¼ÐµÐµÑĤÑģÑı": 7384,
      "ÐµÐ½ÑģÐºÐ°Ñı": 7385,
      "ĠÐºÐ°Ð¶Ð´Ð¾Ð³Ð¾": 7386,
      "Ð¾Ð¾Ð±ÑĢÐ°Ð·": 7387,
      "ĠÑĢÐ¾Ð´Ð¸Ð»Ð°ÑģÑĮ": 7388,
      "ĠÑįÐºÑĢÐ°Ð½": 7389,
      "ĠÐ½Ð°ÑĢÐ¾Ð´Ð½Ð¾Ð³Ð¾": 7390,
      "ĠÐ°Ð´Ð¼Ð¸Ð½Ð¸ÑģÑĤÑĢÐ°ÑĨÐ¸Ð¸": 7391,
      "ÑĳÑĢÑĤ": 7392,
      "ĠÐľÑį": 7393,
      "ĠÐ¿Ð¾ÑıÐ²Ð¸Ð»Ð°ÑģÑĮ": 7394,
      "ĠÐ¡Ð¾ÐµÐ´Ð¸Ð½": 7395,
      "ĠÐ¾ÐºÐ°Ð·Ð°Ð»ÑģÑı": 7396,
      "ĠÐľÐ¸ÑħÐ°Ð¸Ð»Ð°": 7397,
      "Ð¾Ð»ÑĳÑĤ": 7398,
      "ÐµÑĢÐ±ÑĥÑĢÐ³Ð°": 7399,
      "ĠÐ´ÐµÐ»Ðµ": 7400,
      "ĠÐ¿Ð¾ÑĤÐµÐ½": 7401,
      "ĠÐĲÐ±Ð´": 7402,
      "ÑĢÐµÐ½Ð¸Ðµ": 7403,
      "ÐµÐ¿Ð¸": 7404,
      "ĠÐļÐ¾Ð·": 7405,
      "Ð½ÐµÑĨ": 7406,
      "Ð³ÑĢÐ°ÑĦ": 7407,
      "ican": 7408,
      "ÐĲÐ½Ð´Ð¶": 7409,
      "Ð»Ð¸Ð½Ñĭ": 7410,
      "ĠÐ¥Ñĥ": 7411,
      "ĠÐ¾ÑĤÐºÑĢÑĭÐ²": 7412,
      "Ð»Ð°Ð¼ÐµÐ½ÑĤÐ°": 7413,
      "ĠÑģÐ¾ÑĨÐ¸": 7414,
      "ĠÐ»ÑĥÑĩÑĪÐ¸Ð¹": 7415,
      "Ð¸ÑĢÐ¾Ð²Ð°Ð½Ð¸Ð¸": 7416,
      "ĠÑģÑĤÑĢÐ°Ñħ": 7417,
      "ĠÑĦÐ¾ÑĢÐ¼Ð¸ÑĢÐ¾Ð²Ð°Ð½Ð¸Ñı": 7418,
      "Ð°Ð½ÑģÐºÐ¸Ðµ": 7419,
      "ĠÐ¿Ð¾ÑħÐ¾Ð¶": 7420,
      "ĠÐ½ÐµÑĥÐ´Ð°Ñĩ": 7421,
      "ĠÐĹÐ°Ð¿Ð°Ð´Ð½Ð¾Ð¹": 7422,
      "ĠÐ¼Ð°Ð»ÑĮ": 7423,
      "ĠÐĴÐ°Ð»ÐµÐ½ÑĤ": 7424,
      "ĠÐ¾Ð±ÐµÑģÐ¿ÐµÑĩÐµÐ½Ð¸Ñı": 7425,
      "ĠÐĵÑĢÐ¸Ð³Ð¾ÑĢÑĮ": 7426,
      "ÑĢÐ¸ÐºÐ°Ð½": 7427,
      "ĠÐ¸Ð³ÑĢÐ¾ÐºÐ¾Ð²": 7428,
      "ĠÐ¿ÑĢÑıÐ¼Ð¾": 7429,
      "ĠÑĤÑĢÐµÑĤÐ¸Ð¹": 7430,
      "ĠÐ°Ð½Ð³Ð»Ð¸Ð¹ÑģÐºÐ¾Ð¼": 7431,
      "ĠÐ±Ð°Ð½Ðº": 7432,
      "Ð±Ð»Ð¸Ð·": 7433,
      "Ð¸Ð½ÑĤ": 7434,
      "ĠÐĴÐ¸Ð»ÑĮÐ³ÐµÐ»ÑĮ": 7435,
      "ĠÐĽÐ¾Ð½Ð´Ð¾Ð½Ðµ": 7436,
      "Ð¼Ð¸ÑĢÐ°Ð»": 7437,
      "Ð¸Ð½ÐºÐ°": 7438,
      "ĠÐ¸Ð¼Ð¿ÐµÑĢÐ¸Ñı": 7439,
      "ĠÑĥÑĢÐ¾Ð¶": 7440,
      "ĠÐ¼Ð°Ð»Ð¾": 7441,
      "Ġre": 7442,
      "ĠÐºÐ°Ð½Ð°Ð´": 7443,
      "Ð³Ð¾Ð²Ð¾ÑĢ": 7444,
      "ĠÐ¢Ð°Ð½": 7445,
      "ĠÑģÐºÐ¾ÑĢÐ¾ÑģÑĤÑĮ": 7446,
      "ĠÐ½ÐµÐ¼Ñĥ": 7447,
      "ĠÐŁÐ¾Ð²": 7448,
      "Ð¾ÑıÑĤ": 7449,
      "Ġ1911": 7450,
      "Ð°ÑĥÑĢÐµÐ°ÑĤÑĭ": 7451,
      "ĠÑģÐ¾ÑģÑĤÐ¾ÑıÑī": 7452,
      "ĠÑĢÐµÐ²": 7453,
      "ĠÐ½Ð°ÑģÐµÐ»ÑĳÐ½Ð½ÑĭÐµ": 7454,
      "ĠÐ´ÐµÐ¿Ð°ÑĢÑĤÐ°Ð¼ÐµÐ½ÑĤÐ°": 7455,
      "ÐŀÐ±ÑĢÐ°Ð·": 7456,
      "ĠÐ½Ð°Ð»Ð¾Ð³": 7457,
      "ĠÐĴÐµÐ½Ðµ": 7458,
      "ÑģÐ¾Ð»ÑİÑĤÐ½Ð°Ñı": 7459,
      "ÑħÐ¾": 7460,
      "Ð¾ÐºÐµ": 7461,
      "ĠÐ¿Ð¾ÑıÐ²Ð¸Ð»Ð¸ÑģÑĮ": 7462,
      "ĠÐĲÐ²ÑĤÐ¾ÑĢ": 7463,
      "ĠÐ½Ð¾ÑĩÑĮ": 7464,
      "ĠÐ¢Ñİ": 7465,
      "1989": 7466,
      "Ġ48": 7467,
      "ÐµÐºÐµ": 7468,
      "ĠÐ½Ð°ÑĩÐ°Ð»Ð¾Ð¼": 7469,
      "ĠÐ¡Ð¸Ð´": 7470,
      "ĠÐ½Ð°ÑĩÐ¸Ð½Ð°ÐµÑĤ": 7471,
      "ĠÐ²ÑĭÑģÐºÐ°Ð·": 7472,
      "ĠÑĩÐµÑĪ": 7473,
      "ĠÐĳÐ°Ðº": 7474,
      "Ð°ÑĤÐµÐ»ÑĮÐ½ÑĭÐ¹": 7475,
      "ÑİÑīÐ¸ÐµÑģÑı": 7476,
      "ĠÐ¿ÑģÐµÐ²Ð´": 7477,
      "Ð»ÐµÐ¿": 7478,
      "ĠÐ½Ð°Ð·ÑĭÐ²Ð°ÑİÑĤ": 7479,
      "ĠÐ½Ð°ÑħÐ¾Ð´Ð¸Ð»Ð¸ÑģÑĮ": 7480,
      "ĠÐĳÐ°": 7481,
      "ĠÐ¿Ð°ÑĢÑĤÐ½": 7482,
      "ĠÐ³ÑĢÐ°Ð½Ð¸ÑĨ": 7483,
      "ĠÑĥÑģÐ¿ÐµÑĪÐ½Ð¾": 7484,
      "ÐºÑĥÑİ": 7485,
      "ĠÐĶÐµÐ½": 7486,
      "ÐľÑĥÐ½Ð¸ÑĨÐ¸Ð¿": 7487,
      "ĠÐ¥Ð°Ð½": 7488,
      "Ð¸Ð³Ð°": 7489,
      "ĠÐ¾Ð±ÑīÐ¸Ð½Ñĭ": 7490,
      "ÑĥÑĢÐ°Ð²": 7491,
      "Ð¾Ð»Ð¾Ð³Ð¸": 7492,
      "ĠÐºÐ°ÑĦÐµÐ´ÑĢÑĭ": 7493,
      "ĠÑĢÐ°ÑģÐ¿Ð¾Ð»Ð¾Ð¶ÐµÐ½Ð¾": 7494,
      "ĠÐ¢Ð°ÑĤÐ°ÑĢ": 7495,
      "Ð°Ð½Ð½Ð¾Ð³Ð¾": 7496,
      "Ð°ÐºÐ¾Ð²Ð°": 7497,
      "ĠÑģÑĤÐ°Ð´Ð¸Ð¾Ð½": 7498,
      "ĠÑģÐµÑĢÐ¸Ð°Ð»Ð°": 7499,
      "ĠÐ»Ð¸Ð½ÐµÐ¹": 7500,
      "ĠÐ»ÐµÐ¶": 7501,
      "ĠÐ²Ð¾Ð·Ð²ÐµÐ´": 7502,
      "ĠÐĿÐ¾ÑĢÐ²ÐµÐ³": 7503,
      "Ð§Ð°ÑģÐ¾Ð²Ð¾Ð¹": 7504,
      "ĠÐļÐ¾Ð¿": 7505,
      "ÑįÐ¿": 7506,
      "ĠÐ¡Ð²ÑıÑĤÐ¾Ð¹": 7507,
      "ĠÐļÑĥÐ±Ð¾Ðº": 7508,
      "ÐµÐ³Ð°": 7509,
      "ĠÐĿÐµÐ²": 7510,
      "Ð·ÑĭÑĩ": 7511,
      "ĠÑģÐ¾Ð´ÐµÑĢÐ¶Ð¸ÑĤ": 7512,
      "Ð»Ð¸Ð¿": 7513,
      "\".": 7514,
      "ĠÑĤÐ¾Ð¶Ðµ": 7515,
      "ĠÑģÑĥ": 7516,
      "ĠÐ¾ÑĢÐ³Ð°Ð½Ð¾Ð²": 7517,
      "ĠÐĴÐ°ÑĪ": 7518,
      "ĠÐ¸Ð¼ÐµÐ»Ð°": 7519,
      "ĠÐ·Ð°ÑģÐµÐ´": 7520,
      "ĠÐºÐ¾Ð½ÑĦÐµÑĢÐµÐ½ÑĨÐ¸Ð¸": 7521,
      "ÐŃÐºÐ¾Ð½Ð¾Ð¼Ð¸ÐºÐ°": 7522,
      "ĠÐ¿Ð¾ÐºÐ¸Ð½ÑĥÐ»": 7523,
      "ĠÑĤÐµÑĢÑĢÐ¸ÑĤÐ¾ÑĢÐ¸Ñı": 7524,
      "ĠÐ´ÑĢÑĥÐ³Ð¾Ð¼": 7525,
      "ĠÐĶÑİ": 7526,
      "Ð»ÑıÐ½": 7527,
      "ĠÐ¿ÑĢÐ¸Ð³Ð¾Ð²Ð¾ÑĢ": 7528,
      "ĠÑģÐ¾Ð±ÑĭÑĤÐ¸Ñı": 7529,
      "Ð·Ñİ": 7530,
      "ĠÑĢÐµÐ¶Ð¸Ð¼": 7531,
      "ĠÐĶÐ¶Ð¾Ð½Ð°": 7532,
      "ÐºÐ¾Ð²Ð¾Ð¹": 7533,
      "ĠÐ¾ÑĤÐ²ÐµÑĤÑģÑĤÐ²ÐµÐ½": 7534,
      "Ġ1000": 7535,
      "ĠÐŃÐ´Ñĥ": 7536,
      "2019": 7537,
      "ĠÐ§ÐµÑĢÐ½": 7538,
      "ĠÑĦÐ¸Ð»Ð¸": 7539,
      "ÐļÐ¾Ð¼Ð¿": 7540,
      "ĠÐ±Ð¾Ðº": 7541,
      "ĠÐĺÐ²Ð°Ð½Ð°": 7542,
      "ĠÐ²Ð¾Ð¿ÑĢÐ¾ÑģÐ°Ð¼": 7543,
      "ĠÐŁÑĢÐ¸Ð½": 7544,
      "ĠÐ´Ð¸ÑĢÐ¸Ð¶": 7545,
      "ĠÐŁÐ°Ð¼ÑıÑĤ": 7546,
      "Ð¾Ð¸": 7547,
      "ĠÐŁÐ°Ð¿": 7548,
      "ĠÐ¢Ð¾Ðº": 7549,
      "ĠÐ²ÑģÑĤÑĢÐµÑĩÐ°ÐµÑĤÑģÑı": 7550,
      "ĠÐ¿Ð¾ÑĩÑĤÐ¾Ð²": 7551,
      "ÐµÐºÑĤÑĥ": 7552,
      "ĠÐĴÐľ": 7553,
      "Ð½Ð¾ÑģÐ»ÑĥÐ¶": 7554,
      "Ð²ÐµÑĢÐ´Ð»Ð¾Ð²": 7555,
      "ĠÐ°ÑģÑĤÑĢÐ¾Ð½Ð¾Ð¼": 7556,
      "ĠÐ²Ð¾ÐµÐ²Ð¾Ð´": 7557,
      "ĠÑįÐ¿Ð¾ÑħÐ¸": 7558,
      "ĠMan": 7559,
      "ĠÑĢÐµÐºÐ¾Ð¼": 7560,
      "pr": 7561,
      "ĠÑģÐ¾Ð±ÑĢÐ°Ð½Ð¸Ñı": 7562,
      "ÑĥÑģÐ¾Ð²": 7563,
      "ĠÐŁÐ¾ÑĢÑĤ": 7564,
      "ĠÐ½Ð°Ð¹ÑĤÐ¸": 7565,
      "ime": 7566,
      "ĠÐ½Ð°Ð·Ð²Ð°Ð»": 7567,
      "Ð¾Ð¼Ð¸Ð½Ð°Ð½Ð¸Ñı": 7568,
      "Ð½Ð¾Ð²ÐµÐ½Ð¸Ñı": 7569,
      "Ð¾Ð±Ð¸Ð»": 7570,
      "Ð»ÐµÐ´Ð¾Ð²Ð°ÑĤÐµÐ»ÑĮ": 7571,
      "ĠÐºÐ°Ñģ": 7572,
      "ÑĦÐ¾Ð½": 7573,
      "ĠÐ·Ð°Ð¿Ð°Ð´Ð½Ð¾Ð¹": 7574,
      "ĠÐļÐ¾Ð»ÑĥÐ¼Ð±": 7575,
      "ĠÐ¡Ð²ÐµÑĤ": 7576,
      "ash": 7577,
      "Ð±ÐµÐ»": 7578,
      "ĠÐ¿ÑĢÐ¸Ð½ÑıÐ»Ð¸": 7579,
      "ĠÐĴÐ¾ÑĢÐ¾Ð½ÐµÐ¶": 7580,
      "ĠÐ²ÑĭÐ¿Ð°Ð´Ð°ÐµÑĤ": 7581,
      "ĠCar": 7582,
      "Ð¾Ð¸Ñħ": 7583,
      "ĠÐ¥ÑĥÐ´Ð¾Ð¶": 7584,
      "Ð·Ð¾ÑĢ": 7585,
      "ÐĺÐļ": 7586,
      "Ð»ÐµÐ½Ð½ÑĭÐ¹": 7587,
      "ĠÐ¡Ð¸Ð½Ð³": 7588,
      "ĠÑģÐ¾ÑİÐ·Ð°": 7589,
      "ÐŁÐ¾Ð±ÐµÐ´": 7590,
      "ĠÐ¾ÑĤÐ½Ð¾ÑĪÐµÐ½Ð¸Ð¹": 7591,
      "ĠÑģÐºÐ»Ð°Ð´": 7592,
      "ÑĢÑıÐ½": 7593,
      "ĠÐ¤Ð¸Ð½Ð»ÑıÐ½Ð´Ð¸Ð¸": 7594,
      "ĠÐ¿Ð¾Ð´Ð²": 7595,
      "ĠÐ²ÑĭÑĤ": 7596,
      "Ð¸ÑĤÐµÑĢÐ°ÑĤÑĥÑĢ": 7597,
      "ĠÑģÐ±Ð¾ÑĢÐ½Ð¸Ðº": 7598,
      "ĠGr": 7599,
      "1941": 7600,
      "ĠÑģÑĤÐ°ÑĤÑĮÐ¸": 7601,
      "ĠÐ¿Ð¾ÑģÑĤÑĢÐ¾ÐµÐ½Ð°": 7602,
      "ĠRD": 7603,
      "ĠÐ¿Ð¾Ð»Ð¸ÑĨÐ¸Ð¸": 7604,
      "ĠÐľÐĵÐ£": 7605,
      "ĠÑĢÐ°Ð¹Ð¾Ð½Ð¾Ð²": 7606,
      "ĠÑĸ": 7607,
      "de": 7608,
      "Ð¸ÑĩÐ½ÐµÐ²": 7609,
      "ĠÑĢÐ¾ÑģÑģÐ¸Ð¹ÑģÐºÐ¸Ñħ": 7610,
      "ĠÑģÐ¾ÑģÑĤÐ¾ÑıÐ½Ð¸Ð¸": 7611,
      "ĠÐ¼Ð¾Ð¼ÐµÐ½ÑĤÐ°": 7612,
      "ĠÐŁÐµÑĢÐµÐ´": 7613,
      "ĠÑįÐºÑģÐ¿ÐµÑĢÐ¸Ð¼ÐµÐ½ÑĤ": 7614,
      "Ð¡ÐµÐ»Ð¾": 7615,
      "ĠÐŁÐ¾ÑįÑĤ": 7616,
      "Ð¾Ð»Ð¾Ð³Ð¸ÑĩÐµÑģÐºÐ¾Ð¹": 7617,
      "Ð°ÑĢÑĤÐ°": 7618,
      "Ð¾Ð±ÑĭÑĩ": 7619,
      "ÐĿÐ¾Ð²": 7620,
      "ĠÐ¿ÑĢÐ¾ÑħÐ¾Ð´Ð¸Ð»": 7621,
      "ĠÐ¾ÑĤÐ·ÑĭÐ²": 7622,
      "ĠÐ¸ÑģÐ¿Ð¾Ð»ÑĮÐ·ÑĥÑİÑĤÑģÑı": 7623,
      "ĠÐľÐ¸Ðº": 7624,
      "ÐļÐ½Ð¸": 7625,
      "ĠÐ·Ð°Ð´ÐµÑĢÐ¶": 7626,
      "Ġ1907": 7627,
      "ĠÐĲÑĢÐ¼ÐµÐ½Ð¸Ð¸": 7628,
      "ĠPl": 7629,
      "ii": 7630,
      "ĠÐ¸Ð½Ð²ÐµÑģÑĤ": 7631,
      "ĠÐŀÐ³": 7632,
      "ÐµÐ¼Ð±": 7633,
      "ĠÑģÐµÑĢÐ¸Ð¹": 7634,
      "ĠÐĺÐ»": 7635,
      "ove": 7636,
      "ĠÐ½Ð°ÑĩÐ¸Ð½Ð°ÐµÑĤÑģÑı": 7637,
      "ĠÐĿÐ°ÑĨÐ¸Ð¾Ð½Ð°Ð»ÑĮÐ½Ð¾Ð³Ð¾": 7638,
      "ĠÐ½Ð¾Ð²ÑĥÑİ": 7639,
      "ĠÐ½Ð¾Ð²Ð¾Ðµ": 7640,
      "ĠÐĲÑģ": 7641,
      "ĠÐ¸Ð³ÑĢÐ°ÑĤÑĮ": 7642,
      "ĠÐĵÐ°": 7643,
      "ĠÐ°ÑģÑģÐ¾ÑĨÐ¸Ð°ÑĨÐ¸Ð¸": 7644,
      "ÑĩÐ¶": 7645,
      "1985": 7646,
      "ĠÑĩÑĥÐ²ÑģÑĤÐ²": 7647,
      "ĠÑģÐ»Ð¾Ð²Ð¾": 7648,
      "ĠÐºÐ²Ð°Ð´": 7649,
      "ĠÑİÐ³Ñĥ": 7650,
      "Ð°Ð¼ÐµÐ½": 7651,
      "ĠÐ¿Ð¸ÑģÐ°ÑĤÐµÐ»ÐµÐ¹": 7652,
      "ĠÐ´Ð¸ÑģÑĨÐ¸Ð¿": 7653,
      "Ð²ÐµÑĢÑħ": 7654,
      "ĠÑĢÐµÐ»Ð¸Ð³": 7655,
      "ĠÐļÐ½Ð¸": 7656,
      "Ð²Ð°ÑĢÐ´": 7657,
      "ĠÐ²ÑĢÐµÐ¼ÐµÐ½Ð°": 7658,
      "ĠÐ½Ð°ÑĨ": 7659,
      "Ð£ÐºÑĢÐ°": 7660,
      "Ð¾ÑģÑĤÐ¾ÑıÐ½": 7661,
      "Ð»Ð¸ÑĪÐºÐ¾Ð¼": 7662,
      "ÐµÐ¼Ð¸ÑĢ": 7663,
      "ÐĽÐµÐ½": 7664,
      "ĠÐ°ÑĤÐ»ÐµÑĤ": 7665,
      "Ð¾Ð´Ñĥ": 7666,
      "ÐµÐ²ÐµÐ´": 7667,
      "Ð°ÑĤÐµÐ¼Ð°ÑĤ": 7668,
      "ÃĹ": 7669,
      "ĠÑģÑĤÐ°ÑĤÐµÐ¹": 7670,
      "ĠÐ¿ÐµÑĢÐµÐ¸Ð¼ÐµÐ½Ð¾Ð²Ð°Ð½": 7671,
      "Ð°ÑĤÐµÐ»ÑıÐ¼Ð¸": 7672,
      "ĠÑģÐ¾Ð·Ð´Ð°Ð»": 7673,
      "ĠÐ²Ð¾ÑĪÐ»Ð°": 7674,
      "XV": 7675,
      "ĠÐ¾ÑĤÐ¿ÑĢÐ°Ð²Ð¸Ð»ÑģÑı": 7676,
      "ÑīÐ¸ÐºÐ¸": 7677,
      "ĠÐ¿Ð¾ÑģÐ°Ð´": 7678,
      "ĠÐ·Ð²ÑĥÑĩ": 7679,
      "ows": 7680,
      "ĠÐ°Ð²Ð¸Ð°ÑĨÐ¸Ð¸": 7681,
      "ĠÐ²Ð²": 7682,
      "ĠÐ±ÑĢÐ¾Ñģ": 7683,
      "isch": 7684,
      "ĠÑĤÑĳÐ¿Ð»Ð¾Ð³Ð¾": 7685,
      "ÐŁÐ¾ÑģÐ»ÐµÐ´": 7686,
      "Ð°ÑĤÐºÐ¸": 7687,
      "ĠÑĤÑĢÐµÑħ": 7688,
      "ĠÑģÐ¾Ð·Ð´Ð°Ð½Ð°": 7689,
      "ÐµÐ·Ð¶": 7690,
      "ĠÐ½Ð°ÐºÐ°Ð·": 7691,
      "ÐŀÑģÐ½Ð¾Ð²Ð½ÑĭÐµ": 7692,
      "ĠÐ£ÑģÑĤ": 7693,
      "Ġ$": 7694,
      "que": 7695,
      "ĠÑģÐ¾ÑĢÐµÐ²Ð½Ð¾Ð²Ð°Ð½Ð¸ÑıÑħ": 7696,
      "ĠÐ¾ÑĢÐ³Ð°Ð½Ð¸Ð·Ð°ÑĨÐ¸Ð¹": 7697,
      "Ġ42": 7698,
      "1980": 7699,
      "ĠÐºÐ¾Ð½ÑĨÑĥ": 7700,
      "ĠÐ´Ð²Ð¾Ð¹": 7701,
      "ĠÐĽÐµÐ½Ð¸Ð½Ð³": 7702,
      "ĠÐ¾Ð·Ð½Ð°ÑĩÐ°ÐµÑĤ": 7703,
      "ĠÐĲÑĢÑħÐ°Ð½Ð³ÐµÐ»ÑĮ": 7704,
      "ĠÐ¿Ð¾Ð´Ð³Ð¾ÑĤÐ¾Ð²ÐºÐ¸": 7705,
      "ÑĨÐ²ÐµÑĤ": 7706,
      "ĠÐ¸Ð³ÑĢÐ¾ÐºÐ°": 7707,
      "Ð¾ÑħÐ¾Ð´": 7708,
      "iet": 7709,
      "ĠIntern": 7710,
      "ÐĶÐµÐ¼": 7711,
      "ĠÐ½Ð°ÑĥÑĩÐ½Ð¾Ð¹": 7712,
      "ĠÐ¢ÑĢÐ¸": 7713,
      "ĠÐĽÐ¸Ð¿": 7714,
      "ÐĲÐºÑĤ": 7715,
      "ĠÐ¿ÑĥÐ»ÐµÐ¼": 7716,
      "Ð´Ð°Ð¼": 7717,
      "ĠÐ¸ÑģÑĤÐ¾ÑĢÐ¸ÑĩÐµÑģÐºÐ¸Ñħ": 7718,
      "ĠÐºÐ¾Ð¼Ð¿Ð¾Ð·Ð¸ÑĤ": 7719,
      "ĠTe": 7720,
      "ĠXXI": 7721,
      "Ð¤ÐĲ": 7722,
      "ÑĢÐ¾Ð¿Ð¾Ð»": 7723,
      "ĠÐ¸Ð»Ð»Ñİ": 7724,
      "ĠÐ½Ð°ÑħÐ¾Ð´Ð¸Ð»Ð°ÑģÑĮ": 7725,
      "ĠÑĤÑĳÐ¼": 7726,
      "ÑĭÐ²Ð°ÑİÑĤÑģÑı": 7727,
      "ĠÐĴÐ°ÑĢÑĪÐ°Ð²": 7728,
      "ÑĤÐ¾Ð½Ð°": 7729,
      "ĠÐŁÑĥÑĪ": 7730,
      "ĠÐºÐ³": 7731,
      "ĠÐ¾ÑĢÐ³Ð°Ð½Ð¸Ð·Ð¾Ð²Ð°Ð½": 7732,
      "ĠÐ²Ð°Ð»": 7733,
      "ĠÐĶÑĢÐµÐ²": 7734,
      "ĠÐľÐ¾ÑģÐºÐ²Ñĥ": 7735,
      "Ġ55": 7736,
      "ĠÐŀÐŀÐĿ": 7737,
      "ĠÐ³ÐµÐ¾Ð³ÑĢÐ°ÑĦ": 7738,
      "ĠÑģÐµÑĢÐ²": 7739,
      "ĠÐ½Ð°Ð¼ÐµÑĢ": 7740,
      "ĠÑģÐµÐ¼Ð¸Ð½": 7741,
      "ĠÐ»ÐµÐ¹ÑĤÐµÐ½Ð°Ð½ÑĤ": 7742,
      "Ð¸Ð½Ð³ÑĤÐ¾Ð½": 7743,
      "ĠÐĴÐµÑģÑĤ": 7744,
      "Ð¾Ð»Ð¾Ð³Ð¸ÑĩÐµÑģÐºÐ¸Ð¹": 7745,
      "ÐĸÐ¸Ð²": 7746,
      "ĠÐ¿Ð¾ÐµÐ´Ð¸Ð½": 7747,
      "ĠÐĳÑĢÐ¾Ð½": 7748,
      "ĠÐ¾ÑĤÐ´ÐµÐ»ÑĮÐ½ÑĭÑħ": 7749,
      "ĠÐ´ÐµÐ¿ÑĥÑĤÐ°ÑĤ": 7750,
      "ĠÐļÐ¾Ð¼Ð°Ð½Ð´": 7751,
      "Ð°ÑĤÐµÐ»ÑĮÐ½ÑĭÐµ": 7752,
      "ĠÐ´Ð¸Ð°Ð¼ÐµÑĤ": 7753,
      "Ð¾ÑıÐ·ÑĭÑĩ": 7754,
      "ĠÐ¿Ð¾Ð²ÑĢÐµÐ¶Ð´": 7755,
      "ĠÐ¿Ð°ÑģÑģÐ°Ð¶Ð¸ÑĢ": 7756,
      "ĠÑįÑĤÐ°Ð¿Ðµ": 7757,
      "ĠÑĤÐµÑĢÑĢÐ¸ÑĤÐ¾ÑĢÐ¸Ñİ": 7758,
      "ĠÐŁÐµÑģ": 7759,
      "ÐµÐ»ÑĮÑģ": 7760,
      "ĠÑģÐ¾ÑĢÐµÐ²Ð½Ð¾Ð²Ð°Ð½": 7761,
      "span": 7762,
      "ĠÐ¿ÑĢÐ¸Ð»Ð¾Ð¶": 7763,
      "ÑĢÐµÐ·Ð²Ñĭ": 7764,
      "ĠÐ±Ð¸Ð±Ð»Ð¸Ð¾ÑĤÐµÐºÐ°": 7765,
      "ĠÐ·Ð¸Ð¼Ð½Ð¸Ñħ": 7766,
      "ÐŁÐ¾ÑĩÑĳÑĤ": 7767,
      "ĠÐ¼Ð°ÑĤÐµÑĢÐ¸Ð°Ð»": 7768,
      "ÑĢÐµÐ·Ð²ÑĭÑĩÐ°Ð¹": 7769,
      "ĠÐºÐ¾ÑĢÐ°Ð±Ð»ÐµÐ¹": 7770,
      "ĠÐŀÑģÐ¾Ð±": 7771,
      "ÑĪÐ°ÑıÑģÑı": 7772,
      "ĠÐ¶ÐµÐ½Ð¸Ð»ÑģÑı": 7773,
      "ĠÐ¼Ð¸Ð»": 7774,
      "ĠÐ·Ð°Ð¼ÐµÑģÑĤÐ¸ÑĤÐµÐ»ÐµÐ¼": 7775,
      "ĠÐ²ÑģÐ»ÐµÐ´": 7776,
      "ĠÐ½Ð°Ð·ÑĭÐ²Ð°ÐµÑĤÑģÑı": 7777,
      "sh": 7778,
      "Ð¸ÑĢÑĥÑİÑĤ": 7779,
      "ĠÑĥÑģÑĤÐ°Ð½Ð°Ð²Ð»Ð¸Ð²": 7780,
      "ĠÐ¿Ð°ÑĢÐº": 7781,
      "ĠÐĳÑĥÐ»": 7782,
      "ĠÐ½ÐµÐ½": 7783,
      "ÑĥÑĢÐ¸": 7784,
      "ĠÐĳÐ¾Ð»Ð³Ð°ÑĢÐ¸Ð¸": 7785,
      "ÐĿÐ°ÑĨÐ¸Ð¾Ð½Ð°Ð»ÑĮÐ½ÑĭÐ¹": 7786,
      "ĠÑĢÐ¾Ð¼Ð°Ð½Ð°": 7787,
      "ĠÑģÐ¾ÑģÑĤÐ¾ÑıÐ»": 7788,
      "ÐµÑĨÐºÐ¾Ð¹": 7789,
      "ÑıÐ½ÑĥÑĤ": 7790,
      "Ð±Ð°Ð»": 7791,
      "ĠÑĤÐ¾Ð¿Ð»Ð¸Ð²": 7792,
      "ym": 7793,
      "ĠÑĦÑĥÐ½ÐºÑĨÐ¸Ð¾Ð½": 7794,
      "ÑĥÑĩÐµÐ½": 7795,
      "ĠÐĶÐ°Ð³": 7796,
      "ĠÐ¿ÑĢÐ¸Ð²ÐµÐ»Ð¾": 7797,
      "ark": 7798,
      "ĠÐ¨Ð²ÐµÐ¹ÑĨÐ°ÑĢÐ¸Ð¸": 7799,
      "ĠÑĢÐ°ÑģÑģÐ»ÐµÐ´": 7800,
      "ĠÐ·Ð°Ð²Ð¾Ð´Ðµ": 7801,
      "ĠÐºÐ¾Ð¼Ð½": 7802,
      "ence": 7803,
      "Ð¾Ð½ÑģÐºÐ¾Ð¹": 7804,
      "AS": 7805,
      "Ð½ÑĥÑĤÑĮ": 7806,
      "ĠÐ·Ð²ÑĥÐº": 7807,
      "ĠÑĢÑĥÐºÐ¾Ð¿": 7808,
      "itt": 7809,
      "ÑĬÐµÐ´Ð¸Ð½": 7810,
      "ĠÐ´Ð²Ð¾ÑĢÐ°": 7811,
      "Ð¡Ð¢": 7812,
      "Ð¸ÑĢÑĥÑĢÐ³": 7813,
      "ale": 7814,
      "ĠÐ±Ð°ÑĤÐ°": 7815,
      "ÐĲÑĤ": 7816,
      "ĠÐ®Ð³Ð¾ÑģÐ»Ð°Ð²": 7817,
      "ĠÐ¾ÐºÑĢÑĥÐ³Ñĥ": 7818,
      "ĠÐĵÑĢÑĥÐ·Ð¸Ð¸": 7819,
      "ĠÑħÑĥÑĤ": 7820,
      "ail": 7821,
      "pp": 7822,
      "ĠÐºÑĢÐµÐ¹Ñģ": 7823,
      "ĠÑĪÐµÑģÑĤÐ¸": 7824,
      "Ð½Ð¾Ð¿": 7825,
      "ĠÐ¸Ð½Ð´ÐµÐºÑģ": 7826,
      "ĠÑģÑĤÐ°": 7827,
      "ĠÑıÐ´ÐµÑĢ": 7828,
      "ĠÐ¿ÑĢÐµÐ´ÑĥÑģ": 7829,
      "ĠÑģÐ»Ð°Ð±": 7830,
      "ÐºÐ°Ð»": 7831,
      "ĠÑģÐ¾ÑĩÐµÑĤ": 7832,
      "ÑĥÑįÑĢ": 7833,
      "ÐľÐ¾ÑģÐºÐ²Ð°": 7834,
      "ĠÐ²Ð¾Ð·Ð²ÑĭÑĪ": 7835,
      "Ð¾Ð±Ð½Ð¾Ð²": 7836,
      "ĠÑģÐ»Ð¸ÑĪÐºÐ¾Ð¼": 7837,
      "Ð¾Ð¾ÑħÑĢÐ°Ð½": 7838,
      "ĠÐ¿Ð¾Ð»Ð¸ÑĤÐ¸Ðº": 7839,
      "ĠÐ±Ð¾Ð»ÑĮÑĪÐ¸Ð¼": 7840,
      "ĠÐ¼Ð½Ð¾Ð³Ð¾Ð»ÐµÑĤ": 7841,
      "ĠÐ²ÑĭÐ²": 7842,
      "ĠÐļÐ¾ÑĢÐµ": 7843,
      "Ð°Ð¼Ð¼": 7844,
      "Ð°ÐºÐ¸Ð¸": 7845,
      "ÑĥÐ»ÑĮÑĤÑĥÑĢ": 7846,
      "ĠÐ¿Ð¾Ð»ÑĥÑĩÐµÐ½Ð¸Ñı": 7847,
      "ÐĳÐ°ÑĢ": 7848,
      "ĠÐĳÐ¾Ð¶": 7849,
      "ĠÐłÐµÐ´": 7850,
      "ĠÐ¿Ð¾Ð¿Ð°Ð»": 7851,
      "ĠÐ±Ð°ÑĤÐ°Ð»ÑĮÐ¾Ð½Ð°": 7852,
      "ĠÐ¢Ð¾Ð³Ð´Ð°": 7853,
      "Ð°ÑĤÐµÐ»ÑĮÐ½Ð¾Ð³Ð¾": 7854,
      "ÐµÐ»Ð¸Ñı": 7855,
      "Ð¾ÑĢÑıÐ¶": 7856,
      "ĠÐļÐ°ÑĢÐ»Ð°": 7857,
      "Ð»Ð¾Ð¿": 7858,
      "ĠÐ¿Ð¾Ð´Ñģ": 7859,
      "ĠÐ²ÐµÐºÐ¾Ð²": 7860,
      "ÑĥÑĢÑĤ": 7861,
      "ĠÑģÐµÐ»ÑĮÑģÐºÐ¸Ð¹": 7862,
      "Ð¾ÑĩÐµÑĤ": 7863,
      "ĠÐ½Ð¾Ð²ÑĭÐ¼": 7864,
      "Ð¾Ð¿ÑĢÐ¸Ð¼ÐµÑĩÐ°ÑĤÐµÐ»ÑĮÐ½Ð¾ÑģÑĤÐ¸": 7865,
      "ÐºÐ¾Ð²ÑĭÑħ": 7866,
      "ĠÐ¥Ð¾ÑĤÑı": 7867,
      "ÑıÐ½Ð²Ð°ÑĢÑı": 7868,
      "âĦĸ": 7869,
      "ĠÐºÐ°ÑĤÐµÐ³Ð¾ÑĢ": 7870,
      "ĠÑĤÑĢÐµÐ½ÐµÑĢÐ¾Ð¼": 7871,
      "Ð°Ð»ÑĮÐ±": 7872,
      "Ð¾Ð²ÐµÑĢÑĪ": 7873,
      "Ð¸ÑĢÑĥÐµÐ¼": 7874,
      "Ð¿Ñģ": 7875,
      "ĠÐ²ÑħÐ¾Ð´Ð¸Ð»": 7876,
      "Î±": 7877,
      "ĠÐ¾ÑģÑĤÑĢÐ¾Ð²Ð¾Ð²": 7878,
      "ĠÑĢÐ°Ð·Ð½Ð¾Ð¾Ð±ÑĢÐ°Ð·": 7879,
      "ĠÑģÐ¿ÐµÑĨ": 7880,
      "ĠÐ°Ð²ÑĤÐ¾ÑĢÐ°": 7881,
      "ĠÑĥÐºÑĢÐ°Ð¸Ð½ÑģÐºÐ¸Ð¹": 7882,
      "ĠÐ°Ð´ÑĢÐµÑģ": 7883,
      "ĠÑİÐ½Ð¾ÑĪ": 7884,
      "ĠÑģÐ¾Ð²ÑĢÐµÐ¼ÐµÐ½Ð½ÑĭÑħ": 7885,
      "ĠÑħÐ¾Ð·ÑıÐ¹ÑģÑĤÐ²": 7886,
      "Ġ1904": 7887,
      "ĠÐ¿ÑĢÐ¾Ð²ÐµÑĢ": 7888,
      "Ð¾Ð»Ð¾Ð³Ð¸ÑĩÐµÑģÐºÐ¸Ðµ": 7889,
      "ĠÑģÐ¿ÐµÑĨÐ¸Ð°Ð»Ð¸Ð·": 7890,
      "ÑĢÐµÐ³Ð¸ÑģÑĤÑĢ": 7891,
      "ÑĤÐµÑĢÐ½Ð°ÑĤÐ¸Ð²": 7892,
      "Ð³Ð¾Ð´Ð°Ñħ": 7893,
      "ÐĲÐ¹": 7894,
      "ĠÑģÐ°Ð¼Ð¾Ð»ÑĳÑĤÐ°": 7895,
      "ĠÐ°Ð²ÑĤÐ¾Ð¼Ð¾Ð±Ð¸Ð»": 7896,
      "ĠÐ½Ð°Ð³ÑĢÐ°Ð´Ñĭ": 7897,
      "ĠÐ¿ÐµÑĢÐµÐ´Ð°ÑĩÐ¸": 7898,
      "Ð°ÑģÐ»ÐµÐ´": 7899,
      "ĠÐ½Ð¸ÑĩÐµÐ³Ð¾": 7900,
      "ĠÐ²Ð¾ÑģÑĤÐ¾ÑĩÐ½Ð¾Ð¹": 7901,
      "Ð»ÐµÐ¹ÑĤÐµÐ½Ð°Ð½ÑĤ": 7902,
      "ĠÐ°ÑĢÐµÑģÑĤÐ¾Ð²Ð°Ð½": 7903,
      "ÐºÑĢÐ°Ñģ": 7904,
      "Ð¡Ð¾": 7905,
      "Ð»Ð°Ð¶": 7906,
      "Ð¸ÑİÐ»Ñı": 7907,
      "ĠÐ²ÑĭÐ½ÑĥÐ¶Ð´ÐµÐ½": 7908,
      "ĠÑįÐºÑģÐ¿ÐµÑĢÑĤ": 7909,
      "ĠÐĺÐ³Ð¾ÑĢÑĮ": 7910,
      "ĠÐ°Ð¼ÐµÑĢÐ¸ÐºÐ°Ð½ÑģÐºÐ°Ñı": 7911,
      "----": 7912,
      "ĠÑĤÐµÑħÐ½Ð¾Ð»Ð¾Ð³Ð¸Ð¸": 7913,
      "ĠÐ±Ð°ÑģÑģÐµÐ¹Ð½Ð°": 7914,
      "Ð°ÑİÑīÐµÐµ": 7915,
      "ĠÐ¾ÑĤÑĢÐ¸ÑĨ": 7916,
      "ÑıÑİÑĤÑģÑı": 7917,
      "Ð¾ÑĢÐµÑĩ": 7918,
      "ĠÑģÐ°Ð¼ÑĭÐ¹": 7919,
      "ĠHist": 7920,
      "ĠÑģÐ²Ð¸Ð´ÐµÑĤÐµÐ»ÑĮÑģÑĤÐ²": 7921,
      "ĠÐ¾ÑĤÐ²ÐµÑĩ": 7922,
      "ĠÐ¼Ð¸ÐºÑĢÐ¾": 7923,
      "ĠÐ½ÐµÐ±Ð¾Ð»ÑĮÑĪÐ¾Ð¹": 7924,
      "ĠÐ¨Ð°Ñħ": 7925,
      "ÐľÐ°ÑĤ": 7926,
      "ĠÐ²Ð°Ð³": 7927,
      "ĠÐ»Ð¸ÑĤÐµÑĢÐ°ÑĤÑĥÑĢÐµ": 7928,
      "ÑĭÐ²Ð°Ð»Ð¾ÑģÑĮ": 7929,
      "ĠÐ±ÑĢÐ¸Ð³Ð°Ð´": 7930,
      "ĠÐĴÐµÐ½Ð³ÑĢÐ¸Ð¸": 7931,
      "ĠÐ¿ÑĢÐµÐ·Ð¸Ð´ÐµÐ½ÑĤÐ¾Ð¼": 7932,
      "ÐĺÑĤ": 7933,
      "ÐµÐ´Ð°": 7934,
      "Ð¸ÑģÑĤÐ¸ÑĩÐµÑģÐºÐ¾Ð¹": 7935,
      "na": 7936,
      "ĠÐ¿ÐµÑĢÐµÐ²Ð¾Ð·": 7937,
      "Ð¸ÑĩÐ¸": 7938,
      "ĠÐºÐ»ÑĥÐ±Ðµ": 7939,
      "ĠÑĤÐ¾Ð²": 7940,
      "ĠÐ¾Ð±ÑĬÑıÐ²Ð¸Ð»": 7941,
      "ÑĪÑĤÐ°Ð±": 7942,
      "Ð»ÐµÑĢÐ°": 7943,
      "Ð¢ÑĢÐ°Ð½ÑģÐ¿Ð¾ÑĢÑĤ": 7944,
      "ĠÑĦÐ»Ð°Ð³": 7945,
      "ĠÐĺÐµÑĢ": 7946,
      "ĠÑĢÐ°Ð±Ð¾ÑĤÐ°Ð»Ð¸": 7947,
      "Ð°ÑĳÑĤÑģÑı": 7948,
      "ÑĢÐ¾ÑģÑģ": 7949,
      "ĠÐłÐµÐ²": 7950,
      "ĠVII": 7951,
      "ĠÐ·ÑĥÐ±": 7952,
      "ĠÐĶÐ¶ÐµÐ¹": 7953,
      "ĠÐ½Ð°Ð´Ð¿": 7954,
      "ĠÐ¡ÑĢÐµÐ´Ð½ÐµÐ³Ð¾Ð´Ð¾Ð²Ð°Ñı": 7955,
      "ĠÐ²Ð¸Ðº": 7956,
      "ÑĥÐ½ÑĮ": 7957,
      "ĠÑĢÐµÑģÑĥÑĢÑģ": 7958,
      "ÑģÐ°Ð¼Ð±": 7959,
      "ĠÐĺÑģÑĤÐ¾ÑĢ": 7960,
      "ĠÐ³Ð¾ÑģÑĥÐ´Ð°ÑĢÑģÑĤÐ²ÐµÐ½Ð½Ð¾Ð¼": 7961,
      "ĠÐ¿Ð¾Ð»ÑĥÐ¾ÑģÑĤ": 7962,
      "ĠÑģÑĤÑĢÐµÐ»ÐºÐ¾Ð²Ð¾Ð¹": 7963,
      "ĠÐ¼ÐµÐ½ÑĮÑĪÐµ": 7964,
      "ĠÐ¼Ð»Ð½": 7965,
      "ĠÐĴÐ¾Ð»Ð¾Ð³Ð¾Ð´": 7966,
      "BC": 7967,
      "Ð¾ÑĤÑĥ": 7968,
      "ett": 7969,
      "ĠÐ´Ð¸Ð°Ð³": 7970,
      "ĠÐ¿ÑĢÐ¸ÑĢÐ¾Ð´Ñĭ": 7971,
      "ĠÑĥÐ³ÑĢÐ¾Ð·": 7972,
      "1942": 7973,
      "ĠÐ½ÐµÐ¾Ð´Ð½Ð¾ÐºÑĢÐ°ÑĤÐ½Ð¾": 7974,
      "ĠÑģÑĢÐ°Ð²Ð½ÐµÐ½Ð¸Ñİ": 7975,
      "ĠÐĲÐ±ÑģÐ¾Ð»ÑİÑĤÐ½Ð°Ñı": 7976,
      "ĠÐ¢Ñĥ": 7977,
      "ĠÐĺÑĢÐ»Ð°Ð½Ð´Ð¸Ð¸": 7978,
      "ĠÐŀÐ·": 7979,
      "ĠÑĢÐ°ÑģÑħÐ¾Ð´": 7980,
      "ĠStud": 7981,
      "ĠWh": 7982,
      "Ð¸Ð»ÑĮÑģÐºÐ¸Ð¹": 7983,
      "Ð°ÑĢÑģÐºÐ¾Ð¹": 7984,
      "ĠÐ¼Ð°ÐºÑģÐ¸Ð¼ÑĥÐ¼": 7985,
      "Ð»Ð¸Ð·Ð°Ð²": 7986,
      "ĠÐ²ÐµÑĢÐ¾ÑıÑĤÐ½Ð¾": 7987,
      "ĠÑĥÐ³Ð¾Ð»Ð¾Ð²": 7988,
      "Ð¾Ð»ÑĮÑģÐºÐ¾Ð¹": 7989,
      "ÑĳÑģÑĤ": 7990,
      "ÐµÐ²Ð¸ÑĩÐ°": 7991,
      "ĠÑģÑħÐ¾Ð´": 7992,
      "ÐµÑĢÐ´": 7993,
      "ĠÑĦÐµÐ´ÐµÑĢÐ°Ð»ÑĮ": 7994,
      "ĠÐ¿ÑĢÐ¸Ð²ÐµÐ´": 7995,
      "Ð¸ÑĤÐµÐ»ÑĮÑģÑĤÐ²Ð°": 7996,
      "Ð¢Ð°ÐºÐ¶Ðµ": 7997,
      "ÑĭÑĢ": 7998,
      "ĠÐºÑĥÐ»ÑĮÑĤÑĥÑĢÐµ": 7999,
      "Ġby": 8000,
      "ĠÑĢÐµÐµÑģÑĤ": 8001,
      "ĠÐ¿Ð¾ÑģÑĢÐµÐ´": 8002,
[...]
